ff
f1
04
f5
18
00
01
fd
04
fe
fc
f5
09
b5
f7
0b
f4
06
03
00
09
ff
6a
ff
05
f9
0a
f5
fc
f9
f2
a8
fd
08
00
04
0c
f7
fb
fd
45
03
f8
fc
02
ed
02
14
0a
bf
f6
08
f4
f3
03
07
f9
12
6a
00
01
0d
07
fc
07
05
0a
49
03
06
01
ff
01
03
f8
fd
61
0a
01
02
09
fe
01
01
06
9c
fd
ff
05
01
0f
f8
00
0d
64
f0
f6
fb
09
0b
f8
fc
f2
60
fb
fe
fb
fc
fd
05
ff
01
db
07
00
05
01
00
02
f2
08
1d
06
fd
02
05
07
0f
05
00
27
fa
fe
fd
07
fa
0f
0b
fb
d5
f9
fd
0a
f3
ff
fa
01
0d
ec
fe
03
f1
fa
fd
0e
fb
06
c7
0e
fe
02
04
07
f9
fc
0a
e9
f4
05
fc
02
ff
03
fe
fd
63
fe
f5
fe
02
05
fb
02
06
9f
0d
01
fd
08
fd
03
ff
fb
e7
07
fd
0f
08
0a
ff
f9
09
d9
0b
00
f5
09
f4
ff
fe
f9
d6
00
01
07
01
fc
05
02
00
1b
03
fe
fd
0f
08
f8
f5
07
e1
fe
01
ff
f7
f3
fb
09
f2
a0
f7
ff
f9
f4
10
fd
06
05
5f
ea
07
fa
fc
06
06
fb
04
c8
05
f7
06
0d
07
06
00
f5
e4
fa
f2
f4
fb
09
fb
0c
04
2f
fb
01
01
fb
fd
fa
f7
0f
00
03
06
ff
14
fa
f8
fc
09
d7
09
f5
00
fa
08
f5
02
0e
e3
f4
f6
fe
fb
fe
03
fa
fe
f7
fd
06
f6
fb
fe
f9
fe
03
61
0b
08
02
0c
00
f6
00
03
c3
fb
fe
02
fc
07
ff
f2
01
9a
f3
04
0a
08
05
0b
05
fb
24
f8
03
fe
ff
00
ff
fa
0a
e6
02
ff
fa
07
f2
02
f9
05
13
f6
f7
f9
ff
fd
01
f5
f3
f0
f8
00
01
f6
fd
01
fe
fa
1f
00
02
04
ff
f1
f8
04
02
f3
0c
01
fd
08
fd
01
f9
f6
f5
fa
03
03
f6
f3
01
01
01
c2
00
07
fc
fa
fd
f9
01
06
6c
05
f5
07
02
00
fb
fb
00
04
fd
0b
10
f3
07
02
07
03
9e
f9
fd
ff
01
f8
ff
fc
0b
8b
f2
06
02
01
f0
fc
06
fe
44
f1
02
03
fd
04
01
fb
fd
e1
f8
fd
00
fc
03
0e
02
02
33
00
0c
f7
10
06
07
12
03
a4
01
fb
03
f5
fb
03
05
01
69
01
08
f9
04
00
f6
00
f8
60
06
00
fe
f6
f7
fd
f8
04
a6
01
fe
f3
fe
0c
fb
0c
f9
fb
01
fc
01
f8
fe
f8
ef
07
46
05
02
04
0b
04
08
f0
09
24
f2
fc
02
04
02
03
06
f5
27
fa
ff
f8
f9
f8
f6
ff
0c
16
05
f4
07
07
fd
fc
f7
03
94
04
fe
03
fc
f9
fb
07
05
4d
06
f5
fc
05
ec
00
05
f7
ce
0d
ff
0d
fc
fc
fa
03
f7
2d
fd
f8
fe
07
fd
fb
0a
05
b4
fe
fd
0a
f1
fd
03
06
fb
e8
00
0c
f6
02
ff
03
07
fd
09
04
0e
ff
07
0d
f9
f4
09
b9
fe
fe
00
0b
fc
07
fe
0d
0d
ee
02
02
f7
05
ff
fd
f7
0c
05
01
08
f8
13
ff
ff
0f
c0
f8
fe
05
fa
fe
ee
fb
0c
0c
fa
00
0e
f2
fd
00
09
fd
2d
0b
07
08
05
09
fd
fe
04
e4
fc
04
f7
03
f6
04
05
fa
6c
fc
03
f6
02
0a
03
04
fd
17
01
00
08
f8
ed
01
0a
01
cf
fd
fa
07
06
fb
01
f5
fd
62
0f
fe
f9
06
03
11
01
0b
b9
f4
08
09
05
ff
fe
03
03
62
f7
05
06
fb
0e
ff
02
f9
a1
0b
f5
0f
01
00
02
f6
07
43
f6
02
fe
03
05
02
fd
f7
9c
f7
03
f9
ff
03
fb
00
fd
8e
02
ff
fa
f8
ee
08
00
13
ef
f7
ff
ff
07
05
05
fe
f7
d6
03
f7
02
f5
05
f8
10
00
2e
fe
01
09
f7
f3
09
f8
04
2a
fb
03
0a
0c
fd
f7
03
05
aa
08
fc
03
04
01
03
09
04
32
0c
0a
01
04
fa
ff
f3
09
10
fc
03
ff
fd
0a
f8
03
03
e1
05
03
fc
01
ec
fc
09
f5
af
08
08
f6
05
0a
fe
0e
09
41
fd
ff
03
ef
fd
0d
fe
fc
9a
02
05
00
f7
fd
fd
ff
f8
cf
10
00
ff
fb
00
03
05
07
d5
01
f1
0b
07
04
06
fe
ed
eb
08
fc
fc
ff
04
fe
01
fb
68
00
08
01
0c
00
00
f8
07
04
06
03
06
fb
f1
05
f6
00
5f
f7
ee
f8
08
00
f6
04
06
fa
03
01
01
f3
08
04
fe
01
47
01
03
fc
03
01
fc
ff
fc
59
01
fb
fb
fc
06
fc
ff
05
6c
f7
05
09
03
02
09
fa
f8
55
ee
f7
f8
0a
fe
02
04
0a
4b
05
06
07
08
02
fc
ff
fe
5c
fc
fb
fd
fe
fd
fd
07
fc
2e
0c
fa
fa
0a
fe
f4
fa
04
9c
00
07
fe
09
fc
0c
fe
07
54
05
fd
04
04
09
fb
f6
f9
1d
0f
fa
03
03
0c
f8
fd
fe
b0
07
0f
fa
03
fc
02
fb
00
46
02
ff
f6
02
0c
00
f7
02
aa
06
f9
fa
ff
0e
f6
fa
fc
43
08
fe
f2
0f
01
11
fc
17
d3
07
f8
fb
06
f8
0d
07
fa
57
fc
ef
fc
f9
03
05
0b
07
c8
05
f9
0a
00
f1
0a
fc
03
24
0a
ff
fc
05
fb
05
05
fe
ae
05
01
0a
f3
fa
f9
02
ff
58
0b
0a
0c
f9
03
03
ff
08
be
03
fa
f3
04
07
00
01
fe
24
fb
00
06
ff
fe
07
f7
f3
34
0f
fc
02
09
06
f5
09
fd
0f
fc
06
01
fc
04
0b
0a
05
e3
f8
fc
f2
11
fb
05
06
07
e7
f8
fe
f8
fa
fd
09
fe
fc
50
fb
00
fd
05
08
f5
14
fb
96
fa
01
fd
04
fd
fd
03
fa
0a
ff
00
ee
00
fb
03
02
03
3b
0a
f3
05
ec
05
fb
06
fe
46
03
02
03
05
ee
ff
ff
03
36
03
fa
02
f1
0c
00
ff
09
ac
f6
03
fd
fb
03
fe
00
f2
b4
0c
00
00
fd
ff
00
fb
fa
be
02
fb
f2
0a
f9
f8
fc
0b
bd
f8
05
f7
03
07
fb
fe
06
39
03
fa
fd
03
03
fe
ff
0a
cd
04
fd
fb
01
08
05
fd
fd
a5
09
05
fa
fb
f8
fb
ff
f9
9e
00
fc
05
0e
07
fb
04
00
45
08
fe
05
f6
00
f8
fd
02
1d
fd
0f
f5
fa
ff
0c
f5
00
92
f8
fb
ee
f3
fe
f3
f9
00
a2
01
ff
01
fa
01
00
09
07
d4
fc
07
01
e7
f9
f9
f7
02
77
f6
0c
05
fe
05
07
00
03
15
fa
09
f5
02
03
03
fd
04
fd
04
f5
0d
07
02
01
fa
08
30
fe
fb
08
fe
06
01
fd
04
ab
fc
08
ef
fe
01
fe
05
03
c2
f7
f7
fc
fc
07
ff
01
03
2f
fe
fb
f9
fc
08
03
fc
01
ca
06
01
0d
03
01
02
fa
0f
6e
fc
10
00
f8
fb
fc
06
f7
27
fe
fa
ee
01
08
07
fc
f5
f2
fe
01
07
03
f9
11
fa
04
6d
0d
02
09
f9
f8
07
fb
03
e4
0f
fc
0a
f7
fe
fe
fb
f8
7f
0a
fa
03
03
ff
0f
04
03
53
09
06
03
01
05
ff
fc
f7
5a
f1
05
01
ff
fb
f8
09
f3
30
03
01
f5
00
fc
03
fe
ff
8b
06
06
fd
00
f8
fe
02
ff
39
fe
f1
04
04
08
07
02
fb
94
01
00
04
fa
08
03
00
02
17
03
04
f6
09
02
09
fa
f5
2b
03
ff
eb
f4
fe
fe
f7
f6
b6
02
07
04
02
0b
ff
f9
fe
50
fa
09
fe
ff
0a
06
fa
03
ed
ff
11
ff
03
ee
07
f4
0f
29
07
fa
f5
fd
f5
fc
00
02
58
fe
05
f5
fa
01
fc
06
fa
c4
f5
ff
02
fb
02
0a
fd
f8
b7
08
08
08
fd
01
05
f5
f2
c6
07
04
fd
fc
04
f9
03
ff
c4
fb
f7
f7
fd
0a
03
03
0a
c7
ff
00
00
08
02
fc
f9
fd
0f
02
00
02
07
07
00
03
f7
9c
0d
fe
04
02
f8
fa
06
06
f8
05
fe
00
07
01
08
f3
00
45
07
04
fc
f8
08
fb
fa
fb
32
ff
07
07
02
f9
fc
01
f8
1f
04
fd
03
ff
f4
ff
f9
fa
48
06
fe
03
f7
07
ff
04
fd
ac
fe
f8
f5
06
f9
ee
fc
03
d9
01
04
0d
00
f9
13
f5
f9
d2
0b
fe
07
03
08
0c
fd
ff
54
fe
00
fb
f3
f7
fe
01
02
65
07
08
07
f8
f8
f6
fd
04
68
06
fa
01
f8
fc
02
f5
f1
37
fc
06
f7
fa
fc
02
f6
03
fa
f6
0a
f8
01
fc
fa
05
05
08
ff
ff
0a
f3
fc
fd
04
fd
c6
06
fd
fc
0b
0c
f6
f8
fc
25
f9
06
ff
fd
ff
0a
04
fd
b1
0e
ff
03
08
01
04
00
03
b5
01
03
0c
f9
00
07
fa
0a
48
00
ff
02
fa
fb
05
fd
07
97
f9
08
fe
10
02
01
fc
03
61
ff
07
fb
03
ff
03
01
f5
61
fa
f7
00
f1
06
00
02
f8
d9
fd
05
06
ff
fe
01
fe
0c
e1
06
fb
05
0b
fd
fe
04
0d
d2
fd
f6
01
01
08
fa
03
fe
ea
01
02
f9
f5
08
fb
07
06
d1
02
ff
09
fb
fd
0a
0e
01
92
f8
03
0f
fd
05
01
ff
10
69
07
fa
fb
02
04
fe
03
00
ca
ff
fc
04
07
07
0a
13
08
b6
09
fd
0c
08
00
fa
07
05
0e
fc
0b
01
08
03
fb
f9
f1
c7
00
ff
f4
fe
0a
08
02
fd
2a
05
fc
f8
02
f7
ff
f9
10
8b
fb
09
06
f6
f7
01
f9
f9
96
fd
fc
fd
06
fe
08
0a
fd
78
02
01
fd
05
fd
fc
ff
07
eb
fc
03
f7
03
f6
fb
fc
06
0c
03
fa
f6
0a
06
07
fd
08
4c
0a
f4
02
f8
00
f9
ff
ff
9a
ff
ff
f4
fd
0a
04
0c
07
08
fb
04
03
02
fe
03
fc
01
e4
00
0b
fe
fd
fe
09
ff
fa
aa
f2
fe
fb
04
06
f7
09
fe
f3
f4
fb
03
02
fb
02
00
06
53
fe
05
fb
01
00
0e
f8
ff
87
07
00
02
fb
03
fb
00
f5
18
f8
fd
ff
03
fc
0c
fd
f4
b6
fe
07
fc
f9
fd
00
05
f9
74
f8
08
ff
04
fe
05
00
f2
e4
f8
01
01
06
f0
04
f8
f5
5b
ff
ff
09
0b
fc
0b
fa
0b
9a
04
05
fb
fb
fa
ea
fe
0c
d1
03
fd
01
f0
f4
f7
ff
ff
13
f3
01
fe
ff
0a
00
0f
f1
c9
f9
02
07
03
00
fd
fe
01
4a
f7
fc
02
08
0a
ff
fc
00
59
0a
02
fb
fd
0e
f8
06
fd
d7
ef
04
fc
ff
f8
02
f5
f1
07
fa
04
fe
00
fe
03
fd
f8
e9
05
05
02
07
f3
f8
05
02
ac
04
f4
0b
f7
01
00
00
03
bd
f7
02
f6
fd
02
f9
01
ff
d8
03
ff
06
fe
07
05
fd
01
fc
f9
05
fe
01
02
f7
0f
07
b5
f8
03
07
f8
f7
fe
03
0e
09
f9
fc
fe
01
05
06
0a
05
47
fd
ff
05
06
fb
00
fe
08
f4
07
fe
07
f9
f8
fe
09
fa
71
fa
fd
08
fd
fc
0e
fb
07
27
06
05
fc
04
fc
fd
03
05
be
f4
fd
fd
f9
f7
fd
00
f5
1f
f8
08
fb
fe
ef
fd
fb
f8
e9
04
06
02
0b
ef
01
ff
03
21
02
00
fd
0a
fb
fc
fd
fd
e2
09
02
00
04
fb
03
05
06
bb
06
03
04
fc
05
f8
f8
08
15
ff
fe
04
fa
f7
f8
11
fd
d7
f4
00
fe
01
03
02
03
f5
eb
03
fb
07
ff
f7
ff
f5
08
f3
ff
fe
00
04
ff
fd
fd
0d
d9
0c
f8
fc
fc
0b
0a
04
06
dd
f8
fa
08
06
0d
fe
09
07
66
f9
03
f6
f7
01
f7
07
f8
11
08
04
0a
f3
04
ff
0a
f7
38
ff
06
fd
fe
08
09
f9
02
42
02
fd
03
00
f7
08
f5
16
33
03
ff
f5
03
00
02
08
03
5b
fe
01
f8
fe
ef
f4
07
f6
4c
f8
02
0e
f3
eb
12
03
0b
ac
09
04
06
fa
fe
fd
fe
09
ad
fb
fd
00
07
0b
fe
0c
08
a3
02
f8
fb
fc
01
01
05
04
a3
04
0a
fb
06
f2
fc
f1
f8
95
fa
fa
04
08
fa
03
0e
ee
c2
0f
01
00
f3
f9
fe
01
00
4c
06
fc
01
0e
f8
04
f7
04
a9
f9
03
fb
08
02
ff
03
f1
d8
03
03
0d
fd
fd
02
fc
ff
e5
03
05
f7
01
fa
f2
03
fd
03
f3
07
f6
ff
0f
01
06
06
40
06
f7
fa
0a
00
ef
03
03
39
00
09
fc
04
ef
01
07
08
c8
07
07
fe
01
0b
07
f6
05
d9
fe
f3
08
01
ff
0c
0a
f9
4a
07
02
fb
f8
fe
07
0a
06
2f
06
00
05
fd
03
03
09
01
04
01
06
0e
ff
f8
09
18
f7
79
02
07
07
09
fe
04
fd
0e
36
f1
12
f4
09
10
01
f7
f5
ee
01
f8
01
fa
ff
0e
02
f8
52
fc
f7
fb
fd
ff
f3
fa
00
1d
00
fd
fc
f5
fc
f7
06
fc
46
f9
05
fd
05
07
ff
06
e2
c6
fc
01
f8
fb
01
f9
fc
03
a7
06
14
06
fd
f8
00
fb
0c
a0
03
fd
07
0a
00
02
f7
02
d4
00
02
08
02
f8
0c
03
01
d2
fb
ff
f9
fe
04
f9
08
f6
dd
fe
fe
fc
fa
05
fa
f9
02
4e
f5
02
ff
05
03
08
f9
fc
fd
05
f1
01
04
fe
01
00
f5
a5
f7
09
f5
f9
08
03
e7
fc
d1
fb
03
f6
04
00
f5
f5
fe
b6
f5
f9
f5
03
00
08
02
03
b1
02
fa
07
fe
07
fe
f5
02
39
f9
fe
fd
f9
f2
03
f4
03
56
fd
fb
f9
00
02
03
07
03
f9
05
fe
0c
00
0a
f5
08
f5
58
0d
fc
06
00
f4
09
04
f6
b0
fd
02
fb
01
05
f9
08
f9
d5
06
05
06
05
fb
05
f6
0c
c5
04
f3
0b
01
fa
00
09
fa
f1
e9
fd
f9
fb
f9
fe
02
0a
01
07
00
0e
03
f9
0b
05
00
13
f9
04
00
00
fd
fc
0d
ef
4d
fe
07
ff
fc
fa
06
03
02
9b
01
ff
ff
fd
03
04
06
f4
62
fb
fd
ff
fe
fa
ff
fa
0b
0f
01
fd
fc
fa
f9
04
02
02
56
fa
03
f4
f8
fc
fb
09
f7
25
01
05
02
02
04
00
f3
ff
b1
01
fd
f6
02
09
f8
fb
07
b1
fd
08
02
02
04
03
fc
ff
e7
02
03
05
09
06
00
f8
08
9c
f7
fe
00
fb
05
fd
fc
0e
0b
fe
f6
03
ff
fb
fe
05
00
61
05
08
f8
0a
f7
03
00
f7
f6
f7
fb
00
03
fc
fd
08
fd
35
02
00
f8
f7
0d
f5
f8
07
21
0b
fd
04
fc
f0
07
00
0c
94
02
02
fa
f9
07
02
07
05
41
0c
fe
fd
02
f9
0c
0b
00
fe
fd
fc
ff
07
f9
fd
05
06
41
ff
04
06
04
fa
ff
0b
ff
9d
ff
fc
ff
f7
ff
fe
07
fe
d2
f7
03
fc
06
f7
f9
00
03
3b
ff
0d
f6
f3
f7
fd
0d
0c
d6
06
0c
12
04
fb
02
00
09
94
0b
04
0d
f9
03
fc
04
00
b8
03
f1
04
07
00
08
05
ff
bd
fe
ff
f4
06
02
fe
fd
04
43
02
f9
00
fe
fc
fe
f7
00
d5
fa
f8
f0
f8
08
f9
06
f5
c3
06
08
f7
fc
01
fe
fc
13
03
fd
02
05
03
fe
05
02
ff
f8
ff
f9
f9
fd
fb
f9
06
f5
52
0e
07
f5
f8
0c
05
f3
ff
40
f9
fe
fe
03
02
08
0a
fb
c7
ff
fc
06
06
07
06
06
fa
1a
01
fb
01
fe
07
02
0d
00
29
f4
ff
f8
f9
0c
01
f5
f9
02
fb
01
fe
fc
fd
fe
f9
ff
bd
05
00
0a
fd
03
02
0c
04
10
11
fc
fe
fb
fa
04
02
f6
d5
fa
03
04
06
0c
06
08
f4
01
07
06
fb
ed
02
f9
02
0f
ad
fc
03
00
f9
02
fc
05
f8
0f
05
01
07
0c
f5
ff
f5
f2
d1
f9
01
0d
0d
fe
f8
01
06
b3
f6
fc
fe
f7
ff
f8
f7
08
24
fe
08
06
07
ef
fd
f1
f9
ef
06
09
0d
05
08
0a
04
f8
a0
fb
03
fc
00
03
02
fe
f7
19
01
01
06
13
0b
05
fd
ff
e2
fb
fd
f4
fd
0f
01
fd
f7
c9
ff
0a
fc
05
f9
f4
0a
fc
67
00
03
10
02
00
ff
fb
fe
2e
01
fd
04
ff
fe
ff
fe
ff
f3
fd
f7
fc
f1
04
ff
fc
04
58
fe
06
fa
fe
08
ff
07
01
0e
f7
fb
fb
f8
fc
08
0a
fe
de
01
ff
f9
08
0d
fa
f6
fc
aa
ed
0e
0b
fb
f3
07
01
0a
d8
05
eb
02
05
07
ff
0d
08
e3
fa
f8
05
f6
f9
03
f7
f8
99
fe
00
02
fe
ff
04
01
f3
bc
07
01
00
ff
09
06
09
00
31
f7
f6
f6
fd
f9
06
fb
f4
ff
02
fd
fc
00
01
f6
00
0c
29
0b
13
08
fc
0e
04
0d
07
a8
fd
fe
04
fd
07
07
fd
fd
e5
f5
00
09
fe
ff
00
06
fe
bb
00
00
00
fd
04
ff
05
f8
e3
fc
fc
10
08
0a
fa
f8
10
9d
fb
f9
05
08
fe
0e
fe
fa
0d
fc
09
03
fb
fe
ff
02
ff
03
02
0d
fa
01
fe
0e
06
fc
9e
f8
00
fc
fa
09
fd
00
f8
19
0b
f2
06
05
08
fd
fa
f3
54
f8
02
01
07
f9
fe
fb
06
ef
00
fd
02
fc
f7
f7
f8
01
36
03
08
03
fa
f9
f9
ee
04
30
02
0b
0b
fe
f8
04
f4
fb
e7
ef
05
f9
05
ff
07
12
ec
43
0a
f2
00
06
07
fd
03
fc
e1
f1
0b
00
00
06
ff
05
0d
c1
03
08
fb
ff
06
0b
fe
f2
29
04
03
0e
09
05
00
f9
ee
46
f3
00
07
02
07
fe
f9
f4
18
0b
ff
07
04
f0
01
fa
02
c3
13
f9
05
0a
0f
07
09
fc
e2
01
01
03
fe
01
f8
fb
01
be
0e
0e
fd
ff
fe
09
ff
fb
15
f4
09
fd
f3
fb
04
fc
f6
d5
fc
03
01
07
0b
f7
03
04
47
ff
f8
03
f4
02
06
04
f5
64
fc
f7
03
00
fe
05
01
03
bd
fd
fc
00
fd
06
00
04
fb
e2
02
ff
fe
fa
ff
ff
09
ff
e0
fc
fb
09
fe
f5
07
fe
fa
ba
03
02
03
07
f7
f7
fc
f3
95
f0
f6
f9
03
ff
02
11
10
5b
f7
01
00
06
08
0e
0d
f8
f3
fd
00
00
f5
01
fc
02
03
03
f1
f6
00
f9
06
00
0c
f3
4e
f4
f7
04
08
02
04
01
00
10
06
ff
fc
04
f8
02
03
f8
f5
f9
fc
07
ed
01
f8
f6
f6
de
fc
fa
05
04
08
07
02
07
da
03
f8
02
f7
02
02
02
02
b9
f9
fe
f6
04
0b
ec
02
f6
93
00
f9
fc
01
f5
fd
f6
fb
0d
04
fa
09
ff
f8
fa
00
02
99
fc
ff
f6
fe
04
00
fa
fc
94
02
07
03
06
fd
fe
f9
f6
9e
10
fb
02
03
03
09
05
00
c5
f7
fc
08
fa
0a
03
ff
fb
3d
01
09
0d
0f
0a
ff
fd
04
52
f1
f6
f5
fa
09
fc
fd
f6
ed
f9
f0
10
05
fc
02
02
f6
c2
08
fc
06
f9
08
04
fc
fc
17
f5
02
fd
04
f9
09
f9
03
db
03
f7
ff
f2
01
04
fc
09
23
ef
12
02
fc
03
01
00
00
9b
01
03
fe
00
ff
ff
0f
0a
73
03
07
08
09
04
fd
01
03
9d
f6
f6
04
01
fd
04
04
01
e1
09
ff
f4
00
fe
ff
10
01
3e
ff
00
02
fc
f7
0b
02
fd
e1
fb
f5
fe
f8
f7
09
00
fb
e2
03
fc
06
05
00
11
03
08
9b
01
f6
02
fb
f7
09
06
04
dd
f6
f8
08
03
0d
03
f9
fb
ee
0a
02
fe
fc
f7
05
14
f9
4c
08
04
fb
fa
06
f1
03
f3
b2
fd
f4
ff
05
f3
fd
03
f7
c7
02
00
0c
01
f8
fc
01
fd
34
0a
06
01
fd
0d
ff
03
fc
bb
09
00
fe
fe
00
07
08
03
a2
04
f4
fe
02
fe
01
01
0f
24
07
0b
0e
04
fe
00
07
05
c1
fe
fa
07
03
15
00
01
00
fc
fc
f5
14
03
f7
f7
04
00
0f
05
06
01
f4
04
0c
06
06
97
ff
0f
f4
05
0c
fc
f8
fd
31
03
f6
f6
fd
05
03
01
f8
e3
07
fa
ff
04
0d
fe
07
0a
bb
14
08
01
fd
e6
fe
ff
fc
6d
05
ff
fe
04
fa
ff
fe
f7
c3
fd
04
01
fa
06
08
07
1a
1c
fb
04
ff
02
00
f1
04
fb
cc
02
06
06
01
0e
0e
fe
fa
0a
f9
fe
ff
f6
06
f9
f1
03
c0
f6
ea
04
02
09
fd
ff
fd
b8
01
03
09
08
0b
fa
08
01
39
04
fc
0a
07
0a
06
fb
14
aa
f0
fe
00
04
fd
01
05
fe
a0
01
01
f2
fa
fb
08
fc
01
f2
0f
03
f2
07
07
00
fc
07
a8
07
fc
ff
f4
ea
03
fb
f1
11
00
f2
05
fa
04
0f
0a
00
48
0d
03
ff
06
07
04
fd
06
0f
fe
02
00
fd
fe
f7
01
f9
eb
f4
f8
ff
08
03
06
11
ec
55
15
01
fa
00
02
fc
fc
03
b2
03
fb
06
03
00
05
fa
0a
59
f6
09
01
01
02
06
fc
01
c7
03
fe
ff
01
f6
02
fd
06
ba
03
05
02
f4
fb
09
ff
08
61
f4
00
f8
fe
f9
ff
ff
f8
2d
f5
f9
03
fd
fd
07
f7
ff
21
05
fc
f6
01
fc
f8
01
f6
e0
fd
0a
06
fb
ff
f8
ff
fa
1b
02
fd
fd
fe
fd
f3
fc
fb
36
07
fd
04
fd
01
0c
05
07
72
00
09
05
09
fe
fb
f7
fd
2b
fb
f6
05
00
fc
fb
00
f7
2a
ff
fc
ff
07
01
00
04
0b
04
01
04
fe
07
04
fc
fb
02
db
f6
05
08
00
00
0e
f9
03
01
fb
fc
f4
fd
07
0a
03
08
f9
08
fb
f3
fc
03
fa
fd
f8
a8
03
fd
f2
01
fe
04
fe
00
05
04
03
03
fd
05
f7
ff
04
62
0e
fd
00
fd
f9
fc
05
fd
d3
05
f4
02
02
f4
f8
f7
06
34
00
ff
02
f3
04
fc
05
01
2d
0b
04
fb
0a
fc
02
03
fc
e6
0f
0d
fc
ff
09
08
00
fc
75
fc
0b
0f
06
f9
0b
fc
08
51
f7
02
14
f8
02
ff
00
01
ff
fd
fe
fc
03
fb
0f
ff
03
8f
fb
fc
f7
fa
0a
fb
f8
ff
a3
01
06
fb
fa
f8
fb
fc
02
e5
ff
fd
0c
fd
01
06
f7
fb
a0
00
f7
fa
ff
05
05
f4
fb
e6
f6
06
06
fe
f8
03
00
fb
53
fd
fd
03
fe
08
f7
00
fd
2c
f7
fc
12
ff
ff
0e
00
f8
2c
f5
fe
03
10
08
f7
03
02
a4
07
01
fb
fe
fc
ff
f9
01
e8
01
ff
09
fe
06
09
02
fa
37
01
09
fe
0b
fe
f6
f6
fa
5e
fb
01
01
0c
01
fa
01
0a
57
00
f5
02
fc
0d
f9
f7
02
36
fd
0a
fa
06
0d
02
00
03
29
02
02
ed
04
01
01
01
00
a9
fa
eb
08
05
0f
f8
05
fe
af
03
ff
ff
f6
01
01
08
03
ed
ff
01
fc
f7
fb
0b
04
f4
fe
f9
fc
09
fe
f9
03
01
fd
a2
07
00
fe
08
05
fe
fb
0b
2a
fd
08
fb
01
ff
02
05
f9
9c
06
04
08
08
fd
f7
08
f5
cd
ff
fc
fd
08
07
02
fc
02
2a
f9
fd
fd
0b
f9
f8
fe
ff
b0
0a
f6
04
0e
09
07
07
05
91
f8
ff
fa
04
0a
f8
fb
fe
f7
fb
08
01
06
f6
05
f7
02
f8
fa
fa
05
06
fe
f9
01
ff
6a
fb
f4
02
f0
f1
06
03
00
fe
08
fe
04
fe
0a
fa
03
f8
e5
07
08
f8
0d
05
07
01
fa
49
fc
f9
0b
0b
06
ff
fc
05
15
04
0f
f8
03
fd
fe
f9
fd
d9
fa
01
f9
08
09
fe
ff
01
ba
fc
00
06
0a
ff
08
07
fe
5e
fe
0d
fb
f8
08
01
00
02
42
f1
03
04
0b
07
13
04
0e
4a
06
06
fd
08
fd
18
0f
0f
1c
02
ff
fb
fb
fe
04
0a
f4
4a
f5
fa
04
fa
f7
01
04
0b
a8
ff
f5
01
f1
ff
fd
0a
f7
1b
03
00
07
00
f8
02
00
fc
9e
fd
fb
fb
07
0c
01
e8
ff
b0
ff
0e
05
ff
f9
ff
00
f7
67
f6
f5
f8
ff
01
fb
ff
02
51
ff
08
04
f2
01
fd
fd
08
f6
f1
ef
08
03
00
fd
01
fc
cb
f7
00
f7
ff
ee
fc
00
fb
e6
08
01
f7
fd
fe
fe
02
f5
19
fe
ff
f8
03
f1
f9
06
fd
34
04
00
fa
09
fa
f9
08
ff
a7
fe
fe
00
fb
02
08
fe
0b
00
01
ff
0e
fb
08
ea
f1
fa
f7
f7
0a
01
04
04
0b
f8
ff
9a
03
fc
07
01
fe
f6
fe
fe
2e
ee
f6
07
ff
fb
f8
00
f4
2b
f9
02
fd
f6
02
00
f5
fe
6a
f9
02
00
02
f8
08
f9
06
47
08
f7
f8
00
08
03
02
05
d5
f9
01
ff
f7
f9
0a
08
06
38
04
02
08
03
0c
00
00
01
4d
fc
06
ff
ef
f5
fd
08
0f
0c
ff
f3
0e
f4
f6
0a
08
01
c4
00
f9
00
08
04
fe
fa
07
01
02
00
17
ff
f5
0e
ff
fa
99
03
03
0a
f9
00
ff
f9
08
c0
fb
fd
fd
fb
01
ff
05
00
ea
fe
01
0d
f8
f3
0f
fe
f4
ba
fe
ff
fe
fe
02
fd
09
f9
bd
fa
f2
09
ff
01
f7
fa
fb
56
fa
06
0c
fc
00
01
fb
fa
ab
fe
01
fd
04
03
fb
fe
f7
eb
f8
fe
01
00
00
fe
f4
08
b5
fc
fa
08
f7
f9
0a
f6
03
1f
ff
fb
07
fc
01
04
0c
f9
ce
09
fd
f4
08
fc
f8
01
03
b1
05
ff
0d
f9
07
ff
0b
f0
ae
f5
fe
fc
01
ff
01
03
f9
9d
05
fd
08
02
f8
0a
fc
0d
fc
05
03
0b
08
f6
09
fa
04
fb
00
fa
02
f9
0b
01
07
fc
d4
00
07
05
ef
fb
00
05
05
cb
01
f0
fb
04
06
03
00
04
cc
f1
fa
0e
02
03
fd
fa
06
c3
00
07
ff
01
ff
04
0e
06
e6
0d
f5
f8
07
fe
f1
00
f5
0b
12
03
ff
fd
fe
ff
fd
ff
98
07
fc
fd
fd
04
ff
f7
07
9f
02
f8
07
ff
ff
05
0d
04
51
10
04
00
08
fe
f2
fc
ff
c0
f8
ea
00
ff
02
07
fe
04
fa
02
07
fe
08
04
f7
0c
ef
ff
03
02
08
f2
09
06
f6
0f
09
f9
11
02
02
07
fa
01
00
55
fc
04
03
03
fb
fd
00
03
e3
fc
01
0a
fd
04
00
03
f6
ef
fd
00
f9
03
00
02
00
02
4c
ff
02
fc
fb
fb
f2
00
07
cd
00
03
11
fe
01
02
fa
f8
eb
fb
02
f1
fa
02
02
00
0d
ee
f7
fc
0c
fd
f7
08
f7
fc
ba
f5
0c
05
05
0a
f0
12
07
c1
f6
08
00
0c
03
07
ff
fd
01
fa
ff
00
00
f8
f5
08
01
54
00
05
fe
04
fe
f4
fd
01
17
fc
f6
09
05
0a
09
fc
09
cb
01
f3
05
04
f7
0b
06
f3
18
01
f2
fd
f6
07
f7
04
09
f0
05
0e
07
09
fd
03
07
fd
ba
01
f7
f8
02
fc
f9
fd
f5
46
03
f8
03
0b
07
fc
07
fe
15
07
ff
03
09
06
f9
05
07
51
03
03
04
07
f7
f5
f5
06
f7
fa
00
fd
f6
07
05
fb
fd
0d
09
03
fa
fe
01
02
fc
06
e8
0c
00
fb
06
fc
07
03
fa
2d
fe
02
05
fd
03
0b
01
f9
a5
fc
05
04
03
0a
f5
00
ff
98
f8
04
fd
01
03
fa
01
f3
85
02
04
0c
0b
f6
01
08
fe
cb
04
f3
04
fd
00
06
fa
f4
b6
f4
fc
0b
04
ef
fa
09
09
5c
ff
f8
fd
fd
ff
07
04
07
ca
f9
06
0f
01
00
f7
f6
fb
b5
fc
00
f9
fc
02
fd
05
02
f9
fd
0d
08
0b
f9
01
05
f5
04
02
00
fd
0e
0d
f9
ff
09
54
02
fa
f8
ff
fa
ff
08
f2
31
fd
f5
f6
fb
08
08
05
fc
c7
01
04
fe
01
fd
06
0b
00
ca
ff
ff
0d
0e
f9
00
fb
fc
ea
fd
04
01
fb
01
01
06
04
34
fb
03
05
08
05
08
f1
fd
56
07
f4
03
02
f7
fc
05
fd
db
fe
05
00
04
f6
f7
ff
ff
c5
ff
00
fe
fa
fb
00
09
02
9b
fe
08
04
fd
04
04
fc
01
bc
03
0c
09
00
fa
fb
fa
06
26
f4
01
ff
f8
fc
05
00
06
17
02
00
01
fb
fa
ff
0a
07
1e
fc
04
01
06
fb
05
fc
fe
56
fe
fa
ff
f7
f9
f7
01
05
5e
04
04
03
f6
f5
fc
01
fd
c7
fe
0a
03
02
f2
01
00
00
13
04
ff
03
04
fd
f9
fd
00
e2
03
0a
fc
05
00
ff
04
fe
42
02
fe
fb
fd
00
07
03
00
49
04
07
02
ff
fb
0b
07
01
be
fb
fe
11
08
03
10
f9
f3
ef
06
ff
0a
07
03
fc
07
07
2c
fa
04
fa
09
ff
02
fe
fc
be
f7
01
04
f6
fe
fc
f1
fc
a5
08
07
02
02
01
f9
f8
00
bd
f9
ff
05
f9
04
fd
02
0a
2d
ff
f4
f3
f9
08
fd
f5
05
6b
f7
f7
07
00
05
f8
0f
02
64
fd
05
f4
05
06
00
03
f5
24
05
0d
fe
01
ff
00
08
f6
5b
05
05
03
fb
01
f5
02
04
99
fb
01
07
ff
fa
00
00
fb
34
07
04
08
f7
fd
0c
fe
01
4f
fa
fd
08
fd
05
02
fd
fc
b8
fe
03
03
f7
fe
03
f9
f8
6c
03
fa
03
04
f9
03
00
01
5f
f5
04
04
00
f5
ff
0d
06
fd
09
04
08
fe
fd
f6
fa
03
ca
05
fe
00
06
04
f7
f6
10
f6
f7
03
f4
03
00
08
02
05
03
09
fa
f7
12
f9
ee
f4
f7
df
0c
01
01
04
fc
f3
f2
f6
40
09
07
fd
f2
f8
0b
0a
0d
6f
f4
01
ff
fb
01
04
02
0d
f3
00
02
07
18
f4
fc
09
10
12
02
fa
00
01
fd
07
f3
f8
e1
0c
09
fe
08
fb
08
0e
06
52
07
02
04
01
03
fc
0e
fe
ed
f9
00
ff
03
12
06
fd
f7
cd
0d
fb
fa
08
f6
fd
ff
fa
34
0c
01
f1
f7
f6
fa
04
02
bc
08
fa
f7
fb
03
02
02
0a
39
f6
00
0d
04
f7
04
04
f8
bf
f8
04
0c
f8
05
00
f9
06
4a
f4
04
fa
09
f7
f8
01
02
2c
03
fe
fc
08
ff
fe
fc
13
e8
fc
09
f0
0c
05
02
06
fb
df
f9
06
07
fe
fd
02
fa
00
a2
09
08
ed
04
f2
fe
03
ff
d4
f8
ef
05
02
08
fb
f8
05
b1
06
fe
ee
10
01
fe
ff
fe
23
fc
fa
06
06
ef
0a
00
02
4a
07
04
fe
08
07
00
fb
07
ab
00
06
fc
fc
fa
08
fc
ff
12
07
02
00
f8
00
fa
0b
fd
ea
f6
01
f9
f4
05
08
fa
ff
5a
fc
06
0d
03
04
07
f9
f6
19
fd
f6
ff
fc
f9
ee
07
06
57
ff
04
fa
f7
f9
f8
fb
0a
c7
09
03
0c
04
f9
09
04
07
ac
fe
06
f6
04
fe
0b
08
fc
c8
05
02
00
f6
f5
06
04
fe
3c
f9
04
03
f3
f7
0b
07
02
27
f7
05
f8
0a
ff
fb
06
f8
91
ff
fb
fc
fd
04
ff
0d
fa
25
09
f8
00
ee
01
00
04
fa
61
00
fb
01
fa
f6
f8
09
fe
17
fb
fc
03
f5
01
04
04
ff
d1
f7
fe
0a
f9
fe
03
04
00
3a
03
fc
f9
03
06
ff
07
fe
f3
00
04
f8
f9
ff
fd
ef
05
93
f3
02
fb
01
04
02
fd
05
61
03
ff
f7
0c
04
01
00
02
f0
02
fb
fe
06
04
03
00
fb
9c
07
05
fa
f8
06
fd
03
0b
30
0e
ff
fd
0a
0b
fb
fc
04
b1
fb
f7
06
fa
fd
02
07
fe
eb
03
06
ff
ff
07
06
fb
f9
a6
0e
fb
f6
f3
06
fe
ff
ff
fe
ff
fa
03
f5
ff
05
05
05
b4
fd
01
02
f6
fa
f1
f6
f8
9a
03
08
03
03
00
06
fc
fc
e9
fc
06
fd
f8
02
02
f6
00
77
fe
fb
06
08
03
11
04
08
20
fb
fa
01
fd
fc
03
f7
f9
9f
01
05
fc
fb
f8
0e
04
01
3f
03
00
f7
fd
09
f8
0f
02
4d
0e
05
fe
fb
fd
06
fc
fe
57
fc
fb
03
f9
04
03
f7
0a
cc
ff
0e
02
fd
fe
05
05
03
27
07
00
f5
00
00
06
02
f5
f9
fb
f9
00
fb
fd
fe
fe
fe
fe
03
07
05
f9
fa
f9
06
fa
b4
14
fe
0c
01
f8
f8
04
02
31
04
06
08
fe
f8
09
01
02
36
0d
04
05
00
05
f7
0b
f3
09
f7
0a
06
00
fc
fb
07
04
3e
07
fb
00
01
fe
00
fa
0b
1c
02
fb
fe
f8
fe
f7
fa
fc
56
fa
fe
fa
0a
fa
03
01
fd
07
01
01
0b
05
03
01
04
05
16
02
fd
fc
fd
07
fa
02
00
27
03
02
00
f2
f7
05
f3
f5
d2
fc
02
03
05
03
01
05
01
14
fe
02
02
01
fd
f9
fa
07
8b
0b
fd
ff
fc
f1
00
fa
02
65
00
00
00
02
fd
07
01
ff
90
0b
fb
fd
f9
fe
04
04
09
4b
f0
05
02
0f
fa
fa
0f
f6
a0
07
f5
0e
0c
00
f9
05
fd
d4
1a
03
07
09
02
04
0b
fb
f0
f5
f8
04
fd
0c
fc
ff
07
c0
f8
00
ff
04
02
f7
fc
f9
f1
09
f2
fb
03
05
fe
04
08
2a
fa
f8
00
07
ff
05
01
03
c5
06
09
f7
ff
fa
0b
fd
07
f5
03
04
05
ff
03
f9
04
fb
fe
02
fd
04
fe
f3
04
08
fc
cf
05
02
06
00
fa
fa
fa
f9
cd
05
fb
07
fa
05
00
fd
01
cc
ff
03
05
f4
00
04
fd
f8
b7
fe
ff
09
03
01
fe
fb
f3
db
09
01
03
fe
fd
01
02
07
45
10
fd
fe
fc
05
07
02
fe
cf
02
02
fe
00
fb
0b
ff
02
bb
ff
03
05
0a
fd
f7
09
08
dd
0b
09
ff
02
fa
02
f9
03
ec
f5
0d
06
fb
f9
f6
04
03
40
03
00
f8
04
fe
13
f7
f8
ed
03
f8
04
05
02
ff
00
0d
2f
00
fe
02
fd
05
04
02
fb
3a
02
0c
02
ff
03
f7
04
0b
e9
04
01
03
f9
05
00
fe
0a
4f
00
f8
10
f7
f6
ff
04
02
90
04
ff
fe
05
fd
ff
09
08
e6
ff
09
00
05
f5
05
03
fc
b9
06
fc
fd
01
fb
05
f9
fd
af
04
f6
02
03
ff
05
04
08
5a
05
0c
02
fa
01
09
fb
ff
f7
0a
fb
fd
0b
0a
fe
06
01
4f
fe
fc
04
0a
ff
f6
ff
fe
5f
fa
08
0b
01
fb
0b
fe
02
26
05
fa
06
0c
02
fa
01
03
fe
ff
07
07
00
fa
f7
ff
f9
b8
01
00
02
fa
f9
01
fc
07
b2
08
f9
0d
08
fe
ee
01
fe
65
01
03
03
07
fe
05
f9
fe
d0
03
f6
05
05
06
07
03
f0
f3
05
05
fc
fa
fa
fe
01
03
49
fa
f1
05
06
fd
02
04
fb
d9
01
12
f7
f7
01
0d
0a
01
c9
ff
03
f6
05
fe
fc
f6
00
4e
02
fc
fc
02
f8
fe
08
00
c5
00
08
f6
02
f6
06
0a
00
3f
00
09
fc
02
0b
0a
f8
00
ae
f6
f8
03
f7
05
08
04
fc
dd
01
fe
fc
fd
0a
fe
00
05
b3
f6
00
03
fc
ff
fe
ff
0e
2a
0d
f9
01
03
fe
09
06
02
c9
fa
f9
fa
00
01
fe
fd
fc
9a
fe
fd
03
02
f8
f8
f8
0b
66
f8
03
f7
f5
01
fd
06
0c
49
0b
0a
f8
fc
fb
ff
fc
05
de
ff
05
03
10
12
fb
fc
fe
0d
08
f8
09
fe
01
01
fc
08
39
0b
03
f6
f7
f5
03
01
09
9d
0a
f6
f6
fb
04
04
08
00
5a
ff
fe
0d
02
00
fc
00
06
b5
fe
06
f8
00
09
fd
05
06
54
fe
fb
f0
fb
fa
ff
09
f6
4e
05
f1
00
fa
fc
f0
05
fc
58
fb
fa
f9
00
f9
08
fb
02
97
ff
0e
08
04
03
04
06
04
05
0e
02
f7
0a
02
f8
00
04
99
06
f3
fd
fd
02
fd
f7
f7
67
04
06
07
04
f3
fe
fa
02
51
08
08
ff
fd
06
fa
0f
01
15
04
fc
fd
02
01
05
f9
01
58
07
0a
fd
0e
ff
fe
00
fa
20
fa
fd
f7
fb
fe
00
04
04
08
04
fa
02
fc
0e
02
fa
02
b2
f8
08
fe
03
02
fd
f8
00
a1
fb
f8
02
01
08
f8
03
09
39
01
00
01
08
06
f3
fb
07
e9
0d
03
fe
f8
05
00
04
05
9e
02
01
06
f8
f9
f1
08
fb
db
ff
09
ef
05
ff
fc
03
00
ce
fc
f9
00
f5
02
fa
fb
ff
c0
01
01
02
fa
00
fc
ff
00
96
08
f5
fc
07
0b
02
06
02
6d
03
0b
02
fa
fb
f7
fe
fe
da
07
09
04
09
fb
fb
04
fa
b8
fc
04
f7
ff
03
01
fc
fd
f1
04
f7
f9
00
08
06
06
00
9d
08
00
01
ff
07
f9
04
fd
db
fe
04
fb
fb
00
ff
01
f8
bf
ff
05
06
00
fb
0e
03
fd
74
06
fd
02
f9
02
01
06
05
d8
02
05
fc
f6
01
05
fa
05
f9
fc
02
ff
08
f9
04
07
fd
63
07
f3
01
0a
f8
ff
fb
ff
19
07
fa
03
03
0c
fa
f5
03
01
fe
0d
fc
f8
fb
05
02
ff
a2
02
f4
03
03
09
06
01
01
b7
06
f6
f6
07
06
f9
07
f4
ec
12
fc
fb
ff
02
fb
00
0f
5c
00
fd
fe
06
f7
08
03
00
4f
f9
fa
fc
03
0d
fb
08
fb
c7
02
04
02
03
00
04
02
03
24
fc
ff
09
0e
0c
00
00
0b
14
03
ff
02
00
fb
04
fa
01
2e
f9
01
03
03
0d
fb
f9
ef
19
12
00
01
00
f5
06
05
01
ff
fd
f7
01
fd
ff
f8
fc
fa
b3
f9
00
01
fe
06
fd
f0
fa
c0
fa
f4
f9
fe
fa
ff
04
fd
d4
f6
0b
03
fc
00
05
fe
fd
a9
f4
f9
fc
01
0b
00
fb
fc
ce
fd
fb
fd
fe
fd
ff
00
03
b5
08
09
08
07
02
07
fe
02
be
f7
08
01
0c
fc
fe
fc
ff
9c
fc
03
ff
07
fb
0a
fb
fc
0c
09
02
05
fd
07
08
01
fb
88
f4
03
ff
fe
00
ff
03
09
fa
fc
fe
ff
02
f1
03
fc
fc
21
fb
fe
03
05
03
f8
ff
fb
ae
06
03
01
f9
02
0c
00
06
ee
fe
fb
06
02
03
ff
fb
ff
c8
0d
f7
07
00
01
01
fc
0d
97
03
02
0c
0e
f8
fe
02
10
9c
04
f3
f8
01
fc
ee
06
f1
1f
fb
07
01
01
ff
08
00
fb
a0
02
02
00
01
0e
04
fb
fa
ff
fd
f7
06
01
03
12
02
04
ac
ff
fd
ff
08
04
03
06
04
a8
01
fb
f4
fa
ee
f6
03
fd
ea
00
01
f6
f7
fb
08
f3
04
aa
07
05
0b
04
05
01
03
04
a1
fd
f5
03
09
00
f7
06
03
30
04
ff
07
02
09
fb
02
06
52
07
fe
ff
f9
fb
06
fc
f7
5c
08
07
0b
fa
07
fc
08
fb
9d
0a
fc
04
01
fc
ff
f8
f8
55
06
05
03
f7
ee
10
f3
f5
fa
01
ff
04
04
0f
fe
03
04
ba
f7
f7
00
fd
04
13
02
f9
f4
f1
fd
fe
06
fd
fc
0e
f6
c9
fb
01
fe
00
0c
f8
f1
03
a4
11
f5
08
05
08
fc
fd
fd
ce
07
01
fe
f9
04
05
0c
fd
54
f0
09
09
0b
fc
01
f7
f8
9f
f7
f5
fa
09
01
04
04
0e
c3
fe
04
01
03
fe
0e
09
f9
e0
ef
fa
13
06
fd
fa
02
03
59
fe
02
06
01
03
02
fe
01
1a
f0
02
f9
04
fa
03
00
00
6c
fd
fa
02
03
05
06
fb
ea
b2
09
f4
fb
f0
00
fe
06
02
bf
0d
fd
0a
f5
fd
00
00
04
f8
00
fc
02
08
06
01
0d
fc
3e
f0
f1
10
05
f6
09
06
fe
ad
03
f7
0b
01
f3
04
01
06
3d
15
02
f5
ec
10
03
fe
02
e3
fa
fc
fc
f7
fb
04
00
fb
d7
05
fe
ff
0e
f2
10
04
04
6a
0e
fa
fa
00
fd
fb
fe
05
dc
ff
07
0b
ef
03
f0
09
fe
dc
01
fc
00
02
0a
f8
fc
fb
30
fd
ff
00
fd
f8
f8
07
fa
ab
f3
f7
0f
04
ee
0a
04
ff
cc
03
e5
05
fe
0b
07
fc
f3
d1
f6
fa
12
00
f9
fd
fe
02
cf
00
f6
07
03
03
00
ff
05
f5
fa
fe
08
fd
07
03
ff
fd
c4
f6
f6
06
fe
0c
06
fd
06
d1
fa
09
00
02
f9
0a
fe
08
4e
00
08
00
ff
03
10
08
02
4d
fe
f4
01
fd
01
02
fd
fb
98
f6
04
ff
02
fd
0b
02
01
b8
0b
02
03
03
fc
f9
01
fa
bf
fa
fc
09
f7
ff
f9
04
ff
3f
f4
07
03
02
fc
09
05
07
3a
fe
ff
05
fc
f7
0e
02
01
bd
05
03
fd
fd
01
03
f9
ff
18
01
fe
03
f3
0e
fa
05
ff
c0
0a
f6
01
fc
04
02
01
04
33
fe
fd
00
fe
00
f5
f7
05
ee
08
01
09
04
00
05
f6
fe
53
06
03
07
02
0e
f9
02
f4
e3
06
f9
06
fe
01
0b
07
f9
f4
05
fc
f4
01
07
f7
00
f9
e3
06
07
f7
fd
00
09
f5
08
24
00
f7
07
08
02
06
02
f2
44
09
fb
f2
02
00
00
08
fc
16
fe
13
03
f7
ff
01
fb
10
0a
fb
f9
fe
04
f5
01
05
f0
16
ff
fe
ff
04
f5
02
fc
f4
fe
ff
fe
fe
09
06
f6
fb
03
c9
02
09
0d
05
02
f6
07
05
13
f8
11
03
09
04
0a
fd
f4
0d
04
f4
04
f4
07
f6
fc
fc
28
11
08
fd
0a
00
fe
09
04
56
ff
02
05
05
00
05
01
03
21
06
fe
fd
03
02
04
08
fa
1c
02
00
00
0d
fd
fe
0c
07
ed
06
fa
04
0a
fe
09
f6
01
b7
06
f8
05
fb
f6
04
02
02
e7
ef
ed
fa
f7
fe
fc
f6
fd
c4
fd
05
fc
01
fe
0a
01
fa
db
09
f5
fc
fe
05
fa
f7
08
12
fd
00
06
01
02
f9
fa
f5
63
07
fc
04
fe
fc
08
05
03
25
f2
05
04
ff
fc
f7
07
0b
fb
f2
05
02
06
05
fd
ff
fb
f7
0b
f8
fd
06
05
ff
fa
fd
ea
fa
05
04
04
13
06
0e
0b
4f
f6
fd
fb
fc
fa
07
fe
f9
01
fd
05
02
fe
00
f6
0b
01
4c
fe
fd
f9
fd
fe
08
03
f8
a3
f4
00
fe
f8
0b
01
03
04
6d
06
f8
f6
05
f9
f5
eb
09
ef
ff
08
05
f6
ff
fd
fa
02
3d
f9
fa
f6
07
fe
05
07
01
0b
0c
ff
01
00
02
f7
ff
09
e0
fb
08
00
00
0b
f2
f7
03
db
fb
f7
fe
03
0f
f6
f4
01
c4
fe
f0
fa
03
07
04
07
fd
d1
fe
f9
f7
01
f8
04
fb
04
61
fb
0a
0e
03
f8
fe
f7
fd
48
0b
ff
fd
0d
09
04
07
f9
41
fe
fc
f4
fe
01
01
fd
fd
a9
01
08
03
fb
08
05
fa
f4
4b
fe
02
f9
f6
07
07
fb
0c
16
03
ff
00
01
05
f3
fe
03
bb
07
01
00
00
fb
03
f5
f9
5c
00
ff
ff
00
00
01
fd
07
ac
05
04
09
01
fa
09
05
03
45
ff
00
08
01
01
05
f4
08
f8
fe
02
fe
01
ee
0b
0a
f2
2d
00
fd
02
fd
04
00
06
f7
38
01
01
05
fa
f9
07
ff
07
fc
fc
fa
f9
05
fd
fa
0a
07
2f
fc
06
fd
f0
fe
09
08
f1
2f
fa
06
fd
06
fc
02
fc
00
5b
04
02
f8
11
03
08
10
f7
2a
0e
0c
ff
fe
00
10
07
01
2a
f6
f0
00
09
0b
f3
f6
0a
26
00
04
ff
f7
fc
01
ff
06
1d
03
f9
03
fc
fb
fb
06
05
c3
f6
fe
fe
fb
09
04
fc
09
69
f9
f7
02
05
07
fe
ff
f8
5c
ff
07
02
fe
00
00
f8
f8
20
fa
02
ff
fc
fc
fe
0a
08
04
0a
02
ff
f9
f7
09
06
09
c1
03
01
07
02
fb
f7
06
00
52
f7
f6
fd
02
00
fb
f9
09
b4
fd
fc
01
08
f4
00
05
05
13
08
07
01
07
f9
08
04
f9
9d
00
02
ff
fd
00
f9
f7
fa
6f
fe
00
f7
f5
fe
00
fd
fe
0d
05
fe
f4
ff
f9
05
fe
fe
13
0a
08
01
f8
02
fd
05
02
b3
fb
fc
0a
02
f5
07
0d
f5
e3
05
fd
03
09
06
fd
f9
07
30
02
fe
fc
fa
04
fc
fe
00
18
ff
02
f9
00
f2
fc
f4
0c
f5
09
ff
ff
00
fb
f8
fb
02
a7
fa
00
00
05
ff
04
ff
fe
9f
fc
f9
f6
ff
fc
f5
fe
06
16
fe
ff
fe
0b
01
09
fd
06
a2
06
ee
fa
fb
06
09
0b
07
58
00
04
03
01
05
fc
fd
0b
37
ff
06
0d
fb
fb
0d
02
04
f6
ff
fd
fa
03
06
01
02
0d
be
04
f9
0a
00
01
fc
fe
fc
54
00
fd
03
f4
01
03
fe
01
12
04
ff
0b
02
08
fe
f6
fb
72
fe
f8
fe
fe
fc
03
04
f6
44
f9
01
f9
f5
f7
02
fb
0e
65
02
11
08
04
