ff
f3
fd
06
da
02
01
00
fb
03
09
08
ee
50
02
f8
0e
11
11
04
07
00
c6
f8
03
fd
fe
fa
fb
ff
08
9b
fc
f8
03
0e
01
07
07
0c
fa
f9
05
07
ff
fc
0b
f0
02
28
04
f2
f2
0a
ff
fd
14
f6
67
05
00
ff
f4
f3
fa
10
f8
28
f3
0d
f4
fc
09
0e
f8
fd
a5
0c
f1
02
fc
fe
f6
0e
0c
20
f0
03
0d
03
f5
0b
fe
02
e6
03
fb
04
01
01
ff
ff
02
6c
fc
fc
06
fc
fb
05
f9
0c
ac
08
fc
f4
fb
fa
fa
04
02
e5
02
0b
05
07
01
0a
02
07
05
fd
fd
ff
0f
00
fd
fc
06
f3
fe
04
08
02
fd
04
ff
ff
0f
08
04
f9
0f
fa
03
0a
fe
e2
fd
08
ff
01
fd
fe
f7
f6
a5
04
06
eb
f6
fb
09
01
02
1a
03
00
05
f5
09
0b
06
fc
2e
fa
00
07
f9
f7
fd
01
ff
23
02
02
fd
fa
05
fe
ed
fd
4e
f7
fe
f6
03
07
09
fb
01
e2
03
03
11
fa
f8
fb
fb
fa
17
fb
f4
10
07
f9
01
f4
f9
c0
07
fa
f9
04
0a
07
f4
03
50
fc
fe
14
08
05
00
ff
0c
ac
02
06
f7
ff
08
0a
17
f7
3d
01
fa
05
f7
02
00
16
e7
1c
03
f5
fe
05
08
07
f4
07
a4
0e
02
f6
fd
f7
ed
f5
0f
0b
03
04
0b
04
f8
f3
fa
04
97
f3
02
01
0a
00
0b
00
ef
6e
f2
0c
f7
01
01
0f
02
fb
b8
09
f7
fb
fd
fc
12
fc
f6
d2
12
0c
02
ed
f9
03
fe
01
4f
fb
08
09
fa
ff
02
f6
07
30
fd
10
06
05
00
f7
ff
f7
9d
08
09
ff
01
ff
f5
fc
00
9d
fb
00
f7
08
03
f6
f8
f3
ec
10
02
f8
ff
f7
06
01
00
10
01
01
f4
0a
10
00
fe
09
b3
07
ff
07
fd
fa
fc
09
ed
67
05
0a
fb
02
ff
fd
f9
fb
c6
f8
03
f2
05
02
09
02
f8
29
f8
03
01
02
09
fa
fa
00
f1
03
03
fe
f4
f6
f7
fe
04
a9
f6
0c
0b
f8
00
0f
f8
01
e2
07
fa
f7
fb
07
02
09
fa
b0
06
03
0a
f3
05
00
01
05
b6
ff
fe
04
00
f5
fe
05
07
eb
ff
03
03
f3
0c
f7
fc
0b
be
0b
f7
04
ff
f7
f4
fb
09
c5
f9
fa
0e
f4
fb
00
fb
07
48
fc
f8
08
ff
ff
fb
04
fc
40
fa
fe
f9
07
03
06
fb
f7
ed
fa
fe
fc
ff
f8
fd
05
f7
8f
03
fa
fb
03
01
ff
03
f5
c3
fb
0b
07
05
03
07
fa
02
08
0b
ff
01
0c
01
01
f5
08
e9
ff
ff
03
f9
06
f7
0c
06
28
00
fe
06
f8
01
fa
04
fd
10
fa
f3
f6
0b
01
03
fd
05
c3
fb
0d
06
08
fe
ea
00
00
6c
0b
03
02
08
01
04
0e
f5
e3
fd
0d
00
01
08
0d
03
ff
d1
07
f1
f7
ea
01
0e
fc
f7
ab
0c
04
09
fb
09
fa
f7
08
51
f6
13
03
fc
00
00
f7
fc
5a
fb
10
fd
06
07
fc
06
f5
07
fe
f0
05
03
0d
fe
07
f8
c8
03
07
ff
02
f8
0f
03
fd
41
f5
ec
08
ff
ff
04
fa
fa
13
fc
00
08
ff
04
07
0b
fe
3e
02
09
fa
0d
fe
f7
01
ff
41
fb
f9
fd
06
ff
03
f1
0a
ef
04
08
0a
09
f6
ff
0b
ff
10
fd
15
fb
09
0d
f5
02
0a
43
f7
11
01
fb
fc
f9
09
03
96
fa
09
04
fb
f4
0e
fe
f7
de
03
04
f9
02
08
0f
08
fd
51
07
ef
03
ee
f5
f2
fa
08
1c
fd
03
fe
00
f7
06
00
04
81
05
03
05
f7
03
fa
fd
fa
3e
f3
08
02
17
03
f6
03
ff
03
0f
07
03
fe
06
f3
fb
f5
9e
0c
07
ff
fa
00
07
f6
f6
cb
ff
03
09
08
f6
07
0b
fe
90
fd
07
ff
09
fd
05
0c
f9
50
fb
f6
01
fe
02
00
0c
f8
b9
05
fd
06
05
04
0d
f2
f9
5b
18
f7
fe
00
07
0a
03
f6
21
05
f9
04
00
fa
fd
09
fd
d6
09
0b
f1
fa
f8
06
04
0a
41
0f
fd
f5
fd
0a
f8
fd
f6
e1
fc
03
01
05
fd
02
03
04
4b
f2
0c
fc
f3
0c
f2
01
fb
3c
ff
f6
07
0e
01
06
fa
fe
0b
05
07
09
0e
01
f7
03
06
16
fb
f9
f3
04
12
00
00
03
97
11
ec
fd
09
08
00
04
03
9e
03
f6
06
05
f4
fc
02
fd
93
fd
01
02
f9
fd
01
07
f3
d0
0a
02
fd
01
03
f8
f2
fc
1d
02
08
f4
08
f9
fe
01
fb
24
f8
fe
f2
08
ef
fb
02
fa
2d
f6
ff
02
fc
ff
07
f5
fc
d4
fd
05
0a
fa
0e
01
f9
03
9e
fa
fb
04
ff
ff
f4
01
08
c7
fe
03
fb
fd
05
02
02
fd
3d
fb
fa
fd
fa
fe
0a
02
fc
32
f8
f8
fa
ef
fd
f5
f6
f8
df
f9
01
f2
06
fc
f1
fe
05
61
fd
ff
f9
ef
04
05
f5
0b
82
07
f9
00
f8
ff
0a
fc
01
1a
09
01
03
0b
fc
f7
08
01
df
fd
04
fc
03
06
01
08
03
ab
f8
04
02
f8
01
00
06
fb
62
0f
fd
09
fe
02
0d
fb
f7
9e
f8
f7
06
f9
08
ed
00
07
90
0a
f7
ff
ff
f8
f8
01
fc
57
fc
01
fd
ff
01
fb
f8
05
03
fd
f2
05
f5
00
06
f6
06
d8
05
01
06
0f
02
0a
fc
03
be
05
01
f5
04
f4
06
04
09
4d
03
05
16
06
fd
fd
ff
04
17
fd
08
18
03
f9
f1
0a
09
68
fa
fe
ea
f7
00
00
05
fa
59
01
fb
fc
fc
02
fc
fe
fa
fd
04
0e
08
fe
03
f9
0c
02
f7
00
f3
fd
00
06
e6
03
02
5a
f6
06
ff
f9
0a
09
04
ef
5d
f7
fd
f7
01
03
09
f8
fc
52
fe
08
0c
03
06
fc
16
05
41
03
03
00
fe
01
04
ea
fe
60
0d
16
fe
04
04
f6
08
04
9c
f6
08
05
01
02
06
ff
0a
f0
0b
f6
01
f6
fd
1b
01
07
58
00
ff
05
0c
00
f3
09
f5
a9
03
f9
02
fa
fb
fd
0a
f8
68
02
03
f7
05
fb
f8
f9
06
9a
00
fa
ff
f5
09
07
04
f9
6c
fc
08
04
ff
0a
f9
0b
f7
77
fd
ee
f9
00
ff
02
10
05
df
fa
00
ef
0c
08
05
10
fd
a1
fb
00
ff
f2
fc
06
0b
03
26
f2
f9
f0
03
0b
f7
f4
f9
a7
02
08
fc
fd
fc
09
01
f4
23
f8
02
03
0c
09
fc
07
f1
3d
fe
fe
fa
0b
fe
0e
ff
f7
69
fe
07
01
0c
f3
07
fa
08
f6
fa
04
ef
01
f4
fc
fd
00
dd
04
f6
fa
01
f9
08
0d
07
6d
0b
fc
07
0e
fd
01
05
04
75
fd
f6
ff
fe
f7
02
f7
0a
05
02
10
f6
fe
00
ff
f7
f3
c0
f7
17
fe
06
01
0a
f6
04
64
fe
fd
1a
fd
f8
01
02
06
ec
08
fe
fa
02
08
06
fc
06
25
04
f7
07
f4
fa
f3
10
0f
54
fe
fc
fd
09
fe
04
00
fa
5e
08
f5
02
04
04
06
f6
f8
98
05
fb
08
02
00
0c
06
fc
52
ff
0a
fb
04
03
14
f2
ff
e0
f9
ff
03
00
00
12
f9
fa
3a
f7
ff
06
01
fc
f9
ff
fc
6b
04
f1
07
01
14
f2
0f
00
5b
04
f4
fb
ff
f9
04
f3
fd
c6
0c
fa
fe
fd
01
04
08
06
fb
07
03
ff
00
00
03
fc
fe
b8
00
ff
15
03
fe
f5
03
10
41
fb
fd
05
0b
f8
03
03
fe
3e
f9
04
03
fd
03
fa
05
06
24
ff
07
0c
06
02
0d
04
00
49
f6
05
ed
09
f9
04
02
0f
c6
e8
04
ee
f5
02
f6
fc
f1
f4
0d
0c
0a
fa
00
fa
f8
f8
ef
05
f7
f7
f5
f5
f6
ea
03
c5
00
03
0c
fc
00
f8
fa
fa
49
fd
03
ee
02
fe
0f
0a
0b
25
f9
ff
01
11
01
ee
0c
11
fc
f9
03
02
08
0b
ef
01
fc
ee
1a
02
f7
fe
ff
03
fa
f9
49
fb
f3
01
fe
f9
fd
01
0d
25
03
0b
06
01
fc
00
0a
fe
40
0b
fe
fe
f5
fd
fd
fd
09
cf
f9
f7
02
f9
0a
f3
f2
fd
a1
02
fd
09
f8
06
f4
f3
fd
41
04
fe
f2
fc
f6
fd
fa
f5
d9
00
f8
fe
18
fe
fb
05
fb
29
06
04
03
fd
fa
06
06
10
ee
ef
f7
03
fb
fa
0f
fe
11
31
03
f8
00
04
fa
f7
fc
fe
f1
03
0b
fd
fa
05
f4
05
01
da
01
02
05
fe
01
f5
07
0a
b4
f1
f9
03
04
0c
fc
09
fa
50
fd
05
06
f8
fc
00
05
f5
51
f6
0e
f7
fc
fa
ff
f2
00
91
0c
ff
fd
02
fe
02
f7
fa
aa
07
05
f9
f3
04
01
05
fd
19
fb
fb
f7
06
03
fd
fe
fa
6a
ff
fa
0b
02
ff
f8
ec
ec
d5
07
04
ff
fe
fe
03
fd
0e
11
08
fb
02
01
03
0b
fe
0e
21
fa
fd
ff
07
00
00
02
fd
a8
05
03
fb
ff
fb
08
06
ff
fd
f7
08
f7
fc
fd
fc
0e
09
72
fe
08
01
fa
fc
f6
fb
f6
51
ff
07
05
02
03
fd
ff
01
fd
06
ff
f7
02
00
06
f6
00
2e
11
00
06
0c
0d
00
10
02
1b
f8
00
02
01
07
fa
fb
06
29
fb
09
01
04
00
04
f9
0c
4b
02
04
f9
fb
f6
02
05
f6
53
05
00
f5
fe
f7
fd
06
fc
a1
f9
ff
fe
00
01
02
ff
05
41
07
02
ff
01
f8
05
fd
04
58
fa
05
03
07
fc
02
00
13
41
01
00
f9
fe
05
06
f5
0a
ed
fd
f8
0e
01
0c
0a
0a
f5
23
06
04
05
f7
f9
f8
fa
f9
59
08
07
08
06
ef
07
fe
fb
2a
fa
fe
05
ff
f6
fb
00
06
c5
fb
02
fa
05
00
f9
04
fd
20
09
ff
04
03
fd
03
05
f0
c6
fb
1b
fc
01
fe
08
09
06
c2
05
fa
f7
f9
fd
f8
02
05
5e
06
e5
10
f8
01
f4
0c
fa
8f
f3
0a
fd
02
fe
04
f2
f8
bf
ec
09
03
fa
f9
04
08
02
0f
04
fe
ff
fc
02
f2
07
fe
ac
08
0f
fe
06
08
07
f6
f8
08
04
fc
fc
08
07
03
00
02
52
05
09
fd
00
ff
04
f9
06
a0
f4
14
e8
f5
fc
02
f8
f8
38
01
fc
f7
00
fe
fc
ef
03
92
fb
06
01
04
fd
fb
02
fc
64
01
fd
f8
fe
09
f7
fb
03
12
00
f6
0b
fa
09
f2
0c
f1
89
00
09
02
fb
f6
0a
f1
0d
9b
f4
fd
f5
f2
01
01
0c
01
3b
f9
f1
0d
f8
f8
04
fb
06
4b
fd
07
f4
08
04
04
04
fa
0f
00
f6
0c
06
fd
fe
00
f1
ad
fc
ff
fb
01
03
f3
0d
f7
92
fe
01
07
01
03
ff
f9
01
ea
0b
fe
08
07
0b
ff
f9
04
3f
05
15
01
fa
01
fb
f9
f8
47
05
09
f5
09
f4
05
02
f9
9c
ff
fb
07
06
06
00
0f
f4
50
fc
0b
fe
fe
fd
0c
ff
08
2c
04
07
fa
ff
04
08
0d
fe
97
0b
01
fc
01
f4
11
04
09
2e
07
ff
0c
f3
ff
06
f1
09
ad
08
fd
fa
04
05
f7
04
f5
55
fb
0e
00
f8
01
f9
00
03
6a
fe
02
08
fa
f8
07
07
f5
59
ff
0a
01
f2
04
fd
f7
00
47
08
f3
f9
f7
f6
0a
05
fa
91
02
08
f6
fa
ed
08
f3
01
56
07
09
07
fa
f2
05
02
0f
2d
fd
06
ff
02
0f
f7
ff
f8
0f
f7
f5
fc
f8
05
01
fe
f8
d0
fe
01
fc
05
04
04
02
ff
c8
10
fb
fd
f5
f8
02
f9
00
fd
fd
fc
0e
0c
0c
fc
ff
09
b7
08
02
00
09
0f
01
09
f6
55
f9
ff
07
f2
ff
11
02
01
c5
06
01
fb
07
01
fb
07
05
87
01
03
02
00
03
fd
00
f4
ce
fc
05
00
00
f5
03
fa
04
05
fb
ff
0c
0b
fe
fc
05
10
1d
01
fe
03
03
00
f8
02
fe
be
ff
ff
fa
fc
f8
01
01
00
d8
fd
fe
fe
01
fc
03
fc
08
6d
03
fa
fb
fb
07
01
f2
0c
4d
fb
f1
07
03
ff
01
01
0b
63
f9
fa
ff
fa
f9
05
0d
02
cb
ff
05
02
f8
fc
f8
07
f6
5c
f4
00
05
04
ec
12
06
00
cc
0a
0a
07
02
ff
03
fe
fb
bd
fd
05
09
fb
f6
fe
09
fa
cb
f6
14
04
fe
03
f1
01
fd
43
fa
07
f6
fd
0c
f6
fb
03
97
f2
ed
03
eb
0a
fc
05
f9
52
fb
00
f2
f5
05
04
0b
f4
26
10
0f
03
fb
f3
fb
f7
05
8d
f7
07
ff
0e
05
04
05
02
51
04
0a
00
ff
01
fc
ef
ff
d0
f9
fd
f8
02
ff
f8
01
0a
e3
03
eb
00
f8
fc
fa
03
12
1d
ff
02
06
00
ff
f7
fe
02
3e
fe
f5
01
f5
fc
f6
ef
f6
6e
03
04
fe
10
06
09
fd
0a
18
08
03
ff
f8
08
0a
00
f2
07
00
06
00
f8
fb
ef
05
0b
4d
0b
fe
fa
01
05
00
13
f1
05
f9
02
03
07
09
ff
fa
ff
f1
01
0f
04
01
06
fc
09
06
2a
0c
f6
fd
06
f5
00
03
f3
a7
08
fa
f8
0d
01
10
ef
ff
0d
fc
01
04
05
ef
04
fc
fc
72
03
0e
03
07
00
f8
09
0c
6f
06
0b
05
0c
f6
10
fe
05
9d
ff
00
fc
03
fe
02
03
0a
df
03
fc
06
fe
f1
04
fe
fe
4e
ff
fb
fd
0a
04
fa
00
ff
b8
01
fc
04
fe
07
00
ef
f7
91
00
07
fc
f8
05
06
08
00
15
05
08
02
00
08
0a
04
fc
29
f5
0d
04
ff
05
f2
03
ff
42
09
05
f9
05
02
ff
fe
02
08
ef
08
06
00
08
09
09
0a
23
f8
fe
08
01
03
f1
fd
09
95
02
0a
05
06
f9
03
fd
fc
ad
fe
fe
07
03
04
0a
f8
ff
60
05
0e
ff
f9
07
f9
ec
fa
38
05
02
f4
fe
fb
06
06
00
dc
f5
ff
f9
01
f6
ff
fc
fd
f5
fb
0b
06
05
fb
0d
f8
07
4a
02
01
11
0c
fb
f4
fe
fc
ce
fc
06
02
f5
09
f9
02
04
d6
fb
07
f1
fa
f6
06
0c
09
70
0a
fe
05
f7
06
03
06
fb
e8
00
09
01
f1
f8
fe
fb
04
3a
04
08
08
fe
07
0b
0b
fe
b8
02
04
00
f9
f2
03
fe
f8
9c
04
fe
f8
fc
0e
02
f7
02
e5
02
fd
f9
f9
00
0c
04
fc
ab
01
00
fb
01
0a
fa
fb
fd
cc
0f
03
f2
06
ef
f7
0a
f2
24
fb
01
07
f9
fe
fb
fa
02
e4
0c
fa
fd
f5
f6
04
fe
02
1e
f9
02
10
07
00
f5
f9
08
81
00
fb
08
01
fe
f8
02
f8
64
00
01
0f
ff
01
fa
09
0c
27
00
fb
f6
f9
0a
01
0f
fd
b2
fe
fc
fe
fb
0d
03
00
fa
13
fb
fd
fa
f6
fb
fc
01
06
b0
f8
fd
00
f7
08
fc
f3
fd
31
0c
08
fc
09
03
03
fe
f8
d2
03
fe
00
06
f1
ff
fd
fc
1a
fc
f9
0d
10
03
fb
0c
00
66
0d
01
01
ff
fb
fa
e6
f3
6f
fa
f4
04
fa
08
fb
09
fa
0a
fd
fd
ff
03
fa
06
00
f5
2f
fd
06
09
03
f9
09
00
03
24
00
06
f3
04
fb
02
fe
f6
68
ff
0b
03
07
05
f6
fe
05
88
fb
02
00
0a
01
f4
fd
07
bb
fe
ef
fd
01
fd
14
f8
08
b4
ff
09
0b
ff
05
04
fe
0c
3b
fe
0a
ff
0e
fb
01
0d
f6
a3
04
15
f9
f5
04
fe
f8
05
30
ed
fd
fe
f6
07
0e
05
01
b7
ff
01
fb
fe
01
f7
f8
07
5b
f9
0b
f6
03
fd
f6
0d
f0
6b
0a
0d
02
0e
05
08
0c
09
3c
05
f5
ff
fa
06
09
fc
fa
12
13
00
0e
f6
fb
06
07
00
56
f4
fc
08
01
09
fb
f2
f8
d1
fc
ff
ff
07
ee
0b
01
03
30
06
ff
04
09
ff
ed
10
ff
0e
02
fa
0a
fa
fc
06
0a
03
1e
02
02
05
00
f9
04
00
04
56
06
11
00
0d
10
03
06
fe
a4
12
17
f4
09
09
05
07
0a
be
fe
05
fe
fb
f2
12
f9
fe
e6
03
08
f1
0c
07
11
0e
01
3f
f7
fa
04
fb
f0
fe
07
09
25
f1
03
05
05
0a
f9
fc
fa
ab
fa
06
fb
0b
f7
00
f9
ff
db
01
08
03
1c
06
0a
08
08
79
02
0f
04
01
fd
02
fb
fc
3c
0f
06
05
02
f8
03
00
f9
a6
09
01
f7
09
fc
02
f7
fb
e6
03
00
01
f7
f9
0a
06
fe
c5
0a
fb
0d
fc
01
00
0d
f5
d5
07
04
fc
ff
f9
02
f4
f0
2f
06
fd
f8
03
09
fb
f5
fc
2d
0b
07
fb
11
06
fb
fb
02
f5
fd
0a
fa
fe
fb
08
fb
fb
dc
06
fb
ff
f7
f9
05
02
ee
58
02
06
f9
fd
f9
03
f9
08
1c
fa
04
fa
02
06
fc
02
f9
c2
f9
07
08
fe
01
fb
fe
05
03
01
ff
fb
06
f8
09
f9
08
9c
02
09
fb
f7
09
f6
ee
fe
37
08
ff
ff
fe
08
fd
fe
09
35
06
08
fd
09
fe
fc
01
02
91
fa
10
fd
04
f4
04
0c
00
70
f8
08
04
05
00
f7
fd
01
37
07
00
fe
f2
ff
fa
03
ff
c3
01
f4
f8
00
0a
f7
08
fd
17
fd
f8
f4
0b
f5
02
f9
fe
00
05
08
11
f8
04
fa
fd
05
f7
02
fa
f7
ff
fc
01
02
f6
b5
fc
fe
fb
0d
02
f9
03
fa
ec
09
04
07
00
f3
07
f7
06
43
04
02
04
fe
fa
01
06
f7
5e
03
fd
01
0b
01
fa
0c
05
e8
02
04
03
f9
08
03
02
05
0d
01
fa
f6
f8
01
05
00
05
db
0b
ff
05
f4
0a
fd
fd
02
a2
09
fd
00
0c
f5
ff
03
08
27
03
03
03
07
ff
05
13
03
1f
f8
00
09
f8
02
fd
fc
f3
32
04
ff
05
fe
04
fe
f9
f5
40
f9
f6
03
f8
05
ff
06
fe
6b
fa
05
fb
01
fb
fd
ee
fd
cd
00
08
02
fa
04
02
fa
f4
9e
05
fa
fe
08
fc
00
07
fc
c7
04
f3
fc
04
0a
0b
12
0d
e6
f1
06
06
03
04
f8
06
f1
1e
fa
02
10
fd
fe
02
f7
00
a6
ff
ff
fd
08
00
00
fd
fb
b5
fc
03
02
04
f5
06
06
00
04
05
00
f6
f4
09
06
02
0c
5f
ff
02
06
fc
0e
06
fc
f9
f3
03
00
07
ff
ff
f9
f6
03
b8
08
05
fb
0a
fe
ff
09
02
25
03
f8
ef
ff
fd
04
04
03
c7
fe
05
f9
02
f4
01
04
fd
bc
f7
f7
07
04
ff
05
06
0d
b5
02
02
05
13
0c
f7
01
ff
91
04
fd
08
fe
fd
03
f4
01
fa
f9
f2
fc
f0
06
04
10
04
8d
f9
07
f3
10
ec
07
08
f8
37
fc
fb
00
0c
02
0e
04
f9
d8
07
fd
05
fe
fc
04
01
fe
1c
fa
f7
f1
03
04
02
fc
08
a9
fc
03
0a
16
03
07
f8
fd
91
03
fe
17
ef
f4
fe
f8
ff
f4
fa
0f
02
0c
f4
08
04
01
91
f9
04
0c
fe
06
01
05
05
3c
06
fc
03
0d
0f
fb
02
09
b6
f9
ef
fa
f4
01
09
fa
f1
58
02
f9
ff
0b
00
fa
fa
0a
b4
02
01
fd
f9
0f
f7
02
ff
6c
08
f9
03
08
f8
03
fc
03
dc
f9
fb
05
01
04
fe
f8
f6
2b
fe
11
fc
f7
0a
06
05
ff
1d
f8
10
f4
07
13
fd
05
f3
5f
f7
fe
00
ef
06
ee
05
03
53
f0
f9
07
0c
0d
00
05
02
b5
04
f3
f2
f1
fb
03
f5
f9
af
03
01
fc
01
f7
01
00
f6
6d
09
0c
02
00
f1
f3
02
f8
98
fa
01
fc
0c
07
09
ff
06
f3
0e
ff
fe
ff
0c
00
ff
01
bd
0b
fc
09
fd
fd
07
ff
00
d1
0c
0c
f4
f9
11
f2
fd
fb
52
02
0b
0a
07
03
ff
fb
f6
e0
04
0d
ff
fd
00
ef
02
fc
71
05
03
ff
fd
fe
f7
fc
06
a8
f2
f9
fd
01
fa
fc
0a
02
ca
fe
fd
f8
ff
ee
fb
00
06
db
03
04
fd
0b
20
04
03
00
49
f6
f9
0a
fa
f7
f5
02
ff
79
0c
00
ef
fd
f7
07
00
f6
bb
09
03
f5
05
fb
03
05
f9
97
04
00
fc
fc
fc
00
02
00
1a
04
07
fe
f5
f7
fb
f4
f7
da
04
09
f5
03
08
18
05
01
09
10
f6
06
f7
02
0b
07
f7
53
03
ff
03
fc
fb
ff
04
fb
bc
0a
fb
05
fe
ef
fc
fc
05
d6
07
ff
ff
05
02
05
04
0c
f0
ff
03
11
f9
fb
f6
fd
01
bf
02
fb
00
07
04
00
02
00
f0
f3
00
06
fe
10
fd
fa
00
76
08
03
f1
fb
fe
08
05
fb
7b
fd
09
fe
10
05
00
fa
02
d5
03
02
f6
f9
03
f3
fd
fa
bb
06
07
fd
00
09
ff
03
00
3e
09
fa
09
fe
fb
00
04
04
0c
fd
f9
12
f4
03
04
0a
08
4c
f3
f2
07
fd
08
f9
08
fa
a1
f7
fb
f9
0a
fc
f9
fa
f8
c1
fe
02
fb
05
0b
06
08
f2
4e
07
05
00
05
06
fe
f1
0e
32
ff
01
04
03
f2
03
07
01
9f
fe
fb
00
fa
01
fa
fe
fb
1c
fd
f3
02
00
00
f2
02
00
ff
f1
fd
ff
01
00
f6
fb
f7
c5
fc
02
08
01
fe
ff
f2
0b
d0
fd
08
f6
01
16
0c
ea
0e
59
06
09
05
f5
f2
06
10
02
f8
f3
02
06
12
08
f7
06
f6
e7
07
fc
04
fe
fd
04
fa
04
b5
05
16
0d
f8
04
fe
fd
06
9b
ff
01
ec
02
02
0c
fc
ff
51
03
02
0d
05
04
ff
02
fd
ce
04
08
02
fd
0b
04
fd
05
b6
f7
0d
ff
f5
00
04
fb
fc
af
00
fe
fb
fe
f3
f5
fb
00
be
02
00
04
02
02
13
01
01
07
10
fd
05
06
f9
00
0c
f9
c8
fc
04
fc
15
fc
02
07
fc
a4
fc
fc
04
09
fe
eb
02
fb
41
f7
09
04
f5
0e
04
fa
fc
29
06
00
04
f9
09
ff
f7
fc
95
fc
07
f8
0b
02
fd
fb
0d
a8
f4
02
fa
fc
04
07
05
02
4d
04
02
06
07
f5
fc
f8
05
a3
01
f8
09
01
05
fc
07
fb
08
07
fa
03
06
0a
ff
0d
f8
d2
07
fb
06
fd
05
ff
05
09
30
fe
12
01
06
03
fc
f8
09
54
09
07
f0
f8
fe
06
fd
fe
20
ff
f9
f9
0a
04
f5
fc
f0
a8
0e
f7
06
ff
f9
0d
fb
0f
92
fe
0b
0b
15
02
f7
02
01
26
0c
f6
f9
f8
01
f8
03
01
bc
f9
02
f6
04
f9
0b
04
0f
56
06
f9
f1
06
00
f3
03
fc
1a
0e
08
01
03
04
01
02
f7
ed
02
f9
02
fc
f0
07
04
02
b7
fb
08
03
fd
fe
15
fe
ff
ff
08
f3
02
01
0a
02
fe
ff
cf
fd
03
f9
01
fc
f1
ff
ff
aa
0e
04
02
01
11
03
fa
f4
c5
fb
f3
04
f5
f9
f5
fa
fa
fd
06
06
04
fd
fe
fc
03
f2
62
00
fa
02
f4
ff
05
fc
03
fc
fe
f8
0f
13
04
00
f9
0c
b3
0e
ef
fc
0e
fb
05
f4
03
b2
0f
02
05
03
0d
ee
01
06
fb
fc
fa
fd
f5
03
05
0c
02
33
fd
fe
04
0b
06
01
04
f8
26
fd
f9
05
f1
01
fc
00
09
70
05
08
01
06
fe
01
f8
ff
26
fe
07
07
f8
f8
09
fd
04
92
00
03
01
0c
fc
01
05
09
a7
01
f7
03
07
03
f3
07
fb
45
0b
04
f7
f1
01
05
f3
f5
c0
fb
f4
00
f3
04
f3
fa
02
2d
06
04
fc
ff
fa
07
05
f7
e5
05
09
ff
01
07
00
0c
fb
9f
f3
07
ff
ff
03
fe
01
07
f1
06
09
0b
06
09
08
f2
03
47
f9
ef
f8
fd
0c
fe
fa
f8
e3
f2
f2
fa
ff
ee
0f
02
0a
8d
ff
10
02
08
f8
fc
00
02
00
05
0c
01
fb
04
08
0b
fd
00
07
06
ed
f9
03
01
08
ff
4c
fd
00
01
08
04
02
01
03
98
ff
f7
05
00
05
fb
10
02
48
00
0d
01
09
fc
03
09
04
01
07
01
f2
fb
05
fd
f5
f9
2f
07
fc
fc
fe
01
fb
fc
07
46
fd
fd
00
fb
03
04
fd
01
c1
07
fc
f5
02
fb
fd
ff
f9
8f
f4
05
f9
0a
ff
ee
fe
ff
c1
04
08
fa
fa
fb
0c
05
04
6d
09
ff
f2
fb
fd
09
05
0a
a5
0e
02
f9
08
fc
08
0b
fa
2c
08
07
02
ec
ff
0f
f6
f8
b5
0a
03
ff
ee
00
ff
fe
06
c0
02
fe
0c
04
08
0d
fa
fb
e9
ff
f6
fd
f7
f9
04
f7
f6
d2
fc
fb
04
06
01
fd
fe
f7
ec
0f
f9
06
ff
fd
09
02
10
99
f7
f8
05
09
f8
fb
ff
0b
c3
02
0c
fd
f5
fa
ff
09
06
05
ff
01
01
fc
fc
f6
fb
fb
de
fb
fa
01
fb
08
03
04
fc
09
f4
ff
04
f9
fa
f7
03
0f
5e
05
02
01
01
05
fa
f2
f2
d0
fd
07
f0
fa
fd
f7
08
07
26
ff
09
fe
f3
01
fb
06
07
11
f2
f9
03
fd
fe
09
ff
04
67
f7
01
06
00
00
fd
0d
f8
a8
fe
00
fe
fb
0b
01
ff
02
05
f7
f3
fe
06
f5
f6
f6
fa
0e
fd
ff
04
02
06
0c
fb
ff
28
06
f6
fe
0a
fa
06
fb
00
b6
fd
00
03
02
f9
fd
05
fd
ef
03
ed
01
f8
02
f9
fb
01
c8
f8
fc
08
01
fb
09
fe
f4
28
fe
04
ff
02
05
01
fb
f3
6a
f7
08
04
01
f9
f9
f8
1b
f4
07
0c
05
ff
04
09
f2
0a
cd
06
0f
fe
0a
fe
f7
05
f9
03
fd
00
09
f1
02
02
04
ff
de
08
ff
04
f4
09
fb
fe
00
17
f5
ff
01
01
00
03
f7
0d
df
0e
ff
fa
04
0b
fa
00
fb
91
f6
05
fe
09
06
05
f2
f1
da
02
f3
00
08
ff
f6
01
fd
3d
07
f5
04
07
fb
fe
09
09
52
0d
09
fc
0a
fb
f3
0c
fa
4b
03
f9
0b
08
fe
fe
06
0a
5e
0d
07
07
01
0a
fd
09
00
d7
05
04
02
0a
0d
05
05
f1
49
0a
0f
ff
f1
07
01
02
f1
23
f7
f3
01
ec
02
03
fd
01
2e
04
ff
ff
06
fd
09
0a
05
10
fb
02
00
08
f1
00
f6
00
f8
08
09
ed
0f
0b
0c
09
f4
30
f5
09
04
04
fa
01
08
0d
f6
fd
02
04
0e
01
0d
00
05
30
06
fe
fe
11
07
05
02
f1
3c
09
fb
05
03
f8
fd
fb
fe
f2
08
02
fe
f6
fb
f8
f1
05
b0
f5
fb
05
ee
fa
02
fe
f0
a0
f9
04
00
0f
07
0e
0f
fb
d7
0b
0a
ff
02
fd
00
0b
08
53
fb
ff
fb
fc
fd
fa
02
f6
9e
01
03
01
fb
03
fc
f3
fc
17
02
f9
00
00
fc
03
06
fd
49
fa
ff
fd
f3
ec
0e
ef
f1
f9
f6
f9
ff
fc
f8
00
fc
f7
c3
ff
04
07
0f
0b
fb
07
08
2a
f9
02
0e
f6
09
fa
f3
fe
e5
0d
09
02
0b
fe
f9
fb
f5
93
00
09
00
fb
04
06
04
03
e8
01
ef
04
02
fe
ff
05
04
c5
0c
09
03
0b
ff
f6
13
f4
58
fd
ff
05
f3
00
fd
03
f0
49
05
03
fb
fa
f9
fc
fd
06
3c
f7
f7
02
fc
0a
fb
f8
03
9a
06
00
fb
0c
ff
00
01
03
10
f4
fa
ee
f6
fd
fb
07
0c
2b
fb
01
f5
07
02
fb
01
03
1c
03
f4
09
ed
fb
fd
f8
05
ea
f4
f8
f9
fd
f2
fa
f4
ee
b4
f7
03
f7
06
fb
08
fc
f6
8e
fe
f9
fc
15
fc
fc
0b
ff
4a
fb
01
fe
ff
01
02
0b
0d
ef
11
0b
09
0b
f8
fd
ff
fa
e4
fa
ff
f6
f7
fe
fb
fc
ff
de
05
0c
fd
00
fc
04
1e
06
48
03
00
09
01
ef
fe
03
fa
48
fe
03
f9
f9
f1
fa
f1
05
17
05
00
f8
0d
01
fd
e4
fc
89
fc
02
f6
05
06
fe
ff
04
3e
f9
fc
03
03
0a
ff
0b
0a
f2
0a
0a
02
03
fe
0d
05
07
61
f8
f3
03
fb
02
02
f8
0c
f2
f6
04
f6
06
f8
fc
08
ff
14
ff
fc
13
fa
fa
ff
01
fa
0f
04
03
f8
02
fd
fc
02
fc
97
fe
00
09
03
fc
f1
08
00
ca
06
06
02
f1
fd
0b
09
0a
b2
0a
ff
01
fa
fe
fb
fc
fa
68
05
06
fa
09
10
fe
01
0f
20
f8
0e
03
f5
f8
fa
08
fe
e9
0b
03
0a
fc
fa
f6
fa
03
90
03
f7
ff
00
f1
07
0b
f8
b1
0b
fa
fa
02
03
ff
0a
0e
1e
04
04
08
02
05
0f
05
15
6c
00
f7
06
fa
00
fa
0f
f8
ac
ff
08
08
f7
11
0f
07
f7
e5
f4
0b
09
00
ff
fa
fe
0b
1e
f9
06
0d
07
ed
00
ff
f2
93
01
f0
fb
0b
0c
fc
ff
fa
2a
01
fb
0a
fc
fe
fd
04
ff
ee
0d
fd
f9
02
09
f2
00
0c
73
fa
0a
04
f8
fb
06
03
fd
ce
00
08
eb
04
fe
fb
04
16
25
fe
fe
05
fc
0a
fe
f8
fb
d0
fb
fc
f9
fc
fd
f5
07
ff
ac
fb
f0
0c
09
ff
00
00
ff
01
06
f1
0d
f8
f2
06
f2
04
28
06
f7
04
09
fe
fb
03
03
1d
ff
f9
0c
03
ff
09
fd
fe
93
06
fb
fa
f7
06
fd
0a
fa
25
03
05
f6
fd
fc
03
f9
02
e0
04
08
fc
03
09
0f
f8
06
a1
00
fa
08
ff
f6
fe
f9
fe
d7
ff
fa
fd
04
06
04
fc
fc
36
02
f8
ff
f6
fe
00
01
08
64
00
06
f9
07
fe
00
15
03
fc
04
f2
fb
03
06
03
ff
13
2c
fe
f9
01
fe
f7
fe
0a
ff
b4
f5
03
fc
f3
f5
0a
f8
09
dc
f6
05
fb
fe
ff
fc
fd
02
5e
ff
06
00
04
05
ff
fc
f8
f0
06
07
0b
0d
fa
03
08
ff
e0
fd
04
09
09
f7
fc
0d
f5
00
01
fb
0e
02
fa
ff
fe
f5
53
f9
0a
01
ed
0e
fc
00
00
e3
f8
f6
01
03
07
fd
f3
f8
33
01
fb
06
00
05
11
f9
09
3b
f8
ed
fa
fd
f9
0a
f6
0d
d6
f9
fb
ff
fb
07
f5
0a
f9
42
ff
fd
00
07
fa
02
05
00
5a
04
00
f9
03
01
04
fe
0c
06
0d
f5
f8
fc
05
0c
f5
07
73
04
01
fb
0a
00
0d
07
05
3e
fd
01
05
07
f2
f7
0b
f8
01
f8
fb
fd
f1
07
fb
00
fb
ad
06
ee
05
fa
09
f8
fe
f7
0d
06
08
f9
fd
00
fa
f8
fe
e4
f9
09
09
f6
f9
f3
fc
f9
0c
fa
fc
00
03
ff
f3
0e
f8
af
05
12
03
0b
ff
fe
f9
06
51
f8
06
fd
f8
05
18
f4
0c
65
0a
06
00
fd
fc
10
0b
fe
43
fd
fe
fe
ff
f5
0d
fc
0f
4f
02
f9
f5
f5
fb
fa
f6
ff
58
0b
fd
00
ff
01
01
fe
fa
68
04
02
08
fd
04
00
07
fe
a6
0a
07
fe
fe
f9
03
fe
00
b1
01
03
ff
05
f9
fe
00
06
e4
00
fd
fa
02
fc
fd
04
0c
cd
fc
f6
0b
02
fc
08
fe
f3
9f
01
fd
08
fd
fd
fc
f9
f7
d4
f2
fe
f8
07
fc
fa
f9
01
9e
09
06
09
04
00
ee
05
0b
01
07
09
0b
f6
f9
fb
00
06
72
0b
fb
f6
f4
04
01
02
f0
d1
f7
03
01
fe
fa
fb
f4
f7
e6
fb
07
fe
f8
fe
01
0c
13
38
09
f8
f7
06
01
03
f9
06
8f
ff
fc
f8
fe
fd
06
fe
f8
00
0a
06
00
ff
fc
ff
05
0d
f5
04
03
03
08
02
fa
0b
02
10
02
0c
fd
02
fa
08
f9
ff
d5
fb
fc
fe
07
fc
fa
fb
05
ee
04
03
0d
09
04
03
f6
04
2a
07
fe
fc
09
08
fd
07
f7
95
02
fa
02
fd
fb
07
f3
f5
66
00
01
ef
f9
f7
fb
08
0d
d7
06
0b
01
00
08
03
09
07
8d
ff
0a
07
fe
08
f5
ff
01
f4
00
05
04
07
fe
01
03
02
35
fd
07
00
fa
01
05
01
04
3e
f9
03
08
00
fb
f5
03
03
56
fe
01
fc
01
f4
fa
f4
fe
bc
fd
f0
08
f6
f7
04
03
fe
d7
0f
08
f9
fb
f9
02
fd
f7
f9
00
04
f9
09
0a
0e
ff
05
58
fd
fd
00
01
f9
02
f8
f1
66
f5
04
04
01
fe
fb
f8
f9
f3
fb
0b
ff
02
01
ee
f6
02
ce
08
f3
01
fe
06
03
fe
07
66
03
f8
06
fe
10
f9
ff
f8
0d
09
10
03
fe
0e
f6
f0
ff
eb
07
f7
f6
f9
fc
fc
06
f9
46
0e
04
fc
09
fd
04
ff
05
f9
fb
04
04
00
08
07
01
fb
22
04
fe
06
05
f4
f5
05
0a
63
fc
ff
03
01
04
03
f4
f8
07
f7
f3
f6
fb
f9
07
14
fd
23
fb
fd
f8
0e
fb
fa
fb
11
3f
fd
ff
03
09
f7
fd
00
03
cd
04
f7
06
00
02
f0
05
fa
e8
fb
0b
05
01
03
f3
0c
fe
8d
f9
0c
08
fe
fc
04
07
0d
00
fb
ff
07
02
f2
03
06
f0
fb
08
01
03
03
00
fb
ff
fb
43
fc
04
06
f8
f7
f9
fe
0a
b2
fd
f5
03
f6
0a
ff
f3
fd
27
0e
04
01
fe
04
fd
0a
ff
4a
f6
04
fa
0a
07
03
fe
fe
8d
09
06
ff
09
07
07
03
f8
1f
08
09
08
fe
fd
00
00
ff
c1
0e
ea
fe
08
09
fa
0d
ff
3c
f4
f6
01
fd
02
09
00
04
ae
06
00
ff
06
01
f5
03
ff
ce
f9
f4
fd
05
02
06
f4
f0
96
09
f6
fc
fd
ff
f9
ff
f6
01
fd
fd
fb
03
05
00
f9
0b
9f
01
0a
01
04
f9
0a
fb
09
9d
03
04
0e
04
05
01
04
ef
77
02
fd
f4
fb
03
f7
04
09
67
04
f2
02
10
00
09
fe
fb
d1
f9
f9
03
04
fc
04
00
ff
5a
06
06
00
fd
fa
fe
09
03
21
fe
09
09
0b
17
07
06
fd
66
fd
fc
fe
f3
02
ff
fb
fa
f2
f6
01
05
f4
17
01
fd
04
70
00
f6
00
06
f2
0a
f9
04
d7
fc
f9
02
09
04
07
f9
fb
8d
02
fd
0d
f7
08
05
09
fc
9b
07
19
06
f5
07
03
f7
fe
47
ff
ff
f8
07
01
09
ff
03
c2
f0
fd
07
fe
03
fc
06
fd
d4
fb
08
08
02
fd
f8
f6
06
ab
07
f4
fd
0b
f7
f9
08
04
31
01
fb
00
04
f6
04
09
fb
71
03
fc
fd
fd
0a
f4
08
fc
97
02
04
02
00
01
0a
04
04
04
05
03
fa
04
0c
fb
00
f4
d7
fa
ff
07
01
f5
fd
03
fd
d8
ff
02
06
fc
ff
ff
f8
fc
0a
ff
02
f8
0e
f4
01
08
05
c1
02
fe
f9
11
f6
f6
05
04
c1
fc
03
ff
fa
0b
06
03
fd
ca
f2
01
02
ff
ec
09
02
f6
d9
04
05
03
02
0c
0c
04
fd
5a
ff
fa
f9
fb
fb
07
01
fa
59
05
f3
fe
f9
03
f7
02
f4
e7
fc
fb
06
fc
f8
f5
fc
fd
af
01
04
ff
02
f6
02
fb
f6
5b
fb
06
00
0f
fc
06
0a
fa
56
fe
00
01
f8
04
00
fd
02
ea
05
f8
f3
01
f8
fb
08
fd
a8
fe
f7
f8
fc
01
0a
fd
f3
b1
03
08
f9
f9
03
00
03
01
57
fc
fe
fe
0b
04
f3
05
01
b4
f7
06
f5
ff
ff
04
00
f4
f9
fe
ff
03
09
03
02
fa
f7
68
fc
07
f7
fd
05
f6
02
fc
a1
09
f7
0b
fa
fc
fd
f5
06
f1
03
03
fd
01
08
fc
08
fb
d7
fa
ff
07
04
f8
02
03
00
c8
02
fc
05
05
fa
0c
ed
04
2b
fc
01
06
ff
04
f7
11
f7
0e
0d
fc
03
fa
fd
ff
0b
fb
c4
f5
05
f2
0a
fa
01
fe
fb
07
10
02
f0
ed
fe
02
02
f3
f3
06
03
f8
fa
10
01
0a
fe
73
fb
ff
f3
fa
fd
0d
fc
f6
11
00
07
fd
06
02
f8
05
ff
b8
fa
02
fa
fe
fb
06
06
fb
0b
fd
fc
01
01
ff
03
06
fd
5f
02
02
02
fe
f4
13
fa
0e
16
07
0a
0f
ff
04
ff
fc
02
d0
03
00
f3
02
01
05
fd
00
56
f9
fc
ff
fe
01
fd
02
06
6a
f8
00
f6
02
ff
0e
03
05
73
fc
09
fd
f7
f7
02
fc
01
39
fc
04
fe
01
06
00
01
00
27
fc
03
f7
ef
f0
00
f4
05
2e
fd
03
05
07
00
04
fb
fd
65
0b
03
03
04
04
01
fe
03
48
06
06
0e
f6
fe
00
04
03
99
fa
fa
00
05
fc
01
fd
fd
76
fe
fc
fe
f7
05
0a
ff
08
69
01
00
f4
06
fd
fd
ff
06
65
09
fd
fd
f5
00
03
06
f8
40
fa
06
05
04
05
02
0d
04
91
ef
fd
ff
06
f9
ef
11
fb
c3
ed
01
01
fd
f4
f3
06
f7
1b
00
08
f1
f5
07
04
ea
fb
22
0f
f6
00
ff
01
06
ee
0e
df
02
fc
00
ef
fa
03
12
f9
c9
f7
fd
0a
0b
fd
fd
06
f5
64
f8
06
fb
03
ea
f6
f5
fa
76
10
0a
04
ed
03
fb
07
01
e8
0b
f1
fb
fa
02
01
0b
0a
61
03
00
02
f7
04
0a
04
05
2f
08
06
f5
fa
f9
0d
00
06
c5
fe
0d
01
00
08
f7
07
06
2b
fc
07
00
04
ff
0f
ff
f6
06
08
04
02
f8
0f
11
f2
04
3f
01
f9
fb
06
01
02
09
f7
24
0a
fe
09
06
01
ff
08
00
d3
e0
ff
02
10
e8
f9
05
fc
0d
fc
14
02
05
01
04
fa
0d
14
05
01
f2
f5
f7
04
f2
00
09
01
05
f2
fc
00
f6
08
09
36
ea
04
02
f4
fc
fe
0a
0a
b5
0a
0b
00
fe
f8
fe
fe
05
d4
07
07
07
fc
07
f2
01
0b
04
ff
04
f8
fa
03
0b
fe
03
4a
f5
fd
00
00
08
10
fe
fb
33
fa
06
04
09
ff
01
fa
fd
d9
0e
02
f7
02
f9
06
fd
08
ab
09
f9
03
00
f8
f7
f6
f6
3a
11
fb
fb
00
f4
06
fc
09
c9
fc
11
fc
00
0e
ee
f1
fb
35
fd
fd
05
0b
f7
0f
08
f7
f3
07
f3
01
01
00
fc
fe
01
de
02
f9
f6
f9
f6
f7
ec
fe
9d
f2
f3
f4
06
09
f3
fa
fa
76
0a
f5
fa
08
fd
00
fe
fd
c9
f0
0a
03
f7
12
09
fd
fc
35
f8
02
03
00
fb
05
0b
fc
34
01
08
fc
08
00
ff
01
07
52
08
fb
f7
03
fa
fd
0a
00
44
fb
ff
0b
05
03
f9
fa
fd
e4
01
01
02
0f
fc
ed
fc
fb
b2
0a
00
ff
00
03
fb
fe
0c
9c
ef
04
07
01
07
f3
f9
ff
78
fe
fe
fd
07
00
02
fd
09
9a
fe
f9
ff
f9
fb
fc
0d
f5
cc
0a
11
0b
02
05
02
ff
05
38
05
fd
08
f7
fe
00
f8
f6
2c
fa
06
f9
fc
f9
09
f9
fb
cc
06
00
f8
01
fc
f6
07
f9
56
fc
f6
00
08
ff
02
fc
05
f1
02
f8
f7
02
0f
0a
ff
fb
64
07
0d
00
fc
fd
f8
f6
04
60
f1
f5
00
f9
10
f8
07
02
45
f5
f9
f7
fa
02
04
0d
03
ca
0f
07
02
0f
05
f9
f5
09
9b
f5
ff
00
03
fa
02
fb
06
fa
fd
00
fe
01
fe
03
fb
ff
6f
ff
09
00
00
09
01
f7
02
60
04
f5
04
04
fd
0f
0a
07
c1
ff
02
02
03
fe
fb
01
07
a3
02
f8
01
f6
04
0a
06
f6
9f
fb
f5
09
fc
f9
fd
04
0f
a5
fe
03
05
02
f8
f7
f0
02
1d
f7
12
ff
01
f3
fa
03
03
4d
06
00
ff
0d
01
08
0b
fc
72
08
0e
fd
f9
fb
03
0a
f8
b8
f9
0c
03
fd
05
fe
00
07
d1
01
fb
0c
01
f0
02
00
ff
1a
07
03
09
00
03
02
f5
06
b0
f9
fc
06
fd
0f
00
09
fc
e4
e6
09
07
01
fd
fa
02
02
31
0f
05
0c
04
04
00
08
0b
d5
ea
00
00
fe
0d
0d
07
00
24
f4
08
05
f8
01
f3
fd
fd
c9
0d
06
08
f4
fd
07
09
06
d2
0e
0b
f5
f6
f9
05
fb
f8
ff
01
fe
f6
fc
f5
f4
00
16
59
02
f9
f7
0d
ef
0e
ff
fe
bd
0a
05
fb
0c
09
02
fb
fb
cb
05
f1
0c
ff
fa
00
03
f9
b1
fb
01
02
07
0b
f8
00
00
3d
fe
0a
fb
f3
f8
0b
0a
f8
f6
ff
0f
02
fb
f4
08
05
07
ef
fe
f7
0c
0a
07
fb
0a
01
b1
0a
11
f4
04
fd
00
fe
06
85
04
01
14
fd
f8
04
f8
0b
99
fb
f7
01
ff
fb
0b
fe
00
59
0c
f8
fe
03
f5
04
08
fd
a4
09
fd
06
03
00
03
04
fa
6c
06
ff
ff
02
ff
ef
03
f2
f0
03
f6
00
0b
00
05
03
06
11
02
fb
08
f8
f8
ff
fd
fc
c4
03
02
00
fb
05
f8
f9
f8
b8
f8
ff
ff
0a
fc
02
01
f7
3c
07
f8
06
fb
0d
0c
fa
f5
f2
03
09
01
04
05
ff
0d
fb
25
04
09
f7
0a
f7
0c
fb
fa
6d
07
00
f6
04
fb
00
05
06
64
06
f7
09
fb
07
08
10
fd
4a
f9
fd
06
00
e5
06
04
05
df
fd
fb
f7
00
02
02
f9
f1
b1
05
fc
06
f2
ee
04
f3
0c
df
05
fe
fb
01
f9
03
04
08
78
f7
f3
f9
f2
00
0c
01
ff
37
fa
fa
09
fe
05
fd
fe
fa
ac
03
fd
00
f1
0b
f2
0e
04
10
fd
fd
03
09
08
ee
0d
fc
2d
fe
ee
ff
07
f7
fd
02
02
4b
fe
f6
01
04
0d
f7
0d
fb
07
00
fb
02
f7
08
f9
05
f5
9a
f5
06
fa
ee
0a
fb
fe
f9
8f
00
02
05
ee
ed
f8
ef
00
23
fe
05
f6
00
fe
03
09
fe
6b
f1
00
fe
06
fc
06
fe
fd
43
f3
fc
f2
05
f7
fe
fe
ff
dd
09
f5
08
09
f9
0c
f7
05
13
ff
ef
fb
03
fc
f7
fd
01
43
06
f6
fc
fd
ff
02
02
fd
25
10
02
06
ff
00
0a
fb
f7
02
f3
f7
fa
01
00
ff
fc
00
b3
ff
0b
ee
02
fb
eb
f4
f8
90
f1
fa
00
07
00
fe
ff
07
ab
f4
fc
0b
02
03
fe
fd
06
05
14
fe
09
fe
07
ff
06
04
6c
02
00
f7
f8
09
07
03
01
c9
01
ff
03
05
f8
f8
f9
f9
cf
ff
03
fe
f6
00
01
06
ff
75
fc
03
fe
04
03
f6
0a
fd
4d
fa
f7
ff
01
fa
fe
fb
f2
a7
f3
fc
f8
07
f4
fe
04
f4
42
fd
05
f6
fb
fe
07
f3
01
c9
00
ff
05
fd
f4
09
f3
04
2c
12
08
f6
01
06
f1
03
f7
76
f4
ff
00
03
06
01
f9
f8
3d
01
ff
ff
03
f0
fa
ed
01
9d
00
0d
f3
f1
fd
06
f3
01
d5
0b
f5
04
f6
01
f4
fb
10
d7
fd
04
f9
fe
ff
fb
03
f7
64
0a
f9
fc
f6
00
fb
0a
fd
4e
0b
fd
04
f4
05
fd
0b
05
68
08
fc
05
fe
f5
f9
fd
fc
de
fb
02
06
ee
04
09
08
ff
6f
00
f6
01
fe
fe
fd
ff
02
44
f6
02
04
05
08
fd
09
fd
fa
f2
f6
08
0f
f7
00
fc
02
57
fa
10
02
fe
07
05
00
02
09
05
01
f6
fc
ff
08
0d
ff
3a
03
01
08
09
f9
00
fb
07
20
fd
03
fb
01
02
f4
fd
08
97
02
04
f9
f7
ff
fc
fc
f7
da
ff
00
09
05
01
ff
04
fd
1c
f8
00
f3
f1
f9
0a
fc
fc
33
f6
05
f6
07
07
12
00
fa
51
02
04
03
0f
09
11
07
0d
bf
06
09
0e
04
fb
f9
ff
01
c5
01
f7
09
04
fc
fb
04
f2
c3
05
ff
fa
f3
01
06
03
00
46
01
f9
fb
07
01
f3
f4
f7
55
00
f9
05
06
05
fc
0b
00
dd
fe
fa
fe
05
0e
ef
01
09
da
fd
02
ff
07
01
00
fe
fb
6a
15
ed
fa
f5
01
03
f3
05
65
fd
f9
0d
06
01
fd
01
00
61
04
08
fd
01
06
0b
02
ff
ee
03
03
ff
f8
fe
05
09
00
e0
0a
0d
fa
f9
f7
f0
03
f9
98
02
f9
06
f9
f5
12
f6
fc
f9
ee
f8
04
f5
04
f8
f9
06
df
03
02
05
fe
03
0a
f9
01
b0
ff
f8
09
05
04
04
fe
03
84
05
f8
01
0a
fe
01
04
04
8b
f2
fa
04
05
05
00
0a
03
36
01
f9
01
ff
fd
f3
02
ee
26
fe
07
04
10
07
f5
08
01
0f
fd
08
f8
05
fe
11
fa
fc
ab
08
05
fc
0b
0c
01
0b
01
03
17
06
ff
f6
fb
fe
fc
01
da
f7
fd
fb
f7
0a
02
f6
05
f5
02
f2
fe
06
05
04
04
f6
2f
f8
fc
f8
05
fa
fe
fc
fe
29
01
fc
02
fd
02
00
f2
fc
13
f2
f4
04
f0
f5
fc
fa
02
c5
f7
00
05
11
00
fc
fa
07
ad
f4
f1
01
ff
04
03
f8
02
98
01
03
0a
00
00
f7
11
f7
ca
07
03
fe
f9
ff
fc
f4
02
71
fe
06
05
fe
fa
00
f1
fc
eb
fb
05
04
ff
03
01
00
04
b2
ff
ff
fe
0a
