fb
ff
fc
01
c8
16
fe
f9
fa
06
f3
fe
0a
0d
00
f9
f1
05
0b
00
12
fd
e8
f7
f3
04
fc
03
02
fd
06
68
f6
01
06
fa
ff
0a
fc
07
de
f7
00
05
05
fd
0b
f7
ff
b1
f0
f7
f8
0b
fa
f0
fa
03
17
fe
fa
fc
f7
00
01
0b
01
5b
0b
ec
fb
05
fd
f9
02
06
d0
05
fe
01
02
09
09
04
ff
16
fa
f2
fe
0b
08
06
04
fa
3e
14
03
01
f7
f7
01
ed
07
d1
ff
0f
05
05
ff
02
fb
01
35
f2
00
fa
02
03
09
f4
f5
25
fc
03
f9
06
02
01
02
05
f3
0a
04
00
f7
00
02
05
fe
85
02
00
10
fb
09
04
f3
fa
5d
ff
fa
f5
06
fc
03
01
f8
ea
03
0a
f9
07
fd
fa
0c
07
54
07
f3
fa
fd
fc
07
f7
f9
67
0a
f3
fc
ff
f1
fe
fb
03
c8
0b
00
f9
f9
f7
fd
01
f7
6f
fe
00
f8
ff
08
f8
04
03
9e
f6
f9
0a
0c
f9
ed
ff
f8
71
fe
09
00
03
fb
03
f3
fe
ff
ee
00
09
06
05
06
05
f9
33
0a
f9
fd
f7
0a
01
fb
0c
ef
06
f4
06
ff
fa
f9
f1
fc
03
fa
03
fc
0f
fe
00
ff
05
d5
05
fc
ff
01
fc
01
06
04
79
ff
00
ff
05
01
f6
09
fc
9d
04
f2
06
02
0b
06
04
01
f7
f9
fb
00
fc
f2
fa
09
fa
4e
0a
f9
03
0e
02
f2
02
05
fb
04
09
06
fc
10
09
fd
f4
96
f9
fb
0f
0d
ff
00
f9
f2
95
fc
fc
04
fe
0a
f2
00
fd
a1
fc
07
fb
05
04
0d
f9
f9
48
05
f5
01
fa
f7
fd
01
fc
df
04
f4
07
07
fa
02
03
03
aa
fb
f7
04
03
03
f9
fb
07
2b
03
fa
fa
03
09
f7
00
07
05
04
fc
fa
0d
f6
03
0a
01
41
fc
09
f3
01
f8
f5
04
f7
95
fc
00
05
07
fc
fb
00
02
cf
fa
ff
0b
f7
05
ff
04
fc
cf
f8
fd
01
0c
01
0a
03
fd
70
fb
0b
fa
f5
06
f8
fa
ff
ce
fb
f7
f5
03
fa
05
fd
f9
f9
01
03
08
f3
08
fd
fc
fb
26
00
04
0f
fb
02
08
00
fd
1a
05
ff
08
f4
fd
fa
02
fa
0f
01
fa
00
0d
f9
fe
fc
ef
48
f9
03
fc
f8
fb
00
0c
0b
e8
06
0e
0b
01
0a
fe
f7
00
60
03
00
06
ff
01
fc
ff
f6
9a
f7
02
0b
0a
07
08
fe
00
5b
f8
f9
0c
0f
0a
05
04
01
f5
f4
f5
01
06
f8
07
04
f0
36
04
06
f1
06
fb
05
08
f7
f6
02
03
05
06
f9
f2
02
00
29
fa
fb
04
0e
09
00
f5
02
19
f8
04
06
fd
fc
fd
f7
0d
d2
00
fc
fb
f5
04
00
f4
01
22
fd
fa
02
fc
f4
f8
f0
ff
a2
01
0c
f6
ff
fc
f9
03
05
b4
f9
f6
fb
f5
0b
04
02
04
36
06
09
08
05
04
ff
e9
ff
dc
fa
06
05
fe
0d
fb
07
02
1e
f4
fa
03
00
fd
02
09
ff
66
f1
03
00
f9
ed
fb
f7
01
d8
ff
07
00
ee
03
06
f9
05
e7
00
fe
f2
ff
01
fd
fc
00
c2
fa
04
ee
fc
f8
f8
09
08
c8
f3
f1
01
01
02
06
f5
fa
61
07
09
fe
f4
fe
01
f6
02
df
05
0a
fe
03
ff
05
03
fb
25
fc
f6
08
fc
fb
03
09
01
a8
f3
f2
fe
03
0e
0c
fb
03
54
08
fb
fe
0f
fd
f1
08
02
2e
f8
fa
fa
ff
fc
09
ea
ff
00
ff
0c
fd
0f
f7
0e
03
f5
c4
fe
05
0b
06
01
fe
03
f7
ac
fe
fa
01
fc
f4
05
00
05
d4
f0
ff
fa
fd
05
ff
ed
00
1d
07
0c
fc
08
01
fe
07
f9
ae
ef
06
05
05
05
fe
0a
04
a9
f8
f6
09
07
ec
f3
00
fd
2e
f3
01
fd
fa
f4
fc
fd
08
fc
ff
f5
00
0b
0e
fa
f2
f3
49
06
fa
f5
07
08
f6
ee
03
e1
02
0c
f1
04
05
03
fe
02
ca
00
fb
04
0d
03
fa
02
08
3f
03
f5
fb
fa
0c
f9
fd
fa
c1
03
0d
02
11
fc
f8
09
09
12
f4
fa
fe
f6
11
05
fe
fb
a2
02
f8
04
f9
00
f8
01
00
d4
08
06
02
05
fe
e9
03
03
39
fa
05
ff
06
02
08
01
fa
12
05
fd
fe
00
fe
0a
f8
08
61
f8
13
09
fc
00
f3
f7
0b
b5
02
08
04
03
fe
f8
ff
ff
a6
ea
f5
03
0b
fa
fc
00
02
35
fb
05
fe
07
fe
05
09
fc
67
fd
05
03
05
f4
00
00
03
cd
f4
0b
0e
04
ff
fa
06
fb
35
02
00
f7
ef
fc
06
10
fb
27
ff
f5
f4
0a
04
03
fe
08
ef
06
02
fd
09
03
01
06
04
f1
f0
fc
fa
f3
12
08
00
f0
a0
f8
08
f6
04
fa
03
fa
fa
fe
03
03
09
f9
03
fe
f1
01
2b
f8
02
ff
ee
f7
fe
08
fb
fa
fa
fd
f8
0a
07
05
08
ed
6c
ff
fd
02
ff
09
0a
fb
fb
f9
f9
0a
fd
00
fc
f9
fa
f8
b0
fa
ff
08
04
01
05
fb
03
8a
02
05
ff
0d
07
fd
f5
04
be
04
07
01
03
04
fb
fe
f9
65
03
fa
07
08
03
ef
fe
03
b3
f5
fe
f9
08
02
0b
0b
fa
ad
f2
00
00
f8
0e
0c
00
fc
77
f6
11
0a
fd
f9
fa
07
01
e7
09
07
fa
06
09
fc
02
ef
c2
f9
f9
ff
05
05
fd
ed
08
7c
0e
01
f2
0c
fd
03
02
f8
2c
fe
04
0c
fd
ff
fa
f9
05
01
0b
f7
ff
0a
03
0b
fc
07
44
fc
fb
08
fd
0b
06
01
fe
d6
00
04
0c
06
03
f6
07
13
48
fd
fb
f3
ff
05
07
09
ff
b3
f7
fb
0e
f8
02
04
04
08
b5
f7
00
00
fc
f4
00
ef
06
e2
04
fd
0b
f7
f7
0d
fd
fb
53
fe
f9
02
fd
06
fd
03
fd
5b
ff
02
fe
fc
07
fa
04
06
49
fd
07
f9
03
02
fe
f9
fb
d0
00
fe
fd
02
05
fc
05
09
3a
fb
f8
f8
03
08
fd
07
00
0a
03
01
00
00
fd
ff
f1
fb
ec
09
06
03
fa
fc
fa
f4
04
8e
0a
fb
e9
f6
fe
07
05
09
cf
00
02
f1
00
fb
01
f9
0b
5b
01
04
09
f8
0e
fb
f6
fd
1a
02
00
05
02
f9
06
ff
f8
3b
ff
fe
f6
03
fe
02
08
f9
69
ff
fe
0a
f0
06
ff
0b
00
a1
02
05
f3
fe
0a
ff
ff
00
6b
0a
07
fe
00
f6
ff
07
fc
d1
08
fb
fe
00
f3
fd
f7
01
fe
f2
fc
fa
03
04
02
fa
ff
40
fd
05
0d
fe
06
00
fc
03
71
02
0d
f6
06
00
0c
06
01
a3
f4
04
fd
fb
08
07
03
ff
f5
f6
f6
06
fc
fc
03
00
06
11
04
03
03
08
f5
0a
fe
fe
6d
f8
06
08
0c
f6
f7
f7
01
bc
0b
05
f2
07
fd
10
fd
fb
a3
00
02
06
03
fc
f4
fa
02
1d
07
f9
11
04
fb
fc
09
fe
60
04
fc
f5
0c
01
fd
fa
fd
76
00
f6
03
05
f6
f6
ff
02
14
f7
ff
f7
01
fe
fa
fd
07
9c
fb
ff
fb
04
f9
01
f7
0b
fa
fe
05
02
fd
f6
fb
f7
07
04
02
fc
04
fb
08
02
01
0b
a5
f6
fd
04
ff
04
06
00
ff
33
06
07
f5
06
07
fb
f5
fd
b1
f4
fb
01
06
08
fd
f5
fa
38
f3
02
ff
03
fb
01
f9
fb
a6
f6
04
ff
fd
0a
07
01
01
53
00
fd
0a
ff
fd
fc
ff
07
d6
09
02
f5
ff
fc
f9
fa
fd
d2
15
02
fd
06
02
13
0b
03
5a
0c
0d
03
05
fc
02
fa
00
54
fb
f8
08
f8
05
f9
fa
05
06
fb
06
06
fc
fb
01
04
fe
e7
fc
fd
fd
ff
fc
02
09
05
28
04
13
fd
00
f4
00
08
f3
96
05
06
02
06
0d
fd
f3
06
08
f8
08
01
f7
f8
02
06
fc
a6
03
04
03
04
fa
0c
08
fd
c6
f9
fe
fd
02
01
f8
f7
08
91
02
06
07
f6
04
ff
fd
07
4a
fe
05
01
0f
08
07
01
08
33
0d
06
f6
02
fb
07
01
00
5d
04
02
06
03
fe
ef
fa
0b
0b
03
f5
06
fc
0a
04
eb
ff
30
fd
fe
ff
08
01
07
fa
fe
c4
11
fb
fe
10
03
f6
01
fd
61
fc
ff
ff
06
00
fe
ff
fa
95
f7
05
06
fe
0d
fc
fd
08
66
04
f5
05
0c
f7
fa
fe
fc
30
f5
f4
07
00
ff
fb
01
f9
cf
02
f6
f0
f5
06
04
fc
04
c3
07
fe
ec
00
01
fb
f2
11
54
05
f9
fa
ff
f3
00
fe
09
b9
f9
01
f8
03
01
05
08
fe
b8
fc
03
08
f9
0f
06
02
0d
c9
02
02
08
fd
07
fa
f1
04
d0
0d
0a
fa
ff
04
fd
fe
0d
15
0c
00
f7
00
f5
0a
fb
0a
1e
05
fc
e9
00
fd
03
f4
09
99
fe
06
00
04
0b
03
fd
ff
a9
07
02
09
0c
08
fb
f8
03
9f
09
05
fc
01
00
0f
ff
05
38
03
00
ff
0e
f3
09
f6
14
05
09
0b
04
01
0a
fe
fd
0f
b5
05
fe
02
08
fc
00
f4
06
03
fd
09
05
f7
01
04
fb
04
af
02
f3
ff
fa
05
02
0e
05
69
fe
06
07
03
06
09
f1
08
40
0a
f9
fb
f9
fe
ff
ff
f8
66
f4
f5
09
05
ef
f8
07
04
60
06
0a
f7
0c
07
02
fc
0f
26
01
00
06
ef
0a
f6
f3
fd
d1
f9
06
f7
fc
02
10
fa
00
e2
04
fd
00
02
fb
00
fc
0f
ec
07
f6
00
07
f7
06
f3
ff
5f
fb
05
09
fe
fe
0c
f7
07
c1
fd
fc
05
09
06
01
09
04
62
05
09
fe
10
ff
01
05
fb
43
ed
03
f8
fd
fe
f5
06
0e
31
0d
fd
06
fc
03
fa
01
f9
64
fa
fc
01
03
fd
f4
fd
fa
8c
0d
f4
f4
f9
05
fb
0e
05
b5
00
03
fc
09
11
0b
02
eb
55
0b
f8
ff
f9
fd
11
fd
ef
f2
fc
fc
0e
ed
f0
16
ed
0f
44
fd
06
fd
02
0d
fb
00
01
f9
07
fd
f8
15
02
fc
0a
05
e1
01
f2
ff
02
1a
00
08
08
6a
13
eb
fd
f8
fc
03
14
15
cc
06
fa
fb
f7
08
16
fe
05
95
03
02
fc
01
01
fc
00
ff
25
fe
f7
fb
01
f0
fe
f9
fd
d0
00
fd
fc
fb
09
f3
03
08
cc
02
11
fb
ff
04
04
ff
f9
d4
f4
02
01
1b
f6
07
02
f6
30
f9
fc
00
fc
fe
14
fb
03
78
ef
02
08
f7
0e
fc
0b
f1
bf
fd
03
fe
03
ff
fc
fd
03
1e
fa
06
03
07
0a
fe
06
08
ba
03
fa
f5
fb
09
00
f2
02
01
10
ec
03
ff
f5
ff
00
f0
1b
f1
03
00
ff
fe
01
fa
00
39
01
00
f5
08
0b
07
f8
0e
38
fd
fc
0f
fb
0b
f9
03
fa
31
fa
14
0a
07
06
13
04
fe
41
f6
05
15
06
02
fc
07
f8
97
fd
ee
04
fd
08
03
06
f4
e2
08
f4
03
ff
fd
05
05
fe
cf
fc
02
fe
08
e6
06
05
05
54
f0
fc
fa
0c
04
0b
00
04
1c
0a
06
f5
f1
06
fb
fe
0e
16
04
02
00
06
03
01
fc
0e
ed
00
f9
fd
fa
fc
fd
0c
ff
a8
05
00
04
0a
0a
04
02
08
03
f1
f3
07
f6
09
ff
10
01
9c
fd
f2
fe
fb
fd
fe
04
07
73
fe
fd
f8
03
02
f7
03
03
97
f5
06
f3
fc
04
02
ff
fd
44
fe
05
fa
0a
f9
fb
0c
ff
33
fb
fd
06
04
01
04
05
01
35
04
fe
f9
03
03
f8
06
f7
27
01
01
ff
02
08
fe
04
0c
34
fa
fb
f9
f9
f8
03
02
0b
68
02
03
ff
ff
f8
01
fa
f4
d3
09
06
0a
f8
03
fd
f7
f8
6a
04
09
f2
fe
f8
fe
00
fc
71
01
03
fb
fe
ff
07
01
08
a7
fc
fa
03
ff
fc
fe
fb
04
b6
01
05
00
03
fb
ff
03
0d
fd
02
fd
fc
05
03
f5
fc
fd
ed
03
0a
01
f8
01
ff
fc
00
ba
0a
03
fa
08
08
f3
00
03
30
04
fe
f1
fa
fd
00
03
03
5b
01
f8
ff
0b
f6
f9
f7
02
26
05
03
f3
05
01
fc
05
04
07
02
ff
06
f8
fa
0f
fc
fa
4d
01
0a
03
06
01
05
02
fe
28
f0
07
fc
f6
08
f2
ff
02
d1
fb
04
f6
05
00
05
04
05
d6
f9
f4
01
03
fc
03
09
0c
15
00
03
f3
13
fb
02
0b
fc
38
fa
ff
01
ff
10
ff
f9
01
41
06
08
fd
fc
fe
03
07
06
b7
fc
06
fe
06
03
f9
0d
fe
53
f4
08
f4
04
fc
07
f9
01
cc
00
0f
fc
fa
fb
02
13
02
b9
ff
05
f6
fd
10
03
0f
03
06
fb
00
fc
f6
fb
03
05
0a
c9
ff
fe
00
03
ff
02
04
fb
5a
00
fa
03
02
02
f8
fa
ff
2f
07
ff
fb
03
fb
f8
f0
00
e2
03
0d
f9
05
fd
fa
0b
01
3b
ff
00
e8
0a
00
fd
ff
f6
3a
ff
00
02
08
fc
fb
03
04
ff
fd
00
06
fa
0b
f3
fc
fa
95
fe
05
07
01
0b
03
ee
04
d9
fc
05
02
05
06
01
04
0b
29
14
f8
f2
05
f7
04
00
0c
ff
0b
04
f9
02
f3
f8
08
01
28
fc
05
fe
03
fe
fd
fa
04
44
f7
01
01
00
f4
ff
f9
0c
4c
09
01
fc
0d
00
fe
01
0c
64
08
05
fe
00
fb
f5
05
fb
9d
0a
01
fc
01
f9
09
01
0a
60
01
09
f6
fa
f8
05
08
08
03
03
02
0b
01
f6
05
fc
f3
ee
0a
f0
04
05
01
ff
fe
07
54
f8
06
f3
ff
02
03
06
fe
45
07
fc
ed
fe
ff
08
f3
0b
6c
fc
01
f9
06
ff
07
06
04
b1
0d
04
02
02
ff
04
fe
ff
36
fd
01
04
06
fc
03
fe
04
d8
ff
08
fc
01
02
ff
05
f6
37
0f
fb
01
ff
0f
fb
0e
fe
32
06
07
04
07
f9
ff
0b
fc
a8
f2
fe
02
ff
03
06
06
fc
00
02
fa
ea
03
ff
05
09
fe
c1
04
ff
fc
f8
fe
f9
05
07
65
02
fb
f9
05
ee
04
04
f9
ab
fd
04
f9
fa
06
0b
07
fe
30
f3
0e
04
01
01
02
07
fa
27
02
00
03
fb
05
f9
03
01
8c
fe
08
01
11
fa
f8
fe
12
d8
f6
0c
fb
fc
f9
06
09
04
fd
f0
09
ff
fb
ff
01
0f
08
e9
f7
0b
05
07
fe
03
08
05
4a
fd
f9
01
fa
fd
04
fb
09
de
fb
f5
fc
00
00
fe
f7
09
9a
00
06
f8
fd
03
01
0a
f5
b4
fb
f9
04
f6
f9
fc
02
03
54
fb
f6
ff
ff
fd
06
03
f4
d9
f7
ff
08
01
f8
01
01
fe
24
00
fe
ff
fe
ff
0b
0e
02
ab
f7
fe
06
09
ff
f7
fb
02
03
f9
fe
09
04
0e
02
f8
fe
5a
fe
04
f9
02
ed
06
04
09
54
ef
fa
06
f9
0b
03
01
fe
d7
05
05
fd
03
0e
08
00
f4
b5
00
f5
04
fb
fa
04
f9
fd
2e
f9
f5
00
02
fc
05
00
ff
9d
04
f9
fd
fe
f7
fe
fd
01
a9
f3
04
00
f9
f8
00
08
f6
73
f6
01
03
fb
01
0b
08
fe
2f
01
f8
f8
ff
07
fb
f7
02
58
f9
fa
06
fc
fe
f3
fd
fe
d9
01
fa
fc
f5
07
01
03
fc
c2
04
00
0b
01
ff
05
01
00
26
fa
fb
02
fc
ff
01
08
03
eb
06
08
00
ff
fb
fa
07
04
09
f8
04
04
0c
f5
04
f4
08
76
0a
00
fd
08
ec
02
0e
08
d5
00
fc
07
17
f8
f9
02
fd
1f
f6
0e
fb
02
fa
f9
08
fb
cc
fe
fd
fe
00
03
17
02
04
08
fa
f1
07
fd
f6
04
fd
f7
12
06
0e
04
00
f4
0a
fa
fa
51
f7
0d
fc
ff
fc
0e
fe
f2
ef
fb
03
01
fc
fd
02
04
00
26
fd
06
fa
11
fc
fd
f3
01
06
01
05
0b
00
00
f9
04
fc
3c
fc
06
fd
ed
09
f3
f4
fe
1e
06
fd
f7
f2
00
02
00
02
2e
f7
fb
f4
08
f8
02
f8
03
e7
fa
00
f0
f7
f7
f8
04
f5
38
09
09
f9
05
01
02
f7
05
29
f9
f5
fb
f4
00
fb
ff
f5
54
03
00
0f
fd
fd
03
fb
00
6a
04
08
fa
fe
04
02
fe
0b
ce
ff
0a
f8
0b
0b
f7
fd
06
a3
01
f6
03
fd
fe
f5
f6
04
c4
02
0a
f4
fa
f0
fc
0b
00
28
08
06
fa
05
02
00
fe
00
d9
06
03
05
04
02
fc
05
f8
58
0c
f8
0d
06
f7
fd
06
fe
dc
f5
ff
fb
03
01
00
fd
0b
41
fa
01
fa
fc
02
00
f9
ff
f3
ff
f6
fa
07
04
ff
03
02
00
f5
fa
fb
01
00
04
ff
ff
06
fb
fc
0e
0d
02
01
08
06
94
07
05
f8
05
02
0d
fe
f7
54
fb
f5
0b
ff
07
04
f7
eb
66
03
fd
08
00
01
0a
f8
fd
11
fe
fb
02
f3
fb
05
fd
02
d9
05
03
f7
fe
fa
f8
06
fc
f6
03
f9
03
03
f3
fb
f9
08
5b
f8
fe
00
f8
ff
fb
04
fc
bb
f9
00
04
0a
06
f3
00
ff
42
f7
02
f7
0e
04
fc
06
f5
bd
f9
fb
06
fc
fa
ef
00
04
57
fc
0d
fd
fe
00
01
01
09
02
02
ff
02
fb
fb
fc
04
06
57
f6
f4
08
06
f8
01
03
f8
55
02
06
fe
ff
fa
fe
f9
09
dd
ff
04
fe
09
05
01
00
fd
61
f8
08
fd
f8
08
ec
08
04
5f
fc
fd
ff
f5
fc
f7
05
09
8c
06
01
f6
fc
02
f8
06
fb
fc
01
01
08
0e
fc
fb
f9
02
d7
09
05
03
10
0a
f7
04
fe
50
fc
fe
f9
07
07
f3
f8
06
48
fd
f6
09
00
03
04
01
f3
93
03
f9
fa
0f
ff
04
ff
08
42
fc
0e
fc
02
fd
f7
fe
ff
96
fd
f4
07
fa
08
05
fc
00
20
04
fd
fd
03
05
0a
04
f5
f6
0b
fc
fa
fc
ff
fe
fd
f9
3b
03
0e
fd
fc
0f
03
07
fe
9f
fd
f8
f8
03
fd
f8
07
00
72
fa
f6
00
f1
09
0b
f7
03
cc
f5
04
f4
fa
f5
f9
fa
f4
f9
06
ff
fb
00
fa
05
fe
07
3f
fb
fc
03
00
fa
00
00
03
5a
ff
08
02
fd
01
f3
f9
fd
12
fd
f9
fd
04
fe
02
fe
f9
9a
01
02
fa
fe
0a
0a
09
fd
67
f3
ff
f8
f9
06
09
02
fc
3d
07
ef
08
08
03
04
ff
fa
6f
ff
04
00
09
f9
02
0d
03
d3
02
ff
00
09
00
f8
07
00
46
f3
02
0b
01
0a
03
06
fa
27
0e
f8
f8
06
fe
10
07
03
20
00
f9
04
03
06
0a
fe
01
2a
08
00
01
fc
03
fd
f0
03
8a
fa
ff
f6
fa
03
fd
04
fd
54
fa
00
04
08
02
01
f4
01
b5
04
01
01
fb
03
f3
02
fd
d5
ff
f3
0a
02
00
0c
fe
f9
38
0d
f5
f9
fa
07
05
fc
f5
a9
ff
05
fd
fd
04
09
f4
0a
62
02
fe
0a
08
09
f6
f5
04
ae
fd
00
09
f7
00
fc
04
ff
a8
04
f1
09
fe
06
02
fa
f1
d3
08
f4
03
f6
ff
fd
fe
04
cf
f6
f8
10
04
00
fe
06
03
3f
0a
04
ff
0f
02
fb
ff
fd
f0
08
f2
02
fa
fe
f5
02
fc
39
f3
16
fb
0e
01
02
06
ff
eb
fc
09
0c
0b
08
fc
f6
04
9b
00
ef
01
fb
f4
01
02
00
12
07
00
00
04
05
fe
00
fa
5a
08
ef
03
05
f9
f3
02
f6
2d
f4
01
0d
f3
fa
0a
00
03
35
fe
07
fd
fd
02
f5
03
0a
b0
00
04
03
f6
01
03
fc
00
38
ff
fa
04
f7
06
03
fd
0d
5b
01
11
fb
f2
ff
fd
09
02
69
fa
01
f8
03
f9
fc
fe
fd
b2
02
01
f9
f7
02
08
01
09
42
fe
10
f9
fb
f6
07
0c
f4
cc
02
0c
0c
08
00
04
fb
fa
29
0f
f1
01
07
07
fc
f0
06
c1
01
04
00
fc
f4
f6
04
fb
1b
ff
02
fe
00
03
02
f9
f9
d0
fd
0d
02
fd
f8
f5
07
02
b8
ef
00
02
f6
fa
00
0a
fb
95
fa
0a
02
fd
06
06
f5
01
ef
05
ff
02
07
04
f6
fb
fc
57
ef
fc
fd
00
f3
fa
f5
01
f4
f5
f8
ed
fe
04
fa
03
01
d1
00
11
09
fe
f8
fb
06
03
2c
fa
09
04
fc
fe
05
03
05
2c
02
f9
00
06
fe
08
08
fb
61
00
f3
01
04
03
f0
f7
fb
c2
03
07
fb
f8
ef
ff
fd
0f
eb
fa
0a
09
f6
02
0b
fb
09
63
0c
09
fd
0b
05
fd
01
fa
ca
f6
f8
fa
ef
f5
ff
0d
f9
b1
03
02
04
0a
fe
00
0d
03
53
05
f0
fb
fd
fe
fd
fd
07
a5
f7
f4
f0
04
fc
0a
fb
05
ab
fd
1b
f3
ff
00
01
01
02
35
02
05
00
fd
fc
05
fc
fa
21
f2
02
f6
f7
01
05
f4
f7
45
fb
01
fa
fe
00
fe
0d
fd
05
11
07
06
06
fd
01
07
f5
77
f3
f6
04
09
ff
03
fb
f8
02
05
05
f3
0a
00
fe
05
f5
1a
08
f9
00
fb
05
09
ff
fc
1e
f9
fa
01
01
fd
fd
03
f8
2f
0d
fb
08
0c
f9
f3
05
fc
0a
fd
02
05
00
fd
fb
ff
01
b6
f9
fe
0e
05
04
09
fc
fc
36
05
fe
fe
ff
05
03
06
01
ba
06
02
f9
03
01
f9
ff
fb
a5
09
f6
00
04
ff
f8
fd
fd
4e
06
fe
fd
02
04
f3
00
f8
c7
0c
0f
0d
0a
02
f9
02
fe
52
fc
fc
06
fd
06
04
07
ff
fb
00
f5
fb
f7
f2
0b
ed
0b
eb
fd
ff
02
03
01
fb
08
f4
1a
03
08
fe
fb
06
f2
fd
fc
8d
fa
fb
ff
02
00
fb
fa
02
2c
0a
01
0c
06
10
f7
06
08
cd
02
fc
ff
f5
08
fe
fa
fe
58
f9
0e
fb
f4
04
02
01
fc
0b
03
f8
fb
ff
0c
f0
ff
f8
29
0f
f8
09
0c
f6
fd
03
00
d2
fd
f2
f9
f2
fb
05
08
0d
0b
fa
03
05
09
0f
f4
07
fe
0f
fe
05
0b
00
07
0b
07
14
c0
fa
fd
f7
0b
f5
fa
04
08
08
03
0d
02
f8
f5
f8
fd
fe
e2
ff
f7
00
fd
f6
01
07
fe
09
06
f2
07
0b
fc
fa
0a
f7
1e
01
01
03
fe
f4
08
02
fb
92
f7
fe
f8
00
00
ff
04
04
71
00
01
f8
fb
fe
09
04
0b
20
03
ff
fe
0e
f6
f8
fc
05
66
03
ff
fb
f4
fd
02
f7
fa
36
03
fa
f8
00
03
0d
f8
f3
f8
00
f9
f6
f4
04
fe
08
08
06
fa
07
05
f4
fe
ed
01
02
5f
00
fd
f5
04
11
fb
12
f0
63
fb
f7
04
ff
01
fd
05
01
e1
0c
09
ff
fd
02
07
09
06
e8
06
0b
13
fd
06
03
05
fc
10
09
04
fc
f7
00
05
0e
f5
d9
12
01
04
0c
09
f6
ff
f2
e1
02
05
03
fb
03
fe
f8
fb
dd
fa
03
ff
fa
fe
03
06
02
46
f5
fe
06
ee
fb
0a
f9
08
2e
08
f6
fc
05
fe
00
f0
09
61
00
ff
04
f1
0a
f7
05
05
02
fa
f6
f9
04
09
ff
0a
fe
35
fb
07
08
08
01
fe
01
0b
ba
0d
f8
f7
fc
06
fc
fa
02
46
fb
07
fd
f1
00
05
02
fe
5d
02
f4
fb
fb
11
f7
01
0b
5f
03
fc
fe
fb
fc
ff
fe
0c
15
02
ff
ff
fb
fd
02
0c
f4
ef
08
f5
f9
01
10
fd
0c
fb
d5
f9
fb
fb
fc
f7
04
09
05
73
09
03
07
0d
f6
f9
f8
05
14
03
0e
07
00
05
fc
f2
03
8e
03
fa
ed
04
ff
fb
05
08
d3
fd
f9
fe
f9
f1
f5
04
06
d1
0b
ff
05
03
f9
01
0a
f8
6c
fc
ff
0e
fa
04
fe
05
fc
d4
08
fe
ff
06
0e
02
12
fd
a5
01
08
03
08
ef
f8
fb
fd
6b
0a
01
02
04
0b
fb
00
fb
1f
00
00
f4
15
07
f7
05
01
36
ff
f3
03
12
04
fb
08
08
c7
fe
03
0d
f8
fc
ff
f6
f3
0f
ff
f4
09
08
05
fa
f9
09
f7
05
e8
06
02
f3
0f
06
02
15
fd
fc
ff
01
fa
0b
0e
ff
2a
ea
0e
f6
fc
07
00
f6
fb
90
fc
f8
0e
0c
f5
08
ff
f9
2a
f9
f8
09
f8
ff
fc
fc
fc
9a
ff
f1
04
09
0b
ff
f9
09
0c
fe
00
01
04
ff
08
fb
00
28
f8
0d
f2
eb
fc
f6
fc
07
bb
0e
f9
07
00
fc
f6
f9
ff
47
02
01
07
00
05
ff
f7
f9
2b
05
fc
fe
00
f5
05
f0
fd
aa
fb
01
00
f4
05
08
04
f8
63
f4
08
f9
0b
f6
ff
fe
05
5a
f0
0f
f8
f8
f7
f9
09
04
0b
fe
f2
04
02
fb
00
ed
fe
29
ff
fb
07
05
fe
fe
05
06
7a
fd
fd
07
06
06
f8
fa
fd
b1
ff
fb
f9
03
fc
f9
00
fe
b2
f3
f9
08
fc
08
fa
09
f8
0e
02
14
f8
0a
fd
fb
ff
f6
da
fa
03
06
01
f8
f7
f0
fd
52
01
ef
08
06
09
f0
00
0d
31
07
f0
02
14
07
fc
f1
ee
1d
fd
fb
f5
01
fa
fe
05
0a
4a
02
00
0a
f3
06
0c
0e
03
42
06
fc
05
08
06
ed
fb
01
3f
00
00
05
03
fe
00
fc
0b
d7
08
fb
13
06
fd
04
ff
f4
93
00
05
00
f9
00
fe
09
02
3e
0e
ff
01
0b
04
ff
0a
fa
34
fd
03
f2
fb
fd
fc
06
fe
5f
f6
01
06
f4
ff
08
fd
fd
61
02
fb
fa
08
f8
02
fb
05
e7
03
fe
01
f9
03
08
fd
f6
b0
fb
00
02
00
fe
f9
08
0a
c8
07
fd
fe
f9
fc
02
fc
05
8d
04
00
01
f8
04
02
02
f6
f9
0b
f7
00
fc
02
fc
fa
fd
15
00
ff
05
ff
05
0d
01
f6
6d
f2
01
fe
06
01
02
01
fc
2f
f9
f8
f9
0a
f7
fb
f8
f9
13
01
fe
f8
02
01
f5
08
07
4a
fc
0b
01
07
ff
0a
f7
02
a1
01
01
fa
fe
00
f6
04
06
a8
f8
fa
10
f8
08
fd
01
f5
5a
fd
f0
01
05
fd
fc
f7
fe
6d
02
fb
00
01
fe
02
05
01
5d
02
fc
00
f8
02
08
f9
f6
5e
f5
fa
09
02
f8
f0
f3
0b
d8
03
fa
0b
ff
fd
05
07
04
1c
06
05
f5
00
06
09
01
09
19
ff
04
00
f9
01
02
08
01
47
fa
fc
f5
fe
fb
f0
07
07
a9
fe
02
f8
f9
fe
05
05
ee
81
fe
02
04
f8
f9
03
fc
07
33
f8
10
01
f6
07
0b
f8
f4
65
f6
06
f8
0f
08
02
05
04
d0
08
f8
f9
f7
07
03
05
0a
fb
ff
08
fa
03
f8
ff
fd
ff
2b
04
fc
fb
f6
09
04
ff
00
2a
12
10
02
f8
04
ff
07
08
5c
0e
ff
fb
fd
02
05
05
01
6a
0d
fd
00
f6
00
ff
06
f5
0c
f9
02
03
06
06
fe
05
06
49
00
fb
02
fb
f4
ff
fa
00
cd
f1
f9
ff
00
fd
00
fd
f7
ed
fd
04
fb
0b
f4
ff
03
f8
f5
f9
04
ff
0c
f5
08
fc
08
65
f6
f4
06
0f
07
02
01
09
e8
0f
fc
fb
fb
fd
fb
fe
fa
3c
f4
fa
fc
12
f6
02
06
01
62
fa
fb
01
0a
0f
03
0c
0a
52
fb
02
f8
f7
12
fc
04
07
eb
07
03
0d
ec
f6
f3
03
fd
aa
fc
00
05
ff
ff
02
09
fe
ca
f3
fb
00
f9
02
f8
03
07
44
fa
01
fc
fc
08
ff
f9
08
e3
04
fa
fb
04
07
fe
04
fd
0c
02
05
04
fb
06
fd
00
fd
01
01
fe
00
07
09
01
00
04
55
fc
09
04
fe
0c
f8
02
00
b3
06
01
0c
fd
f9
f9
04
f8
68
02
fc
fc
01
fd
f8
f8
f5
66
f8
02
f3
fb
03
05
04
ff
1f
00
fb
fa
fe
12
0c
0e
0d
ac
01
00
0d
fb
05
07
05
02
45
09
11
fc
fe
fc
00
01
fc
bc
00
ff
08
fa
08
fa
07
04
ba
0c
01
0b
f6
fa
06
02
03
93
04
fe
00
f9
01
f3
f5
fa
47
fd
fe
00
00
05
12
04
0d
ed
01
ff
09
f3
f6
ff
00
01
26
04
f8
fd
f7
01
f6
fe
0f
d1
f7
f9
f7
fc
fe
fa
03
f4
ea
f7
fc
fc
03
fe
02
01
f1
1d
08
04
02
05
ff
01
fd
ff
79
04
0d
fd
04
fe
fe
01
fd
8e
08
05
ff
fe
fc
06
07
e8
b2
fe
f3
01
fb
0a
15
05
fe
92
06
07
fa
f8
fd
06
fd
ff
c8
fc
fc
fd
fd
02
06
f8
06
0f
02
fb
f7
fe
0c
03
05
fe
09
09
06
03
f4
fb
fe
02
fa
95
06
02
09
0a
03
0a
03
03
f2
fe
09
0e
02
07
00
06
00
e6
06
00
0d
08
fc
03
04
fe
f0
fd
02
07
01
01
00
f7
fd
f1
fe
fc
fb
04
05
03
07
03
28
01
f8
05
ff
08
f8
fd
f7
35
01
ff
ff
01
fa
0f
07
05
f8
03
06
ff
01
05
fe
00
ef
46
05
fc
03
f5
fd
01
07
00
fe
fc
fe
ff
01
f3
fc
08
09
2a
03
fb
00
0b
fd
ef
fd
ff
aa
01
00
00
01
fe
ff
f2
f9
e3
fd
fe
fc
03
08
fc
f9
f5
e1
fe
01
01
0c
04
fc
07
03
7a
f7
05
0a
05
fa
0b
02
00
1f
06
0a
02
f8
fd
fa
04
ff
8f
03
00
04
06
f2
fb
07
00
91
01
01
06
01
00
fd
f8
04
36
fa
09
f8
07
04
fb
fd
10
c3
f3
f5
f5
f3
0e
01
06
04
02
03
05
02
01
f5
fc
0d
12
71
05
03
00
04
08
fb
05
fa
0f
03
f9
07
03
11
fa
0b
f5
5b
f0
fa
01
ec
08
07
f9
f9
05
06
00
03
fd
06
f3
0a
f1
21
08
02
06
03
02
01
00
ff
f5
06
f7
fe
05
f2
f8
0a
00
da
f3
00
02
f9
03
07
06
ed
d3
03
02
ff
f5
f5
0e
09
fe
db
fb
f7
07
03
08
f6
fd
f8
e4
01
f8
fe
f6
0b
06
02
fa
24
08
01
f4
fe
fc
fd
04
03
61
f9
14
08
f6
0a
f5
fa
03
12
fe
fe
0e
f9
05
ee
f9
06
68
06
01
07
fd
fe
0e
01
f6
3e
06
0c
f2
f9
fc
04
f8
fd
da
f5
ff
fd
f3
0a
09
05
0a
52
0b
01
fd
07
04
f4
fe
fb
b1
fa
04
f9
ff
f4
fd
ff
04
f7
fd
01
fb
fc
fb
fc
fe
f7
5f
05
fb
f5
f7
fe
0d
0f
0b
b5
fd
fb
06
09
fd
fa
fe
06
de
17
01
00
09
fa
ef
ff
f1
60
07
fe
fe
fd
fb
f5
fa
f3
14
04
0b
12
06
02
f9
fc
f3
b8
f2
fd
0b
04
14
07
07
0c
8d
f8
f9
ff
07
07
0f
0a
03
d7
fa
f6
03
f9
f6
02
04
f2
58
0b
fb
fc
02
ef
ed
0c
fa
cf
f6
ff
0a
f9
03
01
13
02
f6
0b
fe
06
0c
02
f4
fb
f3
fc
ff
fc
fc
0c
03
0a
05
fb
45
f3
f2
03
05
fa
f6
fb
02
e6
f9
f4
fb
e8
fe
f4
01
08
eb
00
fd
f8
00
fa
05
f9
02
e3
f5
09
ee
01
fd
04
fd
f1
dd
01
01
04
fd
02
0b
05
fc
11
01
ff
f3
0a
fd
f8
03
00
1e
00
f8
02
fe
03
f0
f6
fd
a7
02
01
0e
fa
fc
03
01
fc
1d
fb
f2
02
03
02
f4
00
fb
d3
00
08
fd
02
05
03
fc
01
5f
fb
04
00
04
fe
0f
03
fc
d3
f8
fe
03
f5
fc
01
ff
ff
f5
0b
f7
fc
12
fd
02
00
f9
0c
01
fd
1c
01
fb
f5
fc
f7
74
fe
f8
06
0b
fd
06
01
f5
ab
01
0b
05
fb
04
fb
fb
fe
26
02
0b
fb
ff
fc
05
0d
01
f8
00
f2
10
f2
ff
00
09
09
ea
02
02
fd
00
00
f8
06
f6
9b
03
07
04
f5
ee
f6
f8
f8
de
fd
fb
0a
f7
fc
06
07
fb
47
fe
01
07
f5
fb
0c
0c
fe
c9
02
f7
fb
ee
08
fc
01
09
07
01
04
f6
05
00
01
fb
0d
5d
f9
f0
fb
f9
0b
f5
f8
fe
9f
05
fd
05
11
f9
06
03
fd
4e
01
04
04
fd
f4
fd
ed
f6
60
00
f8
04
f2
04
ff
f8
03
66
f7
f6
f9
f6
09
04
f5
03
bd
00
03
fe
0e
0a
00
04
15
6e
f0
06
f9
02
fe
0e
04
12
c8
fe
fb
ef
fc
0f
fb
04
02
d0
fe
fd
0b
08
ff
fb
f3
fe
f6
06
f5
02
fb
04
06
fa
f9
b5
fd
f6
fe
f7
06
fe
05
04
f8
f5
07
ff
f5
fa
ef
f6
f7
9f
0b
ff
fc
03
07
00
04
f2
30
01
07
fe
fd
02
04
06
05
b7
04
06
fe
fc
fb
00
0d
f8
a5
04
fa
11
ef
0a
08
06
fb
24
09
fe
04
ee
fe
08
04
f1
9b
04
07
fe
fb
03
fb
f5
f5
d9
fe
fd
fb
ff
01
03
04
06
96
08
ff
01
f0
fb
05
0b
ff
ab
fd
0a
02
f9
f9
07
ff
08
ec
00
f8
03
01
06
f7
f0
00
2e
01
fc
03
06
07
fb
02
fd
0e
fd
fd
fa
01
fe
fd
f5
f4
ac
ff
06
00
ff
02
ff
04
03
35
04
f5
f7
07
f9
f4
02
fb
b7
fc
01
fa
03
f9
ff
03
ff
1f
03
f2
01
f6
ff
f9
f7
ff
6f
08
f1
ff
f9
00
03
05
05
59
fd
f6
fd
08
fe
fb
02
0c
23
0b
fa
f6
04
fa
ef
ff
fb
33
00
fd
01
fe
fe
fd
f9
04
f3
03
01
0e
06
ff
f2
fe
f0
a0
02
0a
06
14
03
fe
f8
fc
68
04
04
fa
0c
01
02
01
05
ca
02
f4
04
f7
ef
f9
f6
fe
2d
03
f8
fa
0b
02
05
01
03
59
f3
02
08
ff
06
00
08
00
57
02
0b
fe
06
08
fe
0d
04
0d
fb
fd
fd
05
01
fb
03
fa
be
fe
03
08
0c
03
fc
f7
01
96
07
fb
03
02
0c
fb
06
fb
2e
03
fe
f7
01
f6
0b
05
fe
3b
ff
00
fd
fb
f9
02
09
fb
2f
07
03
06
fe
fb
f3
f9
04
16
0a
03
03
fb
01
02
0b
fd
f3
fc
09
f6
0a
01
ff
0d
02
8f
03
04
ff
02
04
00
0b
fa
59
00
ff
05
f5
ff
00
0e
f8
3e
07
04
08
06
03
f3
08
f7
3b
06
04
00
fa
fe
f8
00
09
60
00
f7
fc
07
04
01
fa
01
ab
0b
03
06
f4
ff
00
05
03
1d
fa
06
f6
00
07
fe
fe
f2
c7
f5
0f
f6
f2
f7
f6
fa
fd
ef
06
f6
09
ff
0b
04
fd
fe
a4
09
09
06
fc
fd
fd
02
00
ac
0a
00
00
0c
00
01
fe
fa
24
fe
09
fd
fc
08
02
fa
fe
c8
f6
fb
f8
fc
04
f8
0b
f2
a6
12
05
fd
00
ff
04
01
02
5f
00
fc
07
02
04
04
f0
05
46
ff
03
fd
05
00
06
f9
f2
fa
03
fd
07
fd
08
06
f9
fe
a3
f9
08
fd
02
f5
09
15
f1
5c
f3
0f
01
f7
02
ff
01
fa
ae
fa
04
fb
ff
fa
00
0a
0f
da
ff
f2
fd
fd
e9
01
05
fa
9c
01
00
0d
f7
f7
f8
00
f9
b7
f6
06
04
f5
fb
03
f7
f7
b7
01
f5
ff
fb
fc
fe
f7
06
26
06
fd
0b
06
ef
07
13
fd
a8
fb
07
f9
03
01
f8
02
06
71
f6
fb
fc
f6
02
13
ee
01
23
04
fe
ff
f8
ed
fb
f2
ff
4e
00
ff
f8
09
00
f9
fe
03
04
07
0c
ed
00
f9
0c
06
f3
9b
00
15
ff
11
0c
02
02
fd
02
0a
00
fa
fa
05
fd
fd
fe
38
12
ff
f7
f3
06
0b
fd
f5
ec
f8
0b
05
f1
08
05
00
fb
fb
03
08
f8
f8
fb
06
ff
03
b7
fc
0b
05
07
f7
08
0b
fe
d7
02
fe
0e
f5
ff
f5
fc
00
5c
09
01
fd
01
fb
02
01
f3
b6
02
04
10
02
f9
ff
07
03
34
01
fe
04
01
fc
07
07
07
08
fa
05
0c
fd
f5
f3
0b
fc
05
08
01
02
0e
ff
01
0b
01
4f
f8
ff
0a
f3
fa
08
01
ff
3a
04
00
06
00
04
01
07
fb
af
fe
0b
f9
fc
f4
ff
fe
05
0c
06
0a
03
f9
06
fd
06
fd
b3
01
05
f3
04
ff
01
0e
f6
8d
fa
fd
f6
fa
f9
03
fb
ff
64
06
09
01
fe
fc
02
f9
04
09
0f
ea
00
fb
05
fa
f7
02
27
08
fd
ff
03
f8
01
00
ff
99
f9
04
00
fb
03
04
01
fc
e7
03
08
01
f9
fd
fb
01
0c
ef
04
f0
fd
f3
fc
09
08
03
79
f9
0a
fa
0f
fd
02
f4
fb
c3
f6
07
f7
0b
06
1a
fe
03
98
04
f9
ff
f6
07
05
08
f4
ed
fa
08
05
05
fc
ff
08
0d
45
f7
fd
00
f9
01
ff
0a
f4
9b
03
fb
16
03
06
03
fe
fa
f2
03
00
f4
03
fc
0a
07
f9
ae
03
03
01
05
01
f6
fc
10
45
05
f7
f5
02
00
fd
0c
f5
ca
04
fd
01
ff
f8
03
f7
fb
bf
fa
03
01
fd
fa
08
f9
f8
40
f8
fc
03
fa
06
fa
f9
fb
c8
f8
06
0b
f7
fe
fa
f9
fc
ea
07
00
05
fc
05
ff
f3
0a
fb
fc
f6
fa
08
02
ff
04
00
fa
09
fe
ef
02
07
fa
12
04
f8
05
00
11
02
04
f9
ff
fc
a4
05
01
0a
04
ff
0b
fa
fa
e2
f7
07
00
06
fe
02
ef
0d
fd
04
0c
f7
f9
fe
04
0d
01
bf
ff
00
00
00
fd
f6
fe
ff
cf
fc
08
f7
08
07
01
fd
02
f6
f5
05
09
fc
ef
02
04
eb
23
01
f9
02
05
02
0d
0c
04
fe
fd
f4
09
ff
02
02
fb
0c
a4
10
fe
05
06
f7
01
fb
05
dc
08
09
f1
02
05
05
02
05
9e
05
ff
f7
f6
f2
fe
04
f4
29
05
f6
09
06
02
f7
06
0c
1f
f4
04
11
08
04
09
f6
fe
6a
fc
f8
ff
fe
fa
08
0a
fe
51
0b
f0
fc
f5
03
01
f1
06
5a
03
ff
06
01
11
f9
09
09
04
f8
f8
00
fd
f3
fb
f0
09
2e
02
07
f3
f9
ff
fe
0a
04
e9
fc
f8
0f
01
fb
02
0d
f9
f0
f8
ff
00
0d
02
f1
f6
07
ed
03
03
f0
06
0f
fc
00
fa
c7
f9
03
ff
f5
fc
fb
fd
ff
e0
f3
f2
03
f9
0b
f9
04
fb
09
02
fc
fd
06
f1
fb
f3
05
46
06
fb
05
f5
01
00
fa
03
a7
f7
07
fe
01
ff
f1
f7
01
b4
00
ff
f1
0a
0a
fb
f9
05
d3
01
f5
f9
08
0c
f5
05
fd
ce
05
f8
f8
02
02
03
01
ff
ee
f3
09
f2
00
06
05
fc
f8
2e
f3
03
02
07
00
0a
f7
f8
e2
0c
f6
03
ff
f8
04
02
03
5e
0a
fd
0e
09
fc
09
04
ff
51
fb
07
09
fd
07
fe
fc
04
9a
f5
f8
f7
01
f5
04
06
04
65
f5
00
0c
f5
0d
07
0a
00
e4
ff
01
ff
f0
f6
ff
09
f8
ae
08
ff
04
fe
00
06
f4
ff
59
ff
03
02
f8
f3
07
02
f7
d1
f1
00
07
fd
fa
fd
10
f9
ea
07
f0
05
06
0c
fd
fc
09
70
06
07
fd
f5
fc
fb
ff
09
69
fc
06
f6
0d
06
00
f8
08
db
f5
fe
08
04
06
09
00
02
f9
ff
f1
03
01
f1
fd
ff
f5
e8
00
06
09
08
fe
07
f9
fe
28
f7
00
04
05
05
f8
fe
fb
a7
0a
ff
02
14
03
09
07
08
d9
fd
08
03
02
06
fc
f7
0d
16
0f
02
f4
f4
07
fb
f9
00
10
0b
fa
fe
02
07
ee
ff
05
6b
fe
f8
02
06
fe
fd
02
14
d5
06
0b
05
00
04
0c
fe
07
bc
01
fd
07
04
00
11
f1
f7
1f
01
ff
07
05
04
0c
fe
09
10
08
ff
00
f7
f8
ff
f9
0c
5e
f6
07
ff
03
0a
06
05
f7
24
f5
fa
fe
00
00
06
fb
05
c0
09
fc
13
02
fa
0d
09
02
95
08
03
07
f9
fe
02
00
0c
85
01
fe
05
f8
f9
01
0b
fc
bf
00
fd
00
01
ff
06
f8
f3
c2
f9
fc
f8
fc
fd
f4
fe
f6
d0
fa
01
f5
f4
f9
f0
fc
f5
1c
f8
f5
fc
0b
f4
01
00
fd
a5
0b
fd
f6
02
06
0c
05
f4
dd
04
09
01
00
fb
fb
f7
07
06
f3
02
04
0e
06
05
f9
fe
1e
f1
ee
05
00
04
04
f9
07
9b
f9
05
fd
fe
01
f2
f4
fd
3c
0a
fd
f9
02
0e
fd
f8
fc
26
f6
ff
07
08
fb
f3
f5
06
25
fd
06
f3
03
fe
0b
fb
07
20
00
05
00
fd
fe
f2
01
f7
ef
01
08
0d
02
08
03
0a
f4
84
04
fb
0b
0a
05
00
02
f7
d9
0c
fa
09
08
0f
fc
08
06
d7
01
0f
04
00
fd
fb
02
ff
ac
07
ff
fd
03
f9
f8
0a
fe
10
fb
f6
fa
f7
02
17
f8
0a
29
f8
01
05
00
fc
04
04
09
02
13
06
03
ff
04
19
01
01
a7
00
02
0a
09
02
04
02
00
3e
fe
fe
00
ea
f3
ff
f8
00
19
f5
05
f6
fa
f7
f1
05
09
b9
00
06
f8
f9
f8
ee
00
fe
a1
09
0e
06
0a
f8
0a
fb
00
34
ff
03
f4
06
03
e2
07
02
b7
00
02
fb
0a
07
02
04
05
9c
08
05
0d
ea
0b
01
fe
fd
5e
03
08
f8
f7
0a
fc
08
fd
f4
04
0d
fc
fd
f9
07
03
07
62
f9
06
f7
fd
ff
0d
01
00
d8
06
fd
f6
f4
07
fb
09
01
e4
08
fb
0a
01
fe
18
02
01
07
f1
fe
ff
f8
05
0a
03
02
eb
f2
f4
fc
03
03
05
04
fc
41
fd
f7
f7
13
04
f6
fe
02
e2
fc
03
fa
01
07
f9
01
ff
a9
fd
02
f1
03
01
04
0a
ff
5c
04
f0
08
01
01
00
fd
05
ad
ff
06
08
04
fe
0b
0d
03
45
fc
ed
f7
f1
02
03
f2
03
b0
02
fe
fd
04
02
ff
fa
02
ed
fd
08
f9
0b
01
f7
ff
06
45
fb
f5
00
09
02
08
f3
f5
b0
f7
01
02
f8
ff
fc
f5
f8
a4
f8
0e
06
01
f8
f1
05
f7
35
fb
04
fd
fc
f7
06
fd
03
2a
04
08
00
fc
11
0a
04
04
0b
f2
f3
fe
10
0b
16
f8
06
33
f2
f7
fd
01
00
fc
f8
fb
c7
05
07
fb
f4
f6
09
03
06
63
f9
fd
fa
00
0b
fa
f7
00
bf
fd
02
fa
03
01
02
fc
ff
19
f8
ff
09
02
04
fa
02
fd
3e
03
fd
01
ff
fd
ff
ff
03
a3
01
fe
0c
fc
00
06
00
fe
eb
f6
00
fe
01
f8
01
fc
08
3e
fd
01
05
fb
fe
12
06
fc
46
01
ff
0d
01
02
fc
0a
02
6d
02
09
0f
03
fd
02
fd
02
56
0a
08
04
f9
f9
02
06
01
4c
01
08
08
03
00
03
01
00
c1
03
03
fd
fc
08
04
fd
08
36
ff
04
fa
02
fb
fb
fc
fd
cf
01
02
02
01
06
ec
00
01
ae
fc
f9
01
fe
08
04
fc
08
a7
03
fc
ee
06
fd
01
00
ff
ef
01
00
fd
f9
fe
fd
ff
03
52
00
fc
05
fe
0c
fb
05
f3
fa
ff
f7
ff
fc
05
fd
0b
02
62
fb
fd
00
fb
ff
08
02
ff
4e
00
fb
f9
f9
0c
02
06
05
09
fe
01
05
05
07
fd
03
fe
39
fd
f8
f7
fc
fc
05
f3
ff
3e
00
ff
fb
04
01
04
06
00
e1
03
fb
0c
fc
02
fc
fa
03
39
03
fd
06
09
00
fe
0a
fd
eb
0a
f9
04
fd
04
fa
03
0a
4e
f5
f8
f9
02
fd
00
fc
00
9d
f7
f9
06
04
ff
03
04
fe
e5
fc
ff
06
fd
f9
f8
f9
05
47
06
08
f7
fb
fe
0a
08
fd
30
f9
f4
03
00
05
f9
02
04
b3
06
06
04
0b
fe
fa
09
05
b5
06
00
00
f8
03
f4
f3
fe
b1
0c
fe
f7
ff
f8
03
01
12
02
01
03
03
fa
ff
07
00
f9
07
0b
f8
ff
03
ff
08
fd
fb
ba
fa
02
fe
fc
02
08
f6
0c
4b
f8
06
fc
f7
0a
06
ff
02
54
f5
06
f7
07
fc
02
01
f4
a1
05
f3
fd
02
05
07
09
08
1a
0f
f1
fd
00
f9
06
03
ff
1a
fb
fe
ff
fd
fc
0c
f7
02
a0
05
01
0d
f8
fe
fa
00
f7
11
0f
f8
08
00
fd
01
00
00
55
f9
fb
ed
02
fc
00
0c
0c
51
03
08
f3
07
06
04
00
fe
e7
03
07
01
10
fa
fd
02
fb
8d
01
f4
fe
07
03
08
03
f5
c7
fe
01
0c
f8
04
00
f7
fb
a5
fe
02
fb
11
fd
03
f9
00
54
02
03
01
0c
07
fe
05
04
4b
04
f9
fe
fd
01
01
fb
02
0c
0e
fb
f8
04
02
fc
f8
fc
2a
f8
01
fd
ff
08
fd
fb
03
13
01
00
01
0d
fb
02
02
0b
45
fe
02
00
fc
fa
f5
05
02
f4
ff
01
01
06
fa
08
04
00
62
01
05
0d
06
05
02
03
fb
0a
0a
00
09
03
07
fe
02
fb
da
05
fb
05
fb
fd
f5
02
09
1d
06
ff
fc
14
f5
00
fb
06
51
00
f4
fa
fd
05
fc
fe
00
25
ff
04
fd
ff
00
00
08
08
1e
06
04
01
fc
04
0c
fd
05
e8
02
01
04
f5
