01
fc
01
fb
12
fc
fc
fe
fe
03
f2
08
fd
fc
00
f6
06
fd
01
fc
ff
fe
3b
fd
03
02
f5
fa
03
fd
02
bc
ff
fb
fc
fd
04
fb
06
ff
64
03
0a
05
0a
f6
01
0b
fa
b8
fc
02
ff
08
03
04
02
05
54
05
fe
04
05
f8
ff
fa
f2
9f
f9
00
ee
f8
f4
0b
04
fc
e4
08
07
f7
ff
08
06
06
f5
43
06
ff
fb
fc
09
fd
04
fa
45
01
fc
06
f9
fb
0a
01
03
1d
0c
fb
01
fe
00
06
03
fa
9e
00
05
07
fe
fc
0f
01
ff
b9
08
00
08
09
fc
ff
f5
fe
c1
f8
00
0b
fb
fa
fb
02
f9
ae
fc
fa
fd
fc
fc
fa
f9
00
fd
01
f9
fe
fa
f5
0b
05
0e
4f
03
fb
f5
06
08
05
f1
0a
d4
02
f3
03
fd
ff
f9
0b
fa
38
01
fc
00
01
0c
fd
fc
f9
30
07
08
fb
fa
01
fd
ff
fd
a9
fa
0c
02
04
01
fa
fa
fb
a3
fd
fa
ff
06
00
fb
fd
ff
bd
f9
ff
fd
fb
07
03
fd
f9
4c
fe
f7
02
02
f6
02
03
07
60
fb
fc
0a
05
02
04
00
00
4c
00
01
f2
f8
03
07
fe
ff
50
00
03
f9
01
0d
00
02
06
c4
fb
01
03
00
fe
fe
01
01
db
fe
fd
f9
ff
0d
f5
09
04
fe
01
00
ff
03
03
09
06
00
d6
07
fc
fb
f5
05
04
06
fb
23
03
05
02
ff
fe
0a
fd
08
fc
01
0a
fd
ff
03
01
fe
03
e3
ff
f9
fe
02
fb
ff
02
fb
07
00
fd
0c
fe
fa
05
ff
fb
c3
06
fc
fb
f8
09
ff
00
06
eb
01
f1
0b
fa
ff
fd
fd
ff
c2
00
08
fd
02
16
f5
fb
11
70
f2
fe
f8
03
09
fd
f1
06
38
f8
f5
fb
02
01
05
fe
02
da
f9
fb
02
05
f6
03
fb
0d
c2
fa
0e
0d
01
fc
f8
f8
ff
c7
f8
03
02
fa
f7
05
fe
01
39
f6
05
f9
fd
02
03
fb
fe
a2
ff
f2
f8
fa
04
f6
03
fa
55
08
05
f4
03
07
fa
03
0b
0d
fd
01
06
ff
fe
f7
0e
f7
26
fb
02
fb
02
0e
03
fa
f5
f5
fd
fc
05
f7
f5
08
ff
f9
50
03
0a
fc
fe
0b
05
00
09
bd
f4
fc
06
f9
fb
04
0f
0c
56
05
f4
02
02
f9
fd
07
00
1d
05
f6
13
fc
0a
02
06
ff
d7
ff
08
f4
02
f8
05
0f
fe
70
16
02
fc
01
fa
01
ff
0c
ef
fd
09
0a
04
06
fb
13
f7
38
08
02
fa
fa
ff
f8
fd
f8
0d
f8
f6
07
04
f5
f9
f2
10
10
f6
0b
ff
fc
04
f7
f4
f7
39
f8
ff
08
00
0d
fe
f8
fe
1e
05
04
ff
fc
01
f4
01
fc
a4
08
f5
05
02
f6
02
ff
f5
2b
f2
ff
02
fc
fd
00
f2
fd
f7
08
07
fb
f9
02
f9
f5
07
05
04
07
fa
f4
03
ff
f7
f8
6f
fd
fe
06
ff
05
02
fb
09
4b
fe
02
0d
fd
fe
fa
f5
fc
69
09
fa
05
fd
06
0e
ff
fa
a7
f6
04
ff
f2
fa
00
0a
0d
5e
f9
04
01
0e
ff
fd
f6
fc
dc
fa
e9
ff
16
f5
07
00
03
1e
f6
f9
02
02
f4
f8
00
fa
39
0c
04
02
0b
fb
f8
02
fc
e5
fa
08
ff
fc
fd
05
02
fe
f2
f8
fe
03
01
04
f4
09
03
e1
fb
0d
fe
07
fe
fd
06
0a
24
f7
02
fb
02
05
fb
f9
07
e9
00
f7
f9
fa
03
f9
f1
ee
c6
fe
fc
fd
04
f8
0b
09
fd
b0
f9
fe
05
02
06
05
05
09
5d
f4
ff
f9
f8
fb
05
09
f8
53
02
04
fe
f5
fc
12
04
fa
58
05
fd
09
09
fa
f3
f2
fe
18
09
fe
08
03
02
ff
05
01
f9
00
05
f7
fc
f7
fe
fe
f2
63
03
f8
fe
08
0c
05
fc
f9
99
02
02
f4
02
f7
06
05
02
cc
02
16
f6
05
0c
fe
fd
ff
2a
f3
01
02
f0
07
f8
f8
fe
ae
02
fc
f0
06
fa
06
09
0b
61
f8
fb
06
12
02
f6
fd
0a
f7
03
06
fb
fa
06
02
f6
fc
48
05
01
ff
fa
0d
0f
ff
08
de
0a
04
f7
f7
fa
06
f9
00
34
fc
fc
02
ff
00
08
fa
fe
5d
08
fc
03
03
ef
ff
fc
09
32
01
fd
06
03
05
00
ff
fd
69
fb
fd
fa
f9
f9
ff
f6
fa
bf
f6
06
04
05
fc
00
fc
f4
14
08
fe
05
06
04
06
02
00
fd
07
ff
0b
ef
00
fa
0c
02
40
fe
05
fd
05
03
ff
03
05
bb
f6
fc
f3
08
00
fe
06
08
f1
f3
fc
f9
09
03
fe
09
08
b0
00
fa
ff
fd
00
01
f9
04
24
fe
01
05
fb
02
04
01
06
04
f6
f8
fe
05
0b
f8
fe
fe
f4
fb
06
0a
fd
02
fd
07
03
0d
ff
fd
fe
fe
04
f0
fa
f5
fa
08
fe
04
02
f2
f6
f1
f8
2d
f9
00
f8
03
04
02
ff
05
b3
fc
f6
0b
05
ff
fb
0f
0a
42
03
01
f3
fb
03
fb
00
fb
3c
f8
fb
fd
f5
f5
01
00
06
13
fc
fc
03
f7
06
01
fe
fc
02
0b
f9
fe
f7
01
06
f8
f7
fb
0e
ff
05
f7
fd
fa
fc
02
00
f8
ff
fd
02
05
0b
fe
f5
27
0e
07
fe
fe
fc
f1
ff
0c
60
fa
01
0b
fc
02
07
fd
fd
48
01
05
07
0a
03
02
ff
ff
be
07
0a
fd
f7
09
01
fc
04
1d
fe
04
fc
02
04
f4
00
09
63
08
00
ff
fa
03
05
09
06
4f
09
f9
fa
00
f6
0a
07
01
d1
0a
fe
fd
fa
0a
09
04
09
00
fa
f8
06
06
00
f3
fa
ff
12
05
f7
ee
f3
fc
fe
04
08
33
00
f8
ff
f9
00
01
f5
fa
ea
03
fe
f6
01
02
01
fe
04
d9
f9
08
0b
01
f3
01
00
05
12
ff
04
f7
fc
03
f3
05
fe
de
fb
09
0d
02
0a
05
fc
05
ae
0f
fe
07
fd
f3
08
01
03
28
f7
fd
11
0f
f9
04
03
fd
53
01
fb
08
0e
fd
0b
fb
02
44
ff
00
01
04
0a
00
00
04
64
02
fc
f4
fc
02
07
07
00
15
03
fd
09
06
f2
fb
07
09
42
12
0a
03
01
fd
01
fe
04
d0
06
04
09
08
03
fc
08
fd
cc
04
03
09
f8
f9
06
ff
ff
4d
fd
00
05
02
fc
fc
03
13
26
05
f5
06
fe
f9
04
04
fc
d6
09
07
06
03
08
07
f8
fe
c8
05
f9
f7
f7
00
02
fc
04
58
fd
fe
05
01
fe
fb
02
06
6b
ee
0c
fd
fd
fb
fd
08
04
b2
ff
10
0a
0a
f3
02
fb
0b
d8
07
f9
f3
f5
f5
fb
03
fd
05
fa
08
06
fe
03
01
06
03
25
07
f4
0b
fb
fe
f6
01
07
1d
03
09
01
f9
fa
07
fd
02
b8
f5
07
06
0c
04
06
01
fe
51
02
ff
0b
07
ff
0e
03
fc
92
0f
00
06
05
f2
02
06
04
18
01
f9
06
ff
07
fb
0c
f7
bd
ff
05
06
0c
f6
fd
fe
0b
d6
fc
f7
03
01
03
05
08
00
b3
fb
fe
06
07
fe
fa
03
09
d9
02
00
01
fe
fc
0f
ff
fe
4f
fc
fb
f2
f7
02
f5
03
f9
33
fc
07
02
03
ff
f9
f6
f8
0b
00
07
fa
06
0a
0d
fd
0d
b2
08
f0
05
f8
f7
0c
00
f7
fb
f9
ff
fe
10
f9
f7
06
f1
ae
fd
fc
02
fc
08
04
0f
f4
b9
ff
01
fe
f8
fd
ff
05
02
5e
06
f6
ff
07
fc
06
00
08
27
fa
02
f5
f7
f9
fd
03
ff
97
02
fe
f9
ff
05
f3
01
fd
24
f8
fe
fb
fe
01
05
01
fb
b1
fd
f9
f6
00
ff
02
fc
fa
48
00
03
04
f9
f3
ff
fd
f9
a7
02
fc
f8
08
06
00
0b
02
e8
02
fc
00
0b
03
00
f7
ff
c8
ff
f5
fc
ff
02
fb
03
ff
5f
f6
f9
f1
09
f5
09
02
fe
e9
00
fa
ff
fe
04
fa
07
fc
b1
fa
04
ff
fa
06
06
fc
06
e6
0e
fb
05
f8
05
00
08
f3
97
f9
ff
f5
0f
00
f6
ee
01
41
03
07
01
00
02
fe
00
02
26
07
04
0f
0d
02
03
06
01
e3
fb
f7
03
ff
10
f9
fe
01
0c
07
ef
05
f7
02
ff
00
ef
11
fc
07
05
fb
ff
f4
03
00
a8
ff
02
03
f1
04
fe
fe
02
3e
03
ff
f6
fd
fa
03
e8
0a
d9
0d
02
08
f0
03
fd
00
01
fe
ff
02
04
fe
00
07
08
fe
34
ff
f7
fe
00
fb
06
07
04
d9
f9
fc
0b
fa
fd
ff
00
09
21
f8
f3
07
04
fa
04
01
fb
1e
05
07
fd
00
ff
0a
ff
fc
45
fd
04
fe
04
01
fc
f9
01
0d
13
f0
01
05
f7
f4
03
fa
b4
05
0a
02
fe
06
0d
fc
fa
0c
f1
03
f4
fa
06
0c
fa
09
e6
01
0a
fa
f3
00
02
03
01
03
f9
0d
0a
07
f6
fb
01
02
c3
fe
fa
0d
02
fd
01
f5
00
b5
fa
07
03
fd
f4
0d
f8
f7
46
ff
05
08
ff
fc
0c
01
00
56
03
fa
00
f9
01
fd
f8
fd
24
fa
fd
f2
f9
fe
00
fb
f8
58
fb
fb
f7
06
11
01
fe
00
f7
ff
05
02
ff
f2
0d
09
fb
5f
04
fa
fe
fc
f3
f8
00
02
14
00
ff
06
07
03
00
01
09
56
04
f8
09
ff
01
0b
fe
fd
f2
fb
fb
01
0a
0a
fa
fe
f5
4d
02
f6
f7
fb
f9
0b
00
06
a5
ee
fb
00
fd
0e
01
0c
f1
49
0d
fc
fb
ff
06
fd
fe
fa
b1
fa
05
00
04
00
0a
03
f2
bb
13
fc
fd
08
00
f2
07
f8
2b
fe
fa
f9
0a
07
ff
03
fb
a5
ff
07
fd
f5
00
f8
0d
02
da
f5
fe
f1
05
00
ff
00
04
2d
00
f6
fd
ff
fe
f9
fb
fc
04
01
f2
f6
fe
16
07
0e
fe
1e
f9
0c
04
01
fd
05
04
fd
d3
08
00
08
fc
03
fe
01
fe
8e
fc
05
06
05
f5
0c
fc
03
d4
05
fe
fd
03
08
fc
fc
f8
e3
fa
00
02
fe
0c
ff
01
0a
4c
fa
fa
04
fb
fd
fe
08
08
5b
0c
01
ff
ff
09
f9
07
f7
a6
f3
01
00
18
05
fa
fd
fe
23
06
f8
07
01
06
fe
02
00
17
0b
00
01
05
fd
07
ff
fe
1c
f1
ff
fb
03
00
fe
fc
00
e4
fc
09
03
04
01
00
0d
02
3a
fa
06
fb
06
fa
0f
02
01
26
f3
fa
01
f9
01
04
fd
ff
55
0b
f7
f9
0c
fe
fc
fd
f2
70
0e
05
03
03
05
01
f7
03
bd
fd
fc
00
03
08
f8
fb
fa
fd
f8
09
f9
04
09
06
09
fb
ec
03
f9
ff
10
f8
08
f5
ff
ef
01
04
fc
f9
0c
01
fa
0e
4f
f9
f9
01
0a
ff
fe
f3
0c
a4
fc
04
fd
01
f6
f6
0a
fe
e1
ff
ff
f9
f7
0e
fe
ec
ff
ca
00
fd
0a
08
09
06
06
f8
54
06
01
0b
f1
0c
f6
00
01
35
01
02
01
fe
0d
fd
02
fd
17
0a
00
04
0a
f5
02
03
fe
a3
fb
f6
fb
00
00
f9
04
04
41
fd
06
08
05
03
02
0b
fd
fd
02
fb
f8
07
00
04
0d
05
cc
02
04
08
01
fd
f6
03
00
eb
04
f1
fc
ff
f8
03
01
f4
61
02
03
fc
05
06
f8
08
04
ad
04
fb
fb
07
f6
fd
fa
01
a9
fe
fe
04
02
ff
ff
00
f6
15
f7
fc
05
fd
f9
fc
ff
00
99
01
00
06
01
fa
01
fc
07
2b
09
03
fd
02
03
0a
05
f9
af
01
fb
fd
ee
01
fe
fb
00
a1
f3
01
f9
09
fa
fd
ff
f3
34
f7
fc
f7
01
02
08
05
10
61
f7
f9
fd
0b
02
03
02
08
b3
05
f3
07
00
f5
02
ff
f7
4e
03
fc
00
fc
f9
09
06
0a
b3
f9
fe
fd
01
f9
fc
03
01
e3
0f
fd
06
04
fe
0c
08
04
cd
fc
fa
fa
05
fd
f9
0c
f9
12
03
09
ff
f8
f6
fe
fd
f4
c9
fc
f7
fe
03
fe
02
ff
03
16
00
fb
f2
07
07
04
ff
fe
23
f6
05
f5
fd
fa
fc
fb
fa
b0
02
0c
03
f3
ff
01
01
f8
27
fb
f9
fe
f6
fe
fe
f8
00
97
01
fd
fb
01
fb
09
02
f4
05
02
f9
0e
fd
06
f9
f8
01
08
05
05
f0
0e
fc
f6
02
f7
dd
09
00
fb
ff
08
fd
08
03
05
fa
fc
03
05
fd
03
06
04
2e
fe
f6
f1
00
fe
07
fc
fc
3f
07
f9
0a
fb
f7
03
fa
04
2c
f6
06
fe
04
06
f7
03
f9
0e
f6
fd
03
01
ff
ff
f5
f8
2c
fa
03
fc
fd
0d
03
ff
f8
3f
09
f8
07
fa
fc
0d
09
07
05
02
05
04
03
06
07
09
0d
32
f7
f6
fd
0a
fc
09
f4
00
bd
0e
ee
f3
fe
03
08
0b
05
2c
fd
f7
ff
00
f4
f5
f8
f6
61
fc
0f
06
02
08
fd
f4
06
69
00
f7
fd
07
fb
02
f4
00
cc
07
ff
fc
f5
f7
04
0c
fd
ba
06
fb
f4
03
f4
fc
fe
00
fe
f6
fe
03
04
02
03
11
05
17
fc
00
00
00
00
07
0b
09
1c
01
fd
fa
06
fd
07
05
fb
c8
14
f2
f3
fd
03
ff
ff
03
0d
03
fc
fa
02
f8
e9
0a
0b
98
0c
04
01
07
03
00
05
0c
56
02
ff
03
fa
fb
f5
fc
05
00
fa
fc
f9
fb
fc
00
f4
ed
13
04
f6
fb
fd
fe
0b
0b
06
45
06
fb
f5
0a
f6
06
03
06
b7
01
09
08
fc
05
fb
02
fc
1d
fa
0e
0c
fd
f6
0d
fe
05
11
0a
ff
01
fa
fd
fc
02
f2
ac
00
f1
f3
09
06
fd
fc
f6
66
03
ed
fd
04
f9
09
0d
09
01
ff
fc
f5
02
f9
ff
fe
f4
d5
f7
fb
fc
f5
fb
fb
04
04
59
fb
08
02
00
fc
03
f2
ff
98
06
00
f6
f7
07
fc
00
fb
d6
fa
06
04
05
01
fd
01
f4
ea
fc
06
04
ff
02
fc
ff
03
70
08
01
05
03
00
06
03
fc
bf
00
f3
f6
09
04
0c
ef
fe
d2
fb
03
ff
f9
00
09
06
12
b3
ff
07
0b
09
f7
07
ff
f8
5a
00
fd
03
ff
04
02
02
0c
fa
f8
0c
07
01
fb
04
f8
03
ef
00
fb
f9
08
0a
ff
fd
fe
1c
07
fd
04
fa
00
04
0b
00
e4
fa
08
04
0d
f9
fc
fa
fa
f9
fc
05
00
fc
01
09
00
0a
19
0b
0a
06
fe
05
04
ff
f7
ed
f4
f9
00
fe
f3
04
f8
f0
02
04
f9
00
f1
f6
ff
fa
ff
64
02
06
f6
fc
0b
0b
00
0e
de
fb
0b
fe
fd
fb
f5
fe
01
5c
f8
f6
05
ff
ff
0a
00
fe
f6
fd
fd
03
00
fe
09
05
fd
2f
f6
05
0e
05
0a
09
01
04
ee
01
fc
01
fe
0b
fd
f9
0c
a1
f3
f9
01
07
fd
f9
00
07
db
fb
f3
04
fa
04
fa
09
00
8a
00
f2
ff
ff
0a
00
fd
08
2a
05
f8
01
06
02
00
fb
00
b8
fd
fa
01
06
fc
02
0b
02
c3
f3
0a
0b
fe
01
fe
fd
0b
03
f6
07
f9
fe
ff
0a
08
fa
cd
fb
f7
01
00
08
06
fe
05
a1
fb
05
ff
f9
01
fd
fc
f9
a0
01
fd
00
fd
01
02
0b
03
97
fc
00
13
fd
06
fc
f8
f8
6f
fe
03
f6
03
09
ff
ff
01
1a
04
00
f9
f2
0a
0f
02
00
19
fd
f9
fd
02
fa
02
ff
0c
35
00
fb
fa
01
fd
f6
fb
f8
0c
fd
03
fa
06
00
f9
03
fb
f6
01
fd
06
fc
0e
05
f4
fa
11
fd
0b
ff
f7
02
02
ff
01
6f
fc
0f
03
f9
01
fc
04
03
f0
05
fa
fe
00
02
01
03
01
08
02
ff
04
f8
04
01
02
03
d6
f8
0c
fe
06
fe
fe
ff
fc
45
fc
fc
03
01
04
06
fc
05
ba
fc
0d
08
01
02
ff
02
0e
de
01
03
03
02
03
00
fd
f9
ed
07
fa
fd
07
08
fd
fd
00
04
01
05
07
ef
fe
03
f0
01
ed
fd
00
00
03
ff
f8
04
02
b6
03
f9
05
0f
09
fb
07
ff
d0
ff
07
02
0a
03
fd
05
ff
67
f9
08
fd
05
f1
05
0b
ff
42
f9
0a
f7
0c
01
fd
02
11
e9
0b
04
00
04
ff
06
fe
02
60
fe
ff
04
fc
01
f9
04
05
b7
fb
fb
0b
01
fc
ff
03
f8
9f
01
f4
05
fc
0c
fc
05
0a
e6
04
02
07
fc
02
fa
fd
0a
1a
01
01
f0
f0
f7
02
02
01
26
00
02
f7
03
07
03
05
04
36
02
05
05
08
f4
06
02
0a
10
fa
09
fe
01
ff
09
06
03
4b
07
01
09
fd
f8
08
fb
09
08
02
00
f4
fd
fa
03
eb
ff
7f
fa
06
0e
f8
f4
fd
f8
08
e3
09
fe
01
09
f7
0e
fb
fe
dc
00
07
07
05
f4
07
06
04
bc
01
05
06
06
02
07
07
02
a8
00
fb
f6
08
f9
fc
f0
fe
a4
f9
04
09
f0
fc
02
ff
04
3f
f8
fc
01
0f
fd
15
01
fe
e7
05
f5
02
fc
ff
fe
08
fe
64
00
f2
02
07
00
07
09
fc
be
00
01
ff
fa
12
f3
03
08
2b
03
01
f6
05
f8
03
01
05
b6
04
00
02
00
01
08
f9
f5
d5
01
01
ff
f2
03
0f
08
fe
40
07
10
fc
f7
0f
08
00
f7
11
06
05
04
fd
0a
f7
03
fd
f7
f6
fc
09
fe
ff
fe
fa
00
32
05
f7
05
06
02
01
01
fc
35
08
fd
08
fa
02
f1
01
fd
a0
03
ff
06
fa
00
fc
fa
fd
ba
fc
05
01
fd
fc
0a
08
01
1a
f9
00
04
00
fe
02
07
fb
bc
fe
f8
04
0a
08
12
fd
fe
26
01
0b
04
07
f3
00
00
ed
f9
ff
06
00
fd
09
fd
0a
02
28
f2
f7
00
12
fb
fd
fb
f6
b8
0a
fd
00
08
06
03
fb
02
ec
f5
ff
ff
fd
f2
04
04
00
20
f8
02
03
01
14
fc
f4
04
74
03
04
fa
08
ff
00
fc
00
f8
f5
09
02
ff
f7
08
f9
fc
32
00
fd
03
f9
f6
fc
f1
05
3b
04
0e
f7
0b
05
f8
0b
03
c2
fa
09
07
f5
00
0d
fa
f0
35
08
02
0e
ea
f9
07
05
01
85
00
fd
f9
fd
fb
00
07
fe
c5
fb
fe
ff
fd
eb
fa
0a
0a
a0
02
fe
f6
f6
0d
06
04
05
62
f5
09
02
04
06
fc
02
05
c4
00
06
f7
ff
ff
07
f6
02
00
05
ff
f6
02
fb
05
fd
f5
21
f6
ff
06
01
01
ff
fd
07
fa
fc
05
03
03
08
03
f8
01
c6
ee
03
01
09
03
fd
fb
01
40
08
01
fc
01
08
fa
08
0a
b9
01
f9
0c
fe
f6
0f
fc
06
52
07
ff
14
10
07
fa
0b
04
f0
08
fe
05
0a
06
fd
00
03
d8
01
02
05
06
fe
fc
fc
07
ed
fe
f8
04
03
02
09
02
02
0c
fd
03
06
0e
05
ff
ff
06
51
05
00
04
0a
07
f9
0f
04
c8
f3
02
0f
01
f8
f7
fe
01
03
fe
fd
0b
ff
01
09
fb
ff
d2
fd
07
00
07
02
03
06
07
4a
09
01
f9
03
f9
07
08
03
de
fd
02
01
02
fb
02
01
f6
57
06
07
06
fb
02
06
fc
0b
70
fd
09
05
fc
fc
f9
fc
ff
bb
f9
fb
fb
01
06
03
05
ff
f6
fc
f7
f7
04
fd
05
0b
0d
17
0b
05
07
08
03
07
00
fe
d2
03
05
f8
07
fd
ff
07
09
e8
00
0d
fb
05
01
0a
fc
04
41
08
fb
f3
fa
05
fd
f3
fb
2d
fc
ff
fb
08
fd
04
05
07
ae
07
02
08
0f
ff
00
ef
00
8f
01
0f
fc
02
f7
09
f4
fe
94
0d
04
fd
0c
f5
06
fd
fa
11
fc
fa
f5
f5
f7
f5
06
03
65
f5
03
03
00
04
ff
04
fc
69
ff
07
fd
f5
06
fe
fd
ff
58
01
ff
05
06
04
fe
ff
06
4b
0a
02
fe
f7
05
01
05
f9
b7
0a
fe
08
03
02
0e
0c
08
ad
f3
02
fe
01
fd
f5
f5
f7
bf
f9
fd
f9
0a
fc
03
03
f8
a7
ff
fb
00
fd
11
04
00
07
10
03
0b
00
03
fd
06
fa
01
16
07
03
03
fa
05
04
fd
fe
c5
fe
02
f9
09
ff
fe
f9
01
3e
f8
00
01
04
f9
08
fb
fe
c4
ff
fe
00
f9
ef
02
fc
08
9c
00
ff
06
01
f7
06
f9
fe
dd
fb
f5
00
fa
f8
0f
02
02
9b
f8
fd
fd
f5
0e
07
06
09
de
fe
f8
fb
01
09
f3
fc
f5
a7
0c
01
fb
02
06
00
ff
f7
ca
0b
f2
02
ff
fb
07
fd
f4
1c
07
fc
0d
fe
10
00
f9
04
a4
fd
01
fb
06
fc
fb
01
08
b6
f6
fc
ff
02
fd
f4
fe
06
d7
f9
04
fd
fc
07
02
03
ff
d4
fc
00
03
02
01
f8
10
fc
3c
01
f8
04
03
fb
0a
fa
f6
c1
fe
fc
f8
01
09
f8
0b
fd
af
fd
ff
fe
08
00
ff
07
fc
e6
fc
fe
fd
0c
fd
03
02
fe
f6
fb
02
05
02
05
09
03
06
c4
fb
fb
f8
06
ff
fd
fd
04
64
02
fe
fc
06
00
e8
fd
fe
28
05
00
03
02
09
ff
07
f6
2d
05
06
00
fd
02
01
fe
03
d7
04
01
fd
00
03
14
fa
ff
b1
03
f7
04
f7
fa
fa
fc
02
60
f6
fe
05
fd
07
03
fe
02
a1
f1
06
fc
00
0f
fb
ef
ff
67
05
04
00
03
fe
00
fa
fc
53
0b
ff
ff
00
02
0a
00
0c
65
04
fc
04
04
fb
0e
05
02
e0
02
fb
02
0c
06
0f
02
fa
3d
f8
fc
0a
06
fb
ff
f5
07
d5
00
01
00
04
fd
f3
fd
01
f3
01
f2
fe
fd
04
08
02
fd
ac
00
fd
ff
fc
05
f3
02
fc
16
f8
02
06
00
04
0a
fe
01
be
0a
01
02
0a
02
fb
11
fd
6b
07
fb
0b
fc
07
f8
f8
07
b6
fe
f5
fa
01
fb
13
fb
04
65
fa
02
01
03
fa
03
03
fd
39
01
06
ff
08
00
02
00
0c
2e
fb
06
fd
08
03
fd
f2
fe
fa
01
fd
fb
06
01
f9
f4
04
ae
f8
04
02
04
fe
fa
00
fb
f1
00
01
03
fe
04
05
f4
0e
e1
01
05
03
0e
fa
00
ff
05
b4
fb
09
f7
fa
00
0a
f8
03
fc
07
fb
01
fe
fa
fe
06
f9
c9
08
01
05
ff
fb
fc
ef
08
03
fd
03
f6
0d
ff
0b
03
f7
24
ff
f8
ff
ff
09
04
fd
06
2a
06
f1
06
03
02
0a
fc
00
b7
04
fe
0f
fe
f5
fa
0d
fe
ae
0c
00
fe
f3
f7
0b
04
ff
10
fa
fb
fb
03
02
09
07
0d
51
f4
fd
09
0a
01
00
05
f6
27
f3
f8
02
ff
06
07
f9
08
cf
fb
02
02
ff
ff
fd
01
01
a6
02
00
03
05
0a
f5
ff
06
5f
ff
05
ff
01
f7
08
08
08
f4
02
f6
fc
01
ff
04
fe
f7
d5
f9
f6
fc
04
fa
f7
0b
f5
4d
0e
05
f6
ec
00
ff
0d
f7
1a
fb
06
f7
fa
06
fe
05
fa
5c
04
f0
01
fd
03
00
01
ff
2e
03
f7
01
09
00
ff
0c
02
59
ff
05
f9
fc
0e
02
fc
f2
ca
04
fb
fb
0c
0d
01
15
fe
67
fc
02
f5
fb
fa
ff
00
04
d4
fe
08
0e
ef
fd
05
0b
01
47
05
fe
fd
fb
fd
02
04
00
d9
02
fd
03
00
04
0a
fc
0e
a4
f7
02
f1
01
fc
05
f9
02
96
05
06
fc
08
00
04
07
fa
f7
06
f8
02
01
f9
f5
f9
fc
a9
08
fc
0b
fd
fe
01
fb
04
e7
fe
fd
05
06
0e
02
06
ff
ad
03
f7
fb
05
06
fa
eb
05
9a
08
05
05
fc
09
fa
07
04
ba
f9
fc
00
fa
ff
0a
fe
09
40
f9
ff
fe
02
07
fb
f9
07
d5
05
f0
f9
f7
07
f7
fc
fc
be
fc
08
03
fe
fc
f8
04
01
6a
f3
00
fa
f4
f7
05
f8
02
d5
fa
fe
f9
f5
fb
fd
f5
07
51
09
fc
f9
00
06
fb
06
09
2f
fe
08
05
f2
0d
01
fd
f9
c7
01
02
08
07
10
fa
06
fa
c1
07
f0
fc
f1
fe
02
fb
f9
df
00
04
04
fa
ff
05
02
fc
99
fc
f6
03
01
05
f5
f9
f9
cb
ff
fe
f8
02
fd
00
07
0d
5f
fc
fe
fc
0c
02
ff
07
05
14
00
fe
07
07
f7
03
03
ff
4b
09
fc
16
ff
01
06
02
07
6a
00
06
f3
01
0a
fb
ff
fe
4f
01
ff
fc
fc
fd
f3
06
fe
ba
06
01
02
ff
02
f9
05
fd
27
01
06
fc
fe
f6
f3
04
01
f7
f8
05
f8
04
00
fa
fe
0c
54
00
0a
fc
fa
f6
01
09
03
e9
f5
00
0a
04
fc
fc
00
f4
56
03
f7
06
fe
fa
06
04
08
5c
fd
fa
fb
0b
f5
0b
fd
08
c3
fe
0c
08
06
07
09
02
02
20
06
08
fa
01
01
fd
02
01
2c
06
f6
08
02
fc
fe
f6
fb
60
04
f7
f7
f8
fe
f0
0b
07
16
f5
f6
ff
05
f8
08
f9
03
dd
11
02
01
0f
f8
04
02
fc
a3
f6
fa
01
fd
05
08
04
05
a5
02
fa
0f
0b
f1
ff
f8
00
5f
04
0e
f1
fb
02
00
fc
06
f3
f4
02
00
00
fe
00
07
03
9b
01
00
0e
fc
f8
f7
02
ff
ed
ff
0a
0a
08
fb
fb
02
ff
a8
fe
07
ff
06
fc
ff
03
0d
bc
ff
03
fb
fe
fe
fd
fc
0d
b3
f7
ff
04
f6
04
fb
00
f9
c5
07
f9
02
08
08
02
fe
05
cc
ff
08
08
fa
fc
fe
0b
04
37
f8
f4
08
02
fc
fd
04
fc
fc
f6
fd
f4
f7
fd
08
fc
f8
a2
0a
ee
04
09
00
00
f7
fa
40
06
f8
fe
fc
01
06
04
04
af
01
14
ee
fa
ff
08
00
03
60
fb
01
f2
f9
08
14
05
0e
00
02
05
05
08
05
01
0a
03
2f
00
07
fd
0c
f7
f8
ff
fa
e0
03
00
03
fc
03
09
f7
06
67
07
fe
fc
fc
f8
ff
06
05
08
05
fa
05
02
ff
0d
f7
fc
a9
12
f7
fe
fd
01
03
04
fe
48
04
f9
f8
06
02
ef
f6
fc
4d
fc
fd
f5
fe
09
08
fe
fc
2a
04
04
f7
07
f9
02
f9
f7
0f
01
01
fa
f8
f8
f6
01
03
20
f8
08
08
fc
02
fc
f9
f8
4a
05
f6
fa
01
06
fe
f6
ff
36
fc
ff
f8
0f
02
03
fb
f1
c2
01
ed
fc
ff
07
fe
03
ff
d6
ff
09
fe
05
fc
f4
05
f4
49
f8
f9
f8
fa
04
f9
f6
fe
02
0d
fd
fa
f7
fc
fc
f6
f7
1d
05
fd
04
03
04
ff
0b
ff
2e
f6
08
f7
fb
ff
0e
f8
03
18
04
06
f5
fc
0d
fd
0a
fe
c2
05
f7
fd
fe
07
05
01
02
30
fd
05
02
05
fd
03
fd
f5
0e
f5
f9
03
f6
0a
10
04
fb
f0
08
04
04
0b
f0
ef
f9
fb
d8
03
ff
fa
ff
0d
f8
04
f9
c5
03
f8
f9
02
f8
fb
06
fd
27
01
12
fb
0e
0a
fe
03
03
31
f8
f8
fd
fa
fa
fa
00
fe
61
08
f8
04
fb
00
fe
09
04
ac
fc
09
0a
ff
ff
0d
ee
01
61
fb
f9
ff
fa
03
11
ff
fe
4e
0e
fa
07
07
f8
13
f6
05
4f
0d
06
02
fd
ff
fb
f9
fc
18
fe
ff
03
09
07
00
04
fc
fc
01
0b
01
0b
05
fa
f9
f8
e4
06
04
f3
03
03
fc
fe
04
4b
ff
01
ed
06
03
fb
ef
01
17
ff
07
fb
f4
03
0f
fd
05
c2
05
f7
fc
05
04
fe
f7
f8
3d
05
fc
05
0f
f8
05
07
05
cd
00
02
fc
03
01
f8
f4
f8
f5
f2
02
f4
ff
02
ff
12
01
4d
ec
06
01
00
fc
09
02
f7
cb
00
01
01
0f
02
00
01
00
2d
01
07
04
00
05
00
03
0a
41
09
00
01
f7
f8
0d
00
fc
53
fc
01
05
06
00
ff
fd
04
a6
fe
f7
08
04
02
0b
f3
fc
3a
fb
f8
fc
f2
02
f5
fb
01
b1
00
fe
fa
f7
f9
f2
03
fc
16
02
f9
03
02
07
17
f9
06
b9
fc
f5
04
fb
f7
fe
fc
fc
dd
09
f8
fe
fa
00
fb
05
fd
32
05
ff
01
fa
02
01
01
02
d5
01
0e
0b
fa
fc
00
ef
fb
eb
fb
ff
f3
06
f7
fe
07
01
20
00
00
ff
f9
f5
fe
05
fd
f4
f9
fd
04
07
02
fc
fc
f8
2b
03
fe
fd
05
04
ff
04
04
a5
09
fd
01
ff
fb
f7
0a
fe
67
01
0e
00
fb
ff
03
00
04
bd
f6
09
fb
05
fe
04
fa
05
db
00
02
0b
f6
05
fa
fa
f6
a6
f3
05
fd
ef
f7
00
f6
fb
d8
07
00
f8
fb
fd
02
f8
f5
d7
fa
01
07
f6
05
09
05
02
03
fe
06
0a
01
f2
fe
fe
fe
34
08
02
09
fc
02
11
fe
f7
8f
01
ff
fd
f2
fb
07
00
fe
cf
fc
04
09
02
0a
ff
02
07
21
06
08
06
fa
f9
03
06
01
b8
f7
08
09
06
fb
fe
03
ff
f3
f9
fd
ff
f3
03
04
03
03
44
00
fe
f9
fb
0b
fd
f9
02
d3
03
fb
02
09
fa
f8
05
fb
35
f8
fe
ff
00
fe
04
09
fd
c6
f7
06
0f
fd
fb
06
05
07
93
fb
0e
ff
04
04
ff
fd
f4
0a
fe
fc
00
f7
02
02
05
08
d1
03
09
00
ff
fd
00
03
03
0d
04
00
fe
01
fe
08
09
04
e3
fe
06
05
02
02
02
ff
00
cf
f6
02
fc
02
00
ff
fd
03
2c
06
03
01
f3
fd
03
01
fe
1a
fd
03
fc
fc
fb
f9
fa
fd
55
fa
04
fb
f9
06
ff
06
06
c2
f8
ff
fc
07
fd
fb
07
fc
1f
03
f9
f9
f9
fc
03
fb
02
0b
f3
f7
f8
01
02
03
fd
f5
d3
f8
fe
09
fb
11
06
00
06
42
09
f8
f9
13
fb
fc
05
fb
0f
06
08
06
f6
f4
02
08
fa
3b
fe
02
f6
f6
03
f5
fb
08
99
fa
04
05
0e
06
09
00
00
44
08
f9
01
f0
06
ff
fe
0e
5f
f7
0d
08
f8
03
04
fe
fd
4c
fb
00
fe
06
02
01
05
03
ba
ff
fe
fd
00
08
02
ff
01
ca
ff
f5
ff
08
fe
fe
fb
f9
d2
04
04
0c
06
06
05
07
f3
2f
0e
00
fe
0f
04
02
08
ff
2a
fc
f9
07
fe
fd
fe
f9
0b
c6
00
04
07
f6
04
03
03
03
c0
0a
0b
09
f9
f5
fd
0e
06
4c
07
f6
08
05
04
02
00
05
ea
01
02
09
fd
fd
03
f6
03
2c
0f
fb
fd
fe
04
03
0c
f9
5c
05
02
0c
07
ee
fe
04
01
23
00
fd
fd
08
fd
fd
ff
05
02
04
fe
fe
0f
01
0a
19
05
9c
f7
fd
f8
f9
00
fe
f9
05
c1
08
03
fb
f8
f8
ff
04
fd
f1
f2
06
01
fd
03
fd
00
fc
f1
fc
01
07
01
05
02
fb
0b
bf
f8
08
f4
ff
0b
ff
f9
02
cc
0a
0f
0f
05
fa
0c
fe
fd
09
f0
0c
ff
01
fc
09
ec
0a
e8
fe
fd
ff
06
f2
fc
ef
00
35
05
f8
fb
0d
f6
f7
ff
09
e6
fc
00
11
f1
00
fe
fe
03
54
fe
01
ff
01
02
04
05
f9
79
08
01
06
fe
fc
f7
03
fe
df
03
08
04
fa
08
f6
01
fb
45
fc
03
ff
01
0a
f9
03
02
d2
fc
fd
04
02
01
0b
f4
08
b6
02
03
f4
07
f2
08
f8
f8
71
fe
fd
0e
00
06
04
05
fd
0b
06
09
fd
fe
05
0c
00
fb
42
04
ff
ff
fe
f5
fc
fd
f9
db
01
04
00
f8
fb
00
01
01
9e
08
ff
fd
05
fd
ff
01
fe
e0
09
fd
fa
fd
0b
fb
05
02
58
fc
f7
f7
01
04
f8
f7
00
ca
0d
fa
ff
f9
fe
0b
06
fe
b7
02
06
00
ff
fc
fb
ff
09
4e
04
09
01
07
08
09
f7
f7
e6
fe
0a
fa
01
fb
f7
f7
fe
14
00
f4
fe
fc
02
f5
09
f9
1b
fc
fa
fe
01
fe
01
01
09
17
01
fe
f8
09
05
fb
fb
05
d5
f8
02
fe
fe
01
07
fc
03
a7
0f
08
f3
fe
0a
01
f9
03
bb
f5
f0
08
03
04
04
f7
fb
51
fa
0a
01
09
ff
0d
fa
02
5c
04
fc
fd
fc
06
03
f9
07
9f
06
f5
fe
06
fa
f9
f8
05
10
fd
0e
01
02
00
15
06
fb
ea
08
f1
07
00
f1
ff
07
09
b9
07
04
06
ff
ff
03
08
02
49
ff
00
06
fc
f7
00
06
0a
e2
ff
0b
fa
fd
04
fc
f9
f5
03
00
0a
f7
fd
ff
f3
ff
fd
55
02
fe
ff
fe
01
08
06
fc
46
ff
f1
ff
f7
fe
fd
f9
02
63
02
ff
04
02
0b
0d
03
02
d9
fd
02
ff
02
09
ff
f6
08
4c
fb
04
08
f4
fe
00
08
00
b7
02
06
07
07
03
03
f9
07
dd
ff
fb
fe
06
02
10
fa
ff
1a
16
fd
fc
04
0a
fa
fe
f6
db
0e
fc
05
fb
0b
ff
fa
08
42
f8
0b
fa
fc
fb
02
ff
08
fb
fe
02
fa
fa
04
00
06
fd
09
fc
02
fe
ff
05
f9
f9
f8
e9
f4
05
fc
ff
01
00
08
fe
54
08
fc
fd
04
f6
ff
01
f3
19
fe
fd
ff
12
fc
0c
07
05
a0
01
fb
05
fa
01
01
fb
fd
9a
ff
ff
06
00
03
f9
09
ff
37
04
fb
03
13
01
0e
04
0b
09
f7
f3
02
07
01
01
f9
09
35
fe
fd
04
ff
09
fd
f9
ff
67
f9
03
ff
01
03
f2
02
06
d9
02
0f
01
01
fe
0c
ee
06
53
05
fc
0a
ff
08
fb
02
01
e1
03
fc
09
07
fe
02
04
fb
ba
fc
fb
01
05
f6
f7
09
fd
2f
0f
ff
04
07
03
10
05
06
ba
fe
09
ff
00
fa
07
ff
fe
ac
05
fa
01
02
fa
09
09
03
31
fe
fe
ed
08
ff
fe
fc
02
48
fb
fc
04
01
fa
f7
04
04
d6
0a
fe
fe
ff
fc
07
02
f4
c0
fd
ff
f9
07
f9
00
f9
fc
f2
01
00
06
0d
09
08
08
f1
00
0b
fe
02
fa
07
01
06
f5
f9
05
09
02
fd
f4
fd
ff
fa
cb
fa
fc
00
00
fc
f8
ff
07
bb
0b
fe
ff
03
fd
ff
ff
0e
71
f2
07
05
04
f7
03
fc
f7
0a
01
fa
06
06
fd
06
0f
fd
39
07
00
02
f6
fe
01
01
00
5d
ff
fe
f8
f7
fe
f9
00
ff
55
02
05
09
fa
06
01
05
fa
18
0e
06
05
fe
06
f7
05
fc
b4
06
fd
fb
fd
fa
e6
0a
08
3f
f8
fe
f3
f5
04
f7
fe
0b
96
fe
fd
fa
00
04
0f
09
09
1b
fd
f8
fa
0b
fb
ff
06
fb
60
02
f8
04
0b
fe
06
05
f1
08
ff
f9
0b
07
01
f7
f8
03
35
f5
fa
fd
04
0e
00
06
07
da
f4
02
f6
04
01
fc
ff
f2
12
05
fc
08
0b
02
00
00
fe
ca
02
0b
02
fe
fe
04
fe
09
44
ff
ff
00
fc
f6
f5
ff
f9
ee
03
ff
04
06
f0
05
f6
00
ec
f8
fa
03
f7
08
0b
ff
ff
5d
05
f6
02
05
f9
fc
00
fe
9d
fd
07
0b
02
f9
f9
fe
09
93
fa
fd
f9
04
08
0b
05
fc
b9
05
fe
fa
ec
02
04
06
fc
2e
08
f4
04
07
ff
03
0a
01
d4
fc
02
04
f8
01
0d
f7
0d
c1
fe
04
01
05
05
03
f9
01
96
0c
f3
01
fe
0d
00
00
08
45
ff
fe
05
07
fb
f9
06
0d
55
ff
02
f3
fd
09
fa
f0
04
68
00
00
06
f4
05
03
0f
fe
37
03
f3
05
04
fe
06
fc
ff
df
ff
05
fe
03
fb
fd
01
fe
d1
f7
ff
ff
08
04
05
ff
07
5a
03
09
ff
fb
f9
f4
00
0c
fc
fc
05
07
f9
06
08
fc
fd
46
00
07
02
f4
09
03
f6
03
1c
09
fb
0e
02
fd
02
03
0b
d1
fd
08
fa
06
ff
fb
fe
fa
92
ff
0a
02
f4
ff
03
f7
fc
df
ff
02
fd
06
fc
fa
06
0c
a9
f3
09
f9
fb
f4
f8
11
01
ff
eb
fe
04
fa
ff
05
08
04
bf
f7
01
fe
f8
04
f5
05
03
5f
08
00
fe
f6
05
fb
fb
03
c8
02
fd
03
04
09
ff
09
fc
ac
fc
02
05
02
02
10
f2
01
48
01
f7
03
04
f6
fe
03
07
09
fe
fc
01
04
f5
f7
09
05
ad
00
fe
04
07
00
11
01
04
ad
0c
07
fc
05
eb
f3
14
02
e0
03
03
09
06
ec
01
0d
02
0b
0c
05
0a
0d
01
fb
06
12
a1
fb
12
eb
f7
16
fe
ff
fb
54
ee
f9
0b
0b
f7
fe
fd
08
fd
01
ff
03
fe
f1
03
05
fd
66
fc
09
ff
03
f5
fb
fb
fd
3d
fa
14
fa
01
f5
e6
02
f2
e2
fc
03
fa
01
0b
e9
06
0e
ca
ff
f9
08
f6
fa
fd
06
ff
00
fe
fb
f7
f7
03
0e
01
07
ea
00
ff
00
fa
03
f7
f1
fb
42
fd
ef
fc
f7
05
0d
0c
01
42
04
03
06
ff
fc
fe
fb
04
13
0a
06
fe
f8
ff
fb
fe
f3
ad
ee
01
0a
f5
08
0c
02
03
4b
10
0c
f9
0b
02
ff
02
00
f6
fe
f9
f5
03
fc
01
ff
f9
23
fa
fc
08
fa
09
fa
01
fd
56
04
06
fe
0b
07
02
fa
02
c4
f9
07
ff
f8
fc
02
fa
fb
56
fd
02
0d
f6
fc
ed
00
fe
55
05
12
0c
02
f6
05
01
fe
cb
f9
00
06
02
fb
04
fa
f5
f5
fc
fe
ff
00
fd
07
05
fb
dd
f4
fd
01
f7
01
00
09
fa
a3
04
fc
0c
fc
07
fd
fd
fe
dd
ff
fc
fc
fb
04
0c
ff
01
e1
fb
f6
06
0a
05
00
fd
f6
48
03
f7
00
fe
fc
fb
00
fc
43
f1
09
02
fe
fa
f7
fe
fe
35
f5
16
0a
03
08
01
0b
f9
3b
09
03
f6
fb
03
f9
01
fe
71
02
04
fc
00
f8
05
04
fc
0d
0a
02
fc
02
fd
f7
07
fb
89
f7
03
05
fc
0c
04
09
ff
c5
fc
fb
04
fc
fd
01
ff
fc
55
fd
09
fd
08
10
06
05
02
9b
02
fa
f9
fa
0a
fa
fd
00
ea
f9
01
fe
fa
08
f6
f8
00
09
09
f6
ff
f9
00
09
02
03
f7
01
f9
01
00
00
10
f8
ff
ff
fa
03
f8
f6
00
fe
ff
f7
12
f9
0b
0f
fc
04
04
f6
00
46
07
f0
fc
09
03
06
07
ff
23
0b
04
f4
ff
0e
07
fd
f4
5f
f1
0a
04
f7
01
f7
f9
01
95
fd
fe
fb
09
fd
04
17
06
39
fd
07
0d
f6
fc
05
02
ff
2e
00
08
03
f8
01
0e
fc
fb
0f
07
05
f8
fe
02
fd
f8
fc
ae
ff
09
ff
12
02
f4
fb
fa
f1
f5
fc
07
fd
01
03
01
f2
d7
06
01
0e
03
07
04
04
08
34
ef
05
03
0a
02
0d
02
fa
fc
f5
04
04
fa
fb
11
0d
09
ca
f3
ff
02
eb
0c
07
fd
fe
d9
09
01
07
f6
fb
04
08
f5
f2
0b
07
09
00
fc
fe
08
06
e9
0c
f5
09
08
f1
fd
fd
f9
e5
08
f3
f9
09
0f
fe
fb
04
4f
08
08
0a
05
03
f7
fb
ff
4a
f5
03
fe
fe
03
f1
fe
08
2e
f6
03
f3
02
03
07
0b
f7
55
fa
08
0b
05
03
f6
04
04
2e
f6
fd
fa
eb
04
03
10
ea
fb
08
06
f9
f4
f9
04
08
f7
50
fb
00
12
fa
08
fd
ef
02
c7
08
f6
f0
07
02
00
0f
fa
99
02
0a
06
ff
0d
05
03
fc
a3
05
fe
fa
f4
fa
f7
fb
fe
4e
04
04
08
02
00
ef
ef
01
5c
02
fa
f8
f8
03
00
fe
ef
4c
0b
03
00
f9
03
07
ff
fc
a1
08
0a
02
fc
f8
05
09
01
e2
02
0a
04
02
fb
f6
04
fc
9b
00
06
10
05
f9
f5
fd
f7
ac
f8
fe
01
06
08
0d
07
03
e4
f9
ff
04
00
04
f8
ee
03
ed
08
fa
fc
fd
f7
f5
01
fe
fa
03
02
fe
f8
02
07
06
09
63
f6
fb
0b
03
0f
09
f3
00
a7
01
08
06
0b
fb
08
01
02
f9
f7
06
09
0c
fa
fa
09
02
dc
08
01
fb
00
00
fc
00
03
ef
fb
fa
ff
fc
f8
05
03
0f
0f
fb
fd
fc
ff
08
fe
f8
f7
fc
05
f9
04
02
04
fb
08
03
b3
03
fc
f9
fa
01
f4
0d
05
0b
05
fb
fa
fa
06
f5
fa
05
97
01
08
fd
06
f9
00
04
f3
0d
05
f5
00
fa
fa
f8
0c
ec
66
01
06
04
07
fe
03
f5
0a
e2
02
f8
f7
fd
03
01
08
0a
25
f1
05
05
03
fd
fc
f6
01
3c
01
fa
fa
fd
08
02
07
fe
ea
ff
f9
01
07
ff
f8
0d
fd
bc
fe
fd
fd
f2
0a
fa
f8
01
ab
02
ff
f7
f8
14
f5
04
03
b7
10
05
02
fc
f2
f7
0a
f8
a5
ff
05
fb
01
ff
04
04
01
2d
02
ff
f4
fb
fc
06
fc
fd
df
0e
f0
fb
fd
00
04
06
07
28
ff
fd
08
00
f1
06
f6
fa
3e
ec
02
05
f4
06
09
06
fc
b1
0a
07
ff
0c
fa
fa
fe
ff
59
02
07
09
0a
fe
04
f8
06
21
01
fa
f9
07
fd
03
fa
fb
d3
fe
02
05
01
01
04
04
fb
a9
f9
fa
f4
0b
ff
fa
ed
fa
b2
06
fc
0e
03
02
00
fb
04
4f
03
00
fb
ff
07
03
01
ff
b4
fe
f2
fb
00
08
15
04
ff
ef
fd
01
06
fd
01
ff
f7
0e
6c
00
01
04
fd
ff
00
f8
00
0c
05
fd
0a
06
fd
f7
01
fe
25
00
fd
06
0c
fd
fc
fd
01
2b
fc
00
fa
f2
f8
fd
fd
05
45
f7
f8
02
f3
08
04
f7
0b
de
ff
f9
00
fd
13
06
06
04
f1
00
02
f4
fd
08
05
fe
02
12
f7
ff
fa
07
07
00
f9
f4
da
02
ff
02
0c
ff
08
04
f3
df
ff
01
f5
f8
00
02
11
0c
13
01
03
f3
05
fa
ff
f8
f2
5d
03
fa
06
08
07
0d
fd
00
bd
fc
01
11
07
05
0c
fb
01
51
fd
ff
f4
02
00
fe
f9
ff
05
02
f8
0d
08
05
ff
02
f5
08
04
04
f4
02
fc
03
ff
f8
e5
fd
02
f9
0b
02
f6
00
fc
47
05
03
07
01
06
fc
f8
03
09
f9
06
f8
06
fe
10
08
fb
d8
00
00
f6
f9
09
ff
fb
fb
a5
fa
02
fa
ff
00
ff
f1
fd
33
fb
ff
ff
f9
fd
08
04
02
cf
03
03
fd
f5
02
f2
fc
f0
df
00
00
fc
05
fc
fd
fe
f7
24
07
00
00
ff
0a
0d
03
00
fb
ff
05
09
fd
fb
fd
fd
04
56
02
05
07
00
07
fd
f1
03
1c
ff
f9
04
02
ff
00
0d
0e
58
03
f4
fe
06
ff
00
fc
00
4f
ff
06
ff
f9
f5
03
fe
03
eb
06
fd
fd
02
0b
07
03
f6
05
09
f2
fc
08
f8
f9
fc
f7
d6
fd
fa
06
f7
ec
00
09
04
53
fd
02
ef
03
03
02
04
00
01
04
09
00
fa
ff
fc
03
03
3e
fc
fb
f8
f8
f5
ff
04
06
55
ff
f9
f6
05
ff
01
03
02
12
16
fc
03
00
07
09
fe
00
31
10
f8
f5
01
0f
fc
06
03
fc
01
f5
04
f9
00
fc
f4
04
40
f8
fb
fb
ff
ff
fc
f9
ff
48
02
00
03
fd
03
03
f8
07
a9
03
01
fb
02
07
03
03
01
01
fc
05
fe
fd
fe
fa
06
05
f8
00
03
08
06
06
fd
fa
0d
bc
f9
04
07
fc
02
f8
ff
fd
5b
ff
f3
fe
f4
09
fc
f6
04
09
f9
f9
00
0a
0c
05
f7
fd
3b
01
f1
fb
f7
fe
f5
04
00
a9
ff
fe
0e
fc
fc
00
05
f5
14
0a
02
f8
04
04
02
ff
f9
61
f9
f4
fa
fa
0d
08
03
01
a0
04
f5
07
04
00
01
05
06
e2
f9
fb
05
f4
0b
fa
fe
01
5f
05
09
0d
0e
fa
04
fc
fb
9a
05
fc
f5
07
03
06
00
05
cc
fa
f5
04
05
fc
fb
07
fc
26
f2
fd
fd
08
09
00
04
06
e2
fc
05
00
fd
fc
ff
fb
ff
14
08
00
fe
0a
fa
00
ff
0e
ab
0f
00
fa
f7
fd
01
09
01
9b
fe
fb
0a
f4
08
03
fb
fc
4c
fd
f7
f4
0c
fa
f9
0d
07
12
fb
fa
ff
fc
f6
fd
03
ff
01
fa
ff
04
fe
01
04
0a
08
a6
03
fc
07
fb
05
0a
01
ed
a5
fc
fb
00
fe
fe
f9
03
01
59
fe
05
fb
f9
03
fa
07
f1
91
0b
05
00
fd
ff
04
0f
02
d3
00
fc
f4
00
02
00
fb
01
71
fd
03
ef
09
f3
07
0e
05
18
0a
08
fe
f8
01
fc
fd
03
0b
03
f8
0b
f7
00
fe
02
10
f4
01
ff
fd
00
ff
fc
fb
02
f5
f9
fa
fb
0b
fd
03
08
f9
e1
04
01
08
f5
fd
03
01
06
60
0e
05
f7
fd
03
08
fb
fe
c1
01
05
06
02
fd
00
07
04
22
03
fa
f9
f6
fe
f2
fe
0b
2f
07
fe
fc
05
06
f8
02
00
38
fa
f8
fd
fc
ff
ff
fe
05
a2
08
fe
fd
fe
fe
07
04
03
d1
04
fa
10
f4
02
fa
f3
f7
b7
00
fe
f7
0e
02
09
05
ff
66
fb
f6
06
f7
fb
ff
06
05
bd
f0
fa
fd
f4
08
ff
f9
05
52
00
fd
0b
03
02
ff
fd
0d
9b
0e
fa
06
fe
