06
04
f8
f9
4c
09
fc
05
fe
06
09
01
04
e1
fe
05
07
05
0c
0a
f6
03
63
06
03
03
04
fc
f4
fb
00
63
ff
fd
0c
f0
ff
04
01
07
b4
03
fd
fb
f6
08
f9
01
09
0f
04
fd
01
0a
05
01
fb
09
ac
00
f9
f5
07
03
fc
03
06
4b
00
02
05
08
fa
05
ff
f7
98
f4
fe
0b
04
f6
f6
01
07
da
09
02
03
01
fd
00
04
00
59
00
03
fd
f6
05
f4
f8
ff
ea
03
02
04
fe
f9
f6
f9
f6
61
fd
04
02
01
03
03
02
00
4e
fd
07
0a
0a
00
fc
f4
fc
3c
07
05
ff
01
03
f9
06
f5
bb
f8
fe
00
fd
fa
07
06
01
b5
03
f9
fc
f9
03
02
06
04
6e
fc
fb
01
00
01
0f
03
f3
57
00
04
f7
05
fb
09
0a
f6
3a
02
fc
02
07
fa
08
09
f4
0d
f3
f8
03
08
00
02
09
00
ae
fd
02
fb
09
03
05
09
fc
29
03
f7
fd
fd
fb
0b
07
00
b5
05
fa
fb
0c
f6
0f
06
f6
10
ff
f4
f6
03
01
06
08
01
44
f7
f8
08
07
02
f7
03
fe
d3
fd
07
06
fe
0d
f6
09
06
bf
fd
05
09
fd
0a
07
08
fd
9f
f9
f9
f9
0b
09
05
ff
01
ab
fe
0d
f7
f6
f9
0e
f3
04
b6
0d
03
f0
06
fa
fa
f9
00
fd
fe
02
fa
03
fe
eb
f2
f7
ea
0d
05
00
04
08
fb
f1
00
90
04
0b
0a
fd
fc
f6
fa
00
0d
00
f8
03
ff
07
06
05
f3
ec
0a
06
05
fe
ff
07
f7
fb
5d
12
0b
02
ff
f9
fb
f8
fa
de
08
0b
04
f7
f6
fd
f7
fe
e0
09
05
f8
fe
fe
f6
f8
06
59
02
02
09
f9
03
00
f7
ff
6b
00
00
08
fe
03
09
fe
04
9f
02
01
f2
04
10
00
fc
05
29
fd
00
06
f7
07
f7
f9
01
f2
04
06
0f
01
06
fc
04
fa
5a
00
09
08
fd
03
fd
02
00
3e
fc
0b
ff
ff
fe
02
f8
fb
f2
fe
0a
0c
04
fd
04
05
02
48
07
03
05
02
fd
fc
05
fd
e0
07
04
f7
03
00
fe
09
00
53
fc
fe
06
f9
08
08
11
fe
bd
ff
01
0e
00
01
f6
f9
05
b6
f6
fd
05
01
02
04
fe
03
f4
fd
00
0a
01
f9
fa
06
05
d8
08
f5
fd
05
0a
08
fe
04
44
f8
f4
f6
06
fb
09
09
0a
b5
01
f5
fd
f9
02
f9
05
fd
c9
07
fb
f5
ff
f9
f1
fb
f8
52
02
fa
f4
00
fa
02
09
01
f6
00
01
03
f8
fd
05
fd
01
5e
01
f8
f9
f8
fa
04
02
0a
0e
f6
f8
07
fb
04
05
00
fb
32
fa
fd
f8
0a
ef
00
fc
02
1d
06
01
f6
06
01
fa
01
f8
5c
07
08
09
00
f7
f1
04
f7
65
04
fd
07
fa
fe
02
07
0a
d9
fe
02
f5
fa
fb
00
f1
fe
2c
fa
fb
ff
01
00
fb
05
f4
f7
fa
02
06
fd
07
01
00
0c
46
ff
06
fa
00
f6
f1
fd
fd
b0
fa
f8
07
01
fb
fa
00
09
f0
fc
fc
f7
06
f8
fa
ff
02
3d
fd
03
06
01
f6
fd
0a
09
09
f6
0c
0c
01
f5
00
05
03
cc
f6
fc
09
ff
ff
02
04
0a
a3
01
04
00
03
01
ff
00
f9
db
05
fe
f7
0d
10
f6
f3
fd
23
fd
01
11
05
01
fc
04
04
e7
f4
06
06
04
f3
fb
03
ff
31
fe
01
f8
01
f5
f9
f9
f6
ad
f8
0c
05
06
02
f8
ff
f7
fa
02
00
fc
fd
01
fc
fa
02
98
fe
fc
01
05
0b
fc
07
fe
b5
f6
09
fe
06
fe
05
07
03
cd
06
07
02
fb
fe
0f
00
07
41
03
06
fb
01
fe
06
08
00
4e
03
0d
06
ff
01
0f
f8
fe
17
03
f2
fb
02
05
fa
f8
02
b5
fe
03
fe
fe
00
01
04
09
e1
07
0b
f0
fc
ff
04
02
03
ab
02
f8
03
fd
f2
fa
fd
fc
5c
07
01
01
02
f8
01
0c
ed
f3
07
fb
f5
f5
06
10
ff
0a
c0
fe
06
f7
ff
0c
03
02
00
50
04
04
f9
04
fe
fe
f7
00
55
fa
fd
f2
f5
fe
fd
fc
02
bb
fe
0e
fe
08
0a
14
0b
01
d9
06
0c
fc
ff
fb
0c
06
01
13
f7
04
05
08
08
f6
fe
fe
0d
04
02
03
05
02
fa
fa
00
5a
fe
f5
fe
f5
09
0d
06
04
12
fb
05
f9
06
09
05
00
03
9f
fc
01
fb
fa
fd
08
08
ff
ef
fe
0a
f5
07
00
f8
01
fe
bb
fe
02
fa
01
ff
02
ff
09
1a
08
f6
f5
00
04
f2
ff
fd
27
05
fc
03
fc
03
05
01
06
95
04
07
00
ff
fd
03
ff
01
af
05
fc
fa
f8
f4
03
01
0a
35
f8
f7
04
f9
06
fb
f2
f8
14
ec
fb
03
04
0a
01
0b
01
1d
05
f8
f7
fc
fc
01
05
fd
ab
f4
f5
fa
fc
f8
f8
02
fb
49
fc
f6
fd
fe
f3
03
06
00
cd
fc
09
fc
fd
f8
fd
fe
00
47
07
04
ff
03
03
0f
02
03
a3
0b
02
04
04
02
03
03
00
d4
f4
f6
01
03
ff
05
0c
f6
03
ff
04
03
00
fc
07
fa
fd
3a
01
fd
08
f5
f0
f7
ff
05
fd
05
fd
f9
00
0d
01
01
07
42
fb
fe
07
00
f9
05
fa
05
cc
00
07
00
0d
0d
f6
04
04
01
ff
fb
ff
fc
fe
04
03
fd
6b
08
01
0c
f9
07
03
01
f8
b0
03
fe
0a
10
ff
0e
f9
04
e9
09
02
03
06
03
f8
05
08
12
fc
f9
03
03
0a
04
ff
fd
ef
fe
f7
f2
02
03
07
0c
ff
20
ff
f8
00
fa
f8
0e
00
01
14
fc
fe
f7
ff
02
00
08
05
8e
04
05
03
00
07
fd
f3
ff
08
07
fc
fe
01
ff
0b
f9
0a
16
00
02
04
01
f3
00
05
0d
21
04
0b
04
06
f5
08
fe
14
a6
fa
0f
0d
03
f9
01
03
08
e3
05
f5
f5
03
ff
0c
fe
06
5f
00
f1
00
04
fc
ff
f3
ef
13
06
08
05
03
0b
f9
02
08
a6
fd
fc
f6
00
fd
06
0b
ef
eb
0e
fb
00
f6
00
fe
08
03
10
f9
03
f8
ff
f6
fd
fa
08
da
00
05
ff
05
fc
fe
f8
fe
2a
04
05
00
04
f9
fe
00
f7
1d
01
0a
fa
0a
02
02
fa
f8
43
06
02
0d
ff
00
fe
f5
09
dc
0c
f9
fa
05
06
08
f9
07
28
02
fa
fc
fe
06
09
00
03
be
f5
fb
f4
fa
fa
06
03
01
1f
f6
04
03
f5
06
03
fb
02
2f
fc
ff
ff
fa
ff
ed
f6
09
88
f9
07
0a
04
00
fb
07
11
68
fc
fc
ff
fc
0b
0c
07
05
3e
f7
fa
ff
f5
07
13
09
02
56
fb
ef
04
fb
fd
fb
fe
07
70
04
01
08
05
f0
00
f9
01
6f
05
09
ff
fa
06
05
f8
fd
dc
fa
01
fa
01
04
f8
03
fd
b6
ff
07
03
0a
02
06
f6
fb
66
01
fe
f8
f7
03
01
ff
0c
a7
fd
fd
04
02
0a
fe
09
08
a5
01
ff
06
fa
fc
04
02
00
41
fc
02
fb
f7
05
08
fe
fd
60
00
ff
f1
fb
fc
03
08
00
24
03
04
05
0a
01
ff
02
03
1f
03
01
02
01
0f
09
ff
06
5b
f5
0b
0b
fd
09
02
02
ff
c6
f6
05
07
fa
fe
07
fa
02
a0
fd
fb
f7
fe
0a
f6
02
00
60
02
05
02
fa
f6
05
f6
02
3b
f8
07
0d
fe
00
ff
fa
02
ba
00
02
f4
fa
fe
f5
09
ff
5b
0e
ff
1b
05
05
fa
04
02
bf
fe
07
09
04
fb
01
00
08
5b
f2
05
05
fc
ff
03
04
fd
55
00
fd
09
08
06
ed
fe
02
f5
ff
03
08
07
04
02
f5
ff
5e
fd
01
ff
04
01
03
ec
07
96
f5
f9
f7
06
01
f8
04
fc
c9
01
f5
fb
05
03
05
02
09
99
fd
03
fd
00
07
f1
fe
f8
b1
0d
ff
03
fc
06
fb
ef
04
06
00
02
00
0b
04
06
fb
00
23
06
fd
f3
02
fd
03
f9
fc
4d
f6
09
fc
01
07
fc
00
fa
29
0e
05
fe
f5
ff
ff
f5
02
16
fa
fb
ff
fa
01
fb
01
05
38
01
04
05
06
08
09
fa
07
2a
0b
09
ff
00
fb
f9
06
ff
56
06
fe
fa
04
06
07
03
02
fd
f9
fd
ff
00
fa
fd
01
f5
b7
02
00
fb
fd
0a
f9
ff
06
e8
fc
04
0e
ff
01
06
02
07
91
02
fd
02
ff
fa
04
f9
06
98
ff
ff
06
fe
05
06
0b
03
e7
ff
03
06
00
04
fe
00
02
b4
ff
fe
01
00
05
fd
02
01
58
03
03
ff
09
06
07
06
01
32
05
fd
03
04
03
02
04
01
26
01
00
f3
03
fb
03
f6
fd
d2
02
f7
0d
04
02
fe
f8
ff
10
f3
02
fa
0b
fa
02
00
06
aa
01
00
03
00
ee
f2
f5
0b
26
ff
fa
fb
f4
fc
07
06
f9
c2
ff
07
02
05
fb
fe
00
fc
cc
01
fe
02
f3
09
08
03
08
c5
fa
00
00
00
05
ff
00
02
cc
02
07
f5
05
f5
05
fe
00
29
01
fe
fa
f5
03
05
03
fd
16
fe
fd
01
f8
ff
00
fe
00
9b
f6
fe
01
fa
fa
fd
fe
04
9e
ff
09
f7
09
f9
fe
f2
f5
5d
fd
f9
00
06
00
01
fa
f9
46
05
01
f9
06
fc
fb
05
f4
cc
fe
f6
00
11
fd
04
06
fa
f3
08
f0
05
f7
f9
07
fb
f5
d1
02
05
06
fc
00
03
ff
01
13
fe
03
f8
08
0a
0b
f7
fc
06
f7
0d
10
0c
09
f9
09
05
d8
f7
0f
f7
fb
01
f9
0a
05
ca
fe
01
ff
fe
04
f8
fd
f9
ec
02
03
09
13
0a
02
f6
0c
e7
fd
01
fb
ff
03
f9
fa
f9
40
0a
04
f3
fd
03
04
fe
f6
10
06
00
ea
00
03
f1
f9
fd
1b
08
03
f4
11
0b
00
07
00
c0
08
0a
ff
fe
09
00
ff
fb
31
fb
f5
fa
06
02
09
09
05
c3
00
fb
01
f9
05
06
03
f2
40
0f
06
00
04
08
f7
fb
ff
a2
09
05
f4
0a
fc
ff
f8
ff
64
0a
01
02
03
0b
f8
fc
fa
63
01
06
fc
ff
00
02
05
04
01
01
ff
0e
fb
fa
09
f5
06
70
fc
0c
fc
01
02
09
fe
ed
24
07
01
03
04
04
f7
02
0b
b6
fd
09
0f
f2
04
f7
02
04
48
fc
f7
01
ff
fc
03
fd
05
af
fb
ff
f8
ff
01
fc
fe
ff
0c
01
03
05
f8
05
03
00
08
45
01
03
03
ff
02
fb
fc
0c
4d
f9
01
fc
fa
05
04
08
ff
01
ff
f9
02
01
00
06
06
09
bb
02
f7
04
fa
04
07
fa
fb
8c
f7
0a
06
06
fd
fa
03
07
db
04
f4
07
02
04
00
fe
ff
fc
08
02
fb
06
04
02
f7
f4
40
f8
f2
03
0a
fd
04
03
08
4e
f3
f1
06
f6
fd
08
07
fd
58
0d
fd
f2
02
fd
f7
09
0e
14
01
fc
0a
fd
f1
00
09
07
4f
ff
ff
02
fa
04
09
00
0b
fd
0b
09
fe
07
fc
00
04
00
9c
fe
00
03
ff
fd
04
01
f9
4d
05
09
fa
fd
03
01
fe
fe
1b
06
ff
fc
f2
fb
02
f5
02
a6
03
fe
06
01
04
f2
00
0a
c0
0d
ff
03
01
03
09
02
f9
3f
f9
02
fc
fa
fd
0b
01
01
d4
01
fd
03
09
f4
f3
fe
05
2b
09
0d
03
04
05
fa
03
01
31
0f
ff
01
f6
0b
f9
0e
00
b4
0c
00
05
01
11
04
00
f5
f7
fc
f1
ff
f7
06
0a
09
00
e7
09
09
00
fb
01
f9
07
f9
21
00
05
fb
fa
fd
00
fc
05
d5
f4
0c
fc
00
fe
0c
fd
f9
bb
fa
f5
ff
05
f8
fe
ff
09
97
f9
07
0b
01
fe
ef
00
0b
ea
0c
0d
fc
02
ff
f4
09
04
3f
15
fe
ee
05
fc
08
fe
fa
b1
f1
ff
0a
01
05
fa
fc
fe
c4
f4
fb
05
02
02
04
00
0a
ab
01
09
0d
09
14
fc
02
00
ea
00
f0
07
07
05
ff
fb
ff
4a
f2
fc
fe
03
06
ff
09
05
fb
13
f9
fc
f5
00
02
02
02
cf
fb
00
02
fe
10
0f
fd
04
14
08
00
05
00
fb
00
05
0a
b0
fa
07
fe
05
14
f2
08
fe
2d
00
ff
05
fe
fd
0c
fe
fe
ff
08
fe
f9
fb
07
02
06
05
fe
0a
fc
fb
f7
00
00
f8
ff
2f
f9
05
01
08
07
09
fb
fc
6c
fb
fc
09
05
03
08
fb
05
45
07
fa
ff
fd
f9
08
fd
ff
0d
fb
fb
fe
fe
08
04
fe
00
e2
01
f7
01
f4
00
fa
06
01
93
00
fc
f8
fa
fb
e9
fe
04
d4
ff
f0
01
07
f8
f2
0b
f0
db
04
fd
fa
00
03
01
00
03
d9
f9
f5
ff
fc
01
07
0c
fe
19
02
fd
04
05
f6
fc
02
ff
1d
fd
ff
07
fd
fe
ff
f8
f1
63
f4
06
0f
09
00
fe
f7
07
02
01
02
0d
fc
fd
f7
06
f7
fa
f8
0d
f8
fd
0a
00
04
01
e3
05
02
02
f4
0b
03
0f
ef
d0
05
02
0a
01
f7
f6
03
03
ab
03
ff
f7
0a
06
09
0a
fc
90
00
02
03
fc
06
fc
fd
fb
9f
fc
03
fe
07
fc
f4
03
ed
3a
01
04
03
05
00
0a
0f
02
f7
ff
05
0a
f7
ff
03
07
f8
c6
07
09
07
02
04
07
00
fa
57
fe
06
11
0d
f9
ff
01
09
74
03
fc
03
07
f9
ff
0a
0d
16
04
fe
fd
fc
08
e9
fc
06
e0
fa
08
fa
ff
fd
fc
f8
00
6d
f8
08
01
fc
ff
f6
f4
03
58
fb
04
03
00
ff
fa
fa
11
55
f9
09
fb
08
0a
fc
fb
07
09
f7
0d
02
00
07
f4
f9
03
6c
f9
ff
02
ff
f5
f5
f6
09
e2
00
f5
f3
f3
09
0c
fc
ff
c0
ff
09
0a
ff
fe
04
fb
f6
0e
fd
04
ff
10
f4
02
f8
ff
e4
f9
06
f6
f5
f5
f9
09
fe
a3
ff
09
fc
07
fa
07
05
fd
2d
fc
0c
0e
fc
ff
03
09
11
ba
0a
f7
12
fb
f9
05
fb
04
be
fc
fa
00
fc
04
03
06
09
42
02
fb
03
00
15
f5
fc
fd
23
fc
03
fe
fe
ff
fd
f9
02
0a
02
f1
fb
02
01
05
05
fe
ce
06
04
fd
00
ff
f4
fa
f9
00
fe
ff
03
f5
fe
02
00
ff
00
03
12
04
fa
fc
f5
fe
f9
9e
f5
f8
03
fa
fa
03
f3
0f
c4
fd
08
02
fd
03
07
fb
fa
cc
04
01
00
03
00
08
03
01
1d
07
05
ff
04
02
0c
02
00
38
ff
0b
03
f7
f3
0d
fb
fd
cc
00
fe
06
ff
ff
fd
00
09
05
00
fe
fe
fb
fd
04
00
f8
ce
ff
fb
ff
04
fa
14
fa
04
5f
07
f9
f8
01
02
00
07
fc
fd
fe
fa
fe
01
00
ff
02
fa
9b
07
f7
04
fd
f8
0f
04
0c
1d
10
fd
fd
11
f9
01
00
03
53
fc
fd
03
00
06
06
f5
04
75
08
01
ff
07
f6
05
ff
05
25
f9
fa
02
fe
06
01
00
02
3e
0d
08
00
02
f8
09
fa
fe
03
02
07
fd
fa
03
f9
01
f6
aa
fb
fc
07
00
fa
f4
06
01
04
f1
f8
05
ff
04
f9
fc
fa
4e
00
09
01
f4
02
f7
ff
08
61
06
06
01
fa
08
0a
01
03
ec
01
03
fe
03
f7
04
0e
00
d6
01
f3
09
07
fb
06
08
f5
4f
ff
04
f9
04
03
0b
f8
03
da
fc
f8
01
07
f6
f9
03
06
63
f6
0e
fb
02
06
f7
fc
00
25
ff
00
09
00
fb
01
01
00
df
08
03
fb
f4
00
06
fb
07
61
f8
01
06
03
f9
fc
fb
00
3e
f7
fa
fa
04
f9
ff
00
03
ab
07
f9
f9
00
fb
03
00
02
04
fb
fd
00
01
08
fd
06
fc
cd
ff
fc
fb
01
08
01
f7
f5
6b
02
03
ff
02
fa
04
f3
0c
5b
02
01
03
04
0a
00
06
02
2d
fc
05
ff
02
f0
f7
f8
08
d5
f6
fd
04
fe
fe
0c
07
07
57
01
f9
fc
06
00
0c
08
fb
a4
05
f9
06
04
f4
fd
f5
07
57
fd
03
07
0d
00
03
06
0b
da
00
f6
fd
ff
f7
ff
f9
14
e9
ff
f9
fb
08
02
fb
04
f3
ef
04
fd
04
f9
06
0a
ff
00
26
02
03
01
03
ff
fd
0a
f1
9b
f3
06
ff
01
04
05
08
01
a9
fb
fb
09
06
04
f2
05
01
2f
fe
fd
f2
fd
0d
04
13
01
90
02
04
ff
01
00
0a
ff
f6
3b
07
fd
05
07
f7
00
fc
f9
99
ff
f9
fa
05
0a
f9
0a
f1
bd
fe
08
08
01
fb
09
fd
fc
ff
00
f8
fc
04
04
fa
00
07
b4
01
fb
fa
fc
07
fc
06
fc
d8
fb
f8
06
00
01
ff
0a
03
33
fa
00
05
fb
fe
fb
fb
fc
a6
06
ff
00
09
f2
05
f8
fa
f6
fa
02
05
06
fb
fd
02
08
6a
ff
f8
fd
05
03
fc
0c
04
af
08
00
f7
fe
0f
f9
08
fb
05
06
f0
fd
ff
f8
f7
fc
f6
98
0d
05
01
fb
03
fd
04
f7
41
09
fb
fc
05
08
fb
08
fc
53
f9
01
05
fc
fd
06
0d
fc
e7
01
f7
f9
01
02
f7
07
02
60
f9
09
02
f7
04
fc
fc
0c
56
0b
01
f9
f4
0d
09
f6
f9
c7
00
0d
fb
fd
f3
fe
fb
01
52
fc
04
f6
07
02
06
06
08
0e
fe
fa
09
00
fa
08
fe
04
c8
fd
04
0d
06
fe
fc
fb
fc
0f
00
fa
00
ff
ff
04
0c
fe
a1
0c
fd
fd
fe
09
01
f9
f6
9e
09
fd
00
f9
fb
00
03
fc
20
00
02
01
04
f4
f6
05
01
f7
01
03
08
f6
f1
ff
05
06
6d
0b
fc
0a
06
03
02
fd
03
0d
01
05
07
ff
ff
03
ff
f9
e7
09
fc
0a
01
f7
03
ff
06
ea
f9
fd
04
ff
ff
02
f9
07
06
02
06
01
fe
f8
00
fc
07
08
fa
07
0a
f9
07
04
fc
f4
bf
06
03
0a
04
ea
f7
0a
09
f0
fd
f7
ff
ef
01
06
fe
01
45
0a
fe
03
fb
f8
00
01
ff
cf
01
02
f7
01
03
08
04
ff
e2
08
fb
0b
01
f4
08
fe
04
f0
05
00
f7
07
07
ff
07
f7
56
03
03
ff
f9
09
06
fe
f5
f4
fe
f5
06
03
0c
0d
03
02
ce
fa
ff
f7
04
03
fb
f8
fe
66
09
02
f6
fe
f2
f8
fa
f2
c5
fd
0a
fc
02
fe
11
fe
0c
00
f8
02
00
f7
07
10
f7
0b
db
00
04
fa
05
fd
0f
08
07
38
06
ff
fc
fc
fd
0c
14
08
cc
ff
08
09
09
fa
00
f4
01
ff
04
f8
f4
fd
fa
fa
fc
fb
5b
0b
02
02
01
02
0e
fa
fc
53
05
01
0b
fb
07
03
f9
fb
f2
10
fe
07
f9
0d
f4
ff
fd
65
06
00
f9
fa
0c
00
03
04
ec
fd
f6
fe
f9
f7
07
ff
0d
39
fc
00
00
fc
02
04
00
fb
46
ff
f2
f9
fe
13
fd
00
10
bc
05
fa
03
05
fa
f5
f7
fd
6d
fc
05
f9
04
fb
05
ff
fe
a1
09
01
00
fb
09
ea
f9
f6
c3
fa
f3
fd
f4
04
0b
fe
ff
ba
f8
0b
fb
02
fd
f6
0f
00
d4
0b
02
f6
05
05
fe
fa
fd
b5
04
05
fc
09
fa
ff
00
e3
20
fe
f6
00
f2
00
00
02
f9
8b
07
f7
f4
03
f7
fe
f3
02
1a
01
0b
f9
0c
02
02
05
fa
3b
fa
12
00
12
ed
05
ff
02
5e
f6
f5
f7
fe
fc
05
06
04
fa
f6
06
fe
03
01
f3
01
01
a9
05
0a
f5
05
11
04
f2
fb
9e
ff
fa
06
f2
f9
05
fd
0b
d2
fb
00
fa
18
03
06
08
0b
8c
f4
08
10
0b
fd
f5
08
f8
58
fe
f4
09
fd
f5
f9
06
f3
2f
02
fb
f2
fa
f8
0d
fd
f6
5c
fa
fa
02
fb
08
f3
06
fe
06
01
08
fd
0e
f5
f1
00
fa
d9
fd
fb
0a
00
03
e9
08
05
be
fe
fb
01
fe
f7
ef
02
02
59
f8
ef
0b
08
f7
01
09
02
c5
ff
13
fb
fd
01
04
12
f9
5f
05
08
f6
00
11
03
07
fb
bf
f9
0c
0a
f6
ee
11
05
00
0f
02
01
05
ff
0d
0a
fd
03
52
ff
f8
f9
03
09
ff
fe
03
a9
01
03
05
ee
01
ff
07
f7
d3
05
00
02
f0
f9
f5
fc
f9
6f
fd
03
ff
ff
fe
07
09
00
db
fc
01
09
f5
0a
fa
ff
02
96
02
fc
07
f2
09
fd
05
05
29
06
fd
fd
05
fb
08
ff
f5
3f
f9
f5
f6
f1
ff
04
04
05
18
08
08
fc
ff
ee
fb
00
05
f2
08
fe
fc
ff
f6
0c
09
fa
54
05
fc
08
fc
f3
f4
fa
08
a1
08
0a
01
09
0e
fd
f9
03
a4
fa
07
02
00
00
11
00
04
12
f9
06
05
06
03
07
08
fe
4e
05
f6
f7
0c
0a
fe
ff
fb
21
f1
04
fd
06
05
02
03
f8
f4
f6
ff
fe
0b
f5
08
fb
fb
1b
04
01
fc
03
fe
fa
fe
00
2f
02
04
05
00
08
0b
01
fe
43
f7
fb
fe
06
fa
fb
fc
f7
17
fb
fc
0c
f3
fe
f8
f9
fd
1d
08
f8
ff
fc
f5
03
f9
fa
67
fa
fc
f1
03
fd
fd
fa
f9
fd
fa
03
f9
ff
07
00
0d
fe
c5
0d
fb
02
fd
00
01
03
05
ac
03
09
04
f6
01
07
05
02
4e
f8
07
02
01
05
05
fb
06
0c
00
02
00
fb
f2
ff
ff
f9
e4
fb
02
02
03
09
ff
08
fe
fd
fd
09
03
fd
0e
ff
15
01
63
ff
00
0b
fa
ff
00
f9
f5
de
fa
f9
08
09
01
0f
05
f6
ca
02
07
fd
03
05
07
fe
fe
07
01
10
09
02
f6
01
03
01
4a
0f
01
fc
ff
07
09
fe
f8
36
f5
04
fc
ff
ff
0c
ff
01
c6
05
08
0a
08
fe
fb
fa
f9
a6
04
fd
f9
02
02
fc
01
07
0e
ed
fd
08
0e
05
04
fc
fd
ce
fd
09
04
07
fa
f8
fc
01
af
03
fd
07
ff
03
07
f6
00
48
01
05
ff
06
03
f1
ff
f8
d9
04
fd
00
fc
f8
f7
f9
ff
6c
fa
f7
02
02
01
ff
0a
07
c1
ee
0e
09
07
0a
f3
fb
03
e9
fc
06
f8
fb
f9
f6
04
03
e7
fe
f6
fc
ff
07
fc
f6
07
3e
fe
0e
04
f9
f5
ff
01
fb
09
04
fc
f3
fc
f3
fd
00
02
17
06
fb
fe
00
f2
f9
fa
fe
5f
02
fe
01
02
fa
06
05
07
8a
f9
06
ff
00
0f
01
0b
03
9f
0b
0f
0a
f9
f9
f8
f9
f2
99
00
00
01
fb
03
03
0d
09
e4
08
02
f6
02
fe
fd
f5
fe
72
03
09
f9
00
02
fe
02
f9
c7
f7
fa
01
fe
ff
f9
01
00
ea
f7
fd
f6
04
fe
fc
fd
fd
57
f9
00
f4
07
fe
f7
00
fa
e8
01
f8
fa
0a
fc
fe
02
02
d3
02
00
fb
03
fe
04
0b
fb
e7
f3
06
06
06
ff
fd
0c
0a
f0
fe
f1
0d
02
f6
02
07
ff
6a
f9
09
04
fc
0e
04
02
f9
00
01
f9
fa
10
0e
00
ef
f8
6c
f7
0b
07
00
01
01
fe
ff
9b
f1
09
04
fc
ff
f4
00
03
c4
10
fe
fa
04
ff
f5
f7
fc
dd
fe
04
02
04
08
fc
ff
05
d6
ff
fc
f4
fc
03
01
02
08
22
fe
0b
f9
04
09
04
02
ff
30
fa
0d
01
05
ef
01
07
00
e6
08
05
04
fd
08
fe
fe
ff
b1
04
02
00
fc
fe
f5
04
05
cb
08
02
fc
ff
f7
0c
f7
00
c1
0b
f8
00
f6
f8
09
f6
ff
9f
fe
0e
01
03
ff
fb
fe
02
fa
04
0d
f7
fd
03
01
0d
ff
e8
06
fe
01
fb
01
f5
f6
f2
f9
05
fc
00
06
03
f2
09
f3
cf
fe
f8
f9
fd
00
01
05
07
f7
01
ff
fe
fb
00
f4
02
00
3c
0b
01
fd
fd
f8
03
00
08
d6
fd
fe
f6
02
02
f3
f4
01
1f
04
11
02
0c
ff
04
ff
06
44
ee
fe
f5
01
11
fc
05
ff
c6
09
0a
07
fa
04
08
02
f7
27
fc
fd
f9
fb
f8
f9
0a
0b
ff
ff
02
f8
03
08
f7
05
fa
e4
00
06
fe
ff
01
03
fd
02
08
f6
fb
fb
f3
01
01
01
f8
71
fa
02
fa
f7
07
09
f6
f7
0a
05
09
0b
fb
04
f6
03
f6
c5
0c
fd
fb
f8
06
06
01
fe
41
f6
05
fe
0b
fc
06
ee
f3
5b
ff
fd
fb
00
01
fe
11
08
fc
06
09
0a
fd
f4
fc
fd
16
c0
fd
f3
fa
00
fd
00
f4
07
d4
0b
f7
fc
fe
0c
0a
09
ff
43
03
04
f8
f5
f9
0f
00
0b
db
02
fb
02
03
f6
05
0a
fb
c4
f6
fa
f9
fd
ff
04
ff
f8
f4
f8
ff
fa
f8
f5
f7
f5
fe
c7
0f
f2
ff
08
01
fe
fb
02
0f
09
05
04
09
ff
f5
03
ff
23
0e
f9
fe
00
fc
0c
fc
f6
b0
ff
fe
fa
fb
ed
00
07
00
ff
fa
00
fc
03
fd
01
ff
01
6a
fc
ff
08
0c
07
04
f8
f3
b8
01
f5
08
01
07
f6
05
02
18
00
0c
02
fd
05
04
f5
ff
2d
f0
02
fe
f5
05
0a
f8
fa
b3
fc
03
06
f9
09
f6
ff
02
1d
16
0b
09
02
ff
0c
f5
03
e3
03
fd
ff
f3
0a
01
0d
04
c3
0d
04
0a
f7
f9
08
00
f8
52
f7
fe
ed
02
fd
05
fb
04
1b
fb
f1
0a
fd
fc
11
fa
03
3b
ff
fc
04
05
09
08
ff
fb
e6
f8
ff
0a
02
ff
05
06
00
f6
0e
fc
fd
04
ff
f9
01
03
65
00
06
fd
f6
06
01
04
0a
2b
01
fb
ff
09
05
f1
f6
00
b6
fd
fd
fb
ef
00
0f
06
fb
0a
02
00
0f
06
10
06
02
fb
a3
05
ff
06
00
11
04
0c
ff
9c
09
0a
f8
09
f3
fe
f3
ed
be
09
0c
06
05
07
fa
f8
05
a7
f9
01
0b
0d
01
fa
01
f6
3c
0c
07
fc
fe
fa
ff
0b
ff
bd
13
f9
03
07
0c
fe
f8
03
a7
f3
08
00
ff
12
06
05
f4
ee
01
07
03
f8
07
11
05
05
e6
ee
fe
06
05
ff
05
01
fe
0d
f4
00
02
fb
01
ff
f6
fa
6d
f5
0b
02
f0
f0
fb
05
01
0f
01
fa
fd
07
fd
f4
f4
f5
24
fc
03
00
fd
01
fe
fe
f9
31
f7
fd
01
f5
f6
f1
08
fe
9d
f9
0c
f8
00
00
f6
05
fe
22
fa
04
04
f8
fd
00
f4
f5
3e
fd
01
0f
fe
f4
00
f9
03
0a
fd
ed
00
f6
0b
fd
fd
01
e5
ff
05
05
05
fc
01
06
08
fb
f9
fc
02
0d
f7
f2
01
04
5b
fc
f8
f6
fe
f5
f8
05
08
2a
f0
08
f3
00
0e
08
0b
09
9a
fb
ff
08
fd
00
f7
00
f9
1d
02
04
02
ee
0b
01
08
08
f3
06
05
f7
fc
02
02
09
03
66
fc
07
08
05
fd
f3
00
fb
ff
f4
05
f8
fc
ff
0a
ff
08
9e
ff
f2
0b
fb
09
05
04
05
33
fa
02
0c
ff
08
0c
fb
08
a2
00
04
f7
fe
fe
0b
01
f6
d9
f9
11
f5
f8
03
0c
01
02
cc
01
06
ff
06
01
00
ff
f6
10
07
fc
01
f1
00
fb
f5
01
5e
05
fb
fe
11
09
f4
02
f9
4c
00
f5
fe
02
f1
05
0c
f7
db
f6
09
00
fe
f9
ff
02
0e
e8
ff
f4
ff
04
fd
0b
ff
02
a0
0d
f9
02
0b
f7
03
f9
fe
18
04
08
00
06
fd
00
00
02
b2
01
fe
fe
07
fa
08
05
01
06
01
fc
01
01
0a
03
f6
fa
3a
ff
fe
0d
01
00
f5
f8
fd
96
ff
02
06
f6
01
fc
06
03
cb
07
00
ff
03
01
03
09
01
a6
06
02
02
00
01
00
fd
fa
eb
07
ff
f9
07
08
f8
04
02
d0
f9
04
08
fc
04
02
01
fa
eb
05
0a
09
05
02
04
04
04
b5
05
f7
fd
f5
06
10
0e
03
bc
03
0b
0c
fc
fc
09
f3
04
c3
ff
00
fc
fd
fd
01
00
02
c8
04
02
02
02
fd
05
04
fc
c7
05
0d
04
13
ff
ff
fe
fb
61
02
f8
04
fc
fd
fc
09
fe
17
04
04
09
ff
01
04
f9
04
fa
f9
fd
f8
02
f9
f8
00
0d
f6
f2
09
f3
08
06
fc
fd
05
b8
03
f8
fd
f6
02
03
04
05
4e
fe
02
00
fd
f8
03
02
fe
29
0a
fb
f7
ff
03
02
fe
fb
cd
04
f0
f9
fe
ff
ff
ff
fa
fa
04
fe
01
02
09
06
fc
f9
f2
fd
fc
f9
f8
05
02
02
f6
5a
05
01
00
02
fe
f6
f8
08
db
00
fe
fd
fc
f9
03
f2
01
1c
fd
fa
02
06
07
f5
fe
ff
39
f1
fd
f5
06
f4
ff
01
07
57
f6
fd
0b
fa
f8
00
0d
04
42
04
fd
fe
10
f7
f6
02
02
11
07
04
fb
fd
fa
0a
06
fd
98
ff
fb
fe
00
fc
fb
f9
00
3c
04
fd
fa
05
fc
07
f4
ff
29
04
fb
02
03
05
fe
fc
01
5b
05
f6
fe
03
fe
06
fa
0c
14
02
02
03
fc
04
fb
09
fd
24
f9
04
07
05
05
fa
00
fa
0b
ff
00
00
fe
09
fb
01
0c
03
00
03
fc
02
0b
0d
05
fa
42
fd
08
f7
10
00
fe
fc
02
d6
f8
04
06
07
04
f3
02
ff
36
01
00
ff
f9
f9
ec
fe
0c
c6
fa
01
08
ed
fc
05
00
fd
f3
0e
fb
06
f9
fc
ff
fd
01
23
0d
04
00
f5
08
01
04
05
14
01
fd
10
f7
fe
08
06
02
5e
05
00
f8
05
ff
fe
fb
f8
f2
01
fa
0e
f3
00
05
fe
fe
fa
fe
fe
ff
05
04
01
fb
fa
fa
09
02
fd
0b
fe
f0
fb
fc
20
f7
f9
f8
08
f7
f7
06
07
f0
05
03
00
06
0a
ff
f8
f4
1b
05
05
06
f5
05
fa
fb
f8
cb
ff
00
06
05
fe
f5
05
f0
28
ff
ff
fe
03
fd
04
07
06
ca
ff
fa
06
08
ff
f1
02
fd
2c
fa
04
f5
09
f5
fc
03
ff
0e
02
00
fa
01
08
00
01
f7
c2
fc
fe
fe
00
ff
fd
05
08
ba
f8
fd
09
06
ff
0f
fb
02
a6
f6
fc
f4
f7
08
07
07
f1
39
f8
fc
01
f5
fd
fa
04
ef
40
03
06
f8
fc
fb
fa
fe
fe
fa
fb
fd
ff
11
fd
fb
fe
00
9b
06
03
fd
02
09
f6
02
03
25
0c
0b
06
03
06
ff
02
09
c7
17
04
06
04
02
09
ff
04
34
06
02
02
f1
fe
09
fc
fe
48
04
07
05
fd
fb
fd
fd
0d
a9
f9
fe
fa
f8
fb
0c
03
07
6a
0a
fd
07
09
04
00
f7
0a
14
04
01
0b
01
06
07
00
05
f2
04
08
02
f8
ff
05
07
11
65
fb
ff
00
fe
03
0d
01
07
12
04
01
05
00
ff
f9
08
fd
c5
00
fc
f9
01
00
ff
fd
fc
db
fe
00
08
06
00
06
f7
04
0e
ff
03
01
f7
fc
fe
04
f6
dc
05
fe
0e
0d
fc
f6
01
ff
a2
01
06
f7
05
ff
15
07
06
08
06
f7
08
fd
09
01
07
f9
4a
05
fc
04
ff
06
fb
06
08
14
01
02
04
f9
03
0a
fc
ff
5f
02
fd
00
f4
ff
fc
03
04
bd
f9
08
fb
ef
01
f5
0a
02
ec
fa
fe
fd
f9
0b
fe
01
fc
9a
06
fe
fd
fa
03
fa
01
03
fe
06
f8
ff
07
07
07
02
02
d6
06
08
06
02
03
ff
03
f2
a2
04
05
03
fe
f8
fa
10
03
36
04
03
f8
04
f9
01
07
fa
ac
f8
fc
ff
05
02
fb
f2
fd
5d
05
ff
04
f9
00
f8
02
fe
a1
0c
fc
f9
f7
fd
fb
fe
fd
ff
fe
02
fd
02
01
fb
0c
fd
9e
03
07
0c
fa
fa
f8
05
06
a2
02
07
06
fb
f8
fd
0d
09
bc
fc
fd
01
f0
fa
01
0b
fc
ae
fd
01
f7
f9
f9
00
f8
ed
9c
01
fd
fc
ff
fc
07
0e
f8
10
00
08
00
0a
f8
f2
fa
fe
c2
01
fe
04
f9
f1
ff
0a
fb
13
fd
04
01
03
f9
fd
04
f9
da
f7
fa
02
f7
04
06
fa
fc
5e
0a
fb
f9
0f
f7
08
08
f9
fc
f5
fb
0b
07
01
00
f5
fa
73
05
0b
f7
02
03
03
0b
fd
5d
f7
f8
01
fa
07
fd
00
fd
e0
f5
f7
0d
00
05
fe
03
00
cb
07
03
f9
03
01
fc
07
07
4e
f4
04
04
f9
02
09
05
12
50
0e
0f
01
07
f3
fa
fa
f8
02
f9
0a
f7
fe
f1
fe
01
01
b8
fa
02
f4
f6
06
00
06
f4
fb
07
f6
03
fd
01
00
f7
f9
66
06
f9
f9
fb
03
03
05
07
bb
f8
0c
fe
09
fe
f3
03
f8
f2
f4
f9
f0
03
f9
f3
fa
fb
d5
fa
fd
ef
03
fb
f3
0a
f7
56
01
fd
fb
01
02
fa
04
02
bb
f5
f9
f8
fd
05
02
03
07
16
f9
05
fe
01
06
03
ff
04
19
02
fe
01
06
05
0b
02
06
53
f6
05
02
f6
fa
0b
f8
fe
09
fd
fc
03
08
fd
09
f0
09
4b
ed
06
fe
09
04
06
fc
f8
f4
f6
f4
04
09
fc
f6
09
05
2d
0e
ff
01
0b
07
02
ff
fe
b8
01
06
03
08
f8
f4
f8
04
11
04
00
f8
fd
00
03
01
fd
64
fa
0c
f7
f4
00
0b
fe
02
e6
01
09
fc
02
0d
fe
00
fd
43
fa
fb
00
f7
0a
03
09
f7
1f
03
f5
08
07
fc
ff
fe
00
c1
09
f8
fd
fa
02
fd
12
0a
7f
0c
0f
06
ff
fd
04
fa
fe
1b
f5
04
fa
01
05
01
f2
f6
43
03
fc
fd
ff
00
02
02
f7
04
ff
f1
00
fe
fb
05
f6
01
5b
07
03
f9
04
00
f7
05
fb
23
0b
f7
fe
f7
09
fe
08
f7
1b
00
f7
07
fd
fa
f6
02
fa
fc
08
00
03
06
0b
ea
ff
fa
fb
fe
00
01
03
04
fe
ff
f7
65
00
fe
fe
06
f6
02
fa
ee
d5
fb
01
fc
0b
fe
fb
eb
0a
d6
01
fd
00
03
f6
06
02
05
68
05
02
07
06
06
04
fb
fb
62
07
08
0c
f7
f9
fe
fa
ff
54
f3
04
04
fd
f0
0b
fd
03
cd
f7
fc
01
08
ed
00
04
04
da
fa
f9
fa
05
02
fd
fd
06
10
fe
fa
05
03
fd
fc
05
01
16
06
00
02
04
fe
f5
07
fe
2c
07
f5
f2
fe
01
ee
04
fe
e3
f8
09
03
ff
04
09
f2
ff
50
f1
f3
ed
03
0b
09
09
ff
ec
fc
00
03
01
07
0c
0a
f9
25
01
ff
07
01
ff
ff
fc
0a
bf
fe
fd
fb
05
fd
04
07
fb
1a
06
fe
03
fe
ff
f9
fb
fe
9a
07
f8
fa
f6
f8
fe
04
ff
b5
fe
07
ff
00
00
0a
00
01
cd
0a
02
05
fd
03
03
fc
f6
af
02
02
06
02
fc
09
00
02
f2
fb
01
fd
f7
fd
fe
09
f9
a6
01
fc
00
f6
fd
fc
00
04
09
ff
00
04
fa
f9
05
08
02
02
05
fb
f6
00
fe
01
03
05
48
ff
01
ff
02
01
04
f5
f8
eb
f7
01
fd
fb
fe
06
0f
00
49
0c
fb
fa
08
fa
03
00
f7
17
f2
fc
fd
fd
fd
02
ff
04
e6
fa
04
03
f6
0c
f8
00
00
32
fc
06
05
00
03
fc
f9
fc
20
fe
08
07
00
01
06
09
f2
18
0a
00
08
fc
08
fe
fa
f6
4f
05
ff
09
f9
f7
fa
fb
f0
41
f4
fc
fe
09
fe
f9
03
03
10
fc
03
fd
fc
07
02
00
fd
2b
02
07
fa
05
03
fd
06
ff
a3
f8
05
03
fe
07
02
02
fb
31
f3
08
05
02
0e
fd
01
03
f8
fd
03
05
fd
fc
f7
ff
ff
04
f7
ff
fe
09
fe
fc
05
fd
ff
f7
0e
02
08
08
01
15
f9
c9
fe
f7
09
f9
f3
00
fe
04
d3
05
f8
06
ff
0c
01
fd
fa
c0
02
0b
f8
fd
f4
00
fb
f3
17
01
00
fc
fe
f7
09
fd
fa
a2
02
01
f9
fa
0a
05
09
fb
3a
fe
f9
fb
04
00
fe
08
01
69
ff
01
00
09
07
10
f8
fb
12
03
fb
fb
fb
fe
08
05
0b
df
f6
fd
ff
0c
f6
07
00
fa
75
04
05
f3
05
f9
f5
fd
00
a2
00
03
04
01
f9
fa
fa
06
60
f5
ff
f7
0b
ff
f7
fe
09
3c
f2
03
0e
05
f6
fd
04
00
e6
06
ec
ff
f7
f7
0c
ff
fb
3c
ff
fe
ff
07
f9
f9
fa
05
3d
f8
fb
06
ff
fb
00
ef
04
48
f7
08
03
0d
0b
f7
00
03
07
fd
01
f5
08
12
ff
fa
03
10
0a
0a
02
0a
f8
f8
fc
00
9f
f5
03
fa
06
f6
07
fa
06
bc
fc
f7
04
f8
fe
06
fb
0b
bd
03
05
fa
0a
06
fe
13
09
53
fc
08
04
f9
f6
06
01
01
fa
f7
01
fd
f6
0c
05
0c
ff
50
05
07
fe
07
05
00
01
fe
dd
0c
eb
00
ff
fd
fa
09
01
13
fe
0e
fc
fe
fe
04
05
f8
20
01
04
fa
02
01
0a
04
fe
c2
00
f4
f9
06
02
03
ff
f6
53
02
05
07
00
ff
fa
07
fe
4d
fb
03
fb
04
fe
0e
fe
05
64
02
fe
fd
f9
17
ff
04
f3
a2
02
03
0f
0b
fd
05
fc
fb
08
fc
01
fa
fc
06
02
fb
03
67
08
05
02
ff
02
03
fd
08
de
fb
ff
f6
04
00
04
01
ff
b8
00
ff
fb
0a
03
ff
0b
ff
f8
07
05
f8
00
04
fe
ff
fe
46
03
0c
fc
04
f2
fe
03
06
32
01
ff
08
06
fa
00
08
05
42
fa
02
08
f9
ff
05
fa
14
0d
08
0a
fe
f5
f8
06
0a
02
e7
fa
04
03
00
12
03
01
04
12
fe
f9
fa
fd
fc
ff
f9
0a
da
f4
03
0c
f9
f9
f7
08
00
27
fb
fc
04
fb
01
fb
fa
0d
90
00
fe
09
0b
05
00
f5
fd
1a
00
f4
04
00
f7
fc
0c
08
3c
03
fb
ff
fb
0b
fe
f2
f2
0e
05
f8
08
fe
fa
fd
fa
f8
42
07
f6
fc
01
15
fb
ff
fd
57
06
fc
02
00
ec
00
0e
04
b7
0c
0b
fb
04
02
fb
00
0a
05
04
fc
f9
06
09
04
0a
fe
bd
f6
04
06
08
f8
02
fe
fa
08
00
02
01
f9
00
04
f7
0b
ed
fe
0a
01
f9
ff
f7
07
03
a2
07
02
00
fd
00
0e
fa
f7
58
08
09
03
0d
fb
fd
03
fe
c5
00
03
00
03
fa
00
04
02
1c
ff
ff
02
fd
f7
fe
0b
04
94
f8
f9
01
fd
fd
fa
fc
0f
50
01
fd
fc
05
ff
f9
fc
05
3a
06
f6
fb
01
fe
f7
f0
f5
2a
ff
fd
01
fd
08
fa
f9
0a
b8
f0
08
fb
fb
fd
0c
03
00
ef
06
fc
06
f9
fc
06
03
f8
41
ef
f9
02
08
f3
09
f8
fe
eb
f2
fd
fc
09
08
00
09
07
f4
0f
fb
04
0b
f6
f7
fd
ff
61
05
fc
fd
08
fd
fa
fa
fd
2c
10
fc
03
fb
fc
01
f7
09
de
fd
07
fe
04
ff
10
ff
05
d7
08
fb
fa
07
01
0c
f3
01
6a
00
02
06
f8
06
fc
04
08
01
fe
f2
fd
f2
fe
f9
fd
0e
18
03
fb
06
01
0d
fc
fe
09
5e
05
03
fb
00
f7
fc
01
06
61
ff
f9
fb
04
05
ff
05
00
11
06
fa
fe
ee
f8
08
ff
ff
24
f3
fb
ff
fb
fe
fd
04
fe
bc
0b
f2
01
ff
fe
04
fb
02
cd
0d
01
ff
f3
01
02
02
05
c9
fe
07
05
fe
03
01
07
01
c5
04
ff
0a
09
f8
f2
04
fe
d2
0c
04
fd
09
06
f9
05
f1
df
fd
f6
02
03
fe
0c
00
0e
42
f5
02
fd
03
02
02
f7
04
3a
00
07
0c
fc
01
0e
03
07
a7
00
fd
fe
04
f0
fd
03
07
cf
02
05
0b
04
fa
01
08
07
11
02
fe
05
f8
ff
fe
05
03
2b
f7
f6
04
f7
0a
fe
06
08
07
fc
f6
fc
f3
01
09
02
f0
5f
ff
01
03
f9
04
fc
fe
f6
52
05
f8
01
f7
fb
fa
ff
0b
2e
08
00
fa
fe
00
00
f3
f6
2f
0a
13
fc
00
f5
f9
fa
0e
3a
fe
f1
0c
f9
fd
fd
08
04
ed
03
f6
f4
ff
fe
f0
ff
03
ea
01
03
fa
f5
09
0a
08
03
2d
f9
f9
ff
f9
fd
06
00
02
0e
fe
fb
04
fb
f8
00
fd
05
08
f8
fb
04
09
fc
01
03
f5
9c
f9
16
ff
fa
ff
fe
ff
fb
d2
07
fa
03
05
fd
ff
00
f6
ee
02
05
02
fd
08
f9
f7
ec
26
fa
fd
fe
f5
06
06
fd
ec
5d
ef
0e
fa
fc
01
07
01
ef
e2
fd
0b
f0
09
09
fd
0e
00
e7
06
02
fb
fd
00
fe
f6
f0
d3
01
04
14
08
05
f9
f4
f8
a3
f2
09
f4
f3
07
02
09
06
39
f9
f2
fd
04
0a
0c
ff
02
1e
f1
f7
05
02
05
f8
03
fc
e5
00
f9
01
f6
05
0e
07
07
05
fc
04
f4
01
07
fe
04
0b
56
01
fa
12
07
fb
fe
09
fa
e6
02
04
fb
e8
09
00
08
f2
ac
03
06
fe
fe
fc
02
07
05
4c
fb
01
0f
fa
fd
02
03
fa
c3
f7
02
fb
f8
0a
fa
03
ff
03
04
f6
00
00
06
fb
0f
0b
28
01
00
06
fd
00
fb
fd
07
25
fe
08
01
f8
fb
fc
06
09
6f
06
05
fd
f8
09
00
fd
03
90
fc
fa
0a
04
fc
f9
fa
ff
65
fe
0e
0b
06
f9
06
04
ff
bd
f7
fa
fe
02
07
01
fd
fb
b8
fb
f8
07
03
01
00
0c
01
4b
04
0b
fa
fc
fa
fd
fc
fe
20
fe
06
f8
0c
01
03
f4
02
bb
04
f8
06
02
f7
fc
0e
03
a1
07
09
f9
fd
f8
01
fb
04
c8
09
fb
05
09
fd
00
05
00
c4
04
fa
fa
f8
09
01
ee
f9
ea
03
ff
09
00
f2
05
f2
fd
4b
0c
f6
10
0a
0a
04
fb
fb
b6
09
02
06
02
f5
05
03
08
e0
0c
00
fd
01
fb
01
f3
ff
c6
03
02
ff
02
0d
fa
03
fc
fc
fe
f0
01
02
01
08
f8
03
1a
04
fd
f9
0b
fb
07
fc
09
5c
01
01
08
ed
0b
0b
ff
00
a7
07
06
fb
00
f4
f9
01
0b
47
f9
13
fc
f6
f3
fb
03
0b
ef
fc
04
fa
01
fb
ff
05
08
2f
05
09
fa
04
06
fe
06
00
eb
0a
fb
ff
fb
fe
fd
03
0b
31
07
15
f8
ff
fb
ff
03
fb
be
ff
fe
fd
f7
0e
07
fc
00
6a
fe
04
fb
f0
fb
ff
f4
04
ac
fe
01
f9
ff
fb
00
06
ff
cf
f9
01
fd
fd
f4
00
fc
01
8f
fe
0a
04
0b
00
f9
05
02
13
03
0e
f7
fd
02
fd
04
00
90
03
f9
03
f8
08
00
10
03
4d
fb
03
02
ed
f8
fd
fa
fe
42
07
ff
fa
01
fa
f9
ff
06
cc
f6
07
fb
03
03
fd
fa
06
75
fb
04
06
06
03
00
f1
f9
e7
fc
07
f6
04
ff
0b
02
03
56
f6
02
03
00
06
08
00
fc
95
01
f5
fd
01
f7
02
01
09
dd
01
06
f9
f9
03
08
08
fc
27
fd
f7
08
02
ff
ff
f6
02
63
01
03
04
00
01
ff
fb
f9
24
05
ff
03
fe
06
01
f1
fa
c5
09
07
ff
02
00
01
ff
fe
1b
fe
fe
03
02
f9
07
f4
00
c3
09
06
fd
02
02
03
fb
02
16
09
fc
fe
fa
fc
00
f6
ff
2d
12
06
02
05
07
03
fa
f2
9e
0d
fe
00
05
01
f5
06
fc
29
0c
f7
fe
f5
f9
fa
f7
0b
b1
00
0c
fb
01
04
06
03
0e
ca
fe
02
ff
00
f9
07
07
02
67
06
fa
fa
fd
fc
04
0b
06
ec
08
f3
05
fc
fe
07
04
0a
01
0c
03
01
01
02
06
02
fb
25
02
f9
04
04
05
f7
09
05
27
fb
f5
ff
fd
0d
fe
07
fb
06
fa
0f
fa
f8
fa
ef
f5
01
f9
07
08
f9
06
08
fd
09
04
50
fc
00
fe
0c
ff
f8
fa
f4
5d
f8
00
fd
fd
08
05
fd
fe
e0
03
f3
0f
ff
02
00
fc
ff
18
fa
06
04
07
03
01
fe
02
6d
f7
03
f5
06
fc
03
fe
05
9e
f5
06
ff
f8
00
fc
01
01
4d
ff
05
fa
08
09
02
02
f4
42
05
01
02
fc
01
f8
04
01
25
06
fa
03
04
fe
fe
ff
fa
4e
03
05
0a
08
fb
03
08
fe
da
fa
00
04
01
09
fd
02
04
03
fe
ff
05
fc
02
0b
06
fc
15
f9
f6
08
ff
fc
01
f5
ff
f5
fc
11
ff
08
f9
05
0a
00
07
04
fb
04
04
fe
f8
0a
06
6a
f8
fb
fb
03
06
02
fe
fe
0e
04
00
0c
09
03
0b
0a
01
e1
02
02
07
fc
f5
ff
fb
02
5e
0c
02
06
09
06
02
02
06
15
fb
f9
fd
00
f5
f3
03
06
22
06
fe
fa
01
fb
fe
f8
04
1b
00
02
fa
06
03
0e
05
0b
59
fb
13
ff
f4
04
fb
00
09
a7
0a
f9
ff
04
10
00
0c
04
ba
09
f9
00
fb
04
03
f9
fe
5c
f7
00
0e
03
06
07
fd
05
ac
fa
fa
ff
08
01
05
01
09
f4
fc
fc
ff
09
fe
fd
03
fb
e7
09
fd
02
08
00
07
0a
fe
fd
fd
0d
fd
01
fc
08
f7
fd
da
03
ff
0f
ef
