02
04
ff
f7
5b
f5
f4
09
08
07
04
01
00
04
fe
00
f3
f6
fe
04
07
01
c9
f0
f9
03
07
06
f8
fe
09
ba
10
00
07
f4
00
02
05
02
d8
ff
f0
02
f9
04
fd
0a
04
bb
00
f8
09
00
f6
02
fd
05
be
ff
fb
09
fc
fd
fe
fb
fb
06
ff
ea
0f
fd
fd
ff
fb
f8
d8
f5
fe
0d
fc
fa
f5
fe
03
1b
01
0d
fb
07
f3
00
fb
07
14
fd
fc
fb
03
07
01
fe
01
9a
06
f9
0f
f7
03
04
04
04
07
01
f5
09
f4
f4
06
07
fc
01
fb
04
02
03
fe
08
07
ff
05
fc
f9
0e
04
01
fe
f4
00
b9
f0
fe
f8
03
fb
04
01
fe
40
f5
f6
03
f5
05
01
fc
ff
e5
01
03
f7
00
fb
fc
05
fa
49
f7
fa
04
fc
f7
f6
06
0a
ce
01
00
00
00
04
00
fb
0d
07
01
06
fb
04
04
f3
02
f9
c2
06
f9
fc
f1
fb
ff
ff
fe
b8
f5
f8
ff
ff
00
0e
ec
fb
41
ed
01
f6
0a
fc
00
ff
00
40
fa
ee
05
ff
fc
fa
0d
fb
b4
fb
fd
07
08
02
fc
fc
fe
3f
fc
01
fa
02
08
fa
f4
fd
c7
0b
f7
02
02
fe
07
f6
ff
a6
01
ff
00
05
01
00
05
fc
c3
f9
05
05
01
f4
05
05
fb
3d
0e
08
f6
07
f7
04
ff
07
53
f9
05
06
08
00
fc
00
05
ae
06
05
ff
05
f8
01
0b
fd
46
fe
ff
fb
06
f5
02
fc
f9
c3
09
f9
f5
08
fc
04
06
0d
db
08
0c
08
f9
f6
fc
06
fa
33
06
ff
08
07
04
ff
fc
09
c2
04
fa
00
fe
01
00
05
fd
03
0b
01
04
ff
fa
ff
07
07
3c
00
f8
ff
0d
02
08
02
06
11
0b
fa
04
03
02
06
ff
0c
a2
f0
f6
0a
fb
08
fb
fb
f1
d3
04
fa
04
fc
00
f6
08
f7
d1
0c
10
06
09
f9
fa
00
fd
16
fc
04
fc
03
01
fb
08
f7
c5
fd
ff
00
00
07
09
ff
02
1f
07
fa
10
fb
fa
f8
10
ef
01
09
fc
f8
07
fa
fb
ff
f7
d0
0e
08
ff
02
f9
01
0e
fd
4d
ff
f7
07
14
05
07
f6
00
28
09
f7
f2
03
fe
fe
f5
fe
8d
03
fb
0d
fd
f8
f6
0a
fb
b0
fc
fa
05
fc
0a
03
01
02
3a
03
fd
04
fd
f8
01
06
03
36
ff
ee
0c
02
fd
fa
13
f2
33
05
f2
03
0c
09
07
11
f6
5a
07
07
02
ff
07
06
fa
fa
4f
05
05
03
ff
03
fc
01
fe
a1
fd
f9
08
06
04
fa
00
06
14
f9
05
fe
f5
07
01
0d
00
f3
f9
00
07
03
fb
06
f7
ff
f5
09
01
fd
ff
03
00
ff
07
e8
f6
f3
fe
f6
f7
ff
fc
01
64
f8
fc
fb
00
02
00
03
05
3d
fc
05
fc
ff
f9
f2
f8
fe
cf
fe
02
0b
f8
0a
ff
f5
0b
fd
ef
08
f8
fc
02
03
02
fe
10
ff
ff
fc
06
06
f9
07
0e
67
04
f7
fc
f9
07
03
0b
07
21
fc
f8
fc
00
fe
00
fe
f2
27
f7
ff
ff
ff
fe
04
02
fb
cb
f3
f6
10
fd
06
fa
01
fc
06
14
08
f6
fb
fe
08
fe
fe
3a
f5
ff
f7
ff
04
03
fa
ff
a7
00
09
ff
04
0a
fb
ff
ff
bb
fd
03
06
f7
ff
02
0a
03
e0
fa
fd
fb
fb
03
06
09
07
5e
fe
f9
f6
09
fe
01
f5
ef
56
09
fc
fe
f2
fc
fd
fe
fe
21
04
fb
01
0a
05
09
04
13
94
f6
f9
f9
03
fd
f8
ff
fe
50
fd
03
f8
05
09
fd
fd
01
98
fe
04
06
fa
05
07
ed
fc
11
fe
0c
f8
f6
f0
06
09
f3
38
f7
ff
fc
00
ff
0f
08
00
cd
03
fc
fa
08
08
fa
fa
08
b1
06
11
02
fa
06
fb
05
09
1a
01
f9
fb
03
f9
01
00
06
db
06
f3
fa
05
02
0d
f5
f7
30
03
f6
ea
0a
00
00
f0
f8
d2
fc
0c
04
fd
08
ff
09
04
63
ff
fd
fb
08
fd
04
fd
f9
e4
0b
f8
15
f0
04
fc
fd
09
26
00
fb
f4
fc
01
0f
05
02
1e
f9
fa
02
08
10
05
f9
fb
dc
06
fe
f3
0b
06
ff
03
05
0f
08
10
09
f9
f6
ee
fb
07
14
f5
fd
fe
0b
01
05
02
0e
c2
fc
01
09
fe
09
05
fb
fd
d8
f8
fe
fc
07
f5
fe
0f
fe
a3
fe
fe
02
01
ef
06
12
f7
36
01
07
f7
04
07
09
02
ff
a5
03
05
fe
fe
00
0a
01
03
f8
02
ff
ff
06
f4
fc
f9
ff
b0
13
f4
f9
00
07
05
fe
fe
0c
03
00
f5
08
01
11
f4
f7
68
08
0e
fb
ff
f8
01
02
f8
5d
f3
07
fb
01
01
f8
fd
f9
4d
04
02
f7
08
fe
0b
fa
fd
2d
07
fc
f1
0d
0a
fc
f3
f8
54
0d
0e
06
06
f7
11
10
06
01
f4
03
fd
00
03
10
fa
04
95
fd
00
0a
f7
fd
fc
04
01
43
fc
00
05
f2
0b
fd
05
05
f8
f7
fc
01
fd
08
fa
f7
fc
1b
09
fa
03
01
fd
0c
0c
f6
2c
f9
07
ff
fc
0a
fd
ff
fb
92
ff
02
f3
fe
fc
f3
0d
0c
a3
03
fd
04
02
f3
05
0c
09
0d
02
f7
08
f6
0f
02
05
06
c6
fd
0b
fe
06
02
07
f4
fc
06
0f
fc
fa
08
fb
ff
f5
fc
fa
f7
02
04
fc
f9
00
05
fb
59
00
06
00
01
f6
06
f8
08
62
06
ff
fe
04
fe
00
06
01
9d
fa
fe
01
f4
ff
fe
04
03
67
fe
fa
f8
06
fd
07
03
f6
0a
07
f8
fc
fb
0d
f8
fe
0a
d0
ff
f9
0a
f7
fe
02
05
05
f8
0d
01
05
04
fe
0e
06
0d
d0
f3
f9
04
0a
f7
19
f8
f5
6d
f9
f8
fa
0c
04
05
fa
03
23
fd
08
fd
01
05
f9
10
fa
0a
03
06
f3
02
05
f4
ff
f6
a7
01
09
09
01
04
09
07
fe
e3
06
0f
fd
03
fe
f6
fd
fe
13
08
02
fc
f7
10
03
0b
fc
4f
05
02
f9
03
f2
02
00
03
02
fa
03
01
06
f7
07
09
fc
5e
00
f6
03
fc
fb
0d
ef
ff
1d
fd
fa
04
08
fe
05
04
04
37
0b
fe
fb
05
00
05
fe
ff
85
04
00
01
03
00
e5
fa
0b
cc
04
06
f8
f3
04
0d
f4
09
c5
fa
f5
f9
04
08
f7
f8
f9
fc
fd
fe
09
ee
fc
0b
02
0c
39
fe
07
02
03
05
0d
01
04
ea
f7
f8
0c
0c
07
f2
ff
f8
ee
05
fe
f3
f0
0a
00
f4
fe
a2
fd
05
f0
03
fe
fa
04
00
c8
fe
11
02
15
fc
fa
f5
07
29
06
03
fa
fa
ff
fe
ef
00
3f
07
02
07
00
0a
0b
fb
12
1a
02
f6
fb
fd
01
05
0e
00
06
fb
04
fd
08
fb
01
fe
f6
11
fe
ff
fd
0c
f9
01
fe
ff
8a
08
10
fd
f0
f8
fe
ff
0e
1b
fb
f7
f4
fe
fe
00
fa
fc
e7
f6
fb
f9
10
f5
ff
05
00
36
02
f7
02
04
fc
f7
fc
0c
e0
f8
fb
03
01
02
f3
ff
06
ff
01
ff
f9
01
fc
fd
fa
08
9d
fc
02
05
02
fb
06
04
fa
08
fe
02
fe
00
f4
08
05
f8
59
fd
03
fc
08
f8
05
07
f5
50
02
01
f4
0d
09
06
01
04
f2
02
fd
ff
f3
fa
fe
00
02
fe
07
04
05
fd
f2
07
03
fe
5c
0c
fa
06
07
02
05
0d
fd
63
05
01
00
fa
07
0f
f4
04
32
f5
ff
04
00
07
10
f8
f9
6a
04
fd
01
05
00
fa
fe
ff
2d
08
fb
fb
f9
08
ff
01
05
0c
05
00
fa
08
ff
01
fb
01
4b
07
02
03
0b
fb
06
0f
fe
03
fb
00
f7
fb
fe
fe
f9
fd
49
fd
fe
09
03
ff
08
f8
08
19
fd
fe
01
fd
04
07
02
01
9a
fb
06
fb
05
0d
f4
03
f9
8d
05
fe
fb
f8
06
0a
00
f9
06
05
fc
fc
fa
06
08
04
fc
3a
01
00
02
09
f6
f4
fe
fd
94
02
03
03
fe
f8
fc
04
05
b4
fd
fb
fb
f8
08
ff
03
04
56
fa
03
00
02
08
08
05
02
17
fc
f8
05
08
04
08
f8
fa
4f
03
04
06
04
f3
fe
ff
fd
b8
fb
02
fd
03
fe
02
01
00
0a
0b
0b
0b
fe
f4
fd
fe
04
bd
02
fb
f8
0a
01
04
05
0b
20
06
07
fa
04
fc
01
fe
fb
13
03
f8
fd
f8
f5
03
0a
03
93
fb
06
06
0a
06
f8
f8
02
41
08
fc
fc
04
f3
02
f9
fb
2c
11
04
fd
0c
0d
fc
06
04
e8
f8
02
08
04
fe
01
ff
03
29
04
03
f8
fa
05
f8
fa
00
e5
04
0f
fd
f8
04
f4
ff
f8
61
fc
00
02
07
fc
f9
fa
11
6f
07
0f
03
05
04
f9
fd
ff
de
fb
ff
04
04
0c
f5
02
06
fd
f3
03
09
fb
01
ff
f3
f0
20
07
fe
fc
fc
f9
06
01
0d
e0
00
f7
f3
06
ff
f8
fc
fc
35
0a
fe
08
02
0d
02
fb
f7
55
01
fc
fc
06
05
ee
fb
03
cd
02
03
07
0e
05
08
f9
fb
dc
fe
ff
fc
f2
f8
09
ff
f3
55
05
02
f6
0c
fb
01
08
08
41
f8
f5
06
09
ff
fc
f7
fc
e0
05
f9
01
09
fd
02
04
03
c6
03
01
0a
fc
ff
0c
05
09
bc
03
fb
03
fe
05
f8
fc
07
d4
fe
f5
f5
fa
fc
fe
fc
fb
51
04
02
fd
f9
fc
00
fb
fa
bb
08
ff
02
07
0d
00
03
f9
60
fb
00
01
05
05
fe
fb
05
25
07
09
fb
fb
fc
03
f8
08
40
01
f7
f6
fa
f9
00
fc
02
92
f8
0b
03
ed
04
01
fd
04
a1
09
08
f6
0a
fb
07
f6
fa
67
0e
fb
06
12
03
f9
f2
f8
05
01
09
fd
f1
fa
07
f2
00
97
16
01
06
fe
02
01
00
08
4b
fb
fd
fe
01
04
08
06
f9
3e
03
f8
03
f7
f8
01
f8
06
b1
fb
04
0a
fd
06
01
f3
01
e1
07
06
ef
05
fe
05
13
ef
ff
f9
01
ff
07
03
02
0a
fd
67
fe
f4
fc
03
03
05
fe
07
2c
05
0a
f9
04
03
0f
02
08
3e
fd
f0
03
f9
08
09
0c
06
9c
04
07
fb
03
07
04
f6
04
57
f6
fa
f9
f4
fe
f4
0c
0c
c8
fc
03
fd
f6
0b
0a
03
00
07
06
04
fa
fb
fa
ff
0d
03
60
0a
04
f9
02
07
01
0c
ff
99
fd
f3
f8
02
06
fd
0c
10
6a
f9
05
00
0a
0a
ff
03
f6
1f
fc
0e
fe
04
f6
fc
03
fc
97
fa
09
03
00
02
03
ff
08
5c
f7
05
fa
03
04
f9
f2
f5
30
fb
03
05
ff
05
f5
01
03
f5
fb
09
ff
02
f8
fe
04
03
25
00
fc
f9
fa
01
04
f9
05
fc
01
0e
fb
0a
0e
0a
06
fe
a8
f9
03
0f
00
0c
f4
f7
03
03
fa
03
05
0b
00
f7
09
fc
0f
fb
07
f2
02
f6
fb
05
03
4e
f8
09
fa
0a
05
09
fa
11
43
fd
ff
fd
02
00
0a
04
03
fa
09
fa
01
05
fd
03
01
fd
22
fe
f3
03
f2
fa
fb
fb
06
6a
00
09
06
08
f1
04
05
f6
0c
0c
f6
02
08
fe
fe
ff
0a
27
f5
04
0a
04
07
03
fd
fb
5c
06
fb
00
fd
fe
0c
12
ff
ae
f8
08
01
f9
03
04
01
01
b9
f5
0c
02
fe
fd
fb
0c
04
05
f9
02
e8
08
fa
02
00
f9
1e
07
fd
fe
f8
fa
05
02
fc
17
00
ff
f4
03
fd
01
08
fe
f8
f9
06
fd
08
ef
f6
0a
fb
63
fa
03
f0
06
fd
f7
f9
fc
04
09
ff
fe
01
f2
03
00
04
68
05
f7
fb
0c
f7
fe
fc
04
8c
fd
0f
04
f8
fe
02
08
fd
ca
06
11
fc
ff
00
fc
03
03
2b
f9
f2
f5
fc
f6
ff
05
08
c1
fd
00
05
05
f8
05
04
fa
d1
00
04
0b
f9
07
fa
f9
07
b3
fc
fe
07
04
07
fc
01
09
d0
f8
fc
07
f8
01
02
05
f8
9e
08
06
ff
ff
02
fb
04
03
45
f8
10
ff
f7
f8
09
ff
ff
09
03
fa
ff
09
10
f9
fd
02
d0
03
fe
03
08
fb
f9
07
02
51
0e
f5
01
fe
f1
fa
f9
06
a9
0b
fc
07
fe
08
fb
fc
fc
9a
f4
fc
01
fb
00
f7
0c
03
70
fd
05
0a
fc
fc
05
01
f0
07
0a
fb
fd
01
02
05
02
05
f6
07
0e
05
02
03
01
fb
05
49
fe
fb
f2
05
f5
fa
0f
f4
e0
04
fc
fc
ff
0c
00
f9
04
a3
f8
03
05
f6
fb
04
06
02
9d
fe
fe
f9
11
f9
fe
fb
f0
fc
f8
02
fc
00
01
fd
02
fd
d7
fb
fb
03
0b
0a
fc
02
06
95
f8
06
fd
f4
00
06
04
04
e0
fb
00
05
02
05
f6
fe
03
3e
fd
03
fd
02
fa
01
01
fd
3f
ff
02
03
f2
f3
fe
ff
f0
71
01
f3
f6
f8
06
02
00
ff
2a
ff
f9
03
09
07
05
04
03
79
02
ff
f9
fe
fb
02
fb
f5
1e
f4
f8
02
01
fc
04
08
04
a0
07
04
fe
0b
05
06
f1
fc
2e
05
0b
fa
08
06
ff
fc
04
20
09
14
f6
f0
06
00
02
fb
d5
f8
fc
fe
f8
01
01
f9
fb
a3
fe
02
03
02
07
ff
ff
02
ac
f3
f8
ff
05
09
03
f7
f9
4d
fa
fd
05
fb
fe
05
fa
05
38
fc
fe
07
ff
01
ff
fe
08
50
fe
04
01
08
0b
fb
01
00
6a
fd
ff
04
fd
f7
fe
11
02
6c
0b
fd
07
00
01
04
00
06
a1
05
06
ff
08
09
fc
05
01
33
02
f8
fe
fe
f8
ff
04
fe
8f
ff
fb
fc
f9
02
02
f9
04
bd
f2
fe
00
fa
12
02
00
01
71
f5
01
08
05
01
03
07
01
f6
f8
ff
06
ff
0c
07
f8
08
12
04
09
fb
f9
f6
00
fc
f5
50
00
00
f8
02
04
06
05
0d
08
05
01
f9
01
ff
00
03
04
e1
00
fa
07
01
f0
04
06
fb
4b
09
05
fe
08
08
fe
fb
fa
8a
fc
ff
08
f0
07
fa
09
01
b5
f2
04
04
fa
f7
06
ef
15
d5
fc
03
02
fc
f4
f4
0f
02
10
fd
02
03
f6
0b
0b
ff
05
9c
09
05
00
fb
05
07
f5
fe
f7
00
04
04
06
06
f3
03
03
8f
0a
fb
02
fc
0b
fc
0d
0a
fa
09
05
fc
f3
0d
05
05
fd
22
06
02
f9
fa
04
fa
fd
fe
cf
0d
04
fe
f7
00
ff
03
fc
fd
ff
06
fa
09
fc
0d
12
02
fd
00
ff
fc
ff
fa
15
00
fe
98
00
fe
00
0d
f8
01
fe
f4
54
08
ff
08
00
f9
02
08
fe
e8
fd
06
08
00
11
06
ff
f8
06
02
ff
06
00
f5
00
09
06
41
02
03
f2
01
f7
02
0b
01
d7
fc
08
01
ff
16
f6
fa
fe
24
04
07
06
fa
ee
fd
01
fe
22
02
06
fc
fe
0a
f9
fe
00
f4
ff
fe
fe
03
0b
f5
08
fb
b1
fd
0a
fd
05
07
00
f8
f9
14
fc
ff
08
06
01
0a
f9
01
33
fc
fd
fe
07
fc
fc
07
03
62
fa
fc
01
fe
06
12
f6
09
1e
f3
07
02
fd
00
f9
00
fb
4f
ff
00
10
02
00
05
ff
fd
23
0e
f6
02
04
f9
0d
05
02
e5
05
f9
01
fd
01
13
e9
0b
ca
0a
03
f7
06
fa
02
0d
f3
55
fb
fa
0f
07
f9
ec
01
01
55
fe
02
ff
06
f9
fd
16
f7
35
00
fb
fc
f9
01
06
f6
fe
1a
fc
0e
12
05
f1
ff
07
08
36
f9
06
fa
03
04
09
f8
04
04
12
05
ff
06
03
04
05
03
71
05
04
f6
06
ff
fc
04
f8
ed
04
fc
07
01
02
01
0e
00
34
05
fb
fc
04
07
01
06
00
ad
0a
08
fd
0e
03
0e
00
00
0f
02
04
f8
0a
fe
f9
ff
01
b9
0b
f4
fd
fb
fd
09
fa
03
16
03
06
fd
08
0b
03
fb
f1
24
0a
fc
04
07
08
ff
0c
ee
2d
06
07
07
04
fd
ef
0f
f3
9d
fc
fa
fd
07
03
fb
0e
fb
cc
ff
f0
01
fe
fa
0d
f7
ff
0d
06
fe
0a
fb
01
f4
0d
10
cb
08
f5
f1
fe
00
05
f5
01
a6
06
fb
0a
fe
f7
06
fd
06
04
f9
02
07
fe
0d
f8
fe
05
c7
09
04
f2
09
04
ff
fa
01
d3
03
03
04
02
f4
00
06
fd
6a
fc
02
f9
fd
01
fa
fb
01
a4
f9
f8
00
fa
00
01
ff
02
1e
02
fa
03
07
ef
02
03
0f
08
fa
f4
fd
01
0b
00
02
ff
10
00
06
0d
05
09
f8
ff
03
19
08
fe
09
ee
fe
ff
f5
04
5a
02
fe
09
fc
fd
f5
fc
fe
d2
fc
f7
06
f9
f8
fc
08
05
16
03
05
fe
01
f2
ff
fc
0a
d5
01
f2
02
02
04
f0
fd
ff
67
fa
f7
fb
00
01
f7
02
03
45
01
f4
03
f9
0f
f8
fd
ff
eb
00
f9
fe
f9
01
02
04
04
c4
0b
ff
03
03
fd
00
04
0b
9a
f4
03
01
05
f6
09
fc
f9
63
f6
f8
01
04
ff
0a
fb
07
13
09
fd
0a
f6
10
fe
08
02
cb
01
fd
f9
f3
05
f9
06
f8
fd
00
ff
fd
f7
05
02
fe
fd
c1
02
02
03
ff
fc
f9
fd
fa
51
06
02
f8
fd
fc
00
0b
05
a0
ff
04
00
0e
01
07
ff
04
b2
fb
13
ff
07
fb
fd
08
01
fc
09
07
03
e9
03
07
f2
fc
45
00
ff
fe
fc
02
0a
0a
03
fa
07
07
09
09
0b
16
ff
f1
8c
f6
0c
09
04
f5
ef
fd
06
ef
04
ff
f6
fe
ff
13
fd
05
ef
01
f8
0e
fe
0b
ef
fb
f9
40
08
fd
00
e6
fd
02
06
0e
02
f3
08
ef
f7
f2
0b
05
00
93
04
f6
0b
08
09
f7
04
f3
e7
07
fb
00
fe
0a
07
f9
05
4e
ff
fd
08
fc
f3
fc
fa
03
3e
ff
07
0e
16
fe
fb
f5
ff
65
02
f8
f3
03
08
0e
fc
07
72
02
fb
0a
ff
0a
0c
0b
03
6e
0d
fd
f7
fd
06
fa
02
fe
2a
fd
05
02
04
02
f9
fa
fa
18
fc
00
f9
08
fd
09
fd
05
d9
12
0d
f9
f8
fd
f9
f8
fd
e5
f5
03
01
04
03
02
04
ff
4c
01
fe
f8
0c
03
fb
fd
f7
09
fc
03
02
0a
fc
fb
04
04
1c
03
0e
02
fb
f7
f6
01
06
f1
f5
fe
fe
07
fc
fb
06
0c
16
fc
f9
07
f8
0e
fc
00
ff
6b
fa
09
01
01
f0
09
06
fb
a4
00
f0
07
0a
fb
05
06
fb
5f
fb
00
01
00
04
09
03
fd
fa
03
04
fa
fa
02
fe
fd
07
b7
04
f5
06
09
fc
04
05
01
e5
0b
fd
00
02
06
03
fa
f7
cb
f6
0f
f1
f1
fe
04
00
00
02
06
06
f9
f5
fe
0b
f9
00
12
f9
f8
f9
11
02
fa
04
fc
14
04
0b
02
0c
fc
00
ff
fa
35
f6
fe
f6
fb
04
ff
00
04
9d
0f
0f
ff
06
f8
06
09
f8
7d
00
fe
06
fb
f0
07
01
05
35
fb
fb
0a
f2
01
09
0a
05
bd
f6
00
00
02
11
fe
04
f8
d9
fd
fa
05
fe
0a
f2
fa
fb
be
03
05
f7
02
fb
0c
08
fb
4c
f3
06
f9
00
04
06
ff
f9
a4
0a
03
ff
03
00
06
fe
0b
f0
ff
f4
02
fd
fb
02
11
02
f3
fe
f7
0f
f9
02
f9
06
fb
60
fd
12
f7
fd
f3
ff
f6
ec
4b
10
fb
01
02
01
06
fa
05
b3
02
fd
ff
05
fa
03
02
04
f4
0a
0e
09
09
00
fe
fe
fd
c3
03
f4
05
02
00
08
05
06
4c
fe
fe
02
f7
f8
fe
fc
04
8c
01
fc
02
fe
fe
08
03
00
de
09
fa
02
01
00
fe
06
02
50
fa
0d
fe
fa
fe
f6
f0
0a
52
f6
f9
0c
f8
fb
fc
f8
02
9b
05
09
fd
03
0d
05
01
00
13
fb
fc
00
00
05
02
03
06
e1
06
fb
09
06
fa
f4
12
ff
cf
04
fa
fd
f3
0a
fd
02
f5
4e
02
01
fc
05
06
ff
05
fe
41
f4
fa
03
06
07
f5
00
fd
fc
16
f8
00
f1
f7
0b
03
00
6c
ed
05
fa
0d
0d
0f
02
ee
0b
0f
09
ff
07
06
fb
ff
03
e3
fb
02
00
fa
fd
fb
0c
fc
0d
02
ff
0b
fd
fe
08
04
fa
e3
09
f7
f4
fd
0e
01
0c
f3
1a
fd
06
01
04
01
04
f6
07
a2
fc
00
04
0a
fd
12
f5
ff
ec
0e
02
fe
fd
08
f9
f6
01
f9
ef
fe
fe
00
f6
f5
f9
fe
c7
fd
fa
ff
00
00
05
ec
04
e8
06
06
0a
03
fe
05
0b
fe
18
00
07
09
07
fe
06
05
02
a5
fd
f5
f3
f3
08
05
fc
02
96
0e
03
0b
04
03
09
01
fd
e0
f8
f8
05
09
0b
07
0e
ff
b3
fb
03
f6
02
00
f9
0a
fc
d4
0b
00
ee
ff
09
f8
f2
fe
e8
f8
03
00
05
01
01
13
01
38
fa
05
fb
01
0a
06
ff
02
fb
0c
fb
03
04
06
f5
f7
fd
61
05
fe
07
0e
fb
ff
09
ff
19
08
03
f6
0b
10
f8
02
f1
31
fb
04
f2
04
fb
0a
fe
f2
39
f9
05
ff
ff
08
03
fc
fd
fa
07
05
f4
07
fa
ff
05
f9
93
05
09
f6
02
05
09
ff
07
10
05
fd
0f
04
09
07
fd
f8
f7
02
04
fb
05
fd
fd
ef
fd
71
f9
f5
11
f1
01
fd
fa
03
4e
07
fe
08
03
0f
01
fc
04
1b
fb
04
00
fe
02
fe
0a
fc
e2
f8
01
ff
f8
fe
02
02
f8
dd
fb
f9
09
fb
00
fe
0e
05
df
0c
fb
0c
fb
f9
01
fd
04
21
fc
07
00
0d
02
02
06
16
eb
00
05
0d
0c
ff
f8
fd
04
eb
05
03
18
ef
fe
08
0c
f4
cf
04
fe
e7
01
fc
f0
00
f6
50
f9
00
02
fc
02
fe
06
08
fa
0e
08
02
06
06
08
01
f8
2e
fa
06
fc
00
ef
fd
ff
00
27
01
fc
f5
09
fb
04
02
10
bf
03
05
ff
05
08
fe
02
02
a1
02
09
0a
09
fa
00
f1
fc
26
fe
eb
11
fb
04
04
f3
f8
b4
02
00
fc
f7
06
ff
01
f9
04
fd
04
00
f5
02
03
f9
f7
c3
08
f7
04
07
fa
f3
0a
01
cd
00
fb
07
fc
03
f8
09
fa
40
fd
01
f7
03
07
00
0f
00
4c
f7
fb
0b
f6
0f
fd
00
02
0e
f9
f9
fe
ff
fb
f8
06
f7
65
fa
07
f5
fe
01
f9
ff
07
f4
0a
fd
09
f8
03
f2
fe
0d
c6
f2
02
01
f4
f4
fb
ff
07
cc
fe
05
02
02
fa
fc
09
fd
6d
02
00
ff
05
00
01
fa
f4
d8
0d
02
fe
03
01
ff
fd
04
5d
02
01
0a
01
fe
f9
06
03
30
f6
fd
00
fd
f8
07
05
02
90
01
fe
fd
07
ff
fc
f7
fb
5d
fa
fe
ff
f4
fc
09
fa
03
22
07
04
ff
05
06
0b
00
fa
e2
fa
fe
05
0f
06
f3
02
07
63
fc
ff
02
08
02
f5
f9
fd
1d
03
01
f8
fd
02
04
02
0a
da
04
f6
f3
fe
05
09
03
00
bb
0e
10
fb
00
06
00
fd
02
de
00
fd
f8
0e
fa
fc
fd
ff
34
f9
f8
f3
03
03
f7
08
f0
e7
0a
fc
fe
fe
00
fa
fa
f9
d0
0c
0d
08
15
f3
fb
fc
10
41
01
f4
03
ff
11
09
f9
f6
f2
08
ff
f8
01
fe
f4
0a
f1
79
01
06
fd
00
fa
03
fe
00
58
f8
fc
fa
f7
fa
0c
fe
11
af
01
0f
0a
15
ff
fe
fd
fb
c4
f9
02
09
03
f3
fa
00
fc
56
0e
fb
ff
fb
01
f4
ff
02
be
06
0d
fe
08
00
00
03
01
bd
fe
08
f0
03
fd
08
fa
00
2d
03
fb
fb
fc
fc
07
fe
0a
f3
fa
10
08
01
02
f4
01
00
ab
00
ff
fd
fe
03
0b
f3
ff
b7
0c
f7
01
ff
02
02
f9
07
04
f1
06
02
f1
f8
0c
fa
ff
b6
12
f9
0a
00
04
fa
05
09
25
f2
fc
fb
05
ff
07
fe
f8
64
f7
ff
f1
fa
f6
fc
fa
fe
13
f1
03
06
07
0d
0d
fd
fa
6d
0d
04
08
01
02
ed
09
fd
9b
f9
f8
01
f7
f7
f8
01
fe
52
05
01
08
fd
04
04
00
06
99
00
ff
03
f8
0b
07
fe
01
6c
00
f3
05
fa
01
fc
00
fe
99
f7
01
00
01
ff
04
03
05
55
05
01
fc
03
f2
01
fb
03
0f
f6
f4
fc
02
07
09
05
fd
b1
09
f4
07
f9
04
fe
fe
00
c1
0a
f7
07
00
07
ff
f9
02
1a
fd
01
f7
05
01
f7
f4
07
fe
f1
fe
0c
03
08
fe
08
fa
4f
07
ff
ec
ff
07
f8
02
0b
24
f7
08
fd
06
fa
fc
03
fa
e6
fc
fe
ff
03
fa
f7
01
f1
0f
03
f7
11
fd
ff
00
07
fe
aa
f8
fe
07
07
06
09
07
04
95
ff
09
f1
fd
05
02
03
03
37
04
0a
04
06
fe
fe
ff
02
bb
ee
f9
fd
fb
0b
02
fb
f7
57
fe
fd
fc
07
0c
00
fe
07
0a
f8
f9
ff
f9
f8
f7
06
04
ad
f8
ff
0c
08
f7
08
f8
f9
f2
03
f5
ff
00
fa
09
f4
09
ee
09
fc
fe
ff
fa
0a
ff
07
58
fa
fc
01
fd
00
08
01
01
99
06
f9
05
02
f0
ff
fa
06
ab
fe
0e
07
fb
f0
09
02
fa
e3
08
f4
0b
09
04
fd
03
09
b3
fe
fe
08
09
fd
03
06
05
4e
f1
f7
06
f7
0b
00
00
f9
d6
00
04
14
f3
03
fd
ff
06
d5
0a
06
f9
fe
fe
03
00
f8
0e
ff
04
f6
fb
fb
00
fa
04
04
f9
ff
ff
00
06
04
03
07
e5
05
fc
fc
fc
f5
ff
f5
06
57
01
f2
04
00
07
01
06
01
4f
fa
fe
fe
08
f0
03
fd
01
9f
06
02
05
06
08
05
0a
04
6f
0b
f6
05
f7
04
fd
f7
ff
a3
01
04
f8
f8
fb
fe
14
03
d8
f5
f6
f9
fe
fd
ff
0c
fb
91
f7
fa
fe
fd
05
fe
f8
0b
d0
fe
04
03
02
03
fc
00
06
07
ff
fb
08
fe
01
f7
12
fd
36
01
fd
ff
f7
f8
fc
fc
07
49
00
fe
fe
02
04
fd
00
f8
d9
00
06
08
ee
00
fd
0d
01
41
ff
01
02
fc
fc
fc
f9
02
66
fe
ff
00
03
f0
fe
04
03
1a
09
00
f8
0d
04
0e
00
00
f3
03
f7
f7
02
fc
fe
f6
0b
dd
f2
04
0d
04
f8
08
08
07
b5
08
07
f5
fc
fe
f9
0a
fb
22
f6
05
09
01
03
05
f8
04
21
05
ff
06
f3
04
07
05
0c
e3
10
ff
fd
0f
f6
fc
02
fd
67
fc
f1
0e
fd
0a
01
f9
f9
21
ff
05
f6
00
06
02
09
fd
70
0b
07
fa
02
07
04
ff
fd
9d
f6
06
02
01
fb
0a
01
ff
6b
02
02
07
ff
f6
f7
01
05
5c
f8
f8
f6
0d
ec
05
f1
fa
6e
00
05
ff
fe
15
03
03
0d
f9
ff
06
fb
06
f7
fa
12
f4
c1
05
fc
f7
ff
f8
00
05
fe
9c
09
fa
f7
01
0d
ff
ff
fd
c6
07
06
fb
02
f8
fb
fa
05
f6
fe
f9
f7
04
fd
00
05
06
22
17
01
fb
04
04
02
ff
fc
8e
f8
02
fc
f9
06
02
ff
f4
51
06
02
02
f6
06
02
0c
ff
74
f8
fe
f3
0f
01
f8
ff
05
4e
02
02
01
0a
fd
fa
ff
ff
94
fa
05
fe
04
05
0a
03
f6
a9
10
08
01
ff
00
fa
08
fb
ba
fd
fe
ff
fe
f9
fc
f2
01
3b
fe
0b
06
fe
fb
01
06
01
64
f9
07
f7
00
05
04
f2
f8
34
fe
f8
fe
ff
03
f4
fd
fd
1a
01
00
02
04
fb
fa
0c
00
b2
f6
00
00
04
09
f9
f9
fc
ae
07
fe
f7
fa
fb
fa
07
09
44
0c
f6
01
fa
01
f4
0b
f9
cd
f7
ff
09
fa
0c
fa
ff
fb
98
01
ff
f8
08
fd
ff
f4
f0
0e
05
06
fb
07
ff
ff
f9
ff
c6
fa
02
fd
05
07
09
0b
0b
40
06
05
11
fd
07
f4
02
0f
a1
fe
f6
04
0f
fb
04
fb
ff
fc
00
05
10
fa
fa
ff
08
02
03
05
07
04
fc
f9
03
fa
f8
b5
00
fd
00
f6
03
fa
03
0a
07
fb
ff
0a
ff
04
ff
01
0f
b9
ff
ff
f7
0e
07
02
09
04
1d
fb
ff
fc
07
fc
12
05
fb
fd
fe
0a
ff
0b
02
0b
fd
f8
57
fe
02
fd
05
04
02
07
f7
ae
09
f2
0a
07
fe
f6
fc
fe
e2
01
07
06
f7
13
05
0a
0e
3f
fa
01
03
0a
09
04
09
04
8f
fc
f5
03
03
04
07
11
fc
ea
07
ff
f7
09
f7
05
fb
f7
df
03
f8
01
f3
f7
0c
08
fa
63
04
0c
02
06
fe
01
02
06
39
f9
fd
08
08
00
01
05
fb
1c
fa
04
f6
01
10
03
03
0b
73
02
fd
02
10
05
ef
06
f8
28
08
00
f5
f6
02
fa
0b
fd
5a
01
08
f8
f9
ff
fa
ff
01
18
00
0d
04
06
f9
04
f5
02
c4
07
00
08
02
0b
04
fa
ff
f5
fb
01
f7
01
00
f3
05
04
35
04
00
f9
f0
08
f8
04
ff
9c
fc
f8
fd
04
0a
0a
fa
00
1f
01
f3
f7
08
08
fe
fc
09
8f
fd
00
f7
06
01
ff
ff
f9
45
07
00
09
08
11
f9
05
04
3a
ee
f9
f9
fc
05
08
0a
0d
17
fd
02
04
04
fc
11
05
ff
8f
ff
f9
06
01
fe
03
fd
05
92
ff
01
0f
fa
fb
06
f9
05
ae
02
ff
f0
01
fc
fe
fe
03
9e
fb
f7
01
f3
f9
fd
fa
11
be
f1
f8
f2
f7
f6
fb
f8
fc
68
07
fb
fe
fe
f8
03
08
f4
a9
fd
00
03
0b
08
ff
fb
fa
bd
00
04
01
fe
f7
fd
03
00
30
00
00
ff
07
07
00
01
01
04
f7
f5
fd
02
00
04
f9
06
b1
fb
03
00
03
fd
fd
07
fc
f3
00
05
07
fe
f3
fb
05
f9
52
01
09
fa
05
fe
00
02
07
e5
fc
05
0a
04
f9
fe
00
06
e4
0a
02
04
03
0d
01
fe
ff
64
03
01
01
f9
fb
f6
f5
05
3d
f7
fc
f9
ff
ff
07
fb
02
c2
fe
08
02
00
fe
03
fb
07
f8
fe
fd
08
f8
eb
ff
09
00
ea
07
04
f3
fd
02
f7
fc
02
f0
f4
f6
11
0c
07
fd
fe
02
bc
04
f9
00
fd
f3
ef
07
fc
c9
05
f9
fd
02
06
00
ff
fc
f5
04
0e
f7
f8
fc
09
03
01
f9
fd
05
fe
02
ff
05
f9
00
f8
fe
fa
12
00
f0
04
09
f9
bd
00
04
06
02
fc
05
03
03
e7
00
f7
05
0a
02
00
06
fb
5d
f9
03
03
00
f3
f6
02
f5
37
0b
02
00
f7
01
0c
00
f9
f8
fe
00
f9
f7
f9
00
0a
03
31
ff
04
fe
fd
09
fc
04
0f
51
03
03
ff
0a
0c
f1
0b
fa
5a
04
03
f3
fc
0d
00
f8
0a
1c
fb
fe
f9
fa
12
0b
0b
0f
9c
fe
fd
0a
fe
fc
09
01
f7
97
f9
fb
fb
fc
fe
02
fd
03
d5
f2
07
ff
00
fc
00
fc
01
3a
fc
fe
f9
06
fd
fc
fe
01
03
fb
0b
09
fb
0c
0a
01
fa
7f
f4
06
05
fe
ff
ff
fb
fb
fc
09
00
fa
ff
fa
fb
fb
f4
5a
09
fe
f9
f6
09
f8
07
f9
39
fd
02
f4
06
06
f9
fd
01
3b
fa
06
fa
ff
01
fb
01
f9
6a
03
fc
f8
fa
fb
0f
0e
05
6e
05
08
00
09
05
fa
00
f6
f1
05
01
ff
08
f4
04
0a
0a
ef
f8
0b
f8
08
fe
02
fa
f8
b9
fc
04
0d
00
08
06
fe
ff
4d
ff
00
ff
00
03
f8
f8
f8
41
00
03
01
05
0a
fb
fb
ff
3e
fc
03
f4
00
06
11
02
06
20
f1
03
0c
fd
05
f9
03
fc
26
fa
06
f7
fb
ff
ef
03
fb
2e
00
fc
00
01
f5
0d
fd
01
48
fe
00
11
04
05
0f
0d
09
8b
fc
0c
fc
09
00
01
f9
03
3f
01
f8
07
f8
f7
04
f3
0a
e6
06
f7
02
07
0b
fe
f8
00
24
f8
08
f8
f5
12
09
fc
fa
10
f5
ff
fa
06
fe
01
fe
fd
1f
04
fc
00
f2
fc
ff
ff
06
e5
03
07
f9
02
fc
07
fa
fe
d6
0e
06
fb
f9
07
05
01
00
e7
05
ee
fe
0c
08
04
f9
03
8d
f6
08
06
09
f8
fb
07
03
5f
11
ff
01
f9
fd
fb
f6
ff
0d
ff
0e
00
f9
f2
ff
fa
fa
bb
0e
03
08
fb
00
00
03
05
bb
00
fe
07
05
06
ff
03
f3
a4
0d
fe
f8
f4
03
fe
0d
03
9d
fe
01
fb
03
03
00
f8
08
13
ff
f4
00
fe
fb
fe
04
09
d7
01
f3
01
fe
f9
fb
09
09
e9
fb
fa
01
03
ff
f9
0a
04
f2
fe
09
f3
fd
02
fd
fa
05
56
f5
03
04
fd
01
fb
f9
fd
ab
0b
01
fe
16
fd
fe
01
f5
33
03
06
fa
fa
fa
ff
08
ff
fa
fb
fd
fe
00
05
04
f7
02
3b
02
02
ff
04
f5
fd
03
fe
bd
f9
05
fe
03
fe
f8
f9
08
ab
fa
06
0f
08
00
01
02
0c
c1
fc
fa
fe
05
fa
fd
00
f6
0b
0a
09
fe
fc
01
f6
07
03
11
05
fa
03
fc
fb
0e
03
09
6f
f8
01
f3
f6
f8
00
0b
f4
1d
0b
fa
f4
00
04
f2
f9
0a
45
06
f5
0c
0b
00
fc
ff
08
59
f3
fd
08
f6
09
fe
07
f6
f8
05
fa
fb
08
f9
fb
fd
0a
5f
ff
f4
f9
fc
f5
08
fd
02
1c
fa
fc
0d
07
f4
f9
ef
01
4a
00
03
00
fa
01
00
05
fd
eb
00
f7
00
f1
06
00
02
fb
45
09
07
fc
f8
09
02
f8
02
cf
fe
00
f9
10
0b
00
f8
f4
97
05
fe
09
fa
04
fd
fd
ff
46
00
00
fa
fe
04
f9
fb
01
ed
01
02
fd
f0
ff
0a
08
f7
38
f5
f9
ff
08
fc
12
0f
05
f4
06
05
f8
00
11
ff
ff
ff
ac
fa
fa
00
00
04
0d
08
00
fd
09
04
fb
ff
fb
fb
00
02
2e
fc
02
f1
03
ff
ee
fe
f1
df
05
00
07
00
0f
0e
ff
ff
ae
06
04
fe
00
0e
07
02
fd
61
fe
f9
fb
f6
0c
fc
04
04
9b
ec
08
02
f7
fe
f4
fb
fd
a7
06
06
04
0d
06
ff
03
f9
a1
fd
f1
00
0a
0a
06
00
0b
56
08
fd
00
04
fa
00
02
0e
b6
08
08
05
fa
02
ec
fb
06
51
fd
fa
08
03
fc
0f
fd
fe
73
f6
f8
fe
04
0f
f7
03
0a
4e
fb
02
04
00
0a
fe
f7
02
d5
03
fe
f0
02
fe
04
fd
fc
fc
01
01
fd
08
f6
fe
f9
04
15
fe
03
06
00
02
00
fd
02
a5
02
fc
f6
0c
07
fb
fc
08
5b
0b
00
fe
fe
f8
ff
01
ee
0e
fc
fc
08
f9
0a
ff
00
ff
3f
f7
01
fd
02
03
ff
fe
03
9e
f5
fa
04
03
fc
02
02
f6
6b
fb
fe
fa
0b
00
f6
f5
04
9c
f8
fa
07
08
06
fd
fc
05
b0
fb
fb
0f
fa
ff
f9
09
03
6a
fc
f5
09
f4
03
09
fa
05
0c
06
09
f9
07
03
fb
fe
04
1c
fc
fe
09
fe
ff
f5
f8
00
17
ff
00
0f
f6
f5
f6
fe
02
59
fb
f5
09
f7
fe
fe
ff
fe
b9
01
06
f5
00
04
f8
08
f1
57
04
fd
01
fe
02
03
03
04
e6
f6
ff
f6
ff
fe
01
05
01
69
f9
0a
05
01
fe
f8
01
04
39
03
fe
00
fc
fe
09
f6
fb
f4
02
00
04
05
fa
04
fa
06
fe
fc
07
00
06
fc
f8
0c
06
8f
f9
fd
03
00
01
07
01
fb
19
fd
ff
fa
fd
ff
06
f4
02
08
05
f6
0a
fc
f4
f5
ff
08
24
f9
09
02
01
02
00
01
09
e5
fd
08
fa
06
fb
01
01
02
f3
0e
00
fb
ff
fd
fb
fd
09
dc
ff
f9
fe
09
f7
f9
01
04
a8
01
fd
fd
04
06
10
ff
ef
c0
fd
07
02
fc
00
00
0e
05
38
fe
04
06
0c
03
0b
fa
fd
55
02
07
00
01
09
01
03
fc
37
fb
f9
f7
fe
f3
07
fe
f6
99
03
09
fe
f9
03
0b
ff
03
b1
fe
07
02
08
fe
08
ff
01
16
0a
01
0a
07
ff
f6
ff
06
cd
00
05
04
f4
03
fe
ff
fa
df
0a
ff
fe
f7
02
f9
08
fc
6f
01
01
02
01
f3
03
f1
f9
2e
05
fc
f2
02
ff
01
fe
08
f9
fe
07
ff
fc
01
06
fd
fe
fd
fb
09
00
f7
01
04
09
f8
31
fc
f3
0d
03
01
02
02
00
dd
f9
07
f4
fb
fa
0a
01
0d
63
fd
f9
03
01
fb
01
f3
01
58
00
07
f9
ff
0c
05
fa
06
04
fe
03
fe
ff
fa
f3
01
fd
f9
05
03
fe
0d
01
fe
00
15
5c
02
01
fe
fe
fb
fd
01
f9
de
f8
09
04
f7
04
08
f0
f9
9c
01
fb
0b
10
08
07
fc
fc
5d
0a
01
0a
03
00
06
00
eb
d0
00
05
ef
fa
01
fe
fd
f4
b4
fe
04
03
fe
f8
ff
fd
06
51
0a
ef
fb
fd
ff
08
08
00
b9
02
0a
f9
f5
05
09
05
f9
40
fa
f8
f7
0a
fb
06
f8
fa
e6
f4
09
05
05
fa
fd
06
f4
8f
fc
04
03
f6
ff
09
fe
0a
43
08
ff
fa
fa
04
0b
05
f7
36
0b
fc
fc
ff
01
0e
f9
10
20
07
fe
05
fc
03
04
fe
0a
dc
f3
ef
00
f6
08
00
f1
f2
01
f1
09
fb
fd
01
04
f8
05
4d
fb
04
05
06
ff
ff
f8
01
2f
f8
01
fc
03
f4
07
03
fc
b1
03
06
f5
fe
0d
f1
04
fe
9d
fd
fd
05
ff
07
00
fb
fa
b1
0d
fd
fb
0d
07
04
06
08
a1
02
0b
fc
ff
10
0a
fa
f5
13
fc
f7
fa
05
09
01
04
13
20
f7
f3
07
f7
fb
f3
05
06
d0
fd
07
08
09
02
f6
03
07
1a
0b
ff
13
fb
fa
fa
09
fb
b8
f7
f9
04
0c
f3
06
01
09
16
00
02
08
01
ff
f1
07
05
b5
05
02
08
f3
ff
ff
07
0c
9d
fb
0b
fd
01
04
03
fd
f8
34
06
f6
04
01
fa
04
01
fa
f6
12
fd
0a
fe
04
ff
fa
05
4b
fd
fc
ff
07
fd
fd
f9
fe
53
fa
0a
0f
07
0a
fe
ef
04
24
05
03
03
05
0f
03
f4
fb
d8
00
fb
10
02
01
01
f6
06
47
00
09
01
0a
07
06
f9
0b
53
fd
04
09
fa
fc
fa
09
fc
ec
06
03
f7
07
ff
05
ff
04
e8
fb
ff
06
f5
fe
f5
09
05
22
02
07
02
fe
fc
f7
fb
fb
08
08
02
05
ff
03
04
00
01
ff
fb
f9
03
00
fb
fc
02
04
62
01
00
0b
f6
f8
0a
08
03
d4
03
ff
fe
fd
fc
f3
f2
01
34
0f
fe
fb
02
06
03
00
13
c5
ff
f7
02
03
f8
fa
f8
f4
69
07
0b
fd
07
00
01
03
fd
cb
02
fb
fd
03
fe
06
09
03
24
f6
0e
ff
02
fb
f8
f6
ff
1f
00
03
f7
03
09
fb
01
02
c9
ff
fb
06
06
04
07
fa
fe
c3
05
0a
fa
02
03
ff
f6
f8
ca
08
08
f6
0a
fe
fb
f4
06
ad
08
f5
12
f8
07
fa
ff
02
04
03
fc
01
fc
fe
fc
01
08
42
ff
08
fb
f8
0b
04
fb
02
b1
f7
02
04
01
f4
f8
0b
0a
57
fb
0c
00
e9
fe
00
fb
fd
00
f8
fc
ef
07
09
05
f9
11
f1
f0
ff
01
fc
0c
fd
fb
f9
bc
08
fa
ff
06
fe
02
05
fb
dc
fd
00
ff
04
08
01
f6
fd
a9
08
02
08
fa
02
05
ff
fd
45
f9
00
f6
fe
09
0a
02
08
8e
02
02
07
02
0b
fb
f9
07
c9
fd
ff
08
fa
02
fa
fd
fe
f9
fa
f9
05
fb
02
fc
fa
0a
d8
02
06
08
03
0f
0a
fa
05
f8
ef
03
04
f6
0d
0a
03
01
4c
fe
07
01
fb
00
fd
03
04
fa
00
fd
01
09
04
fa
00
fa
58
04
03
f3
00
0d
f7
f7
ff
95
fc
07
04
fe
03
0c
fd
08
a4
f4
02
03
f6
04
03
09
f9
40
00
f9
05
00
07
fd
f6
02
65
fb
f5
00
01
00
fb
ff
fa
05
03
00
fc
01
00
09
05
01
bf
f7
03
f9
02
01
f6
07
05
d5
0c
03
0c
0a
f6
f3
f4
01
21
ff
fe
f9
04
05
03
08
08
1f
00
05
01
fd
fb
fe
05
fd
c8
02
04
05
00
fe
ff
ff
01
5f
f3
f5
05
ff
0e
05
03
fe
b7
fd
0a
03
fe
ff
f8
fd
fc
a3
03
f6
fc
02
fd
07
f8
01
31
f8
f4
02
fd
02
02
ff
06
ca
ff
f6
fc
05
06
00
f8
03
2c
fd
f6
fc
f8
03
07
07
02
2f
fb
fa
f9
ef
0f
06
f2
02
ab
05
08
f6
f3
00
fb
06
f7
ac
04
f6
fe
01
fe
06
01
03
de
ff
ff
04
fa
04
fd
00
03
45
06
f1
01
fa
ff
0c
02
f2
18
f6
00
ff
04
0f
0e
f8
0d
15
05
08
04
fb
fb
08
01
00
34
f4
03
07
04
13
01
fa
fe
c0
f8
f6
f8
05
06
f8
ff
08
5a
05
0b
f7
f1
05
f2
fb
f4
50
f8
ff
03
f3
00
01
fb
fe
23
07
f9
03
0b
0c
0d
fd
fb
1b
02
fc
f5
01
04
e7
fc
e4
a0
fc
0e
f7
f7
0a
fc
02
f2
cf
fb
fc
fc
03
f1
01
05
0a
be
02
07
06
fe
fe
fe
01
0e
2c
05
ff
f3
f5
06
fe
fd
ff
e2
0a
f7
00
06
ff
f8
f7
00
c4
01
05
07
ff
02
fd
fc
eb
df
f0
06
f5
f8
04
04
f9
ff
30
13
00
02
00
07
02
fe
04
92
f6
0c
f4
07
00
01
f9
06
e6
06
05
f8
f5
f7
03
fd
01
9f
0f
fb
16
fb
03
0c
03
06
38
04
fc
fd
05
07
fb
0a
05
b2
07
07
fb
09
0a
fa
f9
f6
52
f7
05
f2
f6
02
fe
02
04
57
fe
0d
fb
f3
02
0c
fa
0d
94
06
fb
06
06
04
fe
f2
03
6d
ff
00
0a
06
00
f9
f5
f6
c7
fb
06
03
fe
fc
01
fb
00
5d
05
03
fc
f6
fd
00
07
f4
c1
f1
f1
f9
03
ff
0c
f8
11
f0
08
02
f8
fa
00
fd
0b
01
f7
05
00
0a
02
fe
f8
fb
f4
5e
fe
05
06
0b
01
fa
fb
ff
36
07
fc
0c
ff
03
fa
0d
17
f2
04
f7
fd
f8
f3
04
00
fe
1b
f4
0a
f4
05
fe
fb
01
05
db
fd
0b
09
fe
fe
0f
fb
fb
6a
12
fa
ec
0c
fc
fc
0b
f6
46
f5
fe
03
08
f3
f9
02
f8
3d
08
f3
fa
f4
0d
0a
04
f2
d3
04
01
01
f7
ff
08
08
f7
2e
08
fe
f3
fe
f5
02
01
08
ca
05
03
ff
07
06
07
02
f8
f9
07
f8
ed
f3
0b
09
fb
ff
40
fc
fc
04
ff
00
0c
00
fb
b1
04
f7
0c
01
00
07
ff
07
4c
f7
03
fe
05
04
02
fb
00
64
f7
11
00
f7
04
07
0b
04
95
f9
fc
f3
fb
fa
f8
08
ff
da
fa
00
09
03
06
f3
02
0e
98
f7
0c
04
fa
fc
ef
0a
f8
d7
f7
08
03
08
ff
01
ff
ed
e7
07
fe
0d
fc
0f
fb
fb
fd
d3
fd
fa
00
08
fe
f7
fd
04
54
f9
f8
02
fa
f8
0c
04
f1
fd
07
0d
fa
09
ff
01
05
01
40
fb
ff
fb
0b
0a
fa
0e
03
0f
f0
0f
0f
03
ff
01
06
fc
c5
fc
fc
fa
fe
fa
07
02
fb
c0
fd
03
0b
05
04
0b
08
f7
8e
03
00
02
07
ff
07
fd
11
c1
15
fe
fb
09
fc
f1
fd
f4
de
fe
00
fe
fe
03
03
07
14
3f
f9
03
01
f8
f6
06
fd
fc
a2
fc
0a
07
06
fd
0b
11
06
05
00
03
fe
fe
fa
fe
01
f8
5d
ff
fc
0b
03
00
f9
04
09
fe
ff
f9
fe
08
fe
04
fe
fd
db
fc
f5
05
02
fc
fd
fe
fe
1f
04
f9
fe
f5
ff
04
f7
0b
3c
0b
f9
fe
05
08
ff
f4
01
4d
ff
f5
04
fa
f6
05
03
fe
6a
03
01
fb
00
fc
01
f6
fb
54
01
fa
f6
fd
03
0b
fc
fe
05
f8
00
03
fd
09
ff
fe
f7
0d
f2
16
f6
f4
02
01
08
0a
b3
fd
fd
02
ff
02
fe
04
12
05
fd
f2
00
02
f1
0e
f9
f9
0e
fe
fb
02
01
f6
01
fe
ff
63
f4
01
01
f4
f9
00
fe
01
a9
07
fa
0b
00
ff
fa
ff
05
69
fc
12
fc
ff
f1
04
00
f8
e2
f5
ff
02
03
09
04
fc
01
1e
08
00
f9
fe
fa
06
fc
f3
6b
06
f4
03
01
00
fc
05
fe
cc
f8
03
01
04
fd
f4
03
09
da
fe
0a
fa
00
05
04
f9
04
5e
f4
06
01
f8
0e
0e
06
09
d2
fa
f8
f9
06
05
02
f4
07
16
02
0d
fa
06
f0
04
fd
ff
9a
ff
04
04
f8
f8
fc
f6
00
5e
fc
07
06
f8
02
fd
04
0a
2a
ff
03
f4
05
fd
01
fa
f5
40
0a
06
fe
00
05
fc
f6
02
59
01
f1
f2
00
05
01
04
fb
01
00
fb
03
0f
f9
04
fa
f8
ba
08
fd
f9
fd
fd
08
00
10
a4
fe
09
00
00
