4f
c9
38
47
72
de
2e
4a
af
65
9f
f3
71
35
6e
44
c9
a7
03
61
49
1e
22
bc
7a
bb
11
82
13
d3
2c
fa
09
44
36
dc
48
ce
b4
8f
63
ea
e1
c7
aa
c7
98
25
21
36
ab
8a
68
3b
f4
0b
20
a5
dd
55
f9
1f
2d
d2
ee
4b
fd
b3
f6
fc
f8
6d
44
1c
db
25
e5
e8
44
5b
0e
46
a3
2f
85
e8
ab
e0
35
98
66
3f
dc
07
e8
d0
0a
ea
59
96
67
b0
68
d2
37
5c
76
b4
be
bd
7a
2a
d4
e9
23
6a
0a
75
28
79
89
ca
d1
16
7e
16
48
1e
f8
cd
1b
5d
fc
8b
5f
07
04
99
89
64
82
1d
cb
b3
93
0f
7d
d3
3d
37
25
6c
ac
6a
1d
4b
9b
15
aa
f6
5a
90
c3
51
c2
29
51
86
73
0c
9b
ba
8b
a9
39
9b
ca
75
e1
90
11
4d
90
64
54
b8
58
50
4d
93
e9
95
96
94
d1
ab
5b
19
96
31
c9
23
12
7c
65
15
aa
77
dd
d4
44
51
82
49
94
d1
aa
82
fa
2f
73
9c
f8
fd
73
b4
bd
c0
ce
13
4a
f2
30
f2
c0
1b
b1
1a
2b
5a
db
3f
75
18
d9
17
2d
d3
52
64
17
5c
dd
b5
c3
1b
e3
fa
29
06
5c
ac
a4
29
e9
8a
00
04
14
2d
4d
8b
2f
37
f5
19
86
85
3c
75
50
e3
13
d6
86
e9
35
a4
9f
fd
f3
ca
8a
7c
57
17
a9
06
73
88
7b
c1
9d
22
9b
aa
0b
46
24
ec
53
4e
73
a9
e3
88
4e
8c
f6
18
e6
68
be
43
29
cf
e8
ee
27
3e
d8
41
90
56
6b
0d
d0
78
71
ba
01
14
2c
29
24
24
79
05
ee
ef
75
2d
72
ba
5d
87
c0
36
83
a9
71
e7
29
d4
39
ab
7c
3c
f0
73
0e
2b
f3
b3
61
79
cc
70
42
ff
3f
53
6c
1b
f1
0c
14
ed
df
14
42
ae
0d
15
94
a8
62
0d
8a
b5
c0
37
8c
73
65
41
15
2f
eb
7c
42
af
a9
62
71
c9
e1
ee
e5
2e
98
c2
39
43
ce
cc
54
5c
0d
5c
1a
eb
42
71
5c
b8
4d
cc
58
c3
c7
79
90
b2
8a
05
82
c1
a0
0a
0a
33
46
bf
15
aa
da
a2
42
83
16
a3
0e
3f
50
0b
fe
9f
bd
b3
5e
c5
92
db
f5
d6
c7
fe
22
a4
0f
18
e9
71
07
a0
19
3f
b5
49
d7
2f
d1
56
93
17
c9
4b
d4
1c
02
e7
7d
a5
43
e2
f0
6a
f0
6e
c1
53
de
67
97
97
4d
04
36
81
d7
34
82
f3
35
e3
79
87
92
fb
98
ef
9d
4d
4f
64
53
0f
05
12
ba
af
8b
91
46
76
00
70
38
bc
6d
18
12
f2
89
17
15
a9
20
df
23
0c
16
2b
44
56
ac
b8
ab
ec
da
a6
cc
b2
35
47
34
9c
7e
e6
40
15
44
fa
d5
d1
2d
b3
ad
a7
b4
06
03
40
2e
24
d3
52
cf
44
0a
35
da
9b
d5
2c
93
44
d4
91
6c
41
f9
5f
da
69
70
2a
08
32
ae
00
de
37
6b
92
c4
3f
9b
4e
c8
96
ba
44
b0
e3
66
34
40
37
fb
1a
67
7e
01
1a
7a
5c
6e
6c
cc
fa
76
aa
10
c6
bd
83
4a
29
25
e5
99
c0
9a
dd
2c
1a
84
2f
35
40
b6
20
17
4d
00
d0
4f
a5
54
b3
d4
f8
11
28
70
38
b6
90
a6
f0
93
76
0c
5e
a4
87
df
4e
63
a9
55
5b
94
48
d9
12
5f
95
f7
fc
6d
0f
98
9c
98
7c
ac
dc
75
70
c1
25
06
2e
0c
31
75
de
b7
6c
9e
bf
4d
09
ee
19
b4
a9
4b
3c
44
69
4c
88
73
cc
d9
54
2f
5d
65
8a
5b
43
2e
a7
f7
ee
9b
74
da
83
a4
55
48
fb
e2
15
8c
30
6f
ee
90
30
b8
ac
5c
29
6e
a6
d3
29
e2
6b
1d
78
1a
d8
24
a1
a9
31
d3
12
3c
0a
9b
a4
e6
86
d8
56
82
08
8b
6e
3f
e0
02
5e
40
99
1a
8d
89
f9
fa
ea
cc
a8
c0
dd
50
0c
6c
88
4a
f8
ef
27
95
03
bf
34
2e
da
96
72
42
1c
3d
27
08
d2
51
53
d6
13
9d
be
4f
a7
42
62
dd
62
6d
00
70
c0
f3
63
76
ed
47
ac
e0
c3
37
00
bc
ff
d4
53
b7
83
3e
70
ed
45
fc
d2
bd
9d
91
a5
8b
b2
f6
9b
0f
3a
86
69
10
2f
fc
54
32
25
62
4f
b8
c4
38
e7
39
70
1e
31
d2
6e
28
16
5d
a2
50
87
ce
0e
47
0f
73
dc
3e
19
b7
c8
71
43
fb
42
5b
c9
5b
8d
4e
53
9d
cf
b8
8b
61
f9
76
84
77
ff
3e
c4
f9
84
88
e4
20
64
07
a3
2b
38
a4
7b
44
00
93
cd
2b
89
8e
f6
5f
9a
85
4a
a3
e3
62
ca
cc
02
e5
f7
d5
f6
cf
7d
ad
9d
b5
6d
dd
49
97
cf
8b
c6
d0
c4
3c
32
32
af
01
dc
71
2d
83
5c
b0
f8
fd
71
40
13
46
29
84
33
d5
9d
5e
1f
4d
37
d7
dd
1c
ba
f0
17
67
21
9d
d1
46
d2
45
6b
29
07
d3
f1
d7
46
54
aa
27
55
51
de
21
48
f7
ee
d2
a8
1b
be
d3
32
52
0a
10
15
5c
72
7f
39
22
64
a2
11
22
27
2e
33
ba
a8
c5
f8
a6
31
19
36
3b
c8
58
67
54
f2
30
9c
d3
d6
9a
a0
d8
15
9c
3d
f0
ca
15
97
24
25
5a
5c
87
98
8b
03
c5
b6
d6
84
03
bc
a2
a0
51
8a
26
ec
55
9e
97
8e
60
41
1b
df
c3
68
34
4b
c0
f2
ca
19
18
42
49
cf
17
a6
56
c0
af
a9
01
3d
1c
a8
2d
ff
ab
9a
60
6c
8e
aa
40
33
7b
38
27
d8
a2
05
b8
21
28
5e
97
0d
d3
c6
2a
9a
47
cd
ba
8e
dd
a5
95
5f
6d
7a
63
b8
08
cc
63
04
1b
c0
8e
78
93
1c
97
18
9a
f8
cd
79
5f
1e
c2
93
af
b6
44
fb
43
8c
1a
60
e8
8b
d8
a1
54
cc
09
45
2b
68
37
08
f3
8a
2b
e2
ce
84
40
a6
6b
0d
83
55
94
40
7a
ae
ea
46
1d
b0
9e
64
62
de
fb
cc
97
60
c6
ce
99
58
75
d8
ef
e6
d8
0c
0b
83
9e
50
0b
46
ad
09
79
62
cf
87
1f
41
5e
11
39
39
42
39
c0
ad
3a
f9
d9
65
ae
37
89
4f
93
6d
da
69
6a
65
f3
96
6f
a2
ff
2b
38
1f
c9
89
04
39
33
49
cc
1a
9e
fb
3c
ac
3f
0f
78
93
1e
f8
4b
3f
79
44
58
01
ec
c8
33
8b
ca
46
fd
02
7f
10
77
cf
65
dc
f7
90
47
1e
27
51
60
2f
c2
e3
05
10
89
cc
06
b6
ac
ad
b1
83
d6
b7
c3
19
21
5a
15
e0
4c
30
40
df
dd
a3
3e
d4
0f
99
a9
7c
c6
1d
3f
40
09
ec
db
7b
87
21
88
1d
ee
6c
5c
2f
47
7a
b7
b5
1e
a1
c2
6f
e4
8d
0b
67
ca
f6
0d
6d
ea
2d
23
e7
11
f9
13
32
cf
ff
66
f6
f3
e3
e1
e5
15
16
f5
cb
af
22
63
37
d9
cc
37
0e
d5
4c
22
17
8d
7c
c1
71
42
75
54
eb
3d
05
62
94
c1
c0
a1
9f
af
b4
90
f9
ab
48
0f
31
4e
98
d9
79
5e
75
df
95
8c
d7
fc
b0
82
df
af
c3
12
49
d3
dd
4e
aa
6f
62
2b
ce
4c
ed
1f
1f
47
47
b0
e1
09
e5
42
5f
41
62
39
88
cc
48
f4
cc
48
10
3e
e5
b2
de
c7
49
1f
ef
77
13
e1
77
d4
0d
a9
1c
3c
43
ef
2a
9a
89
88
f3
47
9d
bf
41
89
76
58
0a
c0
4a
8a
9c
64
4f
96
1f
3e
9d
49
8b
b2
7a
e1
1e
f7
00
ed
87
a7
54
03
4a
6f
48
23
d0
37
2d
83
c9
35
24
82
20
07
b7
0f
c8
bd
a8
e6
61
ae
a4
3b
e2
1f
23
3f
41
e3
be
fd
4f
a7
91
fe
1d
aa
86
be
af
c1
0b
bd
1d
ab
e5
0b
4b
7d
68
62
fd
d7
34
8b
51
e1
cf
2e
a3
19
f3
b2
db
dc
ca
f9
48
94
d9
f0
c4
f1
2f
69
51
7b
32
db
93
d0
5a
8c
0a
da
2e
31
7d
58
8b
b3
07
8c
30
6a
e7
c5
00
c9
4a
d0
01
43
92
91
52
60
22
09
df
1e
98
14
cb
91
1c
c2
1e
db
8b
c8
64
af
98
7e
ae
42
77
26
02
24
fb
20
43
58
4d
5e
1b
19
1d
2d
65
4f
6a
ad
1b
b7
99
69
a3
7b
68
3b
18
59
32
d1
be
2d
7a
63
d1
58
1f
78
b3
d7
31
d8
ed
9c
f6
32
f3
72
04
8e
b5
3a
24
a1
19
52
fe
79
85
36
84
0a
86
50
60
7e
3d
a4
44
34
d1
bf
f4
d1
58
b0
eb
37
a8
2e
b3
09
c6
e3
08
c4
3f
8d
90
4b
72
40
30
2d
1e
42
7d
4c
c8
f1
cc
51
ee
ca
90
92
2b
75
43
8d
5a
c0
11
d7
f2
85
88
c0
33
58
ae
f5
d1
06
56
3c
f7
07
88
00
34
c3
c4
5d
c8
07
2e
38
f8
90
49
8d
7e
8a
6c
2f
1b
48
34
bc
6c
ee
df
e4
32
ee
49
6f
88
04
16
4a
b2
e4
16
34
fa
20
34
d1
cd
b1
76
9e
20
0a
8c
6e
5e
1d
ad
1e
68
2d
32
ff
e7
df
e4
da
b0
c5
0e
c0
23
95
f2
de
49
45
b9
1e
15
0e
e7
1a
a5
c9
89
ce
03
26
ed
21
b6
86
84
b2
21
4b
1e
7d
b2
92
40
1c
cc
e4
42
2f
45
6f
13
a2
b8
2a
3a
79
54
e5
11
a5
34
8f
c8
7e
4d
01
d2
d8
72
b1
18
a2
1e
af
b9
46
6f
68
20
35
a8
d2
35
99
07
11
b5
4a
6a
aa
97
a1
c8
d7
21
97
4a
da
56
8e
ca
ae
5a
cc
c6
e7
c7
3f
6a
84
af
b5
f8
fe
18
4e
b1
ea
92
1c
16
fb
66
55
4f
32
44
c3
c7
07
86
ef
ca
e3
92
92
65
9b
fa
cf
3c
9f
76
86
05
20
65
5b
60
31
09
a1
bf
eb
fa
1c
99
95
81
c8
26
63
04
d6
05
f7
00
2e
68
d1
4e
fb
66
fd
31
a8
f6
10
30
bb
53
5a
c2
2c
f7
a3
d5
a1
c4
21
02
1d
6c
4f
9b
32
c0
1b
83
eb
2a
26
6a
03
f3
ba
c7
35
16
e8
7c
8d
2f
36
e3
aa
01
3a
3e
08
60
a4
b9
51
ab
7c
6b
40
b9
c1
45
46
6f
5d
28
66
6c
5b
ae
5c
58
bd
00
53
8e
50
08
2d
12
28
b6
44
24
50
bd
1b
35
f8
dd
43
11
ec
9f
7f
bd
cd
51
2f
20
b8
4d
b3
d6
2d
42
d6
bc
43
a8
e1
74
19
83
40
e9
42
df
b6
df
4a
a2
50
b4
78
0c
5a
9c
b8
12
c7
6c
20
a4
dd
7e
06
50
48
b4
c4
61
5e
4e
5e
57
9e
4e
3a
95
51
04
f5
57
d1
d3
39
a2
2b
5f
d6
df
0d
5e
d8
20
ea
a7
c7
9c
3c
0d
6a
34
da
eb
84
b2
4f
04
a4
dd
8c
d2
02
41
33
3a
0c
41
fd
ef
f8
10
65
31
f8
c6
fe
c2
c6
2f
05
8d
32
45
1a
ef
55
46
9c
30
61
c1
99
19
fb
ca
6b
c8
a2
1b
5d
c8
c9
db
86
05
49
47
c2
ff
75
07
9a
0f
1e
46
35
5c
31
7d
cb
53
67
b4
fb
cb
b7
2a
ed
43
c2
79
df
63
31
96
3d
b7
a1
68
92
1d
e4
b8
07
9e
c2
9b
c1
29
df
bc
31
ff
db
9a
40
a7
7c
dc
d9
63
4f
19
62
e3
b3
c4
71
aa
ea
ec
b4
65
27
04
43
74
48
9d
ef
8f
22
85
ed
ed
e2
19
e9
e4
a4
f7
fc
79
4d
7f
09
4c
12
8c
49
aa
43
e2
98
f6
1c
3b
00
e1
0c
21
03
b3
65
30
51
f9
44
97
48
ad
f4
5c
26
5c
3b
70
30
7e
40
13
b0
37
9c
8a
3f
83
a4
bd
27
5c
29
25
06
bf
2d
2f
0d
9c
5f
f2
54
d7
ab
aa
2b
a4
68
46
25
ad
47
f4
6d
46
a3
9c
e3
99
cd
1b
90
5c
1a
e1
d5
57
17
3e
92
7a
9a
11
e9
40
19
9d
df
3b
f4
d1
c6
e5
e2
48
0e
44
ab
87
3c
c4
3f
3a
f9
dc
ca
ad
c5
62
e0
fc
82
a2
77
99
c4
14
8c
0b
06
4e
42
0c
d1
59
11
7c
78
04
fa
7d
88
e8
8b
1d
70
58
66
fa
c2
a6
c3
08
87
f0
88
27
56
a0
a3
eb
dc
36
87
83
9d
41
44
10
c0
34
45
5c
67
f6
ea
2d
90
cc
62
3b
d6
72
50
f3
c6
ab
02
e8
a0
df
2b
98
3b
5a
25
7a
68
4c
e4
ef
1e
21
4c
d5
b7
06
39
49
1a
b0
73
dd
33
f6
c7
1d
f5
2c
15
c1
64
c5
e1
fe
93
27
4c
9f
a5
85
52
82
16
5a
38
4f
85
ea
16
cd
37
e0
0e
f8
9c
20
bb
d8
aa
d9
1a
9a
c2
6d
da
31
fc
e1
5a
8d
d6
6c
05
69
ea
fa
01
47
1d
52
1f
36
2a
11
5c
14
45
2a
44
45
f9
32
6b
2b
fa
12
48
60
a3
d6
65
d9
5c
7b
97
71
5d
7c
81
3a
e4
e7
9f
34
24
5a
03
26
a0
dd
58
42
c3
5d
ad
95
50
6e
7e
00
a7
b5
f3
6a
fd
9f
ef
f7
e1
09
5f
1c
11
7a
87
1d
7f
dd
43
a4
01
38
a1
ea
b1
2f
7e
96
75
98
98
05
20
79
fc
e0
36
2f
bd
82
f8
5d
a1
a2
78
89
c5
77
7e
6b
cf
35
fc
f4
fe
a3
5d
95
e3
0c
9c
1f
c6
f1
8b
d3
a2
2e
5f
5e
1a
63
93
67
a2
5e
23
5e
a8
6a
59
88
28
6f
eb
53
32
d0
d8
3d
8f
82
dc
58
6a
3f
ef
71
13
f8
d0
f1
20
0c
8e
ba
d9
72
fc
16
a0
60
67
a0
2b
d8
cf
d0
6f
8f
77
45
0f
9e
96
dd
21
09
ce
6b
67
ca
4d
9e
7d
c0
b7
cd
d6
6d
eb
74
1f
e8
00
d4
4e
11
e3
fb
d4
8b
a4
12
e2
5e
3a
fe
49
87
64
a9
60
db
de
f2
92
ee
73
2a
b0
56
ab
c7
9d
92
0d
09
72
85
b7
e2
72
46
41
09
da
8b
38
bb
36
cb
fe
25
89
e7
29
73
c4
2f
9f
0d
45
a1
cd
2e
61
cb
9a
db
17
20
6e
cc
bc
6b
5c
b8
8b
1b
f1
17
5f
d9
b2
39
f7
e9
5f
ab
fe
a9
7e
8d
31
c0
8d
03
3e
cf
76
40
eb
b8
b4
ae
66
82
45
07
27
a3
73
67
ae
ba
1f
fc
a2
a0
db
28
a8
a1
d1
16
59
e2
12
16
2b
0b
cb
39
05
28
66
30
55
dc
dd
09
1a
ee
71
a5
93
2a
a6
01
9c
1b
de
8e
57
9d
89
5b
f1
8d
ee
31
e4
d5
62
77
d0
e8
91
9d
e7
38
e5
25
cd
83
6a
d8
2e
10
0c
98
c3
d2
f7
c2
ef
5d
02
5a
8a
23
48
10
a6
5a
6a
21
c9
2e
a0
68
4d
eb
14
04
28
e0
31
43
99
f2
44
96
f9
38
d1
00
3d
66
42
ed
83
05
57
c1
20
d0
5e
5f
3b
53
01
23
7c
b0
c4
0b
ea
fe
0d
19
44
3e
02
46
47
00
fe
e7
62
f1
40
6c
c3
c8
90
be
59
a5
2c
37
d5
d0
92
83
3a
18
d7
29
18
d8
5b
40
72
d0
f7
b9
f7
50
1c
5d
c1
38
51
fd
31
56
3a
1f
4b
86
17
de
c7
05
5c
41
b3
97
be
e1
f1
8e
c2
41
c9
f5
fc
12
58
a0
9e
b8
74
89
b9
0b
01
f2
97
99
38
23
bd
94
a5
be
46
5b
07
6c
5a
2d
21
50
91
64
03
72
62
6d
39
d7
5a
7d
a8
6d
22
f0
0b
74
d2
11
6c
9f
f2
6a
4c
64
76
7c
9f
73
5e
5a
47
66
b2
2e
83
d7
04
52
e2
e3
a0
82
51
8e
3f
d8
8e
95
7a
ae
63
de
37
8f
fd
c5
73
84
13
57
c9
20
fd
1f
4f
dd
be
f9
98
5c
d7
10
3a
40
bb
97
94
ee
ab
89
9b
ba
67
16
f5
aa
cc
76
2c
6d
05
05
d3
d5
09
98
59
a4
29
0f
39
75
d0
3e
87
c7
b1
c5
ac
f5
94
df
ed
61
87
0b
d8
e1
bd
c4
61
71
f9
70
92
0f
77
e8
73
62
9f
66
33
cd
4f
a1
4d
36
0f
9d
3f
47
da
bb
70
cf
f6
49
54
a8
9e
83
41
10
69
67
1f
b1
f8
89
07
bf
a0
ac
0a
0b
78
ca
2c
23
6c
a3
8c
7c
7b
7e
9c
ad
87
a6
a3
61
46
61
c6
96
47
67
8a
85
65
6c
b5
a2
36
1a
95
a9
40
65
a3
c8
86
f7
b7
95
a4
8d
8c
69
3d
58
bf
0e
98
33
2b
7f
8e
3e
d7
00
e0
91
82
15
16
9d
e1
f5
fa
89
0f
c4
52
11
a8
8c
38
f8
54
82
f2
5a
d3
7e
25
96
2d
d6
27
c0
fc
19
d6
9f
f6
4c
13
82
d8
79
b6
88
27
4e
c6
63
e3
0e
c8
a9
f2
a4
1b
f2
e6
ea
53
93
db
31
8a
09
ff
e6
c8
87
8f
d0
21
12
fb
01
9f
9c
f2
62
db
eb
15
67
59
d2
3a
8e
84
e5
c2
59
66
4d
3d
43
49
8d
76
4c
2a
1f
8c
b9
d7
76
38
24
e5
6f
ac
13
9a
3d
c9
1b
c3
4c
ae
3d
de
ae
c9
2f
ed
f9
55
7e
28
21
f1
e4
94
6d
41
d8
39
f8
1f
0f
b1
7a
aa
6d
24
c3
9d
de
ba
6b
45
ef
d8
76
a7
f3
98
39
29
e8
b2
21
a7
36
56
49
9c
cf
f1
b7
1f
ac
fe
7a
bf
67
57
b0
35
f2
e9
03
f6
00
a9
e6
3f
d2
64
bd
b0
52
14
49
8b
76
e4
2f
87
e3
c3
50
9b
3c
ee
83
b7
ec
bb
10
9b
85
c8
15
61
57
84
0b
0b
40
b9
3e
cb
c8
42
f1
f0
ee
7d
57
f3
22
9a
fc
4a
10
d3
84
d1
f4
da
1b
f4
26
34
63
d8
94
46
89
20
82
ba
df
08
e5
c0
cc
55
b6
6f
e4
92
cf
f6
a3
d1
3c
ee
94
ef
9b
16
b0
e7
ef
82
4e
24
d3
e7
b0
d4
ba
9a
ef
63
b0
39
2f
5b
41
fc
f5
f6
86
b9
c2
cd
01
44
7c
85
93
a6
f9
6e
e4
7d
3a
ba
cf
d3
48
d7
ce
45
3c
b5
34
1e
dd
b6
10
d9
aa
9d
c8
b3
18
b8
34
e3
ee
4a
05
70
4e
d9
e5
33
b4
57
3b
86
3e
a5
2b
c9
c1
70
fc
31
cb
8d
d9
f6
52
e1
bc
50
c0
4a
45
92
b0
38
7b
47
88
0f
6d
01
3f
0b
a3
d6
54
18
7b
fe
1f
72
ea
61
ef
35
8d
b7
17
82
dd
08
53
b7
b6
e2
5a
93
ad
e6
b7
b4
70
76
56
88
5e
76
20
8d
ca
4f
f0
10
cc
28
b2
f2
79
1f
c1
63
2d
74
a3
15
b6
57
66
1d
3e
25
00
04
34
20
2e
d0
9b
ec
b3
56
bd
25
7c
c4
bd
6d
6c
88
9f
84
28
df
c0
7c
0e
73
74
bd
ea
99
4a
9e
85
cd
c7
d5
c3
94
1e
6d
97
51
b2
3d
30
0e
74
ce
4c
3f
95
b9
b5
c2
98
15
b3
aa
6f
31
8b
f6
e2
68
02
ea
ef
bf
5f
fb
90
92
b5
c8
b0
b4
a2
78
da
d7
a2
da
60
1d
2a
73
0a
d6
52
8f
d5
79
db
a8
e3
b6
30
27
3b
c4
c1
f8
e7
d9
d0
70
fc
9c
c6
a6
7e
14
25
f4
be
67
f9
cc
0a
c1
99
11
a5
5a
29
20
4c
6c
76
49
15
1a
0e
e0
53
23
8d
57
28
1c
c0
92
45
dc
8e
25
94
99
42
7c
b2
a6
ea
aa
51
43
4d
2b
fa
8f
79
63
76
f3
b4
22
88
05
3f
d8
1b
b2
8d
76
51
0f
7d
94
79
bb
7c
a5
81
ed
83
36
96
c0
94
fd
85
ca
e3
0e
f0
0e
67
0c
f0
53
a1
8e
29
00
5b
b2
b9
36
9d
d0
ba
f0
00
3c
c1
73
ca
5c
a2
b8
43
f7
d1
71
4e
bf
10
3b
90
70
29
68
6a
3e
89
42
5a
4d
0f
ca
88
a2
e2
b6
3a
01
b7
24
a9
08
42
5b
d1
ce
1b
00
09
bf
3b
bf
f8
95
26
3d
03
ef
fc
87
08
21
18
29
94
a4
19
2b
ca
25
e8
27
14
96
fe
d3
9d
cc
ad
00
3b
7b
65
0e
a0
cf
2f
c2
99
4d
22
72
fa
c5
9a
0a
45
c3
d6
3f
84
c4
82
62
de
ce
16
da
bf
08
db
b2
c2
ef
8b
97
f1
8c
30
f6
14
69
0e
1c
c6
9e
c1
4b
b6
2b
33
1c
44
bd
7d
77
99
d8
14
0c
cd
eb
70
aa
8b
e8
e2
79
9a
f0
53
48
72
09
07
24
d4
1e
2c
35
1f
5e
0c
3c
46
e0
a5
d5
e1
a8
06
9f
42
2e
0c
b3
59
4c
76
cc
b5
58
79
d7
4a
4c
7d
bd
ef
63
6c
51
74
f7
55
90
38
28
ff
cc
71
70
3f
56
e2
63
b7
47
d4
71
6a
8c
ec
d2
51
3a
9d
f4
58
b0
8c
05
28
03
95
24
4f
ba
83
7b
1e
d7
f7
08
ac
46
ab
56
db
ab
c9
f0
71
1a
2d
91
f0
fd
8e
7a
b2
2a
d3
39
d9
a8
cf
f7
9f
1d
23
63
d0
6f
b4
ed
ea
c7
a2
e1
68
50
dd
c9
0a
96
e9
a7
0a
d4
b6
73
e0
96
88
41
d8
91
eb
c2
5f
d0
85
c0
46
ad
d3
73
fc
29
f7
d8
5c
83
03
c5
52
02
cd
d8
be
47
53
cc
13
26
de
b3
c5
b6
a1
25
8d
0a
57
d0
de
ce
a5
ae
8d
4e
68
b2
c7
aa
d4
8d
69
8c
71
13
58
08
0f
4f
ae
08
97
94
4c
88
aa
99
af
af
1d
d5
21
58
1f
57
36
9e
c1
43
95
3b
d8
f5
e5
df
0b
da
7b
21
41
0b
03
05
fb
3e
86
94
20
28
37
fb
18
15
6c
c0
b7
7d
84
a9
a6
b2
ef
5e
d4
8a
ec
bc
fb
b9
36
2d
e0
39
2e
f5
85
ed
11
14
03
e7
bf
99
7d
2b
ce
dd
af
d3
26
9e
6d
50
e4
52
3f
75
b0
34
21
cf
e0
d6
a6
97
01
63
0e
00
8d
98
cb
09
6c
28
31
f7
54
d8
59
eb
50
75
f0
9e
4c
93
fe
a5
1b
2d
4b
68
a6
95
34
7b
cc
8c
33
10
8c
62
a6
77
58
0e
7e
10
f7
eb
85
e5
6e
88
35
42
5b
73
c7
4e
09
e6
7c
8e
d9
1a
fb
f8
66
56
b8
c0
54
1e
22
64
12
8c
a6
68
fe
a7
21
6a
1b
4f
3e
d2
66
52
a4
ac
c3
de
3e
d2
4e
46
01
28
43
33
77
3f
35
20
8f
ea
2b
b5
1d
0b
56
d1
55
a3
69
9a
eb
56
95
03
9f
d5
88
a9
40
ec
1c
f0
d5
d9
68
e2
e7
2b
13
70
3a
8a
df
87
f5
7c
ac
1a
38
85
46
3b
bb
48
e2
fb
6a
ea
d6
51
21
fc
26
67
a6
01
e4
0a
67
88
f9
84
9b
88
70
31
b7
f9
fa
b3
24
6d
d8
97
b8
19
bf
57
20
da
c0
00
a3
d3
ca
55
2c
61
97
91
72
f0
1e
16
21
00
72
bb
18
98
5e
bf
0b
3c
98
c2
2e
bf
d5
8a
7d
79
db
5a
99
ed
fb
27
aa
09
2e
b0
5b
bd
00
3a
40
4d
ec
2d
61
4a
5c
84
23
a1
b6
ba
a1
57
57
c4
08
bb
ae
37
39
fe
ea
bd
20
6c
e8
a1
30
87
45
9a
d3
44
5d
a6
79
a1
0c
a6
38
fd
d2
15
b3
83
f4
3f
4a
0c
55
ba
31
62
f2
e8
9e
c3
0e
1a
42
5c
de
58
1f
87
e8
86
0b
5e
5d
07
54
6c
93
af
e2
b2
ce
07
66
10
66
f2
ca
b2
f1
00
d0
aa
e9
56
52
6e
24
74
b3
5f
c3
82
a5
c0
0b
b0
92
1b
c1
14
22
6b
58
6a
28
8d
de
53
25
83
a7
3b
83
c9
27
46
3f
84
b8
92
79
b7
f4
a8
25
d0
3f
b1
ab
18
02
54
f2
63
45
1f
88
a7
71
43
d2
e5
a0
bd
53
54
6d
3d
92
62
c3
ce
27
1a
4a
60
f6
63
54
41
bb
2e
eb
10
53
3a
7c
7b
ce
5d
85
05
63
61
d4
3a
58
3f
d5
a7
b0
c5
26
5d
55
de
49
8a
1f
68
c1
3b
09
c9
9a
c3
d2
98
9c
63
03
02
41
ce
4b
8d
f4
28
b8
24
97
df
3b
a3
2e
a0
e0
e2
1d
9e
d3
d2
08
ec
58
39
72
48
27
64
9e
55
85
72
4a
e9
71
4d
57
4e
19
4a
84
f9
73
b9
ee
9a
be
d5
27
eb
ce
96
7d
46
e0
ed
eb
18
b8
c3
0f
df
30
2b
3a
a2
df
de
7e
74
cb
65
69
f3
d4
6e
e8
88
b9
d7
97
dc
dc
7c
3f
63
88
16
9a
51
d6
f5
88
4e
1e
ed
73
6a
9c
c0
2e
2b
93
09
0a
45
52
8f
c5
7c
2a
ce
34
56
13
0d
36
f4
10
ec
cb
95
10
7d
34
ef
d4
2b
24
e1
23
e1
bf
10
bf
42
33
c6
7a
95
64
ff
09
be
fe
e5
84
32
6d
f2
4f
ad
2d
dc
57
ae
1d
dc
16
96
8d
7c
ab
7e
72
c5
9c
50
f9
3a
bb
26
b0
82
86
e0
c8
a4
7c
21
08
d1
a8
9c
76
39
c5
3f
39
62
be
1b
88
18
53
05
e1
af
59
e5
b0
e2
3e
db
ac
b3
3f
73
e6
bc
8d
0a
aa
5d
98
69
67
19
fd
0f
24
68
0d
bf
7c
57
1c
b1
45
7f
7e
36
29
4f
09
05
7c
4c
79
a7
26
7f
a7
8a
e4
7d
18
7d
63
9f
4a
56
0b
66
74
d6
96
90
df
df
2f
75
21
01
21
f1
87
2e
f7
57
49
2d
5d
e4
4a
d6
2b
1c
de
c3
c4
e7
f5
95
95
40
bb
74
d8
04
39
77
e0
11
33
d5
71
c7
08
34
76
c1
1c
c9
bf
23
6b
eb
83
b9
ac
45
a1
cb
8f
36
0b
fe
28
8a
93
15
60
26
35
76
dc
9d
71
fb
43
30
0e
de
fe
4f
83
91
d6
7b
8f
ff
53
33
50
0e
d9
b1
b5
23
58
79
4d
d8
89
95
1b
3b
7e
4a
42
cf
6d
7a
51
20
2e
84
5c
6e
55
bd
89
2d
f2
21
a0
d7
13
38
26
d6
9b
a6
2f
3d
ae
31
64
42
75
14
30
f9
60
a6
00
12
d4
b4
20
ae
2f
89
16
6d
1d
bb
27
47
56
2b
bb
b3
0b
b6
5b
7c
eb
74
eb
c6
ba
52
76
f0
8e
69
d2
4c
52
b2
95
cf
0c
12
06
a1
bc
d8
62
a1
32
52
32
de
e4
65
7d
5a
16
ba
f8
f1
1f
6c
88
08
22
89
82
88
2d
41
7e
ad
3f
c3
3c
46
02
eb
e7
a6
ae
8c
42
3d
a7
aa
ed
7e
2d
be
6c
5b
de
e6
ea
a9
b6
8c
cf
7e
d1
b6
af
eb
2e
ed
08
c9
fc
cf
c6
c8
c5
6f
d8
42
57
36
33
df
86
29
7b
1e
4b
a4
50
04
78
bc
1e
c9
ad
3d
d1
84
e9
06
1a
5c
24
9c
7a
ec
e2
d7
ea
de
ab
37
c7
d4
23
0f
f9
58
55
45
32
1f
10
15
0a
f5
e9
b5
06
13
54
d8
f3
4f
15
3f
77
7b
59
83
68
d0
bf
6e
98
ca
fc
9f
3c
4e
89
57
95
a6
d7
6e
bd
ca
88
66
3e
dd
35
78
4f
33
7a
e7
65
3d
a7
7d
a4
cb
de
49
b7
01
be
35
df
94
8c
2d
a7
18
7e
bc
4c
39
e6
52
9a
3a
a6
1e
c7
2e
3e
c2
04
a0
72
a3
08
17
13
5e
0c
70
8e
1e
f0
60
05
3e
46
48
cb
6f
3b
6a
4c
c4
04
64
86
ba
2b
ed
03
ab
60
6d
51
8a
e4
12
01
cc
79
02
d7
f7
bd
87
31
1f
ea
a1
fb
00
2b
b4
e7
7d
89
03
7d
7c
53
9c
c9
47
a8
03
ea
db
91
3f
d8
bf
f7
02
5b
84
12
4f
c6
e0
2e
34
5b
e9
db
ba
b2
ee
05
b9
cb
f7
ea
95
41
aa
d4
8d
6f
f0
7b
90
fc
c7
5b
17
82
69
dc
c9
65
60
fd
3b
ff
b1
9c
0c
81
88
19
bf
ee
70
3c
5f
aa
e4
d4
12
6d
98
86
67
99
b0
a2
08
04
84
b1
51
e9
96
6c
59
40
f5
7b
91
44
6b
e0
c5
89
17
ba
da
0f
0a
ad
0d
d8
0a
f1
0b
14
eb
d0
d7
c3
36
cb
16
18
15
39
3a
d7
68
ac
32
24
e8
b6
36
c4
54
8f
5f
04
5a
8f
05
aa
aa
1e
ab
b9
70
20
4a
2a
7e
fd
46
70
fd
b9
ae
14
a4
e3
5d
f1
cb
27
8f
fb
8f
f2
67
4f
34
97
27
57
22
f8
e8
60
2a
f5
5c
06
3f
66
f9
26
02
5b
ed
87
a7
d4
be
27
f8
42
2f
b8
67
37
c4
f3
cc
3a
94
aa
60
22
22
29
c9
07
a0
d2
40
ee
9b
0e
b4
6a
f9
e4
60
d1
1b
82
d7
5a
d2
f4
e8
13
81
ff
dd
1b
ac
2d
c0
ee
7a
f5
21
d1
a8
e3
df
3f
5f
a8
60
dc
64
a7
20
cf
98
ac
ae
db
0b
d8
c2
31
3f
e7
03
b9
68
3e
17
b4
b8
1d
94
84
62
87
b0
f6
0e
41
12
10
23
9e
57
bc
3e
68
27
2e
a3
c8
f8
eb
7d
0e
bf
68
a9
28
34
f6
65
1b
24
a4
00
79
13
63
89
e8
1f
d0
8e
b6
9a
96
8e
03
70
1d
4a
de
13
fb
90
d5
01
81
bc
02
10
61
75
26
ee
a5
e3
5a
b9
88
0f
4d
b9
cc
90
eb
45
04
b0
3b
d0
58
2b
dc
b2
2f
12
cc
b4
45
c1
87
b1
c9
45
9e
40
1c
61
00
de
83
ae
71
fe
48
6d
db
8d
4d
b8
4d
99
ad
13
bc
79
f6
af
61
77
ae
04
e3
2a
27
e3
c9
ef
e3
ef
d1
82
39
17
57
ab
95
66
3b
a1
73
69
19
e2
7c
16
48
b3
c5
76
f0
7f
39
c4
3c
d4
4b
e7
a2
4e
17
9f
60
d5
94
c2
95
1e
fa
0d
c5
94
c9
c6
7a
4b
25
b4
e4
ed
35
e1
ae
a3
f9
9b
ed
cc
a9
9b
34
17
b9
42
68
2d
0c
19
a7
42
a1
b7
cd
ec
65
18
20
2c
1a
3b
d2
7c
51
1f
1a
ce
a2
d6
62
81
2b
99
fd
ce
35
98
e5
e3
70
39
60
f3
ec
84
19
47
9a
ea
42
fd
c8
62
b1
28
6a
7b
99
71
00
20
fa
07
34
dd
66
c2
6b
57
9d
22
84
55
f7
82
c5
c5
72
0d
40
7a
39
3c
f0
8c
74
ad
6b
2d
24
c6
52
75
27
bf
0b
5c
e7
e1
50
85
76
f5
29
09
fa
18
a1
88
4b
d1
9c
3a
f6
f2
ac
10
4e
03
6b
b7
c3
81
3a
aa
19
1e
65
f2
28
75
b8
e6
ef
f0
c0
fb
22
c1
7f
9b
e8
c1
c6
58
16
86
72
d2
1d
e6
22
94
eb
ef
fa
c2
44
e6
73
cb
fb
9f
be
bd
31
d5
01
fd
bc
b4
e8
6b
73
20
c2
12
62
d4
77
40
6f
ff
8a
b2
3d
b7
d8
44
69
ae
f5
06
05
f9
b0
40
61
30
c0
f1
13
df
b7
93
93
ea
2d
a0
e6
62
b7
13
6e
3a
34
99
2e
d6
ed
a5
8a
92
17
b7
8b
95
2c
5f
53
8b
01
e8
e2
bf
eb
d2
97
a3
8f
5c
12
a0
ff
2a
43
78
4b
0d
00
c4
a0
bc
25
23
36
f0
1c
b9
a6
35
4c
e7
75
00
6f
5f
cf
37
cf
ed
f0
d6
54
e5
41
6c
8b
7b
78
7e
ce
dd
5f
0b
bb
5a
58
fb
ad
7d
2c
76
7e
c0
c4
2f
1d
fe
2c
02
d2
be
27
46
75
7c
90
f3
66
33
07
98
a1
27
46
12
05
fe
65
c3
e1
ba
9f
5f
4a
e0
de
90
c8
c2
1a
03
25
cf
df
18
cc
dd
89
49
37
d7
b9
90
06
62
15
dd
98
5a
a6
07
90
78
0c
68
c8
4a
d6
25
4e
8e
53
7b
1a
56
9a
a1
38
5e
e1
cf
b8
cf
22
4a
8c
1d
e5
54
34
8f
82
6d
47
05
cb
ff
11
ab
4f
60
56
ca
85
d9
2d
39
71
17
f7
e0
cb
fd
05
43
3b
9b
e2
a1
cc
fa
ad
1b
ff
37
90
b7
3a
02
20
fb
cd
45
66
d2
cf
28
7c
c7
df
04
a7
1c
5b
df
d6
72
64
f6
2d
4f
26
c7
8d
35
47
9e
2a
bb
56
c9
2c
c3
9b
a4
15
45
4f
24
6d
fe
64
ff
e3
db
37
b8
2f
ab
30
ba
3d
46
14
ef
eb
3b
35
02
6b
c8
3b
b7
a7
97
6d
84
ce
77
f9
d8
87
00
96
ef
b9
c5
c4
4e
40
51
1b
2f
05
9f
05
65
f8
5c
78
fe
bb
ad
7f
76
00
ba
fa
cd
f9
c0
b5
65
d7
ce
f2
89
93
cd
6a
2d
06
74
64
d7
a3
9f
64
3f
98
a5
71
fd
fb
93
91
eb
98
13
52
11
2c
2a
5c
c3
da
1b
ef
18
7f
23
55
1b
8e
4f
68
54
cf
87
df
c5
4b
70
42
8e
c2
ed
cb
32
3b
b0
bc
62
66
31
b2
ec
98
3c
ff
ef
72
fd
8d
7d
df
1a
b8
19
b8
e7
49
1c
41
58
ca
e0
e6
29
04
fc
ff
35
ab
8c
5f
cb
ce
90
2e
77
cc
47
93
68
43
28
be
a8
36
d6
ed
bf
25
93
8a
af
2b
a6
7d
dd
16
64
2b
5d
96
ac
4b
2c
b9
69
8c
d4
49
25
bf
11
43
e6
eb
00
fa
8d
cd
d0
39
17
17
87
15
c1
bc
98
74
0a
52
1b
af
99
38
40
89
82
37
58
10
89
3a
41
e3
2d
35
05
79
0c
4a
6f
2f
a8
ce
c5
2c
df
75
d1
da
43
de
85
95
f7
18
6f
bd
50
bb
e7
d4
a4
74
e8
87
9a
c9
5d
d2
04
3a
c6
b7
6b
9d
6d
db
10
f6
d9
f6
ed
77
24
6b
92
11
d0
6d
e0
c3
0d
56
38
9f
9d
0e
83
e9
5e
28
b1
a1
07
1b
98
8d
1d
61
f0
c5
68
7c
8e
9c
c1
b1
84
64
ef
81
9f
06
63
93
c4
d7
66
4f
5f
fa
4a
dc
2e
b1
9a
16
28
96
2f
5b
ed
ab
b9
b2
c1
1d
a3
97
a4
43
46
06
75
52
f9
86
7b
87
1c
7d
92
06
89
2c
5c
a4
8d
31
6c
12
27
b9
ac
0e
1c
9a
69
08
b7
04
fa
06
6d
fa
0c
cf
5f
37
8a
b6
9d
ac
41
53
2e
e0
bc
20
ec
ed
f0
af
a6
ff
31
52
45
1a
d2
a5
a2
f1
43
9c
b3
9a
f5
08
f1
c8
c9
7b
b2
95
74
38
e2
b8
52
41
16
9d
3d
71
06
a4
77
1f
51
bf
86
71
90
a9
87
6a
cb
9b
32
78
2c
6e
5e
3d
4d
7e
68
64
bb
d8
bc
a7
f9
74
50
75
fc
c2
20
f5
07
dd
58
08
e9
a4
ee
f3
11
ca
23
b6
64
2f
44
7c
51
8d
2b
bd
77
ce
d3
9a
7d
35
52
fd
86
b4
ab
e0
b4
14
2f
22
3b
c1
99
a2
b8
42
bc
a5
1a
e8
d0
0a
a3
81
01
a2
2c
8a
c9
6c
16
cd
12
a4
f1
63
d8
16
9f
60
7e
35
76
86
cc
84
e3
60
6b
4a
d0
fe
cb
57
e4
b5
1c
62
e6
48
e4
65
7c
64
13
4c
63
df
16
66
f0
6e
e0
2c
c9
bc
0b
49
ab
03
34
4d
1e
8d
fc
68
2a
e2
74
b3
1f
1a
e2
51
cf
93
68
96
29
bf
bc
38
d8
4b
48
e0
8a
16
3b
a7
50
85
21
37
95
9c
c8
8a
e4
2a
a1
07
04
0a
d5
9e
d6
b1
50
01
17
7b
82
99
0e
a3
dd
5c
02
3d
f0
1e
4b
a7
4f
09
5f
fd
8a
09
78
04
28
92
e1
d6
07
a2
4c
8a
7e
98
78
26
0c
6b
76
11
7a
7c
59
5e
57
36
5c
c9
a1
06
0b
68
8a
85
9c
9f
68
9b
e4
25
9f
5c
ba
28
4d
af
e6
52
ed
7c
4e
87
59
aa
27
d3
a1
20
dd
34
47
b6
e3
3e
0a
c3
91
c4
a1
c8
7d
05
7f
ab
8b
7f
a1
58
d3
ef
8a
e4
0f
75
25
2c
08
49
00
e9
47
4e
4a
9d
2a
66
b3
3a
f4
63
72
8e
a5
a1
da
98
68
cd
fc
8c
4e
c1
0b
5b
92
6b
67
c3
e2
e1
fe
37
b9
81
4e
4d
c4
f2
ea
8a
a9
c2
17
47
f0
ff
eb
1b
e8
5d
7e
2a
2e
2e
f3
4e
2e
91
88
7b
61
25
9c
37
29
90
4f
17
2b
68
39
e2
82
f2
9c
9c
f8
f6
71
65
8f
4a
e6
c0
2a
27
48
13
ce
c7
42
b6
9f
dc
8b
02
58
8b
88
5a
ab
c8
e0
f2
54
c8
41
cc
e1
f8
59
d2
a6
3f
4d
17
ba
8f
b0
1b
e8
3a
29
24
a0
a1
4e
b8
a2
0c
cb
9f
84
d1
99
e9
93
1b
e0
48
ce
e1
af
db
70
8c
4e
ec
47
ae
d8
36
d8
84
0d
2d
43
d6
ea
a9
c1
16
b1
60
88
dc
24
9c
35
f7
83
69
4e
87
c9
cf
4d
21
3e
95
31
3e
e2
26
d3
48
70
c9
35
a9
1a
f2
77
26
b7
f7
f6
c7
1d
70
aa
6d
dd
ff
b4
b9
dc
0f
70
67
03
77
41
b0
d6
ef
f4
60
93
3a
d0
9b
c7
6e
d2
b2
f9
dd
1b
70
26
88
bf
fa
72
40
24
65
2f
96
57
31
70
f1
f4
2f
fb
36
ed
c9
d5
c9
5a
f3
86
57
fe
46
36
05
a9
d6
5a
f5
52
01
64
31
b5
f9
e2
2f
46
29
4d
6f
7e
d8
54
a1
ee
25
00
f2
72
c9
25
78
79
94
b4
4c
75
16
29
ad
dc
9d
89
6d
e6
3c
2a
e3
79
8a
df
df
b0
a7
26
08
7c
e7
11
13
8e
7d
bf
d2
b8
96
d3
85
59
11
71
f7
fa
2a
30
c4
f4
e0
68
ac
78
0c
6e
3c
de
33
db
de
e6
08
c3
1e
08
7b
00
99
c9
ba
11
f9
98
e9
3e
b2
b6
3b
8b
65
dd
b3
c4
3f
03
8d
29
5b
43
9c
29
af
d9
59
9f
38
6e
d7
b6
89
2a
b9
20
d3
71
85
39
f4
6e
f7
e8
ea
fb
72
d9
7a
62
f4
d0
21
9a
01
3f
a5
d1
a8
cc
01
69
d4
7e
c8
90
13
2b
b9
a6
9f
f4
70
da
e8
49
c7
fb
b3
86
ab
7c
97
3a
1f
cb
a6
fb
e5
4f
56
6b
3e
a3
8a
d7
46
72
4b
3a
2f
19
fc
85
b4
6e
e5
0f
0a
68
70
f9
60
05
87
2d
91
a1
f2
08
72
52
2e
aa
f8
b2
51
15
5e
7f
ee
0b
78
2f
14
e7
ef
d1
c2
62
de
fb
d1
15
55
4f
57
7e
fe
ef
1d
c9
a8
73
eb
e2
95
7e
eb
fe
39
2a
99
14
d9
6d
94
aa
05
c5
d1
ff
00
3a
97
04
9d
9e
34
32
20
0c
4f
13
5d
6d
95
a7
68
ef
ea
3a
09
8f
49
85
68
35
2f
eb
74
4f
f3
d2
f9
9b
c0
f9
59
31
fb
d5
f7
62
a2
cc
19
6d
ca
51
e3
55
f3
84
6a
aa
73
49
61
4e
98
32
d2
15
01
da
cc
2a
38
fb
77
7d
43
6d
cd
8f
1a
f1
87
3d
cd
95
36
15
58
c8
48
d4
01
23
75
88
8f
7d
33
d3
69
fc
2b
e0
74
a8
e2
78
be
c2
f5
f9
a8
f6
bb
ed
7a
5f
90
1a
8a
10
ab
40
42
03
1f
85
0a
4e
56
6d
a6
c8
65
7e
06
4c
b4
9d
7e
22
ab
92
8d
6e
69
62
f5
1e
02
8c
02
bf
9f
5f
df
b8
2a
eb
3c
06
2f
66
45
30
47
63
58
8d
4b
e6
c0
26
41
84
28
94
3c
20
44
e0
e2
a3
28
d0
be
ff
7f
f8
91
ca
c7
41
7a
9e
28
2c
c5
28
c0
7a
62
99
fd
5f
5f
22
d1
4e
53
42
61
ec
b8
50
63
a2
b8
a0
99
6e
d8
cd
d0
99
70
77
6b
53
2c
b7
9a
d0
0e
fc
6d
7d
7c
ce
b0
1d
90
34
a8
1a
d4
40
2b
b2
70
e4
02
2a
5c
09
50
db
1d
66
5f
0c
4a
86
9e
00
7e
6d
49
63
7c
1a
5c
b6
cc
55
37
37
23
47
7e
67
e5
cb
25
59
42
a3
1b
83
a8
70
b0
3c
23
25
f9
5e
53
aa
15
73
fc
ad
f7
37
20
4c
5f
2e
54
e3
34
61
58
cf
ec
98
f8
4d
d5
a2
00
09
07
b5
6e
f4
18
18
63
7c
f9
6d
67
1d
8d
cf
e4
49
bb
63
61
c5
cd
57
c4
30
a6
2f
d0
ba
b7
20
a0
f4
16
e7
97
1e
37
64
f1
9c
4c
b2
b0
ba
24
69
1b
45
de
bc
ae
6a
df
78
39
42
4c
48
ee
6c
d1
ce
98
7d
81
a9
b6
05
59
8b
90
92
9a
83
8f
f0
43
9c
97
73
33
51
4d
75
00
63
af
5a
fd
4c
57
ea
d5
55
43
1a
bf
ae
54
2b
10
84
0d
a2
b3
3a
05
a4
4a
10
b4
56
0e
5f
0f
2d
79
fd
a5
87
3a
1d
49
e0
af
4c
6f
b3
f4
c1
a6
00
ea
2f
56
2c
fc
18
87
53
36
da
8d
04
0e
ff
57
d1
54
2b
82
9a
93
e7
92
96
d0
32
7d
eb
1f
6a
97
1d
ad
51
36
ff
4b
35
c1
af
fa
b7
18
fe
c3
e7
15
78
b9
ef
39
20
56
83
71
ab
86
5e
7e
22
ce
b1
4d
88
7d
d3
d4
78
54
b7
f2
3e
20
93
3b
c4
62
6a
62
45
ff
1f
35
30
28
aa
1d
6a
f7
a2
14
1f
bf
42
38
0e
43
4d
12
25
4f
72
8f
af
e3
09
c4
3b
37
c2
15
3e
2a
61
4d
fb
97
c7
d8
a3
32
b6
ad
33
41
fc
5b
78
34
44
09
63
0c
66
c5
f8
f6
1a
05
2d
c4
c3
b7
49
1d
f2
d9
3b
ee
b8
7c
04
c1
a0
74
68
10
7b
6c
0f
6e
40
20
93
8f
dd
40
69
97
5a
ad
91
10
0d
10
97
db
60
7d
76
24
8f
63
16
20
b9
9e
6b
aa
cc
d6
8b
6c
1c
e3
6d
f2
43
87
7b
38
ef
43
25
5b
2a
ac
01
6d
c9
ae
b2
23
6e
bd
32
90
12
9b
b8
c7
85
f9
10
70
6f
45
f8
1a
6d
be
9e
f0
39
77
48
25
f0
8d
92
25
2c
6c
3a
bd
25
4c
fc
d1
37
73
96
4f
ab
6e
34
39
a3
77
62
6b
5c
f2
c0
5a
13
51
ea
43
74
92
8d
48
7e
cc
a5
53
42
b3
e4
b7
40
f7
87
73
18
c1
1d
c6
4a
ca
cc
ca
ab
6b
5b
e4
39
3d
d3
b0
68
e1
a2
88
60
bf
74
45
aa
be
4f
53
2a
7b
47
cb
cf
dd
f3
7c
d6
d3
d0
39
84
f4
70
40
a0
cf
93
98
09
e3
45
0f
9e
a9
3f
57
7a
09
d0
03
bb
b2
b7
fa
6e
d4
38
9c
16
e4
1c
73
dd
9f
37
03
93
22
c1
11
f3
f4
6d
40
54
a9
6e
f2
c5
32
d4
c7
f6
8b
65
b1
f3
72
62
6c
b2
27
c8
a9
c8
b4
55
df
a3
08
ec
a1
e2
78
7a
45
0e
3c
bd
61
df
74
2b
e3
cf
a5
11
29
a6
6b
94
0e
c3
b3
7e
15
38
36
c1
28
e3
21
1d
b3
58
7f
90
a1
e6
69
71
4b
8a
ec
39
d3
bd
30
fc
ff
f2
f6
93
db
75
b7
fc
2b
60
88
52
68
8a
2f
0c
a8
9e
2c
70
06
6a
8e
7e
98
e3
81
6e
32
d8
1f
a1
d5
f3
59
25
cd
d6
eb
a4
dd
43
6a
69
1a
0a
f0
b8
34
78
df
97
0c
b9
05
05
79
60
d9
f3
43
0b
93
b9
ba
0f
be
46
51
56
94
3e
7f
0e
6b
c1
e1
d3
ed
13
aa
c0
8b
0f
d1
6e
19
a3
50
ec
73
c1
a8
76
7e
0e
b6
9b
63
f3
c2
10
a5
6e
0f
91
ad
68
16
3a
06
2b
90
86
1a
15
a3
f1
71
bc
c2
f3
69
d4
b9
11
8a
f3
7a
7c
9a
3c
a5
b3
95
04
e0
08
9f
48
12
b6
c4
58
c5
16
06
06
ed
f9
b9
c0
f4
a1
26
38
5e
9e
5d
d6
9d
6c
df
0e
bd
a1
be
d0
2a
99
ef
03
cb
b9
98
22
de
11
94
76
82
a9
82
9a
24
73
f0
79
13
d3
88
1b
d7
84
d8
e8
02
1b
49
9c
00
4d
54
fc
23
93
0b
47
dd
40
7b
86
5a
7f
e2
44
da
1c
a5
7d
85
ae
c9
94
5a
5c
1c
ed
7d
0c
a8
7a
17
6c
7c
2c
8d
d9
2b
7e
51
bd
2c
b4
bb
1f
6d
b3
93
19
07
13
a9
55
de
ad
b2
c5
7f
ad
fc
3a
4a
63
77
3a
58
89
a0
7b
da
94
17
93
9e
1c
a1
62
11
83
46
5a
77
fb
83
8c
cb
3f
b1
83
bb
f8
72
e1
af
1f
98
32
6c
1c
66
52
05
4b
70
9a
f4
16
d7
3b
4c
ec
3d
17
34
72
21
8b
d5
14
5f
0f
f4
ae
c6
06
de
ba
f2
f1
7d
f8
84
ea
f8
70
62
33
de
3a
cf
8c
0d
0d
e4
88
b1
ff
89
ee
a6
e8
b7
fa
58
73
6b
8b
2b
23
48
6c
f7
e6
14
1d
56
94
72
5a
69
e0
d2
1b
32
20
bf
c9
14
52
7d
e6
5f
24
a5
82
97
4c
e5
a8
7f
62
95
fe
f0
f1
16
8a
8f
21
ac
42
04
f1
52
34
2f
2d
7e
9b
37
8f
5d
78
79
09
c7
55
eb
30
2f
bc
9b
2d
71
74
9e
b4
5e
68
35
07
03
6d
a7
d9
84
3a
3b
84
da
cf
13
bc
6b
71
16
cc
05
c9
19
2a
4b
45
3a
fc
e1
36
4b
24
f0
9a
e7
f8
fa
6c
4c
5d
38
5f
d9
58
00
ae
49
76
76
6a
e1
91
00
6b
16
17
27
16
78
2f
c4
60
f4
89
7d
02
fb
74
fb
9a
90
7c
5e
d9
0c
58
ab
55
40
d7
73
32
35
b6
65
17
0c
f6
66
21
0c
47
bc
8d
05
9d
3f
68
8f
02
2a
30
07
15
15
ae
1e
4f
fe
d6
28
2e
83
