57
0f
ed
0b
ab
82
70
6a
c0
b8
2a
f7
94
6f
86
e2
1b
bd
0c
d8
b8
61
7e
54
e3
ff
7e
39
be
53
a2
b7
1c
68
43
b2
d4
d9
a6
2a
0e
6f
61
1f
f2
8f
c4
78
61
f6
95
61
c3
4e
98
a1
08
cd
b4
8b
f0
d8
f1
12
c8
d2
39
a2
41
48
10
1b
a0
a4
68
14
de
11
06
d3
e3
5d
37
af
05
57
66
fa
37
3e
01
71
79
e8
99
bd
ba
52
bc
07
b2
34
d2
df
d0
c2
e7
23
da
b6
25
11
58
a5
a4
b6
8b
9e
40
32
ab
4b
3e
6b
b4
31
5a
fb
c2
e4
99
be
60
f7
b9
db
d3
14
23
e7
29
3f
32
5a
7a
89
6b
45
d6
ad
8a
b0
f6
0f
c5
09
3e
e4
07
2f
e2
fc
7d
1f
3b
ea
30
cd
6c
3d
fd
28
96
7e
fc
3d
b6
15
a7
38
1d
fa
54
32
0f
95
aa
f6
29
2c
39
0e
fa
a3
55
8e
51
0d
4f
3f
69
da
be
de
f0
16
7a
b6
7f
82
3d
fd
24
bf
02
b1
2b
6f
08
43
87
24
2e
e3
06
e6
4f
f8
3c
ca
bc
09
af
19
26
fb
33
95
13
7e
3c
de
89
95
df
e2
58
3f
78
1e
f1
d1
f8
f2
f1
f6
ed
76
15
2b
48
a7
9b
06
2f
11
a0
54
8b
d3
03
6e
74
02
32
2d
52
5b
0d
a9
11
05
51
3c
ea
0d
3e
77
d9
21
ee
90
c2
43
43
69
8c
7b
21
4e
99
48
71
09
86
a0
1b
b0
d3
fa
19
66
5b
4b
42
68
dd
76
f7
d0
3c
95
0d
f3
d2
0b
23
ee
eb
0f
0c
60
82
37
0f
85
a9
d3
61
1d
7b
5d
89
69
75
82
85
ff
f3
ab
a5
1d
ae
77
9e
84
3c
66
96
7b
bf
34
90
56
8d
d6
7e
58
48
8e
16
fd
17
71
09
be
d2
be
bd
96
a7
91
1c
ef
30
a3
08
79
df
b7
5b
d4
9e
a1
4d
22
44
6b
de
ee
5d
4b
11
c4
28
45
ea
aa
d0
c6
41
a4
88
07
5c
db
88
0d
55
61
ee
16
06
76
59
c8
84
f6
a4
40
7f
b4
a4
b6
fa
08
72
1b
b7
82
d8
e4
ee
2e
12
bc
76
b1
e6
62
79
41
7f
52
eb
c0
dc
d3
14
12
b6
5d
89
8a
33
59
e8
9a
38
1e
e3
34
a1
9f
9c
b9
e9
3e
1a
9b
0c
b2
78
a5
4c
f7
ce
b5
0c
e6
91
6c
78
ef
02
06
dd
85
90
2f
b7
83
2b
64
ff
af
3c
e5
9f
df
58
c4
2d
df
ed
38
b9
8c
b0
e6
18
c6
7b
18
64
22
32
94
52
f1
3e
d0
be
ca
68
7c
c9
9b
62
f7
e5
fd
15
e8
2b
c1
51
61
f8
8c
d4
3d
be
05
1e
ad
ac
21
55
64
b2
4d
84
10
61
18
93
4b
df
e5
f2
7d
c4
63
f7
94
1d
08
d8
55
fe
76
95
26
5c
ad
72
da
19
fc
0c
28
45
21
41
b5
43
09
b7
2d
77
5c
87
c8
89
0d
1f
79
16
17
48
a7
be
a4
1a
d9
f4
66
8a
9b
c7
c5
84
17
3a
f6
b6
52
fd
bc
a8
f2
6f
ae
33
ec
c2
50
65
5d
16
2d
65
66
da
69
83
2d
9a
8b
15
c4
36
88
d8
b2
7e
57
27
b3
76
bf
f6
07
5f
3e
68
4c
94
66
56
d2
00
dd
8c
b4
4e
aa
df
35
48
55
ff
27
ee
1b
d8
56
b8
21
98
a7
51
ca
d8
22
24
de
d3
09
b6
57
34
8e
f1
02
c9
1a
4f
43
15
4f
4f
24
41
9f
e9
6f
9b
79
aa
58
61
12
6b
be
f1
57
3f
48
99
ad
01
15
8f
1d
99
c2
c7
e9
13
51
d6
dd
40
4f
b4
d2
bf
af
b6
8c
9f
e5
ec
76
ba
e2
ff
0e
0b
7e
90
2b
ac
f9
0c
7d
28
f5
5e
b9
f3
62
18
30
22
9b
e7
90
17
eb
df
bb
1d
eb
82
26
d1
0b
fd
b3
07
86
84
2e
d0
6e
18
1f
21
b5
0e
6f
c1
f0
d6
7c
d8
2f
01
32
41
7e
5e
01
e4
0f
fb
00
a4
dc
29
c3
16
4e
91
0b
ec
17
e7
4b
35
c5
94
7d
d7
ab
51
88
d9
9a
61
3c
10
f3
96
62
99
4d
b0
54
bc
92
0e
64
3a
1b
c4
53
48
98
e2
0c
