fc
f7
0c
fd
35
f5
fb
ff
fe
00
fa
f9
ff
33
f3
f1
06
fd
03
fc
07
07
96
fa
00
0e
f5
f6
fc
f9
02
ae
00
03
00
05
ff
ff
00
f4
a4
00
04
fb
08
fb
06
fb
fa
d0
03
f9
00
f4
09
fd
0e
f8
26
00
e2
01
04
03
03
f6
09
e6
12
fc
01
ff
ff
f8
09
fd
ad
ff
05
04
f5
fc
fa
02
f6
89
06
0b
fa
fe
0c
f7
0a
13
e2
04
fb
fe
06
f7
fb
f5
0c
57
06
10
f1
08
05
01
f2
00
85
06
05
ff
02
ff
0a
fb
07
41
fd
f3
fe
09
00
f8
13
fe
75
fa
00
09
03
f4
ff
f5
fd
bf
0d
f2
f6
fd
fc
00
12
fb
f2
eb
f6
13
01
08
04
fd
fa
08
09
fe
02
f5
08
02
04
00
38
02
18
02
f5
02
04
00
ff
82
00
f9
0f
03
fa
f7
06
f7
5b
0f
01
f7
fa
08
ff
0e
09
1e
fe
09
fc
f5
03
f1
04
07
4c
03
ef
07
02
10
06
f5
08
8f
02
f0
07
f4
06
02
f7
ff
67
f5
f8
00
f8
fe
f6
00
0f
7e
07
fc
f6
02
00
0c
ec
02
34
04
0e
fc
06
01
0a
ff
fd
9d
f8
00
07
f7
f6
06
f4
fe
50
fe
fe
0a
ff
f2
08
06
00
f7
f6
00
08
fb
05
02
02
01
ba
0b
0a
00
fc
fd
05
02
f1
e7
0c
01
01
fd
f5
fe
06
05
e9
fc
ff
f8
01
fc
f5
05
fd
1f
0e
03
09
06
f9
00
f9
05
5d
04
0c
ef
01
fe
f8
f4
02
31
07
ff
fc
fe
ff
07
f2
f5
53
00
04
f6
01
f9
02
fe
0d
8e
06
07
f8
08
00
fc
0b
f5
60
fe
fa
f9
01
f7
ff
fb
04
31
f5
fc
ff
f5
fd
f6
02
01
2e
ff
f2
fe
fc
fe
00
ff
ff
0f
09
01
03
00
06
f6
03
f5
de
12
fe
eb
05
03
fe
ff
f6
61
02
03
04
fe
0e
04
09
05
46
07
fb
02
05
f9
fb
f8
ff
2f
f8
04
02
01
01
04
f8
05
a2
f6
fa
ff
f9
f4
01
06
06
40
f1
fc
01
00
06
f5
fe
fe
aa
07
0b
01
04
05
03
f9
f4
a0
fd
f4
05
f3
ff
03
01
00
56
11
f4
f9
04
fe
03
0a
02
17
09
fd
f5
01
f7
04
03
00
43
fb
f7
03
f4
09
ff
01
f4
4d
13
f3
07
03
f7
fe
00
fc
6e
03
03
f1
f9
f9
f9
08
08
9d
05
0e
fb
0d
07
ff
f9
01
b5
fa
fc
06
fc
ea
f6
fe
04
19
fa
03
fe
fd
01
fc
fd
f3
02
0a
02
fc
fd
05
fe
08
0f
8e
fb
fb
06
02
04
f8
0a
0b
04
f8
fb
fd
09
fc
04
f9
03
44
05
0a
fe
02
f7
08
f7
f8
2d
0a
00
01
f6
01
01
0a
fb
07
fe
f1
f0
f9
fa
05
09
f1
1e
06
fe
fb
fb
fa
04
02
fe
37
f7
0a
f7
06
09
fd
fc
fe
38
08
fc
09
02
f4
fc
01
f9
ab
fb
03
08
fe
f9
f5
03
f4
ea
03
fb
04
05
fa
fe
04
f7
f1
f0
02
0a
01
00
0c
04
09
75
06
06
fb
0b
08
09
f4
ff
c0
f9
04
fe
00
fc
11
02
01
b0
f4
02
03
fc
fb
f9
05
eb
f1
fb
fd
07
f6
fc
fc
fe
05
15
03
fd
05
fe
04
fb
f7
01
9e
01
06
00
fd
00
f8
fd
f9
db
fe
00
01
fc
04
00
02
f2
c7
ff
0f
fb
0d
0e
00
00
07
c9
fe
fd
fc
07
0a
0a
05
ff
09
f0
0f
ee
fb
ec
01
05
0a
ca
02
f6
03
06
01
fa
fe
03
b0
fb
ff
0d
09
ff
0b
03
09
5a
02
02
02
04
fc
08
06
11
93
f7
07
fa
fa
0b
fd
06
02
f6
ed
01
01
00
f5
06
00
09
b9
f2
01
07
fa
04
fd
fb
03
2a
03
02
00
03
f3
fd
00
06
d7
f8
f9
f3
fd
04
02
01
02
40
00
05
f9
05
fe
00
f8
00
f7
f6
00
01
01
ff
fb
0b
04
8e
fe
f4
07
f8
f8
05
0b
fa
d3
f6
04
ef
ff
02
03
f7
12
12
06
fb
f8
01
00
fb
01
10
ba
05
fa
0c
fa
09
f6
01
08
01
f4
fb
f8
03
06
03
08
fa
f2
fc
fd
07
fb
f4
fd
05
02
16
03
fa
00
fb
09
f7
06
03
5f
fe
fb
04
f5
04
0a
01
fa
f6
fa
f6
fc
fc
fe
05
12
f3
5e
03
fd
fd
13
0a
f9
f9
f0
27
0c
02
ff
02
f2
ff
0b
fd
2f
fd
06
fa
08
02
08
f8
02
30
10
08
04
03
f0
09
02
04
47
06
03
fd
02
fa
07
05
fa
55
06
fc
f8
f5
00
02
f1
f3
9f
f8
0a
07
ff
09
fc
02
02
b4
13
fa
00
01
02
fb
f6
fe
30
01
ff
05
00
ff
fe
0a
05
0c
02
02
02
04
e8
04
f1
02
4c
ff
03
fe
02
04
0d
ff
fa
53
08
03
07
0f
fc
0f
02
04
0c
f8
08
fc
06
0a
f9
02
06
ae
05
ff
00
07
00
01
0a
0b
b5
fd
0c
f8
07
f5
fa
fb
08
4f
f5
f4
ff
f0
03
ff
ff
00
5b
0a
f7
09
05
fb
07
fc
0a
38
fc
02
fe
fa
fe
04
00
07
20
06
06
fc
f5
fe
06
08
ff
4f
02
fe
04
09
00
f9
10
17
ed
01
02
fa
fa
03
02
0c
06
28
08
ff
f8
f9
04
08
01
fd
31
f7
05
01
f3
f6
ff
f7
03
c7
f8
06
0e
00
f0
fc
fa
11
e8
05
fd
ff
fc
02
f8
0c
fc
c9
03
01
06
04
00
f9
10
02
b7
06
f4
06
0e
00
02
00
ff
ea
05
0a
08
05
ee
fd
f4
fb
12
fe
fe
09
09
f9
03
0d
ff
63
fe
0e
09
00
09
fc
03
01
a0
fe
f5
f9
fc
f8
00
0b
02
42
f8
fd
f8
ff
09
07
ff
04
35
03
fd
f9
fe
f5
fa
05
fd
65
02
fb
fd
03
f8
fe
f4
0e
45
fb
fd
0a
f6
fb
03
fa
04
e5
0e
04
fd
10
f6
13
f0
0a
9f
02
03
f8
ff
f5
0a
f6
ff
f5
02
fd
f3
04
05
08
f2
fa
3e
fd
02
0b
fb
ff
03
0f
f4
8e
08
fe
fd
fa
f2
f7
fe
f9
4c
fa
fa
f9
05
ff
fe
ff
05
ec
f5
f5
f2
02
f9
01
fa
08
96
04
03
0a
0d
0b
08
05
07
68
0c
03
08
fe
f7
0c
f6
1b
3c
fc
06
fe
f9
0a
fe
04
fa
46
fe
f7
fa
01
fe
ff
fc
08
50
04
04
ff
fe
f9
fd
01
f2
bc
00
ff
ff
fc
ff
08
f8
01
bd
02
f4
fb
fb
ee
f9
ff
04
fc
fa
04
02
0b
fc
fa
fd
f6
60
04
01
fb
01
f6
fe
04
0a
e2
f8
fb
fb
ff
fb
05
05
07
d5
00
04
02
fd
09
02
12
08
a9
02
07
fd
01
f5
fb
fc
fd
e1
05
fe
02
fd
f5
f7
fa
f7
3f
05
04
fc
06
fd
06
0e
fa
e7
f2
fd
08
01
fe
02
07
01
bf
0a
01
09
03
0c
01
fb
ff
53
03
fc
04
fb
f0
10
04
f9
c5
11
00
fd
fc
f7
02
f8
08
02
02
00
03
00
fa
03
0b
f5
40
00
0a
0a
f7
07
fb
fe
ff
c6
fe
fd
02
03
01
f6
fe
02
f3
02
fc
0c
10
f9
01
09
fe
76
f4
02
09
fd
f9
02
04
fb
f7
f9
07
ff
f5
fa
04
01
fc
b8
ff
0b
02
fb
f9
0b
00
fd
6d
08
03
ff
05
fc
06
ff
fd
78
02
02
f4
0a
fe
03
f9
fe
c1
fe
04
fb
08
fe
04
fe
f9
c2
f8
08
09
02
f8
0c
f7
fa
e1
09
05
0f
0e
fc
02
fe
07
25
02
02
ff
02
04
01
f5
fc
bd
f5
02
fb
02
02
02
06
fc
e9
0d
03
fb
fb
fe
f4
06
03
45
ff
f9
05
09
fb
02
09
02
de
06
fa
02
0a
02
02
fb
03
51
fd
03
fa
fb
01
fa
fe
f9
0b
0a
fe
f3
fa
02
fe
05
fc
ed
0c
ff
05
fe
f7
09
f2
02
50
05
fd
02
fe
03
f5
01
fa
fc
00
fd
f6
07
03
fa
fa
f8
c8
09
0b
f8
01
ff
00
f7
02
35
fd
07
04
08
fe
0a
f3
fc
30
fd
ff
03
01
0a
04
03
f9
ae
ff
fc
fd
05
f8
f8
fd
0c
a5
04
ff
ff
0b
ff
fc
00
f8
59
f7
f4
02
f7
02
fa
04
f0
a1
04
fe
03
08
00
0d
01
0d
c3
08
00
07
fa
f9
07
00
ff
2d
fa
02
01
00
f3
06
07
03
63
0a
f5
00
f4
f8
fe
03
05
e7
fc
fa
ff
fa
fc
ff
f0
06
b4
0a
ff
f1
0e
fa
ff
fa
fd
ad
f7
08
06
f8
04
f3
06
eb
da
00
ff
f4
00
03
06
f8
0a
9a
0c
f9
03
fe
02
f8
05
02
a8
05
08
00
07
02
01
ff
02
10
04
f4
f8
fe
f8
04
f5
fc
98
03
00
f9
0b
12
fe
11
08
c4
08
01
09
fa
f2
fe
ef
f9
de
10
f6
f8
08
fc
ff
fb
02
e7
ff
ee
fb
fe
09
fa
00
0a
4d
00
08
07
f6
07
0f
0d
eb
47
f2
e3
fb
f3
00
f8
00
0b
cc
fe
05
fc
02
f9
f6
06
08
0e
fa
0d
0b
00
05
00
ff
03
6b
0f
05
0b
f8
08
08
fa
f8
69
07
0e
0d
fa
05
02
00
fe
a8
f6
f3
f7
f9
11
03
fb
0c
a6
fb
0d
07
04
f5
ed
05
05
06
03
07
01
0d
08
f7
09
11
00
f9
ff
fb
06
f7
0a
fe
f9
ec
00
01
09
04
fa
01
ff
fb
45
fd
03
f9
07
05
01
fe
fb
fb
f2
fb
f9
00
10
fd
00
03
c4
f6
0a
04
07
f4
08
f3
fd
19
0c
03
ff
fc
fc
00
07
f7
f3
f5
f6
17
fb
00
fe
00
07
ae
f6
0a
02
13
f4
ff
04
07
21
1a
0b
f7
ff
fc
f9
0f
0a
d8
0c
02
05
09
16
fe
00
fa
08
00
fe
03
f7
0e
f7
0b
0a
ff
f9
07
05
0c
03
04
fc
10
49
07
05
0f
0b
0a
fb
01
f8
6d
03
f5
fc
02
08
fd
ef
f2
54
ff
00
02
f8
01
00
fd
02
27
f7
f7
03
f9
06
f7
fd
fc
d2
0a
fc
03
08
0c
f4
fb
06
16
fb
f1
01
ed
06
13
01
fd
44
f9
fa
f7
fd
fa
08
fb
04
d0
02
f2
fe
03
f9
03
05
0e
b8
0a
04
fa
fd
fc
03
f6
fa
3d
09
06
fe
06
08
0b
01
07
9c
f2
10
06
ff
0a
f0
f9
01
17
07
fd
fd
09
fa
fa
ff
01
d3
02
05
0c
03
00
03
fa
08
8d
f7
05
02
03
01
04
f9
0f
25
02
fd
06
0b
fa
fd
0e
0b
51
08
09
05
fd
f5
02
01
fe
7c
13
00
f6
fd
08
08
fe
f7
3c
f2
fd
06
f2
0b
ff
04
06
a0
07
fe
fc
ff
02
fa
f9
f8
c4
fe
f8
02
f9
05
02
fa
ff
d4
fd
f4
fd
06
eb
05
fe
f6
fe
0a
03
fb
01
0e
fd
fa
fd
61
09
00
00
10
0d
00
fa
06
99
fd
fc
05
0b
0b
09
00
fc
ba
00
fe
02
00
01
05
00
06
ce
ff
0f
fd
01
ee
f8
02
f8
42
0a
07
03
0d
03
f4
e8
fe
f0
02
fb
00
f9
fe
0d
00
fc
bf
f9
03
fe
ff
f4
07
09
f7
a7
ff
f5
fd
0e
02
0a
09
04
2c
06
f6
03
fe
f0
fd
fe
01
dd
0b
f3
ff
fb
02
f3
02
01
25
03
00
f5
fc
09
fc
f2
fc
7d
f9
01
ff
03
f8
04
f7
04
00
0a
05
06
04
ff
ec
fa
f9
2b
f9
f4
04
f7
fb
01
fd
0a
6a
0d
0e
f8
03
f8
04
01
09
7f
06
0d
01
08
fa
f8
f9
f3
eb
ff
f7
f1
f4
04
fe
ff
fd
36
ff
0c
05
f6
fd
01
09
fb
18
fc
fc
f8
07
f9
f8
f0
00
c9
fc
ff
fa
fc
ff
f7
fa
01
1e
ff
f2
fb
ea
07
fc
f8
05
50
08
07
0a
06
f2
0b
0d
fd
23
fa
f9
06
fb
fe
01
04
07
69
07
fe
01
07
f0
f2
fd
fb
3f
ed
02
f6
08
0c
03
ff
04
c3
04
02
03
fd
0d
02
fd
f3
7a
fc
0f
09
02
03
f7
f8
0b
ff
fa
f9
08
00
04
fd
fd
fa
ac
f4
03
f1
07
f8
f5
09
01
f9
fd
fb
fc
04
05
f6
01
fe
60
03
ff
fe
05
08
09
f8
fe
6c
f5
fc
11
fd
f9
f5
04
02
72
04
01
fa
fc
02
f5
fc
fb
0b
f9
fe
fc
ff
ff
fe
fb
02
21
f8
05
01
00
f9
02
fe
fb
4a
05
ff
f5
06
f4
01
04
f8
69
01
07
08
f8
fd
02
05
07
72
01
09
02
fe
01
03
01
00
5a
0c
00
00
f8
02
05
02
06
67
06
f6
f9
fd
08
fc
f4
03
f3
ff
fc
01
01
ff
00
0c
fe
61
ff
ff
f8
0d
07
01
0c
f6
03
03
10
08
02
03
00
05
fd
b8
fe
fb
fe
f6
fa
fb
09
fb
0c
12
ff
01
00
fa
0b
ff
fe
98
0c
02
0b
ff
f8
f7
08
00
0e
02
04
fb
03
ff
04
fd
fb
53
ff
0c
fa
00
fb
f9
0d
04
e8
f9
04
f9
0c
0a
fc
11
08
8b
05
0e
0b
01
00
fd
f6
ff
cd
f9
01
f1
ff
16
00
13
0c
49
01
05
0e
fc
05
f7
1a
0c
db
fa
0c
01
0b
f2
05
06
f7
5e
01
ff
ff
02
fc
fd
00
04
f4
08
0d
ff
03
f6
f8
f7
f3
58
01
05
fa
00
09
0b
f9
04
5f
fd
0e
04
fb
fc
fe
f6
fa
4b
f4
f8
03
03
fa
fe
fe
05
26
f6
f7
ff
00
fd
f9
02
07
0d
0c
02
07
04
02
f7
fb
fc
02
f3
03
ff
08
0e
05
ff
fa
b9
03
fb
04
04
f6
04
05
02
c2
01
07
fd
f9
07
f4
05
0c
b5
00
03
09
00
0b
ff
0c
06
99
09
02
07
f9
f3
fb
0a
00
e0
02
0a
f9
fb
f6
fb
03
fb
42
05
05
fe
fc
09
04
f8
f5
ec
03
ef
fa
fa
f6
06
03
ff
b1
02
07
f1
05
00
f8
0b
06
28
03
07
02
f7
00
f8
f6
fd
05
ff
f5
0c
03
07
08
f5
fe
43
01
fc
fd
00
f7
06
fc
04
21
f6
01
03
02
fe
04
f3
ff
a6
fc
0b
02
f7
f8
00
02
02
d1
00
05
f3
00
fb
08
f6
04
98
05
fd
f9
fe
05
05
03
f5
ab
fe
04
0c
fc
05
03
09
fa
11
f8
05
0b
f4
fe
f9
08
01
90
0b
08
fb
06
0e
03
f4
15
bf
09
01
f9
07
fa
fb
00
00
88
fd
09
f8
02
f4
01
fa
04
b7
01
02
02
f0
05
07
02
00
15
f9
07
f9
fd
ef
0d
fe
fc
a9
f9
fe
00
fd
fb
fe
fe
02
1e
fc
02
02
f3
04
f4
01
02
ff
f9
06
12
fb
04
fe
f7
fb
c3
f9
f7
0b
02
f7
fd
01
fe
3b
08
10
07
10
04
06
00
03
37
ea
0e
05
ff
02
fa
0b
fd
2d
03
fd
fc
f2
ff
fa
13
f9
55
fe
04
fb
03
05
fb
01
04
32
08
fc
02
f8
03
0e
fe
ff
f3
fd
03
fa
0d
00
02
f2
fe
21
ee
00
04
fc
fa
f6
0d
04
36
00
11
fd
f9
f9
ff
fd
fd
fe
f6
f9
03
0a
fa
07
fc
09
c8
f3
fe
00
ff
fd
04
06
f7
2d
f8
ff
08
05
02
ff
18
06
cb
02
fd
ff
01
f9
09
ff
fc
26
01
fd
04
03
02
fe
08
f3
66
f6
f4
04
02
fa
f7
03
05
01
0c
0e
f8
02
f7
fe
04
08
e1
f3
13
0d
fe
ff
06
f7
fb
74
05
fe
fd
06
0f
fb
07
0d
fb
0d
fd
fd
f1
14
f6
f2
fd
ff
fa
0d
eb
0c
fe
fe
02
fb
cd
03
07
fe
10
09
f7
05
03
65
10
09
06
05
f8
fb
f3
0b
b1
0a
0e
04
15
0a
fd
fe
f0
df
fb
09
00
0f
fb
02
ee
00
4a
05
00
01
ff
02
10
05
07
be
06
04
03
0b
07
fb
0b
f8
5d
05
fc
00
fb
ff
05
01
07
46
ff
fc
ff
06
fb
fc
0a
fa
c8
03
f5
03
fd
0c
ff
f9
07
5d
05
02
05
05
fb
03
0b
f6
bf
04
f8
f5
05
fa
0d
f5
0b
33
f9
0d
0e
07
0b
05
08
fc
ce
fc
f8
f2
fd
00
f9
03
fa
6c
f7
07
0e
fa
fa
01
04
f4
09
0a
fc
02
04
f2
06
fc
fb
99
fb
f6
03
f8
fa
00
fb
fe
2e
0a
f4
07
fe
01
fb
f5
ff
05
f5
0a
fe
fc
fc
00
01
f8
b6
01
eb
0c
01
0c
fc
0a
0a
e9
04
03
0a
1b
fc
f9
fc
05
91
f4
03
00
04
0d
00
01
00
d2
fa
fb
02
fd
0a
f7
fa
fe
73
fd
03
f7
0a
0c
fb
ff
f4
6c
f9
05
0a
f8
03
02
fa
fb
64
fb
01
0f
05
f4
ff
f3
f9
92
12
01
0c
f6
ff
02
01
08
5c
f6
fa
02
09
fd
fa
05
07
00
f3
f5
f4
0c
04
f8
01
05
ab
0f
05
fe
05
06
f4
02
08
f0
f8
06
fd
f6
fb
00
fc
f4
1b
f9
00
ff
fd
07
fe
07
0d
6f
f2
f5
04
05
03
03
02
08
b7
fd
ff
f5
fd
f0
f0
f1
0b
88
02
01
f5
00
03
00
0e
f7
a6
03
1b
00
fa
fc
03
02
11
05
03
08
0e
0a
ff
0b
13
04
01
fa
fd
ff
fe
06
00
08
fd
da
08
fb
03
fe
f3
fd
07
05
67
ff
0e
03
f9
02
0f
0b
e9
01
02
fc
f8
02
07
00
02
fc
27
08
00
f6
f6
0a
fd
08
01
04
04
fb
10
f5
0a
06
0b
07
0d
fc
05
10
f6
fc
01
0d
ff
0c
08
fc
ff
f9
18
0e
05
f7
85
00
00
06
04
01
01
02
0b
b8
fe
fb
03
05
02
02
02
f8
d1
02
0b
fd
fd
06
01
f2
02
14
fb
fe
fc
01
fb
fe
01
03
d3
fd
0e
f9
f9
fe
06
00
fa
ae
06
07
fe
05
f6
fc
f9
fb
3e
fe
e5
03
ef
03
f8
0b
ff
df
03
f5
05
00
06
f6
13
09
3e
ff
fd
f6
f9
0c
01
00
f9
88
08
fc
0d
ed
05
ff
09
fa
b9
06
f6
10
fc
f6
0e
f6
02
59
ff
0a
02
03
f5
f5
03
0a
df
fd
fd
f3
02
f9
f7
fa
ee
f4
04
0b
03
00
07
14
f9
fc
2d
f2
fe
fb
fa
05
0b
09
01
17
f1
f7
fe
03
02
f0
05
07
01
08
09
01
08
f3
f4
06
fc
2d
fb
fa
f3
07
02
fc
08
06
16
fc
fa
fb
03
0b
fe
fe
fe
37
05
eb
f6
ff
fa
f2
fe
02
8a
00
03
02
01
02
f6
f9
04
5b
fc
ff
fc
fc
01
05
fe
08
39
fa
01
ee
fb
06
f8
03
02
d0
0d
03
f7
01
f9
fb
0f
11
fe
fb
fd
fb
fc
fb
08
05
05
5e
ff
09
03
f9
f6
f5
04
01
31
00
fc
f8
03
f6
03
02
02
a6
fb
fe
fa
00
fc
00
ff
f2
52
05
07
fe
09
01
f6
f8
06
aa
fe
04
ff
0c
02
fb
0c
08
a5
05
fa
05
fb
f9
0c
04
06
2b
01
fd
05
fb
fe
08
01
01
5f
fb
09
02
ee
fc
02
0c
03
cb
0a
00
fd
f3
03
f9
03
04
5c
03
fa
f3
0b
0c
00
09
f3
f8
f9
02
03
0e
f9
f1
07
00
de
fe
ff
06
04
09
08
fa
fc
ec
f4
02
eb
fc
fd
fd
ff
f5
45
f4
07
fb
14
ff
03
fe
fd
b4
03
01
00
0c
f9
fe
fe
0c
51
fc
f6
fb
01
01
f7
fd
f3
15
fa
10
09
0b
fb
fc
f8
fd
35
fa
0e
12
05
08
fe
0c
00
c7
f9
05
fa
02
09
ff
fd
ff
c9
fc
fa
01
00
fe
f9
ee
fb
cb
01
01
f8
05
01
01
07
f6
3f
ff
fc
08
fe
ff
05
09
0a
c3
f6
02
f6
04
fd
05
fb
ff
2b
08
fa
02
fc
01
03
04
fe
ad
fe
fa
fe
00
05
01
f6
08
da
fd
fd
f4
0c
03
09
0d
f7
25
ee
f0
fe
00
fa
ff
0a
08
ba
fe
03
17
f9
04
fe
ff
06
ff
04
01
ff
05
fa
f9
ef
fe
ce
03
08
06
03
01
f5
fd
fa
17
ff
07
05
09
07
f9
f2
f9
ef
05
05
01
fa
f8
0d
fa
0b
f8
fe
08
06
06
06
fa
11
fe
d7
08
fd
f5
01
fd
fe
fd
11
34
f8
03
fd
ff
07
fc
05
0e
a9
fe
f7
fe
04
0f
fe
f8
09
46
fc
fd
f9
0c
00
fe
09
fc
12
fd
fa
f4
04
00
f7
ee
fd
a2
fd
03
01
06
01
11
fe
03
b2
03
f8
fd
f8
f8
00
f9
f5
32
fc
07
02
00
fa
02
fd
04
98
04
ff
03
f8
fa
fd
fe
fb
c4
fd
00
09
f6
07
07
fc
f8
e8
05
fc
0a
0c
fc
f8
f4
fa
ef
ff
02
00
fe
0c
07
0e
f2
0a
02
f9
fe
02
01
fb
05
11
ab
02
07
fd
0c
00
f4
02
00
98
ff
00
fb
fe
0b
05
00
05
10
fb
02
fe
fe
12
fb
05
08
49
06
fa
ef
02
03
f9
fc
fb
e3
f9
fe
00
f6
05
ff
f5
f2
36
fb
03
03
07
fa
04
01
fa
a6
06
fc
1b
fe
03
f2
01
07
aa
04
f5
fb
fe
fd
fe
05
06
9f
ff
04
f8
f9
01
f5
02
06
f8
04
08
02
05
03
fc
fd
ff
23
00
02
04
fb
fe
04
01
f2
f0
02
09
fc
fb
00
01
01
07
73
f8
fa
03
fe
05
03
fc
03
67
f6
05
ee
04
00
00
f9
f4
b6
00
fb
04
f8
0d
ff
00
02
19
ff
f7
fb
11
03
07
f9
07
0e
ff
06
01
fb
fd
ee
f8
02
af
03
03
fe
09
f8
01
fe
fe
94
07
06
fd
03
fc
fb
03
01
97
fd
fe
fa
fe
f7
ff
fb
fb
7b
fc
f9
fb
0a
fb
0a
f9
f9
0b
01
07
f0
fe
f9
06
eb
ff
72
09
09
fe
03
00
f1
fb
08
1a
07
fd
ff
f1
fc
01
00
fb
3e
fa
07
07
02
fb
00
fb
05
23
ff
fe
fd
fb
04
f9
03
08
95
09
f3
f8
f8
f9
fb
f4
02
eb
f8
f8
04
fe
07
fa
01
06
ef
fe
06
fb
00
01
fb
08
fe
b5
ff
ff
00
03
fd
05
04
fe
a6
07
08
f9
03
02
02
fa
fc
b3
fe
ff
f8
05
f8
0d
f2
fd
e9
fb
fe
ff
fd
00
06
fd
04
13
fd
fb
04
05
00
02
fd
f3
39
07
0b
07
fb
02
06
fd
f9
fb
fc
fc
0f
0b
08
fd
fd
01
d3
fc
fd
fc
01
07
03
03
0b
46
03
02
09
00
07
06
03
0a
3d
f4
02
f6
07
06
f4
0c
fd
d7
02
00
04
01
f8
00
f7
f7
1c
0c
f5
fc
00
09
08
01
0a
1c
f7
00
04
04
fb
01
fd
07
f8
02
fc
00
00
f8
06
fc
06
39
05
0b
0a
fd
04
03
02
00
6a
03
f5
f9
08
fb
07
ff
00
dd
ff
07
f8
f9
07
03
fe
0d
24
09
fe
ff
07
0a
ff
04
fb
b4
fe
ff
03
04
04
07
11
f7
1b
fe
0e
f9
06
0f
fd
fd
0a
b8
01
fd
fb
06
06
fe
02
fd
cf
fa
f7
f7
04
00
ff
fb
06
b7
13
fa
02
01
05
03
00
ec
3c
f9
f1
fa
00
05
00
04
fa
b0
09
f9
08
05
09
f9
07
f6
08
06
04
0a
ff
f9
f4
04
07
eb
0a
08
fb
0a
13
00
fc
06
b7
f3
04
02
06
01
fb
fb
f0
f2
00
0c
f3
fe
03
fb
02
00
a2
08
06
06
fd
04
01
01
fa
1a
00
f7
fe
00
f1
fb
0a
02
1a
f9
03
f8
fc
f5
f5
01
01
99
03
e8
03
fe
03
fe
0d
f9
db
02
ff
00
ff
fe
fb
f3
06
9d
0c
f2
01
f9
0d
fa
01
04
27
fe
07
07
00
0a
06
01
03
b3
f9
fe
08
04
fe
fa
0d
f6
56
04
03
02
fe
07
0b
f8
fc
02
f9
08
05
07
03
06
02
fe
6d
0c
03
ff
05
16
06
05
0c
6a
07
ec
12
05
f4
07
fd
fa
07
ff
fc
f9
fc
0a
09
04
fc
a8
07
06
0c
04
09
f6
f7
02
9f
fa
06
fb
0a
07
01
08
ff
9a
fc
fd
0a
ff
f9
09
0b
0a
05
02
04
0c
05
ff
00
00
03
5f
f7
fc
f9
f9
08
01
01
0c
d4
04
03
05
08
05
fc
05
05
ce
00
f5
ff
fa
0b
ff
f8
fe
13
f9
fd
05
0a
00
02
fa
fa
05
05
fe
02
05
05
01
02
f5
96
02
f8
ff
fa
0b
05
fd
fd
3e
fb
f1
05
11
02
f0
12
10
b3
f6
01
00
f2
13
f7
ff
f8
47
05
f5
05
03
fa
05
fa
fe
4d
0b
0d
01
fe
05
fc
06
f9
5d
fb
09
05
fd
fb
12
ed
00
e9
fd
08
fb
0b
11
f8
0c
0d
2b
04
ef
05
03
0d
09
eb
01
a9
f0
fd
01
f7
03
01
08
fb
c2
03
ff
04
f3
f6
fe
09
05
bc
fe
fb
fb
f9
00
ef
07
02
6b
fb
03
f3
00
f9
00
06
00
65
06
07
08
08
ff
f9
02
f6
55
fe
00
0f
0f
06
0a
f4
fd
f2
0f
fb
02
fe
01
fd
fc
03
66
00
09
f5
ff
01
ff
f7
04
22
ff
fa
fc
f8
06
02
f1
fe
fb
f5
fd
01
00
fd
0a
03
09
0c
ff
08
04
0b
f4
03
f8
05
69
f8
0c
f5
fe
03
ff
fa
fa
2d
00
06
ff
07
fe
03
f1
02
21
f5
05
f6
0a
ea
08
01
ff
05
02
ff
05
fd
fd
00
00
f3
8c
01
03
02
0f
06
f9
07
01
66
0b
fd
fe
04
f8
07
fb
03
4b
03
ff
01
01
03
13
fd
fd
19
02
06
fc
fe
13
fe
fa
05
70
fc
ff
00
fe
04
fe
09
fb
c5
fe
02
fe
01
03
00
05
00
4c
f7
f9
fe
08
f7
10
00
f4
e8
f3
f7
16
05
fc
04
0b
f8
c6
0c
fc
03
04
ed
02
0a
ff
c0
fb
0c
fb
f3
0a
ff
fc
05
46
fa
f8
fe
0c
01
01
06
10
ef
ff
06
05
fc
05
04
f7
f8
69
ff
04
fd
f9
03
ec
fa
01
01
08
f7
03
f9
05
04
fb
03
13
fe
08
f7
f6
f0
fb
f1
03
5b
09
f0
f3
f9
f6
01
fd
0c
c8
01
fd
08
08
04
09
00
05
e3
04
04
f9
08
fb
f2
11
0e
3a
09
02
03
fb
fb
0b
fe
04
4b
03
12
fc
03
f2
00
06
06
6e
0b
f9
07
fa
01
fa
01
0a
d9
f1
05
01
01
07
f7
02
f3
a6
09
f8
06
0c
08
01
06
04
ea
01
03
06
fd
0c
01
fe
fa
c2
07
fc
01
fb
05
05
07
03
b3
04
fd
f1
fa
09
fb
f9
f0
41
ff
0b
ee
ff
f4
07
fd
09
19
09
ff
fe
fe
00
00
04
fb
c4
05
f1
ef
f8
f3
ff
00
fc
3b
fa
01
12
f7
04
08
04
02
95
03
f8
00
03
fc
04
fb
f6
ab
fc
00
03
fb
05
ff
01
10
10
06
fb
fa
07
ff
fa
03
04
16
13
f7
08
0a
05
06
06
09
20
fb
00
f7
00
13
03
f4
ff
ec
fa
01
f3
f6
05
ff
02
fc
c3
03
09
f2
fa
0f
fa
fe
04
93
ff
05
f7
fd
05
01
fa
07
81
f2
fc
fc
08
04
08
06
02
08
fc
01
f3
04
eb
0a
09
fb
ce
f3
05
07
06
06
f3
00
f7
f0
0a
0b
0d
02
fe
f3
05
0a
2e
01
02
0d
f2
03
fa
fc
07
ca
08
fc
fc
f2
02
01
05
f7
b7
f7
04
f9
09
0c
14
01
fd
10
03
08
00
05
0d
ff
f4
0c
2b
0e
fd
00
f2
0d
fd
fe
fb
8b
04
f8
19
fc
fd
fc
01
fb
ea
f7
01
04
fb
fe
fe
02
ff
a0
00
ff
04
f0
00
03
00
0c
c3
f9
ee
fb
01
f6
f5
ec
00
df
f6
0c
f7
03
07
f9
0e
08
bc
f8
07
01
f5
03
f9
f7
fd
4d
07
01
02
f9
0b
05
fa
f4
ab
05
09
0c
01
f8
01
09
01
64
f6
02
01
fc
06
fa
fa
f9
1a
0c
f7
0c
13
04
03
0b
05
d8
10
03
08
09
01
03
09
08
95
fc
08
eb
fc
04
fc
fe
f5
fa
05
09
15
fc
04
f9
12
fa
8d
02
00
ff
12
fd
00
fc
05
ac
fd
0f
f8
07
f8
f3
01
03
b0
ff
0e
0e
08
ff
11
f8
f6
ad
0b
fa
07
fe
fa
02
ff
fc
73
f9
07
03
ff
06
f4
02
0a
11
ef
f8
0b
f0
fe
01
08
02
00
0b
0e
fd
0a
f9
02
f2
0c
1a
fd
04
0a
04
08
f9
02
ff
bf
f7
fc
02
fc
05
f9
fb
09
c6
f6
00
f9
05
f7
00
ff
0a
6e
0c
06
fe
f2
05
fa
fe
fd
00
0d
06
fd
fe
08
fe
00
10
b1
fe
03
04
0b
00
f3
04
0a
da
fa
02
07
fb
06
01
ff
03
d3
0a
02
03
00
00
fd
fa
03
4c
06
05
fb
07
f5
fe
00
f6
41
03
ff
0e
f8
00
07
01
00
e7
0b
06
ff
01
00
ff
05
01
da
05
f7
06
03
02
ff
04
07
53
04
ff
00
fb
f9
01
f6
f5
f4
f8
fc
03
f8
0a
06
07
07
ba
f7
03
10
00
ff
07
f9
ff
60
02
f3
f5
06
fd
fa
fc
01
dc
f7
04
ff
02
f7
fe
fe
fe
5b
07
fa
03
ff
03
05
07
ff
91
08
f9
04
f9
07
08
06
04
96
07
05
01
02
02
01
00
08
0b
f8
09
08
01
f8
02
02
07
b6
03
f6
09
f7
03
f8
0e
06
39
fc
fe
ff
0c
05
04
07
ff
e4
02
09
03
fe
03
02
0a
03
d1
fe
05
fd
01
03
fb
fd
03
fa
fe
fd
fe
f9
03
fe
f9
07
61
07
04
05
f7
ff
f6
03
05
cf
fd
01
0a
f7
02
00
0a
fc
0b
15
00
04
fb
07
02
01
00
79
fb
f7
02
0c
03
04
03
04
97
f5
03
04
0b
fe
f7
0e
ff
59
10
06
fa
fd
f9
f7
06
ff
64
01
fd
ff
01
01
f6
06
fc
ab
fd
fd
09
f9
07
f9
06
01
40
f7
fa
01
0c
fe
07
01
03
b8
0b
07
fc
02
fb
0f
09
f5
d5
f8
f4
0d
05
f7
05
f9
06
27
02
f5
fa
04
f8
fe
fd
02
27
08
04
fb
fe
f3
fb
fe
05
d1
fe
16
0d
f7
f3
0d
02
00
0b
01
0e
01
ef
04
04
fe
f9
08
02
06
08
06
ed
f4
fd
fa
37
f6
f6
09
0b
f8
fe
05
f9
5c
fb
0c
f8
fd
f6
01
e4
04
36
fc
ff
fa
08
04
00
f7
04
ed
fd
03
03
00
ed
03
06
01
91
fd
0a
06
03
f9
fc
06
0c
c2
02
fe
00
f6
05
04
fa
01
0e
fa
07
f5
fa
f8
01
0d
0f
11
05
fb
09
ef
fc
f1
03
00
3d
f8
fc
01
fa
fc
fb
fd
fb
c4
0d
03
0a
01
01
f7
f3
02
fd
0d
fd
04
ff
00
07
00
f4
ff
fc
12
f5
f7
fd
11
04
03
c8
03
02
04
08
f5
fe
f4
fb
18
03
00
07
04
f2
01
f4
01
f3
fd
f9
fc
0a
01
00
03
fb
34
ec
09
fe
00
ff
f9
ff
fa
b0
f3
00
f8
00
07
09
04
fb
e0
06
0e
f7
06
08
0b
fa
06
24
ff
f0
fa
fd
01
fa
06
09
b7
fe
fc
fc
12
f5
00
fc
05
c4
ff
08
03
02
02
06
fe
0b
de
05
02
02
0c
12
00
f8
03
0f
03
02
08
07
fb
fb
ff
fa
51
0a
0f
09
f5
f7
ff
05
f8
f8
fd
0a
0a
fe
fc
0a
fe
0d
ba
fe
07
05
01
06
08
02
fd
44
f9
0b
f5
f3
09
0b
05
02
c6
ee
04
f6
02
16
ee
fa
01
d0
ff
03
09
0b
02
01
08
01
28
02
03
09
f2
01
01
fd
06
9d
06
f9
f9
fb
01
f9
fe
f7
18
ed
fe
08
ff
fb
10
02
fe
0a
f8
07
fc
f6
fc
f4
f8
02
31
07
f9
02
0e
0a
04
03
fc
30
f7
0a
0c
05
00
06
fa
f4
49
f7
0b
07
f6
f2
fd
05
fd
15
01
01
07
f4
03
04
f3
03
5b
05
fb
00
06
03
fd
f9
fd
ed
02
ff
01
00
08
ff
08
f5
58
fe
fd
fa
07
03
02
fb
f9
de
ff
fe
01
09
06
05
09
01
a1
f4
00
ff
f8
f8
fe
ff
fd
24
fa
fe
f6
00
f9
fd
04
fc
d2
fd
f8
01
0e
f8
05
01
04
65
fe
03
00
0a
fa
00
00
fe
92
fe
07
fd
f6
10
f6
fc
fc
52
f6
07
fd
04
fd
fa
05
01
12
00
0b
08
04
0c
04
fa
05
29
fd
08
06
02
fa
fd
02
f8
fe
fc
01
0a
f4
fd
08
08
fe
02
01
fe
05
13
0a
f5
fe
fc
0b
00
04
07
f7
01
02
08
ff
2c
03
fb
f7
f8
fd
04
03
f2
5d
f9
07
ff
08
f2
fa
f3
04
d3
fc
06
03
fd
06
f9
ff
03
a4
fc
fa
03
0d
f7
ff
fa
ff
1a
ff
f1
f6
00
fd
fe
03
08
a1
09
04
02
f8
03
f6
fa
0c
ba
05
04
f9
09
04
fc
ff
f8
3e
06
f1
fb
0d
e7
0f
fa
02
03
03
f4
f9
fe
02
fb
00
03
f1
0c
fd
07
fd
fc
0e
00
02
d0
0d
02
07
f5
fd
fe
02
0e
01
fc
06
07
08
0a
ff
f9
12
48
0d
05
0b
11
04
01
03
02
bf
f6
0a
ff
fd
01
03
fc
06
dd
03
01
f9
0f
05
09
06
0d
21
fe
07
f3
f7
00
03
01
fb
0d
fd
fa
05
01
f8
07
06
04
70
ff
fb
03
fd
f8
fe
ff
fc
d5
f5
fc
f8
02
ff
01
04
12
ed
00
04
0b
f5
02
02
01
fe
fe
11
07
f9
f3
01
fa
f5
12
32
01
06
09
00
04
02
f3
f3
9b
03
00
07
04
f5
09
07
fc
55
04
0a
02
fe
fe
fc
03
f6
3b
00
02
06
f8
0b
fc
fc
07
6d
fb
00
03
00
ef
ff
f6
fb
53
09
0a
06
fd
01
0b
05
fc
c1
03
01
01
09
f7
05
fd
03
e4
f9
fb
fc
09
f6
01
03
f7
f9
03
02
01
06
06
f5
09
02
5c
06
f3
00
08
01
0b
03
fe
5f
fd
f5
f4
02
fa
04
f6
03
00
03
fe
06
f1
01
f5
f3
07
4a
09
03
07
09
0b
fd
05
f3
b3
01
fd
03
0a
01
04
01
fa
40
04
fc
08
f5
01
08
fc
fa
fb
06
0a
03
fe
fe
04
f7
06
cc
02
0c
06
fa
08
fe
0f
f4
42
fc
fe
04
0e
fe
fd
0a
fa
f7
17
f7
04
21
f5
06
fe
03
62
13
07
f4
f4
01
f6
0b
f3
96
f8
f0
06
12
02
03
0a
f3
f5
f7
ff
fc
ef
fb
f5
07
00
1a
01
fb
07
15
06
ff
05
08
91
09
f2
01
0b
f3
08
fe
00
cf
ee
08
02
fa
f8
02
0a
01
f3
03
fe
01
13
01
f8
06
0d
c2
06
fa
05
00
08
0c
02
fc
d3
f7
f1
f5
09
00
f9
fe
09
d5
13
0b
02
f2
0a
ff
08
f6
f8
01
0a
fa
fb
f8
f9
fa
f6
a0
fe
ff
00
f5
01
06
01
0a
33
f4
07
f6
01
01
f7
06
11
89
ec
fb
01
17
03
07
05
f6
b5
13
0a
f9
12
ff
f7
f9
01
59
f9
fe
0c
fd
0d
06
ff
04
b8
0a
fb
fc
f7
05
08
00
03
55
03
fc
f4
ff
fc
02
0c
08
2f
f8
0f
f7
01
f8
0a
f5
00
df
07
f5
00
f8
02
fd
ff
f7
34
0d
0d
f8
06
fa
fd
04
04
2a
ff
f8
fc
13
f8
00
fc
03
4b
03
00
05
ed
05
02
02
09
e5
fa
02
f7
12
08
fa
03
f9
ba
03
ed
13
fc
09
02
01
0e
27
fe
f6
f5
05
14
02
0b
08
f7
03
07
fd
01
f2
01
00
f7
dc
00
fe
00
fb
07
01
fd
f9
81
fb
ff
ff
fb
0b
fd
04
11
40
ec
f5
f2
f7
f3
08
08
f6
6a
f5
f2
06
fc
01
f6
12
f9
38
0b
f3
0f
f9
06
00
07
01
78
09
08
06
fa
07
f8
fe
f8
49
f9
02
f8
02
fd
03
02
f0
28
00
12
fa
00
f3
fe
03
fa
0e
fd
01
fb
01
fa
f7
ff
0d
d8
06
f9
fd
fe
01
0c
07
fb
72
fe
06
f9
15
09
fa
0b
fa
f6
03
01
fa
0d
07
f2
0f
03
0c
fa
13
06
02
fc
07
0e
f3
50
0a
02
05
10
03
ff
07
09
f9
0e
18
0b
04
fc
0b
05
f6
99
0d
01
f9
fc
07
07
fa
fb
de
0d
0b
f7
fc
0a
07
02
0d
33
f0
f3
03
07
fa
f9
01
07
0d
f4
f0
f7
fd
08
ff
06
08
5d
02
00
fc
fb
04
f7
00
fb
f8
f7
0a
fd
0e
05
00
01
fa
9d
07
fe
04
06
03
04
00
f5
5f
02
ff
fd
fc
f6
fc
f8
03
9d
ff
01
f4
03
fe
fb
00
f8
21
09
0c
03
07
f6
08
0e
fe
74
01
01
00
f9
fa
fd
03
fa
6a
02
fc
f6
f5
06
09
01
fd
1c
fe
ef
fb
ff
00
f4
f8
07
44
13
0a
fe
01
05
00
f4
ff
13
07
fc
fb
f1
fa
07
01
00
dc
f6
f8
fe
01
00
05
fa
02
50
05
01
f8
03
09
06
fe
ff
d7
fa
04
fa
0b
02
0b
f2
f8
5d
fc
fe
f3
fa
f2
09
fb
00
c2
ff
01
fa
02
f7
f8
f6
15
f8
08
fb
ef
05
fd
06
00
fa
6b
fc
13
fa
fb
07
04
fc
fa
68
fe
06
ef
fb
fe
f8
fe
0a
bb
f3
fc
fb
fd
05
fa
fe
00
1f
05
00
fc
f3
02
01
07
0b
3b
fd
0a
f9
0d
fd
02
07
f7
0b
fa
0f
ef
04
0b
f9
ff
f6
37
fd
ff
06
f5
0b
f4
07
01
10
fe
fe
0d
f7
0c
07
16
09
a9
04
04
07
fd
fb
f3
fc
fb
b3
ff
09
fa
f9
11
08
0d
ee
d9
f2
f1
05
f9
fd
ff
06
03
bc
02
f8
07
01
00
05
05
fe
8a
f0
09
ff
f6
0a
f9
f3
03
12
07
05
f3
fe
fb
f8
04
fb
1c
f9
0c
07
00
05
02
fb
f8
eb
fe
01
f4
fe
06
fc
f6
00
5a
0b
05
0e
f6
ff
ff
00
fa
43
01
f8
05
02
fb
04
0a
08
88
f4
09
f2
09
ff
f2
04
ff
48
13
03
0c
f5
fb
02
ff
ff
8e
0b
05
07
06
00
06
00
ff
67
fc
06
f5
05
02
f0
fe
fc
28
06
09
08
04
f7
00
ee
fa
be
00
ff
03
fd
fc
fd
fe
f3
47
fb
02
04
07
02
fc
05
06
68
f8
03
f5
fd
f9
00
ff
0a
97
06
00
05
05
ff
fb
03
01
eb
f3
f5
02
0c
02
fe
f7
07
1b
f1
01
f5
fd
08
fa
fa
01
00
04
05
fd
01
fa
f7
0d
09
f1
03
ff
05
ff
f2
03
01
05
4e
01
fc
f0
08
03
0f
f9
09
5f
01
ed
f5
f2
02
f7
f9
13
db
f0
06
08
fe
05
fe
fe
fc
b9
fd
f4
fb
12
fe
02
06
09
b3
01
fc
fd
09
f4
f8
fb
ff
39
08
04
fd
0c
fd
09
fe
f8
d5
fe
fa
02
ff
02
f9
fb
05
d6
10
05
0a
f7
07
02
01
fb
67
0a
fa
01
fb
02
f3
04
f2
b5
fe
00
06
07
ff
fd
00
03
13
f3
fc
06
fc
00
07
ff
03
fe
06
fd
02
02
f8
fd
f7
0d
96
ff
07
09
00
0a
06
01
05
df
0f
01
fd
ff
07
f2
0c
f5
91
f4
02
09
05
fd
02
fe
fd
f3
0e
fa
fd
ff
00
05
01
fc
19
fe
f8
01
07
10
00
07
ff
8a
05
05
ff
0a
06
0b
fa
0f
b1
03
01
02
ff
f9
f5
f8
ff
0b
fa
03
06
01
fe
06
04
f9
0f
0b
fd
fd
fb
08
01
03
ff
1a
fc
08
f9
f8
00
fb
fe
03
03
f6
01
0c
fe
06
ff
fa
00
66
01
f8
fb
f5
06
01
02
04
12
06
07
02
ee
08
fc
03
fc
0f
fe
04
ff
ff
09
0b
f6
0a
40
05
fc
fd
fe
fa
00
02
0c
9e
07
ff
f5
f8
f2
f8
f9
f3
c3
fa
09
10
04
06
fc
00
fe
5c
06
fb
ff
11
fd
f9
00
05
57
f7
06
fd
ff
f7
fb
f8
00
47
f5
fa
04
04
0b
f4
fe
fd
d3
0d
06
0f
03
06
0a
f1
f8
af
f6
02
0b
ff
f9
01
fd
fe
b4
fa
01
02
08
0a
00
f7
0d
30
02
00
06
08
06
fa
0b
0c
08
fd
04
08
0a
08
05
fd
fe
4d
01
f0
01
f5
10
06
05
00
b7
fe
f8
00
fd
04
fe
fa
00
52
09
f6
00
f4
03
f6
f5
00
5c
07
fd
03
01
f7
07
02
03
0b
0a
f3
f9
0d
0e
03
f1
07
ed
12
09
ff
00
f8
ff
07
06
4f
f8
01
f4
08
fd
fe
04
05
c0
00
02
08
fd
09
ef
02
09
1b
03
fb
fb
10
03
0a
02
0c
0a
03
02
05
04
0c
f9
fc
f3
27
05
f8
fd
f9
07
0f
03
fc
dc
e9
07
01
f6
08
fd
fc
08
31
08
f6
06
01
00
f8
00
06
bd
0c
06
fb
08
02
02
fa
fc
2c
fb
f6
01
07
08
f8
00
f9
35
06
fd
fd
02
00
ed
f8
fe
11
06
fb
01
07
04
fc
fb
ff
af
09
f7
0a
02
09
09
f3
fc
8a
03
f6
0e
fa
fc
02
f2
f8
59
fe
08
0d
ff
f8
fd
04
01
55
04
fc
03
ff
08
f8
00
ff
27
f9
fd
f7
0b
0b
01
06
f9
98
06
ff
fe
f3
f0
04
05
07
9a
01
00
02
f7
00
0d
fa
05
30
f8
ff
fe
06
fc
fa
0a
11
ba
fc
f3
05
03
0a
f3
05
fc
8b
05
f9
ff
fc
10
fe
03
ed
d5
06
03
04
f9
fc
fa
00
06
e3
fe
fc
05
09
07
01
03
f8
e6
0a
fb
f6
10
fa
07
02
00
93
03
00
09
f6
04
f8
00
f7
d7
02
0c
fa
01
06
02
01
fa
49
fc
ec
01
fa
00
00
06
01
14
06
02
fc
04
f0
fe
07
01
9e
02
f6
02
00
f7
00
fc
00
34
0a
fc
f9
0c
03
fe
ee
00
f4
04
f7
fd
09
fe
08
05
05
cc
10
08
08
00
ff
02
02
04
21
ff
fa
f1
0d
0c
fb
06
fd
3c
01
01
fd
fa
06
ef
fc
f7
9a
03
fd
f6
0a
fb
09
02
01
cb
01
fa
0e
00
08
02
05
fb
1e
fc
fc
05
f1
fc
04
09
0f
c5
f8
07
f7
f8
fc
f4
fc
0f
1f
f2
02
05
02
f7
fb
fa
f7
be
04
fb
05
14
05
04
fe
00
5a
05
f1
07
07
02
05
ff
fc
53
f6
ff
fa
08
f3
f7
f8
fc
23
ff
01
04
09
0d
fe
04
fe
f9
09
07
f2
f9
fe
fd
fe
02
65
f9
0f
06
f5
02
07
f9
07
85
02
05
fb
0b
fa
03
04
ff
a2
fb
09
0a
f4
01
fc
fb
f6
da
f2
fb
06
03
03
03
fb
f5
a8
0e
fb
f6
02
fd
03
0f
10
13
09
ff
02
f2
fd
ff
03
ff
5d
02
f3
10
08
f6
ff
0c
01
55
f5
f9
0c
ff
04
00
f9
ff
8b
0c
02
02
fa
fd
02
f7
08
ca
f5
01
f5
f8
06
fd
0e
fa
5a
01
00
fd
01
fb
07
f5
05
15
fe
fd
12
fb
02
00
fe
04
0f
05
00
fe
ec
01
00
06
0a
9a
05
04
fc
f9
05
06
fb
0b
28
f8
01
02
f5
05
fe
03
fd
d8
01
00
fc
fe
0f
06
fb
02
2c
08
ff
fb
0a
04
07
fa
fc
17
09
03
09
f9
f7
01
02
0c
d1
02
0e
00
fd
f6
08
09
f6
dc
02
fe
01
f2
05
08
0a
01
50
01
00
07
08
00
fb
ff
0a
98
fc
fc
f8
01
05
05
01
01
e8
03
0d
07
00
fb
02
f6
08
d6
07
fe
01
05
02
fd
f8
0e
2b
fe
09
02
fa
ff
06
06
fc
5a
fe
fd
ff
fc
fc
07
00
fa
a2
ff
01
f5
04
04
ff
00
e9
ad
06
f9
06
04
0a
f9
fc
fe
24
fd
fd
05
fc
02
02
f4
f7
ea
0b
02
0e
f9
06
04
09
ef
da
03
fe
07
07
f5
0f
00
10
e6
f7
ff
ff
fd
f3
0d
02
f9
34
06
07
03
03
0e
ff
04
01
b2
fe
03
f6
0c
00
0f
ff
fc
14
0a
f4
0a
f8
05
03
05
f4
63
0b
fe
fe
f3
03
fd
f7
f9
2e
0b
08
0c
0b
f7
f8
f9
f7
c9
02
f6
f6
ff
05
03
fd
f9
56
f9
05
07
04
03
03
fd
03
cd
0c
f3
fa
05
f6
00
fb
09
90
15
0b
04
fa
03
fc
03
fd
14
f0
f4
07
fa
f8
f1
0b
0c
19
09
fe
0c
08
01
fd
f9
fd
6e
07
f7
0e
f9
fb
03
fb
f9
9c
ff
00
01
f6
00
f9
02
05
bd
04
0c
00
00
05
0b
0d
f6
1b
fa
f8
02
fb
0b
f9
03
12
d8
06
02
fe
01
ed
0a
04
fd
e3
fb
fd
fc
01
04
02
fc
0c
d6
05
05
ff
f5
fa
00
fb
ff
c1
04
fe
03
05
fe
0e
f9
fe
08
04
f9
fb
01
04
fa
02
0c
af
0d
05
01
05
f9
ff
f8
fa
c5
f9
03
fc
fd
f0
01
fc
05
56
ff
f4
fc
f7
fb
04
f6
f7
f2
fb
01
02
04
fe
10
ff
fa
a3
02
fb
0c
fd
fc
fa
ff
10
f8
00
08
05
03
03
00
0a
f8
6a
f8
01
f8
0d
ff
fd
0b
fb
28
06
00
fd
00
05
09
fb
f7
c4
05
02
01
fe
00
08
f5
06
ee
01
05
ff
f6
11
fb
09
05
d5
07
00
f1
ff
03
fa
fc
07
00
01
02
00
fd
f8
0a
f8
00
27
ff
0f
01
fc
00
fd
0b
fe
32
04
f9
03
fe
04
04
f8
0c
85
0c
fd
f8
fe
ff
fe
03
f9
e6
08
f5
0d
f5
f8
08
ff
00
ae
04
02
01
f8
0a
ff
f5
ff
58
ff
05
f7
f9
fd
fe
0a
ef
21
f4
0e
ff
06
00
05
fc
fb
d3
00
04
09
f7
f6
0f
f3
fb
a6
04
0a
fc
00
