fffffffffffed8b8
fffffffffffeb515
0000000000015002
0000000000028690
0000000000001975
ffffffffffffc800
00000000000173a5
fffffffffffec972
fffffffffffea0b8
ffffffffffffc2e8
000000000000845e
fffffffffffe72e6
ffffffffffff7174
fffffffffffdd514
fffffffffffda742
ffffffffffff0173
000000000000a2ea
000000000000f45f
ffffffffffff8ae8
ffffffffffff068a
00000000000093a4
000000000000daea
ffffffffffff8fff
00000000000145d3
ffffffffffff6745
0000000000015a31
000000000000145d
ffffffffffff2f45
000000000000e519
000000000000422f
0000000000023003
000000000001e3a6
