00
f4
fe
0a
66
01
ff
06
f8
0a
fb
f1
12
34
07
ff
0e
0c
0d
f0
f8
03
20
01
f7
fd
05
ef
fd
f3
fd
db
ff
09
06
fd
09
fe
00
fd
bf
f7
05
03
fb
02
f5
05
f4
34
0a
fd
09
f5
f8
f4
fe
fc
a8
03
09
fa
0b
ef
f8
ff
f3
14
04
00
f7
f8
00
fc
fc
fc
08
03
ff
f7
fe
ff
17
02
09
59
01
ff
f9
04
f5
f4
06
fd
da
01
fc
fa
02
fe
f1
fc
f6
76
05
fd
f7
03
06
07
ff
0f
6d
03
04
f3
00
f9
04
0d
fa
a8
f2
07
fa
f3
01
09
03
03
07
0a
00
05
06
fd
fb
f2
0b
ad
ff
f7
01
1c
f2
f8
ea
01
32
00
04
fa
08
04
fc
f6
0f
de
04
fe
ff
fe
fc
fc
f5
f9
92
f8
fe
01
fe
04
f6
f7
fb
e3
03
fe
fb
0a
0d
01
00
08
42
0e
fe
05
06
03
04
00
ef
15
08
f9
0b
0b
f8
fe
fa
fa
cd
f3
06
ee
0b
05
ef
f3
01
d5
f1
04
07
ff
05
fd
f6
f6
af
fb
04
fc
09
00
fd
fa
f7
f3
10
01
f7
00
fb
fa
07
fa
d4
f7
f9
ff
01
f7
07
fc
04
3c
04
fd
ef
f9
00
fb
00
0e
d9
08
f9
f6
f8
02
0a
09
07
ec
02
f9
01
03
f4
fd
fe
00
18
08
02
fd
ef
f8
0b
06
00
b0
01
0b
0a
fd
07
ff
01
fb
f1
f9
fc
01
f4
07
06
f3
fe
ff
02
fa
f5
02
f8
f4
01
fe
70
01
00
fa
08
f5
f3
f2
00
c6
fb
01
0a
f3
01
08
f5
fe
e8
f8
0a
03
fe
fd
fe
00
04
5d
f7
fc
f5
ff
05
f8
09
f5
a3
06
08
03
f4
f9
05
eb
03
55
f7
05
f9
fd
f8
fc
fb
0a
3f
fb
fc
02
08
05
0c
07
f6
9b
07
00
04
ff
ff
01
f8
fd
46
fa
ff
f4
f9
08
f8
f7
fe
41
f3
fa
04
fe
00
fa
ff
f9
07
00
ff
05
09
fa
f3
00
02
6b
f6
00
08
fe
fc
01
0b
01
40
0b
0a
03
f8
11
fe
08
fd
47
fa
f7
ff
09
04
07
f7
01
71
f5
fd
fd
f7
07
fa
fa
05
2b
fc
00
0a
00
fa
fb
01
f5
f1
f7
04
05
fd
fe
fc
06
03
17
fb
f1
ff
0b
04
fe
e3
03
e0
0b
f5
f1
06
0a
f6
f9
09
d3
0b
11
0a
ff
f8
f1
0e
0a
bf
00
05
0e
08
06
f1
07
f3
18
fc
f2
04
f6
fc
0a
10
05
07
06
f9
f3
0b
ff
fe
ec
08
f2
03
fc
00
f4
02
fc
f8
00
0c
fa
09
09
f9
02
06
ef
01
32
04
00
02
f9
04
f9
f6
ff
51
00
09
06
fe
fd
03
04
05
ec
0d
0b
fd
09
fd
fc
0b
04
63
04
07
0c
f0
01
03
01
fc
8f
08
07
04
f5
fe
0b
01
02
9c
08
0a
fd
06
f7
f8
0a
f1
90
f2
01
f5
f8
f8
06
07
06
18
00
fc
fb
03
07
03
04
04
5d
04
fb
05
01
05
00
05
ff
1a
03
fb
03
f9
f8
01
03
07
65
f2
fa
06
02
ff
03
f9
f2
55
02
00
06
02
03
01
fd
fe
0e
f5
fb
f7
06
06
04
07
03
a2
02
fd
0a
07
fc
f4
05
00
24
fb
01
f3
f7
ff
03
fc
07
30
08
0d
11
05
f4
fc
fe
fb
a9
fd
0a
04
01
f9
03
fe
00
af
ff
fc
0d
06
03
05
fc
fb
1b
04
08
f2
08
07
02
fa
02
64
01
fd
06
fc
fe
05
fc
05
d9
05
0a
fb
f4
fb
fc
fb
05
42
fe
00
04
fc
f9
04
fc
f5
9f
02
fd
fa
0a
03
ff
fe
fe
18
fe
fb
09
f8
07
03
08
f9
22
fc
0d
fc
fb
0a
01
ff
ff
7f
f9
13
08
f9
fc
02
f4
06
c6
fe
0d
01
02
f6
f4
f9
f7
be
02
03
f8
fc
f6
fc
f5
fd
c1
0b
04
fc
fe
e5
fd
fe
fc
3c
fb
07
fc
00
03
00
0e
00
fa
f8
08
08
02
fd
01
00
04
70
11
02
fc
fe
0c
fe
fb
0a
4b
f6
fd
0f
09
fe
fd
03
00
e3
04
03
07
05
01
fb
02
02
ad
fb
f8
01
01
02
11
f5
08
a3
01
f5
e7
17
0c
fd
05
fd
2a
09
00
02
00
00
f3
03
fb
de
0c
f7
03
f9
00
0c
09
fc
ff
fb
09
ff
f5
f8
fd
07
07
b5
06
06
02
00
00
0c
07
ee
65
04
06
0c
03
fb
fd
03
00
d6
04
00
04
f4
07
12
f9
01
8e
0d
04
ef
03
01
00
06
07
3d
fd
fa
fc
f9
0b
10
fd
ff
c7
06
04
03
f8
fd
fc
0f
02
26
f3
05
12
0f
04
f9
0b
09
23
f3
fe
fb
ff
0c
fe
fe
0c
c7
02
00
00
01
06
02
08
06
c4
f9
08
f2
fa
f3
ef
0c
04
94
f6
00
f8
0c
fc
f2
f1
05
86
02
f3
07
0e
ff
03
04
f7
8d
f8
03
09
00
09
05
0c
02
4b
04
00
00
f5
04
05
10
02
66
08
fb
fe
fd
05
03
04
f9
25
f4
fd
ff
01
04
fa
09
fe
43
00
03
0b
fe
f6
05
01
00
57
06
f5
fc
fd
02
07
04
0b
da
00
f2
f0
f1
16
01
f5
08
19
05
06
f9
f9
fa
ff
05
05
77
06
01
07
ff
07
f4
0c
fd
f5
09
08
fb
ee
fa
fa
f6
06
33
f7
f9
07
f7
fe
09
14
fb
ca
fe
fa
f0
09
01
ff
ff
fb
25
ff
02
fd
06
05
f4
fd
01
00
ff
fa
13
0a
03
0f
0e
f4
b0
fb
f7
fc
13
07
eb
f9
06
e0
f9
02
0f
08
ef
08
03
f7
2c
01
00
17
06
0a
10
f4
f9
d4
07
02
ff
03
fe
0b
fa
ec
6f
00
fd
01
0e
f5
05
13
04
dd
fc
f7
03
f5
04
f6
f9
f8
ba
02
09
fa
fe
f3
00
fd
0b
3c
f9
f9
fe
0c
f2
0c
02
02
ea
fb
f6
0f
f9
fe
08
04
00
03
08
03
fb
04
09
0a
03
f9
f3
03
09
1b
f6
fe
0d
04
01
93
fe
fb
05
fd
0a
fe
f7
f9
81
f8
f8
ff
f8
01
f6
f4
fb
a6
fb
00
0c
07
03
04
f2
03
4c
fe
02
0a
fc
03
07
00
f1
f5
fb
05
16
f6
08
fe
fb
f9
fe
fa
fc
fb
02
00
10
f3
fb
c9
fe
0b
0e
0d
f7
f4
0c
07
d2
0a
f7
ee
00
f9
f0
05
f1
b1
0c
11
fd
f9
04
fc
0b
ec
3b
06
01
00
f8
fa
09
10
ec
f8
fe
fc
02
f9
09
06
f0
ff
1b
ef
f6
07
09
00
fb
fc
fd
79
f8
03
fd
fc
fa
fd
f8
04
b7
ff
fe
08
f6
ff
08
0b
ee
0f
fc
03
05
f3
02
06
06
f0
16
02
03
01
06
f1
f6
fb
00
18
07
ec
01
05
0a
f8
03
03
f2
08
f9
fd
fb
fd
03
01
f0
ea
fb
fb
05
fd
f7
fb
f4
fa
d8
f8
07
fe
06
08
06
ff
03
c5
fb
f4
f3
03
f8
ff
f3
fa
29
fc
04
fd
04
02
f9
fc
01
e0
03
fb
fa
0d
01
f5
0b
06
20
f8
04
02
03
0e
fd
08
01
21
03
09
fb
01
ee
fa
fd
01
d5
08
00
f9
fa
11
fc
10
f6
d1
01
fa
06
04
02
15
fe
f3
1a
00
fe
00
fd
06
f9
05
01
55
ff
05
ff
fb
06
f8
07
ff
c5
02
01
fe
05
08
04
fe
0b
66
0b
fb
f8
fe
02
06
f7
15
2e
ff
f4
fd
0b
05
fb
04
f6
1e
fc
f6
0b
fb
08
07
05
f8
4b
02
f5
0d
09
08
fa
e9
fd
95
fa
07
f1
01
09
fb
fc
05
3b
05
09
fe
05
03
fd
ff
07
ef
07
ee
f1
0b
f1
02
f7
0a
47
fd
ff
f6
00
06
fc
f9
0a
24
14
0b
fb
fa
05
00
ff
fe
d0
fb
f5
06
f8
08
12
09
01
07
fd
06
ff
f5
fb
0f
04
04
8d
01
f7
02
0e
01
ff
05
ff
16
06
02
f9
08
0b
f7
fd
f9
5b
fd
f9
fa
ff
01
09
11
fc
e2
05
fe
fd
00
fb
fb
0b
f8
ee
f8
05
f6
fc
01
f7
14
f5
33
f7
f8
07
f7
f1
ff
fe
fe
5c
0b
f9
fc
fc
f9
12
05
f8
b9
06
0b
fd
fc
f4
04
09
09
9a
05
04
0a
0b
05
fc
15
f4
6b
fe
f3
f4
08
fc
03
0a
fd
a2
0b
f5
f0
00
ef
f4
0e
07
b3
08
08
06
01
00
02
01
fe
d9
06
04
eb
05
fe
ec
03
f0
44
f3
01
11
fb
03
05
ef
fd
94
02
00
0f
0d
0a
f8
05
f3
d7
f3
fc
04
04
08
02
ff
0b
3a
07
03
f4
09
ef
08
00
12
d7
fa
00
07
fc
01
e8
f7
f6
a7
01
08
fe
f6
f6
03
ef
ed
4b
f2
f2
fa
11
eb
fa
05
06
73
f1
fa
fc
e7
04
fb
06
04
ca
f9
f7
f6
08
11
f5
17
fe
bb
fd
0b
06
fa
f9
04
0c
01
03
f4
e7
e9
0b
05
ee
0d
00
c9
08
08
05
ec
f8
13
08
06
74
10
0b
0d
02
05
f0
fe
01
4f
02
08
06
fb
01
f6
12
0c
6f
0f
ff
0c
f2
1a
f6
03
04
ab
0c
02
08
02
f7
01
fa
f0
d9
f3
fc
03
12
fe
06
03
ff
5b
02
0b
06
f9
fd
f8
ff
fd
f8
06
14
fc
0e
0c
f4
05
02
b3
05
01
f7
f6
00
01
04
15
61
06
0c
06
02
f9
f9
ed
f5
a3
f7
05
01
00
ff
ff
f1
f5
5c
04
03
f1
01
f1
f9
11
1a
3b
07
f7
ff
08
0f
fc
fc
05
5d
fe
ff
fd
fd
01
ff
ff
ee
a0
00
08
0a
ef
f5
f1
f7
fa
dd
fb
02
0f
f8
05
00
f5
fa
b2
01
fd
0e
fd
0a
01
07
0c
c2
16
f9
e6
f9
f2
f8
f6
ff
db
ed
09
f9
ff
0a
04
f7
00
54
05
00
fd
f9
02
fc
0e
12
aa
00
11
05
06
f6
09
f5
ec
e5
f9
fa
ff
f1
0b
fc
04
fd
3f
00
05
0a
ef
06
07
02
fe
d8
f9
07
fb
06
04
00
fe
03
ec
fc
f1
ff
fd
f6
fb
0f
f8
23
08
fa
0c
06
07
f9
fb
f8
50
fc
fb
03
08
f7
f7
f1
fc
3f
f3
ff
00
0a
fa
fe
fd
fb
71
ff
02
f7
08
0b
fe
f7
ff
57
0c
01
17
08
f7
02
12
02
31
fc
05
fe
05
fc
01
f3
0a
9f
f3
04
10
04
05
01
02
04
be
09
f5
f9
01
fe
ff
04
ff
3e
ff
0b
fe
ff
f1
06
09
00
15
f9
09
f2
fb
f9
05
00
08
79
05
01
02
03
09
0e
fb
fa
8f
07
ff
07
fd
fe
08
02
03
89
ff
02
f1
ed
f9
fc
0e
fd
1c
03
fd
f9
09
f4
ff
05
f0
a0
fe
f9
04
01
fb
02
08
f5
5a
03
03
0c
0a
00
fb
0c
f8
3c
0f
f5
fb
fa
fd
07
05
02
b3
fe
04
f5
fd
0e
fd
f0
02
d8
07
f9
05
01
f6
00
f8
fc
3b
06
fa
01
fd
f8
0a
04
05
a1
fd
03
f4
fb
00
06
f1
08
3b
fd
f8
f5
0b
f0
00
00
f7
df
f8
f1
f8
13
19
fc
03
04
d9
09
f5
ff
04
06
03
ec
10
8d
08
04
0e
ff
01
fd
f9
05
39
01
04
ee
02
f6
0a
fb
ff
c2
09
fc
fb
f6
02
f4
f5
0f
36
0f
fd
f7
ff
fa
0b
09
fc
ec
05
fb
f0
f2
0a
f1
13
fa
f0
f4
fd
f9
fa
fa
03
07
0a
56
f0
06
05
fe
fb
09
0f
fa
ac
fe
fa
06
fe
08
08
fb
07
14
fd
07
ff
f8
f7
fb
06
fd
a2
0a
f6
fb
fc
00
ff
f5
0b
49
0a
06
fd
fd
02
04
fe
fd
c5
fd
0c
fb
fe
fa
09
fb
05
32
07
fe
fe
fc
02
04
00
03
10
08
06
0d
ef
ff
04
f3
04
c8
04
04
04
e9
09
01
09
08
6c
09
f0
03
0a
07
fe
f7
f1
32
fb
f7
08
07
fd
07
fb
fb
85
f9
f6
ff
01
fd
0b
fd
fb
3c
fc
f9
07
f2
f8
e7
f9
f8
52
f9
fb
f7
00
ff
f8
00
04
e1
fc
02
10
00
03
fe
03
08
4c
01
09
f9
08
03
06
10
fb
f8
08
fe
03
f8
fc
08
05
07
c1
05
f9
f8
eb
02
fc
0b
fe
b6
02
00
00
04
fc
0d
ff
f4
f6
fd
f9
fc
0d
f7
06
0f
04
03
01
ec
0b
05
f9
f9
fe
ff
9a
04
04
fc
f3
f6
08
06
e9
a6
05
ff
1c
fc
fd
fa
09
00
20
08
f5
0c
05
fd
fe
05
06
0f
02
f9
fc
f2
0b
07
04
0c
04
04
ee
07
04
f1
00
f6
06
2a
fd
ee
07
01
04
07
f5
f9
57
f7
f4
fa
fa
00
f9
01
08
c9
0d
fb
f9
0d
09
f4
fb
fb
ee
02
f7
f5
0d
05
09
f9
02
e9
fe
0a
04
10
fd
ec
07
0c
4e
08
07
00
ed
ff
0a
fc
fb
b0
0c
02
01
00
fd
fe
ff
f3
8a
0b
10
0a
fc
f3
0a
01
04
59
fe
f7
06
03
f6
00
09
fd
c2
f8
04
f9
04
fa
02
f1
0d
d4
fb
0c
f3
0d
fd
05
00
03
a1
ec
f8
08
04
fc
ff
07
00
fe
08
07
f8
02
08
f8
f7
fd
64
07
01
17
fd
07
08
f9
05
b6
00
01
09
f7
09
03
00
fe
43
fa
f2
0a
f5
03
f9
f6
fb
b9
07
ff
06
09
07
fe
f4
02
2a
ff
ff
05
fb
0d
02
ff
00
c9
07
fe
0b
fe
08
ff
fa
f6
c7
07
04
ff
01
04
08
fa
fe
6c
fe
03
04
f3
fc
f1
07
04
14
fd
04
fd
00
ff
04
fe
04
12
fc
0b
f4
fe
01
04
01
ff
db
0e
08
01
01
ff
04
04
fc
dd
fa
07
05
fc
ff
fd
02
00
56
fc
fe
f8
03
fc
04
09
f6
86
f9
fa
f8
fd
0a
06
fa
fe
4d
fc
fd
0a
f5
07
05
07
f7
86
ef
03
fe
fb
07
fc
fd
fb
bc
fa
ff
fd
09
fb
fb
fe
ff
fa
f4
06
04
01
fb
fb
06
08
87
13
fe
fd
01
01
09
0a
f5
d7
03
05
06
04
fa
01
04
0c
6d
00
07
f0
00
fe
06
00
06
49
fa
05
fd
06
f3
00
f8
fe
69
ff
03
fd
03
f3
fc
02
04
9b
01
03
00
06
fd
02
05
ff
ba
00
fe
06
04
fb
04
03
04
6d
0c
f9
f9
0a
02
04
fb
00
df
fd
fc
09
01
f3
09
01
04
ba
fc
fc
00
0e
f7
fc
05
fe
5b
01
10
00
09
f8
ff
00
fc
a2
09
03
f7
09
ed
06
05
06
8c
f3
f3
07
fb
0c
fe
04
05
b9
0c
04
03
00
0c
f8
00
fc
1e
fe
fb
00
07
f7
08
01
f7
6d
12
fc
f7
fc
f7
02
fe
f1
5b
f6
0d
f2
f0
fa
fb
fd
ff
4e
06
f8
0c
06
0a
f3
04
f7
0f
fd
f4
09
fc
07
fc
f9
02
44
06
f8
05
fc
17
f8
fe
ee
4c
09
0b
fa
09
0b
0a
04
fe
31
05
f5
06
00
f9
fb
f9
fd
53
ec
0b
f7
fc
06
ff
f5
03
a0
ef
06
ff
0a
04
07
fc
01
09
0c
05
01
03
f7
11
00
fc
dd
f2
11
01
fd
f4
ef
ff
f8
f6
08
fc
02
08
04
06
fe
01
d3
ff
0c
fd
01
fa
01
09
ff
e5
fd
eb
05
01
fe
f6
04
08
b2
00
f6
f7
fb
03
10
01
fd
5d
f8
02
f9
00
f4
f7
0b
05
1e
ea
f6
0b
06
fc
05
f5
08
c8
09
05
fb
06
fd
09
fb
f8
a5
0a
06
fd
fb
fe
f3
fc
02
9f
fa
01
04
fa
03
08
f8
f6
72
fb
00
f9
fa
ff
04
02
f3
59
f3
03
fe
ff
f4
01
06
fb
0f
00
f8
fe
00
fa
09
03
fe
31
08
0b
07
f5
fa
f5
fc
07
27
0e
fa
08
06
02
f3
f7
03
d2
fe
0a
fa
0b
07
12
02
0a
93
0a
eb
02
02
ff
00
fb
02
e1
fd
fa
01
fb
03
f9
02
15
58
f6
fb
f9
fb
0f
0c
f5
fd
52
f3
06
f2
f8
f9
e5
0b
ff
75
f8
06
03
05
f3
eb
09
00
2e
0f
ff
02
08
fa
eb
fe
fc
c4
ee
ff
fd
00
01
f0
f2
f7
65
0b
f3
03
0d
f2
15
fa
fd
e8
08
fc
09
fa
ea
f0
06
ff
d0
fc
0d
f5
07
f4
f7
04
00
0f
0f
ff
f6
0a
f8
00
00
09
95
08
f8
08
f3
f1
05
03
02
f3
fb
fa
ff
fd
11
fa
07
fd
dc
0c
00
04
0c
02
fb
08
06
c0
0d
0e
f6
03
fe
df
fe
00
4d
03
0f
f9
06
02
01
f9
09
dc
0b
fa
f8
fd
07
0d
ff
0a
0f
f3
fc
fc
02
0e
07
fd
06
48
f6
fd
f8
fc
f2
12
fa
00
12
fa
02
fb
fe
fc
fd
05
ed
8c
fa
03
fb
00
04
f4
fc
00
25
08
03
fc
fa
0e
18
f9
04
72
01
10
f2
fb
fe
fe
05
fc
86
06
03
06
01
fa
f3
f4
06
bd
ff
ff
fd
fe
09
05
04
00
03
f7
04
f8
02
ef
fb
fd
fe
ba
f9
0b
f4
01
fb
f5
ff
03
d0
02
fc
00
fc
02
18
02
fc
f2
00
07
fc
f6
09
f9
ff
02
0d
ff
e9
00
f6
fd
02
07
04
8a
f2
fd
ff
05
00
fe
fd
00
2e
02
12
fa
f8
f8
08
0b
f8
c5
0a
10
04
0e
07
f9
fc
ff
9c
f5
03
f9
02
f0
07
f2
07
95
fe
f8
03
00
01
02
00
fa
8f
f7
0b
f2
fa
00
02
fe
f9
4b
08
04
03
05
06
fe
0a
fd
e7
06
01
11
0b
fa
fe
f5
f8
02
fd
f5
09
fb
0b
fa
fa
14
52
f7
ff
00
fd
f9
fc
06
06
05
0a
fd
0b
08
fb
fb
04
09
4e
f7
f3
fc
0c
06
05
f8
01
66
02
fb
0d
03
00
00
fe
05
3d
f7
ff
0a
ff
f9
ff
09
f6
f7
ef
fd
09
01
f8
fc
05
08
cb
04
06
f8
f5
f5
ff
0d
fb
b7
0e
04
fb
f8
ff
04
fc
f9
fb
04
00
02
fc
fc
ff
0d
fc
26
02
08
04
fc
00
04
09
05
f5
fe
03
fe
0b
03
03
fd
fa
63
07
fd
01
0c
fc
01
02
fc
4d
03
01
0b
f5
04
0b
fe
f0
16
08
09
fb
06
0a
04
f3
f9
d3
00
04
f9
f6
0a
f7
f8
f5
13
f9
03
fe
f1
0e
f8
f4
fc
0c
fe
ff
ff
0f
f3
0b
f2
01
c1
0c
01
04
02
f6
0b
fe
fc
5e
01
fe
ed
f9
f9
02
00
0b
d9
01
ff
f9
ff
f4
03
04
10
a6
08
01
00
fa
fd
02
09
fc
f7
03
04
f6
fd
05
ff
05
04
49
00
f7
02
fd
ff
0e
0b
fe
1e
15
fd
fb
11
05
fe
09
05
37
07
fd
f7
00
03
ff
07
f0
77
02
f6
04
0a
04
fc
fd
f8
fa
fb
0f
04
05
f9
f0
00
08
94
fd
fa
f4
f9
f3
fc
ff
0a
0c
f2
03
f7
fd
14
10
02
01
97
06
0b
08
05
0b
fe
08
fa
4e
00
00
0f
02
ff
01
0c
08
e4
00
ed
fa
fe
02
fc
fd
07
a1
fa
01
00
f7
f6
f1
ef
fa
e0
0b
02
0d
07
fd
f7
fa
00
8f
f6
ff
0f
fa
ff
08
01
07
e3
fa
ff
10
00
10
fb
f9
f3
31
ff
f5
11
05
fe
ff
0b
fe
69
02
fd
fc
fa
fc
08
06
00
ee
05
fd
f7
06
05
08
02
fa
16
05
f8
fb
fe
11
06
0b
fd
53
fc
f6
07
05
02
07
0b
f7
f2
ff
f5
0b
03
f5
ef
f3
08
8b
f5
07
ff
f7
01
01
fd
fc
eb
fe
0e
02
fd
fa
f7
10
fb
c3
00
fc
fd
09
f9
0b
f9
fe
e8
ff
09
03
f3
fc
11
00
f8
27
fe
01
fa
f6
f3
0a
0b
f8
18
f4
fc
ff
0b
04
08
04
05
1c
fe
f7
0a
05
11
fb
fb
01
20
08
0a
12
08
f4
f6
00
13
01
fd
0b
f4
fa
f5
08
fe
ff
bc
f2
f5
fc
f8
06
ef
fd
03
59
fc
0c
03
0a
f6
06
fa
f7
02
fc
03
f8
08
00
05
06
04
6f
f4
f5
fe
0a
02
f3
fa
04
a3
05
fb
04
fd
fb
05
0a
09
ed
04
05
0c
fd
0c
f7
ee
f8
d4
f2
fa
01
09
05
fc
f0
04
ca
fe
fd
09
07
fa
fb
fb
06
1e
16
00
06
f3
02
08
03
f9
de
fa
04
fa
fb
0a
fd
fa
02
d1
fe
fb
fa
f5
0b
f2
0a
f2
62
00
04
06
ff
f7
f6
01
fe
2d
06
f7
ff
e9
f5
05
fb
11
50
fe
05
f6
02
f4
0e
ff
f8
0e
02
fc
15
0d
fc
00
fa
fe
13
01
f2
02
ff
fb
02
fe
ff
66
fd
f4
09
09
fd
ed
f2
01
73
04
03
0c
0e
fa
f6
0f
f7
f3
00
00
03
fb
09
0a
05
03
75
fc
0d
f8
03
00
fc
ff
f7
da
05
f2
03
06
08
fd
00
05
8f
fd
f4
07
f5
f9
fc
f5
03
19
fb
0a
08
fe
ee
0a
f3
03
00
07
08
01
04
fe
f9
f8
09
fd
fe
f5
02
0f
00
f8
fc
ef
6e
ff
01
08
00
fe
01
f8
04
68
0e
fc
03
00
ff
fe
01
03
46
08
f4
04
fd
02
fb
07
f1
1f
f3
f1
11
02
fc
f9
ff
06
d8
f0
ed
f4
0d
01
06
ed
07
3c
0f
04
14
00
00
0d
01
02
ef
07
06
fa
f6
fd
05
f7
fe
9f
03
f5
f8
fb
04
fe
e4
fa
a0
fb
13
10
f6
01
0b
f1
0e
60
06
05
04
0e
fc
fc
00
08
b7
ff
03
ff
f9
00
07
fa
ff
9c
0a
05
fd
02
00
00
0c
02
9c
02
fd
0c
01
0c
04
f1
0b
45
03
ef
fd
f5
fa
0c
07
fd
46
02
fe
f5
06
00
f5
f9
f9
b4
0a
10
00
f7
07
ff
03
02
f2
f1
08
ff
fc
0b
03
fc
f4
64
14
02
f8
05
f3
f3
04
00
4a
fc
ff
03
fd
07
00
fd
03
5f
11
1e
06
f3
eb
10
06
05
5d
01
fe
05
09
fc
0c
f9
fc
fb
f4
f7
fc
05
fd
fd
08
f7
1f
f4
08
05
f7
fd
0d
fd
f8
6a
fe
0f
02
fc
f1
ff
f4
fd
e3
fa
ee
f4
08
f5
f8
f6
f9
5e
08
fd
12
05
fc
f0
0f
10
fc
01
f9
09
08
09
fc
02
ff
90
05
07
04
00
f9
04
02
fc
44
08
07
05
fd
05
fd
f9
02
6a
f9
f1
09
06
fc
0a
fc
fc
95
f4
06
f8
06
0a
03
fb
ff
56
09
02
f8
0b
01
05
f4
fa
b3
f9
06
02
f8
1b
ff
06
ff
d6
fb
01
0d
fe
f6
f9
04
01
43
09
00
03
0a
f5
f1
09
08
18
fd
01
fa
f4
05
09
0e
03
c7
02
f0
fb
fb
06
f7
f7
f1
3a
fa
0b
06
09
01
f5
fa
00
e8
02
0d
04
fd
08
fd
ff
fc
e6
04
fb
10
05
fd
f8
ef
02
99
fb
f7
f9
09
0e
fe
f6
0e
0b
f3
fa
07
10
f2
04
01
14
da
00
f5
04
f6
0b
07
07
fc
c2
f4
01
fc
fe
06
f7
fe
05
7b
09
f7
02
ff
05
fd
07
f4
f0
f8
f2
f6
fa
06
01
f7
05
22
00
04
fb
05
f8
05
0b
04
6c
f9
0b
0b
fc
fd
03
00
fe
41
fc
01
13
00
10
04
fd
fc
d1
0c
fc
fc
ff
fa
0a
fa
f7
96
00
f8
f4
02
02
03
09
13
23
fe
fe
0d
05
fd
fa
f9
f7
18
f8
03
03
03
01
f9
01
f9
b6
f7
f5
f3
ff
00
01
f5
04
47
06
01
fb
f8
05
fc
04
f6
31
01
ff
ee
02
0b
fd
01
fc
1c
00
01
f5
00
11
00
ff
08
62
0e
01
f7
ff
f7
ff
08
ef
5f
fe
05
0c
fe
fd
f5
02
02
ed
f5
fd
fe
fa
02
fe
0a
ff
66
ff
03
02
07
0a
ee
01
fd
c9
fe
fa
fc
f4
05
fd
0a
01
5e
02
00
08
fd
fb
f9
ff
01
18
f1
03
f8
fc
ff
07
ff
f9
85
f5
f0
f5
fe
0d
fc
07
09
00
12
0a
ec
fe
00
fe
0c
07
c7
f7
0f
f4
05
f1
02
0f
00
24
f1
02
ff
05
f8
f4
fe
03
fa
fb
01
f1
03
05
fe
03
f7
a6
f0
02
f7
07
04
fb
02
03
ea
02
13
06
00
f8
f3
05
00
d4
00
06
fa
f7
06
05
f0
f3
ea
fc
f4
ff
02
fc
f5
ff
07
63
00
fe
fa
07
fa
07
fe
fb
d3
fa
ff
0a
13
01
0c
f6
ff
0e
06
fe
01
05
fc
fa
08
04
e4
02
08
fb
f4
02
fa
07
01
ff
02
fc
05
0c
f9
0e
ff
fc
07
fc
ff
f2
fd
03
01
f4
08
1c
ff
ff
f7
f9
01
fe
fc
04
68
02
ff
fb
04
f7
f5
fc
02
ec
05
0f
ff
05
f9
01
02
ff
65
06
ff
04
0c
fe
00
f7
02
b2
08
07
0c
f8
02
0b
fc
0c
74
f7
01
01
07
0f
fe
00
03
12
fe
ea
fd
ff
f5
00
04
f5
d6
fe
fd
08
05
00
f9
07
08
71
05
fd
fb
03
fc
03
fe
00
45
03
fa
f9
00
09
f7
ff
fa
60
00
fc
0b
03
fe
02
0a
0b
b7
fc
08
0b
f7
f8
06
11
00
d8
f6
03
fa
fe
f7
01
fe
fc
06
00
08
05
fe
fd
f6
00
07
bf
fb
fa
07
05
03
00
05
00
d1
f6
ff
f7
fe
06
00
fe
fd
09
f9
10
ec
01
fc
09
0e
f7
a8
f3
fb
f2
0b
ed
01
fc
fe
67
12
07
0b
05
fc
00
f6
09
8c
08
14
fa
f3
07
16
15
09
bb
00
12
fe
fc
01
fb
00
f7
49
06
05
03
04
04
f8
f3
07
d5
ff
01
eb
01
fd
ff
06
04
98
ff
03
01
f9
f6
f9
fd
fe
5f
f9
fe
09
06
09
ff
08
0f
eb
ff
f6
02
03
04
f9
fe
ff
e5
f8
f6
05
fc
06
06
f8
f8
e8
06
fc
0c
fd
04
00
fb
fb
32
0c
ef
fa
08
04
f3
01
fa
ba
09
0a
06
01
01
0b
f4
0e
55
06
fc
f8
f8
fd
fa
01
01
2c
01
f2
06
0a
fb
01
02
02
50
ff
0e
0c
00
0f
06
fa
fc
f2
f5
13
00
f8
f4
fd
04
f5
85
ff
fd
fe
0e
f8
f4
04
f2
f6
01
03
fb
fa
01
fc
02
06
a3
f3
12
07
ff
0e
fb
03
02
58
ff
eb
05
0a
f9
10
03
03
26
03
f7
ff
06
ec
f8
f8
05
cb
01
ff
f7
fb
ff
01
09
f4
75
f9
03
01
01
f9
03
03
fd
b5
f1
fd
05
f2
05
f7
09
0b
07
f0
f8
02
f9
fa
ff
fe
ff
a0
08
06
f9
04
f7
f3
ff
07
61
11
fa
f4
f9
fa
fe
ff
fb
4b
fe
07
00
f3
05
fa
f9
0e
58
06
f8
f3
f4
fc
07
0c
f6
b1
02
0a
ff
09
10
f4
f8
fd
4a
06
f7
f2
02
03
0a
00
08
bf
05
fb
08
ff
07
fe
f9
f6
1d
0a
09
fd
0b
05
f2
fb
f9
0d
f8
02
03
02
00
01
09
f6
d9
fe
0c
ff
fc
fb
fc
ee
fe
d3
04
04
01
03
f9
01
fb
04
3b
fd
03
03
03
0c
f3
01
03
a4
08
12
01
fa
ed
02
f7
0b
43
0b
05
03
fc
06
f6
00
11
e1
07
f9
fc
02
fa
0f
fb
09
1f
07
fe
ff
06
0e
fe
00
0c
d2
f3
fe
f8
f3
f5
0f
00
05
5a
0e
06
09
09
f3
06
01
03
11
fc
fd
05
f0
f8
00
fa
02
14
ff
00
08
0c
fd
03
06
00
a6
0b
ff
fe
f4
01
f8
f7
03
f8
04
08
fd
07
fd
f6
ff
05
40
08
fa
03
10
ef
0c
fc
05
90
ff
fc
08
f3
07
05
e7
03
25
02
fc
fe
05
fd
0b
f9
04
f1
ff
ff
0b
f9
0c
05
01
ff
49
03
04
01
fd
19
fe
03
f2
f8
ff
00
f8
03
03
06
fb
fc
ef
fb
f5
04
06
08
01
f7
09
07
fe
fa
03
fd
0a
f3
fa
f6
b1
03
08
ee
ff
0e
02
01
04
aa
04
03
02
f8
fd
fa
fd
fc
cf
fc
0b
02
ff
fb
06
06
fe
e4
ef
f3
04
03
f7
09
f7
09
51
00
fb
05
fe
fb
ff
02
06
f8
f8
fb
06
08
06
05
fe
fb
12
08
09
05
00
fb
08
11
f8
54
ff
ff
04
f7
03
fd
f9
04
34
12
06
ff
f9
f3
10
09
01
d5
fd
fc
0b
01
00
03
03
fc
79
01
01
fd
04
f8
eb
fc
15
7c
07
03
02
06
0c
fc
0b
04
fd
09
02
fe
fb
f8
0d
00
04
da
fa
f9
fd
fb
fb
05
04
01
9e
fb
fb
05
02
05
fa
0e
01
13
03
ff
04
08
f6
fd
fb
00
9a
03
f8
f6
0a
06
f6
08
04
0e
07
05
00
fa
06
fb
02
fb
05
09
11
fc
f9
fc
0b
fa
03
2c
06
fd
03
fd
ff
f9
01
fa
0e
ed
fe
05
fb
f8
01
00
11
ae
16
07
02
0d
f9
03
fd
fa
45
f5
06
f7
06
11
f3
fa
10
c2
f2
00
04
fc
ff
fe
01
09
b1
fc
ff
01
0f
04
f4
06
fd
79
ff
08
0d
f8
01
09
f3
00
9f
1b
f9
07
08
05
f4
ef
00
d8
07
04
05
fb
05
07
fb
08
75
07
fc
f3
08
fd
03
f7
f5
33
01
f3
f9
02
f4
00
05
fb
e4
01
fc
f9
05
0b
fc
f3
f7
62
06
f5
03
06
08
0a
fb
fd
1e
fd
f9
f2
f6
f2
06
07
fa
53
f4
02
fa
fc
02
ff
0a
0b
53
0f
fd
04
f6
fb
ff
f9
ff
fd
03
0c
f7
06
09
f7
ed
f9
aa
f9
05
f0
04
f5
ff
08
04
4b
08
f7
08
fe
02
f3
02
07
95
e6
f7
08
0e
fb
fe
ff
fd
51
00
10
03
02
fa
fb
f6
ef
2a
07
00
06
0d
f4
fd
06
ec
78
fa
06
0a
fd
0a
05
f3
f2
d9
f6
08
f2
f9
02
0f
fb
09
33
f1
04
07
0a
00
fc
01
08
4f
07
02
f6
fb
08
f9
f2
fc
bb
fd
fe
11
fb
01
f7
02
ff
c8
f4
02
11
09
02
fb
04
00
0a
f1
04
e9
f2
fb
fa
05
ff
1d
08
f3
fe
fa
f6
09
01
07
4a
f7
04
fc
02
fb
07
fd
03
c3
05
03
f4
02
02
fb
03
07
5d
01
fa
0b
01
0a
ff
0b
02
fa
fd
fb
fd
fe
fa
fd
fd
f8
28
fa
fb
f9
f8
f5
ff
00
09
da
eb
ef
09
0f
16
0a
f5
fa
18
04
ff
0b
0a
f9
00
fc
fd
d1
13
10
01
03
04
04
fc
09
c4
f5
f7
fe
fd
04
03
fd
fe
d7
03
0c
0e
f9
0a
04
ec
06
a9
f7
f8
00
ed
06
f3
05
08
62
01
05
0a
07
01
f7
0d
fc
8a
03
00
06
02
fd
04
f7
0c
5c
fe
fa
08
0d
f9
00
fe
16
76
f9
0a
08
f6
0f
fa
fe
02
1e
01
05
0b
02
f0
f5
fa
fb
9d
ea
f4
f9
08
ff
0d
0f
fd
39
06
0b
fb
fa
06
02
07
ef
cf
fa
fb
02
f5
0d
ff
06
0b
09
f7
ff
05
f7
09
ff
0b
f1
2e
08
0b
f6
f7
f7
fe
0b
01
09
fb
02
03
f7
ff
0d
fe
f7
d0
02
00
fc
ff
f2
10
0e
0e
8e
05
07
0c
fe
fe
fb
f4
07
ca
00
05
fb
f1
00
fc
06
08
e9
f1
fa
fe
fb
fc
05
1c
fd
ea
f6
f5
0d
f9
00
f8
fa
09
26
fb
f4
f8
02
01
11
03
17
6d
fa
06
ff
f8
f8
0d
ff
ff
97
f4
06
f3
03
04
02
05
0a
b3
08
02
08
08
05
0f
0f
fa
a9
0f
06
05
02
f6
05
ff
0e
e5
fc
09
04
03
12
fe
ff
f4
04
08
0e
05
07
f2
ff
f5
02
10
07
fb
06
08
08
04
fc
fa
bd
03
04
08
fa
f0
11
fc
0a
bb
05
fe
08
fd
f5
fb
04
06
cd
04
fd
fd
00
04
0e
00
02
3f
05
0a
01
0a
02
fa
fe
fd
ca
f6
0b
fd
00
f8
f7
07
01
d0
ff
ff
f7
07
04
ef
fb
0d
2c
fe
0b
0a
f4
08
0e
07
f9
d6
09
0e
01
05
0b
fd
ff
03
83
01
ff
f9
04
ef
0c
04
0a
b4
10
fd
0e
0b
06
00
ff
00
db
f4
02
08
fd
0a
09
0c
0f
44
01
08
05
fa
00
fb
fe
03
e8
08
ff
00
01
fb
09
fe
f8
16
eb
ed
0b
fd
02
fa
f8
04
20
fc
05
01
07
03
0a
00
ff
d5
fd
09
06
fa
0b
f6
07
01
15
06
13
01
f3
0d
0c
f7
fd
dc
fb
12
fe
f9
fc
05
07
06
a2
0a
04
f6
00
09
fa
f9
f9
d6
fb
f6
fd
fb
fa
0c
04
05
d9
f5
0c
06
03
04
fe
01
05
fa
f7
f4
09
01
11
f9
fd
06
89
fc
fb
02
01
09
fa
02
fe
b5
03
0f
ff
f4
02
fc
fd
04
59
02
fd
00
f8
06
fd
06
fe
a5
03
0a
04
fb
05
07
fe
00
03
ef
04
02
fa
09
07
fe
fa
53
f6
12
00
0e
01
09
f9
06
c4
ff
0a
fe
07
ff
07
09
04
4d
fe
06
08
03
0b
f3
fb
fc
d6
09
01
0c
ec
f4
04
0a
11
24
0c
05
00
09
07
01
06
ff
22
f6
02
ff
f0
ed
0a
04
08
d0
01
03
fb
ff
02
00
05
00
58
f5
08
08
03
fa
01
f9
0a
30
f9
ff
fb
08
e7
02
09
fa
ff
03
02
14
f7
11
12
ff
02
cb
0a
03
f9
fe
08
f1
0d
05
be
04
fa
0a
f1
05
fe
05
01
9d
02
f5
fb
00
04
f0
0e
fc
a1
ff
09
14
f9
02
f8
fd
07
2d
01
fe
f9
08
0a
fb
04
03
60
f3
f6
08
02
10
f6
07
07
17
01
fd
04
f5
07
f5
fd
06
3d
f7
0b
f8
03
08
ff
fc
f9
5a
06
fd
fa
05
f6
fe
ff
f4
f9
0b
0c
01
fb
fc
fc
03
02
d0
f5
fa
f7
03
02
f8
07
03
2e
00
04
f9
fe
03
04
03
f1
8d
fc
05
fc
fd
0d
fc
08
04
fc
01
01
0d
ff
f7
0d
05
f6
4f
f6
fa
0c
06
02
fa
02
f1
b1
f3
f8
00
f5
09
14
08
01
3d
0c
fb
f7
f2
fd
04
fe
f7
da
06
04
fb
0e
fb
f0
00
f8
3d
ed
02
02
f3
01
ff
fd
06
d8
f2
fa
fb
fc
05
11
0c
f9
70
fe
00
09
fa
ff
03
01
f7
18
f6
08
01
ff
fb
01
02
f1
10
f2
08
f8
05
fc
00
fd
ec
0c
f6
03
06
05
f9
00
09
07
e6
08
01
02
06
ef
01
00
07
26
f9
fe
0c
09
02
07
fd
09
ae
0f
fa
fd
fe
05
00
0e
fc
b0
ff
09
11
06
05
0a
f6
08
64
08
fd
05
01
fb
08
05
02
00
fa
f9
13
09
0f
f8
fe
fd
d3
0a
0a
01
fc
0d
fd
01
f8
22
0b
00
06
09
f5
fe
03
f8
30
fb
06
00
fb
fe
fd
01
0b
3a
01
00
fc
fc
06
fa
f6
ef
e9
f7
0c
fc
f7
fd
05
01
00
a6
fe
f5
fc
08
fb
04
f8
01
32
01
fa
fd
03
f9
00
07
08
12
03
fc
f6
06
f8
09
fd
f7
03
f7
f9
00
05
f4
03
fb
04
c2
f1
04
f5
02
f9
02
07
11
64
fb
ff
ff
fe
06
06
f9
fe
38
05
fc
fb
03
16
07
ff
0a
35
00
04
0b
fc
04
0a
fb
02
de
ff
0b
04
fd
00
0b
03
01
99
fa
07
01
01
fb
fc
0a
fc
fd
04
f3
02
06
0b
f6
fc
08
7d
01
f4
0b
ff
08
09
f8
00
36
06
0b
14
08
01
03
03
f3
0c
f9
f6
07
06
ff
f1
f8
f8
d8
01
f8
fa
fe
07
f9
08
ee
1f
0a
05
14
fa
f7
06
fa
03
73
ff
07
ff
00
f5
06
01
f1
60
fc
09
10
01
fe
06
0f
ff
8a
07
f5
08
05
02
fd
fe
06
de
04
06
00
03
f3
ff
00
fe
d2
00
0a
f4
fe
fc
03
00
07
18
03
fb
0e
ff
05
01
ed
0b
63
03
0a
f8
f5
f5
f8
04
fe
a6
08
03
04
fe
07
fd
fc
03
39
f7
f2
ec
05
06
f7
05
00
a3
03
08
02
f9
09
05
02
05
4c
04
fa
08
01
02
ff
09
0b
af
fd
f1
03
08
03
fc
02
05
13
15
fe
0b
fe
f9
06
05
06
f5
f5
fc
fd
fa
fc
07
fa
f9
a8
01
0c
fd
01
08
ff
00
0a
57
02
fd
fb
09
fa
03
fa
f6
37
08
08
fe
fd
0b
f6
07
05
9d
ff
0e
fd
f8
05
08
fb
00
af
0c
fe
01
07
02
f6
0b
f9
ea
fc
0e
f9
fe
fb
0a
04
fb
4d
06
04
00
fb
0a
01
01
ff
3d
03
05
ef
02
fc
09
fd
fb
bd
02
03
0a
05
ff
fd
fd
07
8d
fb
f4
07
0a
01
f5
01
03
da
f4
fd
fe
08
02
06
00
f7
5e
0a
01
ff
02
0f
fd
fd
01
4e
0c
04
06
ee
f8
ff
08
fe
1e
f8
f8
08
fe
0c
fb
05
04
54
03
03
f4
02
f9
06
f9
08
bd
0c
fd
fe
08
fb
0c
06
0a
e1
fa
02
04
0e
14
0f
fc
06
a1
06
ff
01
0b
fe
05
fd
f5
09
f1
f9
ff
00
ff
f7
12
0a
3d
00
fa
fe
fe
05
f9
0d
fb
ea
fd
fd
07
05
f6
04
fd
01
c1
ff
f3
fd
05
f9
08
08
f9
35
02
06
fe
01
01
fa
09
05
34
0a
f9
03
03
00
f8
02
ed
26
fc
01
01
19
02
f2
f4
08
a4
f9
01
01
f5
f7
0a
fe
06
d8
f5
0c
06
f7
fc
f7
fb
04
eb
fe
fc
02
06
f6
0f
02
04
e5
f7
02
06
fc
12
f6
03
00
9e
02
00
fa
f7
0d
04
f6
fa
d9
f9
fb
03
0c
f4
f5
0f
0b
d4
f3
fb
fd
fb
01
f8
f7
07
41
0b
0c
04
06
03
eb
05
f3
3b
f5
fe
04
f3
05
06
fa
f3
a5
0f
0d
03
0d
ff
0a
fe
fa
cc
ff
07
03
01
03
05
04
fe
b3
06
0a
08
0a
fa
01
fd
05
0a
fc
05
08
00
fe
00
00
05
4e
06
03
fd
06
f3
0d
00
04
a8
fd
00
f5
ee
1b
02
f7
ff
04
1a
fa
ff
05
f3
03
ed
07
92
f9
00
fd
fd
ff
f1
f8
0a
e7
f5
02
f9
03
f7
0e
f4
01
56
03
fe
08
04
0b
0b
fd
0a
7a
fd
01
02
ff
ed
0b
06
04
e9
f4
ff
fe
fb
07
01
f5
f8
ae
fb
15
12
fd
f0
04
0b
fa
a8
e3
00
0d
0d
fc
06
07
fd
8e
fe
fd
fa
fb
0d
07
f7
f2
4d
09
02
09
fc
f1
0b
08
09
aa
f8
f8
04
f9
fe
00
0b
fb
dc
fa
02
0d
fd
fe
11
02
0a
69
fd
f3
ff
fa
11
05
03
fe
22
f7
08
ff
03
04
08
fe
fa
d0
11
0c
04
f2
00
04
f3
02
27
05
01
06
f8
01
fe
f2
f7
e4
fc
fe
ef
02
00
f1
00
0a
72
f8
01
fb
f7
fc
f4
09
01
ea
f9
fe
f5
02
06
ff
fd
0e
c8
0c
03
fd
fe
0e
f6
f8
04
64
f8
03
ff
ff
fe
fa
07
fc
d7
f1
ff
00
f7
00
fe
08
0b
58
fb
0a
f3
fb
fd
03
fc
f8
d1
fa
04
ff
f9
fd
fa
fe
fb
4b
05
f8
08
fa
fe
11
07
fe
58
f7
f9
f2
fd
fd
fc
fc
05
49
fc
ff
f9
fb
07
ef
f4
07
bc
0d
06
04
02
00
04
f9
02
40
fb
f5
fb
ff
06
f7
f1
fc
53
ff
09
04
ff
0c
f2
04
f9
63
02
fd
15
01
fc
09
0d
fd
f9
00
03
04
0f
f9
04
0b
02
e2
fe
fd
00
f4
03
fd
03
ff
e8
0e
fa
02
f7
0d
01
01
fd
f4
f7
f3
05
ff
06
f9
0f
01
34
05
02
09
03
02
fc
f9
08
59
ed
0b
f9
02
f8
08
fe
03
b1
08
07
01
0b
f6
04
0a
08
de
07
fe
fd
05
f8
f8
f2
ff
b5
0b
fc
ff
f8
0c
00
ff
f4
b8
fb
0b
0b
fc
0e
fd
f6
02
65
f1
12
0c
fc
10
fd
f9
fa
7a
ff
09
01
0c
f1
f5
01
fc
68
08
fa
03
0b
f9
06
02
00
da
f0
0a
05
04
00
04
14
01
e4
fa
fc
02
00
f4
f4
12
02
b3
01
04
0c
02
0d
03
03
06
39
fa
09
fd
0d
0b
05
01
00
97
0a
ff
ff
0d
f8
02
fa
00
f6
05
fa
f5
fb
f8
05
f8
0f
31
f4
0c
f8
09
0b
eb
f2
03
ae
03
06
ff
fd
0a
02
ff
00
0e
09
ed
ff
02
f9
f4
ee
fa
2e
02
02
fa
f9
f9
fc
fe
00
3f
fa
0a
fb
0b
fb
03
02
fa
67
09
ff
11
f8
fa
ed
09
fc
11
fc
03
fb
fe
f4
fa
ff
f8
c0
00
fe
fc
f3
fc
0a
fd
00
bd
07
fc
fd
ff
08
01
f9
01
95
fc
fe
06
06
f5
fe
0a
fd
17
f9
fb
0a
fc
f6
f5
02
03
c0
f6
ff
07
00
07
01
02
fc
21
fa
00
09
f8
07
04
21
02
94
f9
fc
07
07
01
06
f4
06
43
06
10
02
08
f4
ef
f4
0a
50
06
fc
fc
fd
fa
fe
f0
fc
26
fb
fc
03
f9
ff
01
ff
0f
07
04
ff
08
0c
04
10
fc
fa
64
02
01
00
05
00
fd
04
03
49
02
02
02
f9
00
fb
05
09
6f
07
02
0a
0a
e5
02
04
03
63
0f
f9
05
0a
f5
0f
f8
f5
b9
f9
fe
08
06
0d
fc
f0
06
00
00
00
01
0d
07
08
f8
f4
4a
f7
f4
f5
fc
ec
00
f4
03
a4
06
04
0b
fe
fd
02
08
04
94
00
06
fa
fe
f7
16
fe
fc
52
02
f9
0e
0c
04
f8
02
0c
c8
06
05
07
00
05
09
06
ff
e1
05
02
f9
01
09
01
0b
fe
42
fe
fc
e8
fc
fa
ff
fe
f9
30
06
ff
fa
f7
09
ef
fe
fb
2d
08
fd
fa
0c
fe
07
fc
04
43
0a
ff
fb
01
fd
fb
fa
01
7a
f1
05
01
ff
01
f3
0a
05
6d
f9
f7
01
fc
fe
0e
01
fa
ee
fd
0a
03
f2
09
06
00
fe
5c
07
f4
f0
04
0e
04
0d
00
a3
00
01
fe
ff
01
f6
06
fb
38
03
09
fd
f8
04
f5
0c
f9
71
02
00
02
03
f6
03
f7
02
50
00
09
02
fe
fd
f5
06
09
d6
f5
03
f6
00
0a
04
13
fc
25
02
03
02
ff
fb
f7
fd
0a
4f
f7
02
05
fb
f5
fe
f7
fd
fb
fd
fa
0a
04
08
00
05
f9
b7
0a
f8
04
02
0a
ed
06
f7
87
0b
fa
fc
08
0a
fb
09
f6
00
0b
02
f6
0a
0b
02
09
f5
50
09
fb
01
ff
01
fa
03
05
21
f0
09
fe
fe
ff
05
04
f6
6e
ff
ee
00
00
f9
0d
03
02
66
ff
05
f9
f8
17
02
0f
fb
57
fa
00
f6
07
02
05
06
fb
e5
06
fe
0e
f6
0f
01
07
00
41
f9
07
ff
f3
03
ff
01
03
99
fa
f5
0d
07
09
04
10
f6
74
04
05
fc
fe
03
f7
05
f5
18
f7
04
fd
ff
f6
02
08
0a
f0
06
00
06
01
ff
ff
f8
fb
5e
fe
02
f0
fe
f8
0a
ff
07
23
01
05
08
fd
02
01
00
f7
17
f7
f9
0e
07
01
0b
fd
0a
bb
f3
03
f7
0b
fc
fa
ff
08
eb
fd
0c
04
0c
08
fe
f6
0d
c2
03
fc
fa
01
fa
fc
00
02
7f
fa
fe
fd
05
06
ee
f9
03
b1
fa
00
04
ec
00
03
f8
06
3a
03
02
0c
fd
f9
f7
09
03
a6
f7
fc
f3
fe
f8
fc
07
f3
db
01
05
09
ef
03
fa
05
04
06
f9
05
01
ef
00
fe
f5
ef
f6
06
05
0d
0e
10
0a
f8
02
9b
ff
f9
03
09
f3
f8
08
fd
8a
fb
f7
07
00
06
ed
f6
f1
17
f7
07
10
fe
01
f7
03
05
17
f9
06
fa
04
fb
06
0c
0a
cc
f9
04
04
0b
04
01
0a
f4
94
0e
01
f9
f9
04
f2
02
02
23
04
00
fd
ff
ff
f8
f7
03
41
f4
fc
f7
f8
03
fb
ff
08
5c
0d
02
0c
0a
0b
0c
f7
fa
c0
f4
07
08
fc
f8
03
f6
fb
b4
02
05
f2
03
02
0d
f5
0d
f1
07
01
15
0d
09
f4
f5
f5
e0
06
0a
11
08
f8
f9
fe
f5
18
00
0a
fb
03
f9
01
10
fc
9e
f4
08
0a
f5
f8
00
f6
02
62
fa
fb
f7
00
fb
f8
f2
f6
f0
06
01
ff
04
fd
04
fc
f6
6d
fe
08
06
fb
00
04
f7
07
74
02
fb
05
0f
f6
05
01
05
5b
06
07
09
01
f5
06
ff
04
96
0d
fc
05
01
05
02
00
02
ec
05
0a
f7
f7
00
02
f6
fd
e7
01
f7
01
f1
0a
03
03
00
2e
f9
f5
f7
08
03
00
f7
07
11
f6
00
f1
f5
00
0b
11
03
50
0b
fa
08
fe
06
08
02
12
ab
0a
f6
fc
05
02
04
ff
fe
fd
fd
05
0d
f9
02
fd
04
06
8b
ff
f1
ed
01
03
fd
f4
f4
ce
fb
0c
f5
f5
14
fb
0c
1a
db
05
04
03
f7
fb
05
0c
ed
91
05
08
11
f4
01
fc
03
f9
67
f8
08
fd
06
0a
ed
f5
fc
16
09
02
08
f6
03
f4
0d
f9
1d
fd
08
03
f7
fb
fc
05
ef
15
0e
01
fb
03
08
f0
f0
02
cc
12
fd
04
fe
f7
02
ff
f7
d0
f9
04
03
06
f9
02
02
07
24
f8
00
00
02
05
f9
05
fd
10
ff
00
ff
fe
07
03
f8
f9
3a
fd
06
fe
00
0c
08
06
00
0e
14
07
07
fc
fb
0b
08
fc
56
00
01
fb
fc
ff
0c
fb
0c
da
e7
ff
09
f4
11
fc
09
0a
f2
fe
0a
ee
ff
f3
f6
0d
04
ff
0e
00
ff
0f
fe
0c
12
09
3c
f4
f8
04
05
f2
00
00
06
f5
fc
f7
fd
f8
10
02
05
f7
32
f3
01
f9
f8
09
fb
f8
f8
ad
08
0a
0f
03
f9
fb
f9
fb
23
04
01
0a
09
fd
07
f2
f4
3a
f7
0d
01
06
f6
fb
f9
09
19
07
00
0b
03
ff
ff
f9
01
54
f6
08
02
01
06
fa
f3
0a
9c
fe
00
01
fb
