f7
05
05
fa
22
0a
08
11
00
02
08
fe
fe
a4
fd
03
08
07
fc
fd
0a
06
45
08
ff
ff
02
0a
ff
fc
12
b6
fc
ff
f7
07
f2
05
fc
fc
f2
01
fa
ec
01
05
02
fd
01
4e
0d
07
fb
fd
07
ff
f3
01
7e
fe
fd
ff
ff
07
fc
04
02
32
01
0c
f6
fb
f3
fd
fe
fd
9d
fc
f7
05
ff
06
09
03
02
c2
07
0a
01
f7
06
fb
f8
fe
ac
fb
06
fb
fe
07
03
06
00
93
fe
fd
f2
01
08
05
03
0a
04
00
fb
f6
f8
01
fe
fb
fe
54
fc
08
07
05
02
f6
fd
f5
dc
03
03
f5
07
ff
f5
02
fe
b1
f9
fa
fb
09
f6
fd
fe
fd
bc
0c
fc
0d
f8
fd
07
00
01
ea
09
04
08
f4
ff
fa
05
f5
f2
ff
fb
fd
0b
0a
f5
fc
02
62
fe
05
07
0b
11
00
0c
09
bf
f3
0a
09
02
f4
f7
ff
fd
f3
00
0a
fa
0f
02
fc
fc
01
96
03
01
0d
0a
17
04
09
fb
03
f1
04
0c
fc
04
fe
f4
09
18
fe
fb
fe
fd
03
03
f9
0e
b5
ff
fb
02
ea
0e
0b
f4
ff
d0
09
01
fb
fe
fa
04
fa
ff
71
05
fa
03
f8
00
01
04
08
c9
02
00
f3
fc
fc
03
f5
02
10
03
01
01
fc
e9
02
fa
fc
0e
0d
fa
01
08
11
fb
0a
07
8e
03
0a
f1
00
03
f9
05
05
da
fb
01
f6
09
fc
f0
0c
02
96
f4
00
f6
04
09
fa
fc
03
2e
fe
00
fd
0a
fa
0a
f9
fe
ed
05
0e
03
f1
fe
06
05
08
12
04
f6
fc
f6
fc
fc
0b
06
29
fc
02
09
06
fb
01
02
01
15
0b
09
fe
ff
01
07
fa
fb
cc
f8
00
0a
f6
0c
fa
00
01
61
07
00
05
fb
fb
00
fd
0a
15
fb
01
05
05
04
fd
f1
02
be
02
f7
03
ff
02
00
04
f8
94
01
02
f3
fd
ef
f8
ff
f5
eb
fb
09
fc
f4
ff
0e
ff
fd
11
f4
fa
fd
ff
02
f7
fc
0a
ef
fc
06
fa
f8
05
04
01
00
9a
0c
fb
fa
00
00
07
f5
06
cd
00
05
01
02
09
f5
07
00
1f
f9
00
fd
09
fa
02
ff
05
24
03
fb
f5
fa
fd
ff
f9
01
59
f5
ff
06
0c
03
f9
f9
05
2b
fb
08
f9
01
03
00
06
00
5c
19
fa
0c
05
fe
04
f5
fd
c9
fd
0a
f6
fc
0a
ff
02
fc
f3
00
ff
fd
06
fa
03
ef
f5
3f
f6
03
06
01
e9
0a
f7
fe
c3
ed
0d
02
07
05
02
06
02
d9
09
01
fe
fe
08
03
05
ee
5d
f8
02
f6
ff
0b
ff
02
02
30
fb
01
0c
03
07
fe
f1
fd
23
ff
fb
05
f7
f8
00
08
00
d4
05
0b
01
08
ff
fa
00
07
29
f9
00
fa
00
17
f9
07
02
01
00
ee
ed
f7
08
f9
07
fc
9e
09
06
f3
01
0d
02
06
f9
c0
03
ff
ff
06
fc
01
02
0c
37
f3
f6
0a
07
f1
03
fb
00
8b
07
0d
fd
fa
ff
03
fb
fc
8d
fc
0f
0b
fb
fd
06
fc
05
67
f8
09
00
f9
fc
04
f9
f7
47
03
fd
0f
09
07
04
00
00
48
fc
fa
fa
f1
ff
05
03
fe
fe
00
00
0e
fe
f9
fe
f6
fa
55
fc
f8
0e
fb
fd
fe
03
fe
b7
07
04
f8
08
00
02
f8
fb
48
fe
00
01
05
fc
fd
0d
f9
df
05
0e
fb
04
05
0e
ff
03
cb
fb
01
03
fe
fe
fb
fb
04
15
04
fb
f2
07
fe
f9
fe
fd
12
fc
ee
01
03
f8
f6
03
08
d2
0f
fe
fc
05
00
0a
fc
fe
a0
02
07
fa
fa
ec
04
09
04
d0
fe
0a
fd
05
11
05
04
fe
ca
fd
02
f9
f7
f7
08
02
0a
fb
f4
ff
04
f4
02
06
09
06
ac
fa
f8
12
09
04
fb
f9
fc
6e
04
ff
ff
fb
f8
0d
04
f6
19
f6
00
07
0a
fd
04
fd
ec
c2
f3
0d
f1
fa
fc
f7
ff
06
4b
0d
04
ff
0a
fe
ff
f5
fb
66
04
01
f2
01
06
03
fc
04
b6
03
f9
04
04
fb
fb
03
f4
4d
09
09
06
07
06
05
07
00
ac
f9
fe
fd
04
08
00
02
ff
2e
06
ff
fd
05
fb
fa
f8
fd
6c
f8
0a
ff
fd
04
fc
f3
12
af
fd
0d
fa
fc
09
fb
f6
07
06
f1
0d
f5
00
05
f7
01
01
28
00
f8
f7
08
fa
03
f6
11
be
fe
fd
02
ff
01
08
f7
fe
fe
11
06
fd
0a
0e
ff
05
fd
21
02
fd
f9
0b
05
f7
06
ff
a5
07
0d
02
06
09
f2
06
00
94
fc
fd
08
05
00
fd
f8
02
cb
04
01
f7
f3
fc
fe
00
10
67
05
05
fb
fc
f6
ff
fb
00
59
04
fd
fb
03
02
05
f3
ff
0e
04
f7
f9
fb
04
09
ed
02
ea
01
ff
05
08
02
f7
fb
03
fa
f1
06
f8
09
fc
ff
08
04
24
06
fa
06
14
05
01
19
f7
c6
05
ff
0e
f7
04
fd
f4
fc
0b
f8
fd
fb
f7
fd
03
0e
07
16
03
02
ff
0a
0e
fc
f3
04
e4
10
f1
0e
02
fe
f3
fb
08
bd
f8
03
f6
08
01
07
09
ff
cc
05
fe
05
0a
f6
f4
f8
05
19
fd
0d
f9
01
02
fd
02
fc
be
f4
fa
f1
ff
07
ff
f7
01
37
03
00
07
fb
05
07
fd
05
35
0b
ff
01
ec
fb
03
09
fa
eb
06
03
fc
00
09
01
06
ef
ea
fe
03
05
04
06
fd
08
f7
19
01
0a
ff
07
02
f7
f8
07
bb
03
ff
fd
f5
03
07
fd
f0
b5
01
04
07
ff
fd
f5
f5
13
fe
f9
0e
ea
02
02
02
fd
05
ab
09
fb
f7
08
01
f4
fd
03
3a
f7
01
01
0a
ff
f7
01
04
b2
04
fd
f9
02
f8
05
06
06
c4
fa
04
fe
fc
09
0b
12
04
6e
fb
fa
f9
00
fe
00
03
fa
28
12
0b
f2
fc
0b
fc
f9
fa
38
02
f7
03
07
ff
fd
03
06
12
02
02
06
fa
f9
02
fb
0c
23
ff
ff
09
08
f8
05
06
f8
9c
0c
fd
fe
fe
06
04
00
0b
8d
fd
08
fe
0b
fe
0a
fd
01
5f
fc
03
f6
ff
04
06
0e
f7
24
05
f8
f9
00
02
04
08
09
d6
fe
fc
01
08
07
00
0a
13
2c
f8
0d
f2
01
05
f2
fa
05
5d
fd
03
04
00
f8
fe
fe
0c
d2
00
00
ff
fa
fd
ff
f5
04
65
02
02
ff
fe
06
f7
02
03
2b
ff
fe
fc
0e
02
f9
fa
ff
c3
fb
f2
09
04
ff
ff
f4
fd
cb
f7
03
02
05
fe
f5
ff
fb
12
01
fc
0a
13
00
00
0a
0a
2d
ff
f5
fe
07
08
02
ff
f8
0c
f8
fc
01
14
03
06
12
0a
cd
f5
fe
fa
f7
ff
0b
fe
fe
a6
fd
f8
04
ed
fd
02
0a
09
f8
06
05
fe
f8
03
04
01
02
46
fd
02
04
02
ff
f7
f5
03
d8
03
06
06
fb
f8
fb
02
0b
6c
07
f7
04
0a
ff
fd
f7
02
d1
04
f5
fb
02
02
fb
fc
04
b2
03
03
fc
ff
01
fe
fc
ff
a6
f9
07
02
03
fb
0c
eb
fe
c3
01
01
fd
f7
fb
05
fc
04
4e
02
f7
f9
06
0e
fc
05
08
3a
03
f0
00
02
04
ff
f9
fb
18
0e
08
fd
f7
f7
13
ff
0a
49
f2
0a
f0
06
f4
fd
03
02
4d
f9
0a
02
05
01
00
04
02
cc
0e
f7
fb
04
f9
f5
ff
f7
da
04
01
fe
01
fc
ff
fe
03
fd
03
00
fc
ff
06
11
fe
00
07
fb
0c
01
f0
fa
03
ed
f9
9c
03
04
02
03
f8
15
f5
fe
25
01
f8
fa
ff
10
fc
fa
04
c3
09
02
05
00
05
f9
fc
fb
36
fe
09
fc
03
f4
08
08
fc
e8
f8
0c
08
06
11
f0
08
f5
2c
fa
07
f8
ff
0a
ff
01
fd
a9
f9
03
f7
01
fe
fe
fa
03
27
04
08
04
fc
09
f8
0a
f8
a3
fc
f4
00
fe
fd
ff
fd
00
19
05
f6
fe
10
00
01
01
fb
a9
04
02
f7
fa
13
ff
02
ff
62
0b
05
08
f3
02
06
f8
0b
18
fc
f0
02
02
0b
10
04
00
2d
03
fd
02
fc
00
04
04
f9
1b
f7
f4
fa
fe
f5
05
04
06
1a
fe
fe
f7
02
fb
f9
fd
f8
24
05
fe
05
fc
f5
ff
18
04
9d
fc
fb
fb
00
02
07
02
fd
f9
0d
f1
03
00
00
f4
00
fd
93
f7
fd
04
02
fd
05
fd
12
ba
fa
fd
f6
02
f8
fe
05
01
51
fc
08
fb
0c
ff
f9
04
f3
47
0c
fb
f5
09
f8
07
f3
01
0f
f8
ff
02
0b
09
01
fe
07
c7
f2
ef
0a
f8
09
05
06
02
7c
0a
0a
fc
f4
fb
09
00
f9
ed
f3
00
05
ff
f6
f4
05
f0
07
fb
fb
09
04
fa
0b
04
fb
28
0b
f8
03
00
01
f8
01
00
23
00
05
01
0b
ff
fd
03
06
4c
02
fe
03
fe
fc
09
fe
02
59
06
04
f7
fb
05
f9
fb
f9
04
0e
09
ff
f8
fd
05
f9
f3
ea
ff
05
01
f4
05
0c
fc
08
4e
03
fa
07
01
03
01
f2
fb
1c
02
15
f9
fa
fc
08
fc
f7
41
fc
01
ff
04
0a
04
00
02
f2
f5
09
f2
0a
0c
04
fa
f6
69
ef
05
02
03
f6
fe
07
fc
b0
0c
fe
f7
04
08
04
ff
02
ac
fe
fd
06
fb
f7
f7
00
00
00
04
02
03
09
07
f8
ff
fe
ff
f7
00
09
06
03
08
01
f1
17
0a
04
f5
f2
fc
08
f9
01
f8
f5
f2
0a
09
02
06
ff
02
41
04
0a
ff
f6
fe
0a
05
02
0a
ff
fb
00
fd
fe
fd
05
09
f7
f9
f5
01
fa
00
fe
04
f5
1d
00
03
fc
fd
fe
f4
ff
00
9b
00
fe
09
09
0c
07
02
07
57
fe
f2
fb
0b
07
01
07
fc
08
01
02
fd
0a
f6
09
fe
10
a5
fa
fa
09
fc
fd
f8
01
ff
5a
f6
02
f4
f1
00
06
01
04
ef
f9
07
f8
f4
fe
02
f7
05
22
f8
f8
07
fc
04
f6
ff
02
a5
0a
fb
03
0c
0a
0f
fc
fd
94
fb
10
01
fc
ff
03
03
02
c1
f8
f6
02
ff
f2
f8
06
10
15
03
01
00
f9
f8
07
ff
ff
42
fc
f6
fa
02
04
07
08
05
be
f8
0b
f9
fc
f8
01
05
02
c3
06
ff
03
05
04
05
fe
00
e7
01
00
f9
01
00
fc
01
f9
9d
ff
04
05
f2
fa
ec
03
f9
cf
00
f6
01
04
ff
fc
f4
00
3a
fd
f5
f4
02
04
0c
01
06
49
03
f7
01
fc
0a
f9
f2
0a
df
02
fd
f3
fd
fb
03
02
fb
e7
01
f6
fc
07
fb
10
f5
fa
e5
01
01
05
03
f9
0d
fe
06
d2
fa
08
ff
f5
07
04
00
03
27
0c
0e
03
01
04
fa
0b
00
08
01
06
05
f5
f9
06
fd
07
5b
ee
01
05
f2
0f
fa
0b
fd
98
06
02
f3
04
f6
fd
ed
fa
ed
03
f6
09
fe
10
fc
11
fe
68
00
09
f3
08
03
fd
0e
f8
5f
0c
09
fe
02
10
06
fa
f5
48
ff
ff
07
12
ed
fb
f6
fb
e2
f9
f3
fe
02
09
fb
00
04
e1
07
09
fa
fa
03
fd
ef
0c
e6
0e
03
01
0b
fe
f9
09
01
55
f8
05
04
f7
06
0a
f9
f9
4d
09
f5
01
f9
00
fb
ef
f9
74
f2
03
04
02
f6
f7
f9
00
14
ff
10
03
02
02
fa
05
06
20
04
04
00
05
f9
0e
0b
02
b6
09
06
04
f8
f8
08
fd
03
1a
01
fa
f9
00
fe
f7
f3
02
b3
09
06
fb
05
03
ff
04
07
e5
07
0b
fd
03
0b
08
05
06
ec
02
08
0f
fb
10
ff
07
00
da
05
03
09
fa
fb
07
f3
f5
5e
fa
fa
06
07
f9
06
fb
01
ee
fe
f1
01
09
02
09
01
03
5c
09
00
f5
fb
fc
05
fd
04
bf
0a
03
0f
fe
00
0e
0b
f8
4e
07
03
fe
00
0d
00
06
0b
1f
ff
fe
03
08
f8
09
0d
ff
13
07
04
fa
fd
02
05
f8
02
5b
f7
f8
06
09
03
fc
00
09
67
f8
f8
f8
fe
fb
f8
fb
fe
43
0b
fe
fd
04
f3
fa
03
fc
00
f1
01
f8
09
07
f7
f6
01
39
fb
0d
07
f7
0b
08
0e
f7
71
0d
08
03
0c
03
03
fb
0b
df
02
fa
fe
ff
01
fc
0a
01
f2
06
fb
f2
02
f9
fe
f7
fb
d1
fc
00
0d
0b
f7
fe
f0
fe
03
fc
fc
04
0b
01
fe
04
04
fa
07
06
f1
ff
0c
0c
0b
08
e7
fb
07
f5
01
00
ff
09
00
6c
f9
f7
0b
06
f3
0a
02
f6
b5
05
f9
02
ff
03
fd
f9
f7
b7
fe
03
01
06
fb
f5
fd
08
16
f5
04
01
00
03
fd
11
fd
1f
16
f8
f9
f5
0a
fb
0f
ff
98
ff
ff
ef
fe
eb
fe
05
f9
39
0a
f4
fa
05
fb
0a
f9
05
9b
06
0d
f9
0a
11
fb
fd
fc
45
ff
04
f7
00
fb
0b
0a
0d
a9
fe
f9
ff
f7
f1
04
ef
05
c4
06
00
02
f9
fd
06
fd
fc
08
02
06
0f
01
fe
f5
01
01
d9
12
fe
00
02
f1
00
fd
fc
50
fe
05
00
ea
10
fc
00
02
98
05
0d
09
f8
f9
0e
02
fc
1e
04
02
0b
03
f4
14
00
fe
a7
f6
05
02
01
09
01
03
fb
28
fe
fb
f4
f9
03
ff
fd
09
21
08
01
01
fc
0e
fd
ff
0c
bc
0b
fa
05
02
ff
03
02
01
1d
fe
03
f9
03
f6
fd
0c
07
95
f9
00
f8
fc
02
f6
f1
01
54
01
f8
04
f6
ff
f8
0c
04
a0
03
07
01
0b
f5
05
f9
fc
62
09
f7
01
01
f8
f6
f6
08
a5
08
00
05
05
16
08
0a
04
d8
ff
0d
07
0e
ff
fd
f8
02
5d
ff
09
06
0d
04
06
0d
fe
ec
fe
0c
f7
0b
fa
06
09
f6
3e
f1
02
f6
f0
f8
08
04
04
07
fc
fd
03
05
fe
ff
fd
00
12
ef
07
ff
01
ff
fb
0a
fe
f8
16
ef
03
f7
06
f6
fe
f4
d3
fd
0a
fa
05
05
06
0a
ff
b8
00
f5
f7
05
fc
03
05
02
16
0d
f7
03
f5
fb
09
fb
f5
37
0d
02
02
02
0b
ff
f9
f4
5d
08
fd
fd
fc
f2
01
fe
fd
d2
ff
fa
fd
fe
04
05
f2
fa
c0
00
06
fc
08
00
ff
02
fa
09
f7
f5
0b
09
fd
01
0a
fe
7b
10
ff
03
0d
fe
f3
08
0c
fe
0b
f5
fa
06
ff
ff
02
05
36
ff
01
ff
09
fc
f1
f9
f7
f5
08
fa
03
0c
f7
fb
02
04
f2
0b
02
f7
ff
07
02
0d
09
03
f9
04
f7
fb
0e
0f
04
ff
bd
ee
f5
08
f1
08
0b
06
f9
0a
01
06
fd
03
00
00
01
f0
41
f3
00
11
f8
f3
05
07
04
12
06
fb
03
03
05
03
02
07
d8
03
04
0a
00
fd
04
fa
00
ac
fe
0a
ff
03
f8
08
ff
03
c0
02
fd
f6
f7
ff
f8
04
04
44
fa
fa
0b
fe
fb
04
ff
08
0e
f8
05
f6
05
04
05
02
01
b1
04
fe
06
fb
02
fc
04
f6
8f
00
f4
05
10
0b
0e
07
0a
ea
06
00
fb
02
f9
0e
fe
08
dd
ef
06
fd
ec
07
03
08
fa
52
fe
03
01
02
f6
00
0b
01
3d
06
fd
02
09
00
08
fd
02
13
fc
01
00
f7
fb
ff
08
03
a0
03
fe
02
03
f6
f6
01
04
13
fe
fe
f6
fd
ff
f5
fc
05
5b
f9
02
fb
fe
fb
ff
fa
f4
97
09
f6
05
0a
ff
fc
fd
04
41
fe
03
05
f8
02
02
09
fe
be
f8
00
01
02
f5
0a
07
fe
ef
f2
ed
0d
07
09
fd
fc
01
41
04
f5
12
fb
f6
02
0d
02
20
02
0d
06
f3
00
03
ff
05
3d
ff
00
04
ff
00
fd
fa
fb
97
fb
fc
f2
f8
f7
06
07
f9
f4
03
ff
00
f8
01
00
06
ff
3b
01
fd
01
07
fe
06
05
ff
db
0f
08
02
ff
0e
00
03
fb
61
f4
04
fc
0a
fd
01
fe
00
01
06
02
fe
02
f7
f6
f6
07
36
fe
f3
03
ff
f2
f9
06
0c
cc
05
f9
0a
03
fa
fa
02
0b
42
04
fa
fe
07
02
fd
f7
05
9e
0e
01
06
f8
f2
07
00
f9
14
07
00
fc
fd
ff
f8
0b
f9
d8
03
f9
fe
02
03
fd
0a
f2
cd
00
f9
03
fe
00
fa
f4
03
1a
ff
04
f8
fa
19
07
fe
fb
13
01
fa
08
f5
fd
fe
f6
02
02
fe
fd
00
01
01
05
0a
02
44
0e
0a
01
fa
f1
0b
fa
f9
18
f3
fd
05
fb
04
fe
05
fe
53
05
05
01
fa
f8
05
fd
0a
bc
07
01
03
f8
05
f6
fe
0c
63
f4
f6
06
00
05
fe
fb
fc
e1
f3
07
ff
fe
ef
fe
05
0f
64
07
f6
02
fd
09
ff
00
f9
c1
fe
08
fe
02
fd
04
0f
f8
d7
fa
03
0a
09
fb
03
01
00
0b
f4
f7
ff
03
06
f7
f8
fc
ee
f6
07
fb
05
0c
06
06
02
b7
fb
02
01
fc
04
08
0e
01
1a
fb
f2
f9
ff
0d
f9
07
01
a7
0b
fa
fd
ff
fb
f8
01
fb
cd
fc
0e
ff
fa
fc
fb
06
08
fc
fd
f2
04
ff
02
fe
02
01
5f
fe
f8
fd
02
ff
12
11
fb
f2
fe
00
f7
0b
05
fd
ed
fa
62
f1
f8
05
0a
00
04
f9
f8
f6
f9
fb
ff
f2
10
0a
03
04
d6
fc
fb
fd
0b
0a
f8
fa
00
9e
06
fb
07
01
fa
01
00
f7
ec
ff
ff
fb
07
fc
ff
fd
06
a2
f5
08
03
11
00
f1
f6
fb
a3
00
01
fc
f9
fb
04
f9
fe
ff
0f
f6
06
fb
01
fa
fc
f7
b9
08
03
05
0a
fd
f8
f9
fe
a0
03
06
01
f8
fe
f8
00
fe
2c
0b
03
fb
09
04
08
08
00
0e
f8
f5
fe
03
05
f5
06
07
54
fa
00
f5
f9
fc
08
07
fd
c4
07
ff
f0
06
07
fd
00
07
c1
fe
fe
fa
fa
fb
08
fb
01
70
f4
f6
09
f9
09
fe
01
01
40
08
08
f8
01
f4
01
fb
03
dd
fc
fe
03
f3
03
01
09
06
59
ea
00
fe
0d
01
f4
04
fc
c6
01
03
fb
0c
f5
07
fb
f7
f4
fa
00
08
07
05
06
fa
fd
34
00
02
04
05
0b
ea
0e
01
4a
f6
04
03
fe
05
fa
ff
06
aa
ef
03
ff
fc
06
00
08
f7
f2
10
02
f6
08
09
fe
09
0a
eb
02
f8
fd
fd
00
00
fe
03
1c
02
01
f1
0a
fd
fd
f7
ff
66
fd
0a
f9
fd
01
ff
01
fc
49
07
03
f9
07
ff
01
03
05
c5
f7
ff
fb
08
00
01
f9
fd
7f
02
f8
fc
fd
04
fc
fb
f2
ff
06
fe
f8
f7
fa
f4
ff
fc
2b
02
09
ff
f7
f5
fc
05
00
e8
0b
01
fe
02
05
fc
f5
f8
ac
02
03
01
fa
0c
fb
fd
04
e1
fc
05
fd
fc
f2
f4
04
00
b5
fc
03
02
04
f5
fa
00
f2
b6
06
06
00
01
f1
02
04
02
a3
03
07
03
06
fd
ff
00
fd
02
f0
fc
f3
fc
04
fe
08
06
f7
0d
f6
ff
0d
06
ff
12
0e
d9
01
fc
0c
01
07
f4
04
07
c1
f9
f2
00
0e
ff
ff
ed
00
34
ff
fd
ff
f6
07
08
0d
07
8a
08
fe
04
05
ed
02
e7
f4
ef
01
01
01
ff
f7
02
03
0b
03
0e
02
05
00
01
f2
08
fd
18
f4
01
f8
ff
03
f4
fa
06
c5
fe
00
fe
08
fd
0c
07
fa
e1
f8
09
f5
09
02
fc
f8
fa
ca
01
13
f7
fa
06
ff
fd
04
f7
f9
f4
fd
fb
03
f8
0d
f9
d6
fa
00
fd
00
05
07
00
00
b6
0d
00
01
f8
0b
f3
04
04
b3
fc
0d
fd
04
02
04
06
04
8d
08
03
00
f9
06
02
f4
02
4c
04
f8
00
07
05
f6
0d
09
dc
12
f4
fb
fe
08
f6
0c
00
c0
10
f9
fe
02
fb
fb
fe
f6
5a
fc
09
04
05
fd
fe
f9
07
cd
00
10
f5
00
00
03
ff
09
03
ff
fa
ff
fa
06
01
fd
00
0e
10
0e
05
fb
07
06
eb
01
69
06
ff
fc
ff
02
00
07
f3
e6
fd
16
06
f7
fe
04
fe
f9
22
fb
f8
fd
03
fa
f5
0d
00
26
16
fd
00
fe
00
fb
f5
0c
9b
fe
ff
03
fe
05
01
0d
ff
3b
00
fc
00
00
01
02
0b
05
07
fa
10
f2
f3
08
08
03
f5
49
fc
04
00
f5
f9
fd
fe
fb
02
f9
08
02
00
17
f8
fc
fe
10
fb
04
0a
fc
01
04
ff
09
dd
02
08
06
fa
f9
02
ff
12
28
ff
fd
f9
ff
02
01
fd
fe
e9
06
00
11
01
02
fb
fa
0c
04
06
fd
01
09
01
01
0f
f5
46
09
f4
07
fc
f9
04
f8
09
40
01
fd
fc
07
f8
f8
08
07
b2
f8
07
0a
05
00
fc
fe
07
4f
f9
05
01
06
f7
f7
fc
05
4d
fd
05
fc
fe
01
fb
00
07
56
16
0c
fd
fa
ec
0b
01
fe
a0
08
04
fe
02
0e
07
f7
fa
fc
f4
0d
ff
02
03
01
f9
f6
c9
07
ff
04
fd
00
ff
f6
00
e2
04
ff
ff
fa
fd
05
05
fc
ba
07
f9
fd
fc
04
f8
05
ff
3c
0e
02
04
00
f3
05
05
10
bd
07
01
fa
f6
06
06
fd
0b
9c
03
ff
07
02
00
08
02
f2
66
02
06
fa
fe
fe
fe
0b
f7
90
07
07
0b
fb
f2
f9
ff
0c
9e
fd
03
0b
f3
f8
fb
0d
07
5e
0b
fb
00
07
fe
05
06
0a
67
02
01
07
01
07
0a
fc
02
29
f2
03
09
fb
05
06
00
01
46
fd
0e
fe
09
fb
f5
01
09
4e
fd
fd
f2
ff
ec
f1
04
15
d4
00
03
0d
06
f8
fc
fe
0a
b3
03
fc
14
fb
f8
0e
07
07
b3
05
fb
04
03
02
fa
fa
07
91
f9
f5
03
ef
f9
01
03
09
61
fe
03
fe
09
0a
09
f8
00
1d
f7
06
0d
f2
fe
f9
fa
fb
d0
f9
07
04
00
f5
07
0d
0d
45
fe
f7
fc
02
00
ff
f3
fa
c1
03
0c
0a
fd
0c
f8
f6
f9
fe
08
01
ff
ff
fc
0d
05
f6
33
18
04
fb
04
11
02
fc
00
c7
00
fb
04
f4
f0
f0
0b
08
23
08
01
00
ff
fa
f7
0a
02
04
04
05
fb
ff
fe
fc
07
06
25
00
01
fe
fb
f5
f1
01
03
db
07
fe
fd
02
01
f4
05
fc
1e
f4
f7
01
01
02
ff
f8
09
ca
f2
03
0b
fb
10
0f
f6
ed
e9
fd
fd
fe
08
00
fe
f7
00
03
02
07
03
f5
0a
02
08
f1
f2
0d
fd
f9
f6
f8
ff
04
fe
6b
05
0a
fe
05
ef
01
03
00
d2
fa
fd
f2
01
07
02
0f
f9
c7
fb
06
05
03
f6
01
00
fd
a1
fa
02
0a
01
00
02
fc
fe
97
02
f6
03
fc
07
09
02
fb
5f
02
03
f5
09
05
f6
f6
01
41
fe
00
01
fe
fb
02
fa
04
64
f9
fc
ff
f6
08
02
03
01
32
fe
fb
01
fc
fd
fe
03
00
c3
03
fb
fb
01
04
05
00
f9
dd
fc
03
fd
09
ff
08
0b
fc
23
f9
01
fc
03
0b
0c
08
01
cd
fa
01
05
f4
fe
f7
02
ff
a3
fe
05
0f
07
09
fa
fe
00
3c
00
ff
03
fd
ff
01
ff
fd
e6
06
fc
01
f9
0d
03
f9
02
4e
03
f2
fa
f4
f9
fe
fe
01
6c
08
fc
fc
03
ee
0a
06
ff
da
f8
04
03
fb
08
03
fb
fa
b4
fe
08
f6
f4
fe
f8
07
fe
2a
0b
0f
00
04
05
00
03
fa
58
f9
05
11
f9
fc
f9
01
09
b5
fd
f9
09
06
fd
06
ff
f4
c8
02
06
ff
f6
06
04
fd
03
4d
04
03
04
fa
fd
f2
02
ef
ff
01
00
fe
03
ff
fb
04
f4
16
fe
05
fd
03
08
04
f8
00
ea
f7
ff
fd
fa
01
04
fd
0d
e6
fd
f6
fe
fa
05
03
fc
0d
11
01
f1
ff
00
ff
ff
00
f2
e3
07
0b
04
0d
ee
f5
03
ff
10
00
f4
f8
05
09
05
02
fc
b8
fd
02
0a
f9
f5
03
06
f6
cd
13
f9
02
06
08
f5
01
ff
d7
07
f8
00
08
f5
06
0a
ff
9f
05
fd
03
09
04
04
fa
0b
e5
f7
09
01
00
07
00
ff
fa
a9
00
07
f9
02
06
fe
ff
02
f8
03
f6
08
fb
02
06
f1
09
5a
03
00
ff
01
fa
05
fe
fb
66
03
01
09
05
02
fc
fd
ff
d8
07
f5
08
02
04
f6
07
00
f4
fe
03
fa
f9
06
03
05
05
56
08
06
00
fa
00
10
09
02
63
13
fe
03
06
02
04
00
13
30
ff
08
07
04
ff
0a
03
f8
96
fd
09
fc
fb
02
fc
01
fc
14
12
fd
fe
fb
fa
05
f7
08
e2
ff
f5
00
ff
fc
0d
02
03
60
00
fb
fb
05
f9
07
00
03
a2
fa
03
fc
fc
ff
f5
04
fa
01
00
fa
03
04
fc
fe
fc
04
96
f4
0a
fa
05
fc
f7
04
05
b7
ff
fc
fc
05
fe
f2
fa
fe
67
ff
f9
08
0f
0a
00
03
fd
54
f9
0b
f9
03
fb
01
01
fb
9f
fb
0d
ff
f9
fd
03
07
00
60
02
06
05
04
05
09
04
0d
d4
f7
05
ff
ff
fe
06
fc
fa
d5
ff
02
f8
fc
ff
09
fc
fb
4e
04
05
fe
02
05
fb
09
fa
2d
0f
f0
00
fd
09
05
05
f6
3e
f5
08
f4
02
07
04
06
f7
6b
f7
fc
fb
08
ff
fb
08
0f
2a
05
03
00
f9
fc
02
00
f1
0a
03
ff
07
fb
fe
fb
ff
f8
c7
e7
f3
05
03
07
0e
04
00
9d
03
04
06
fc
f7
00
e6
08
b3
03
fe
03
03
fd
fa
ff
fe
de
fc
fd
0a
09
00
01
fb
f9
98
00
f5
06
03
0b
fe
fc
fb
d1
0d
f1
f9
05
fe
ff
fd
08
bb
fd
fa
04
04
fd
08
fc
04
5c
0d
f4
0f
07
f8
f5
fd
07
4a
09
f7
00
fa
04
06
0a
fb
97
f6
03
fd
fa
0c
0a
0f
00
b1
fa
fa
fd
05
09
02
05
02
4b
07
fb
fc
fc
0b
07
02
fb
fe
f7
04
ff
04
fb
07
08
fc
0b
06
fe
02
fc
03
05
0a
00
41
f9
08
05
fe
00
0c
f4
09
0f
03
12
02
01
08
01
f4
fc
5c
0c
04
f7
f6
0e
fc
0d
0e
01
fd
00
0e
0d
00
05
f8
fa
e5
f3
01
ff
00
00
fd
08
ff
d9
f6
f7
05
fc
f8
06
00
f9
2a
0c
f9
03
0c
02
05
fa
fd
55
06
fe
ff
0a
06
06
04
f2
1d
02
01
fb
f3
fa
fd
fb
02
ef
01
fe
00
f9
ff
fd
f3
0a
27
08
fa
06
05
f9
fa
f7
04
e2
f1
fb
f4
04
10
10
0c
03
b9
0e
07
f4
08
f4
fb
f8
05
9c
03
08
ff
fc
08
03
01
10
90
f1
fd
fa
06
fd
04
f2
00
66
00
fe
08
0c
f2
00
fa
07
3e
f4
02
05
f1
fd
f8
02
01
21
f7
05
ff
08
05
fa
f8
01
bb
fc
0a
fb
fb
f9
fa
fe
0c
fe
f9
0a
03
fe
ff
fc
fe
fa
e5
05
02
f2
fc
f9
09
05
07
15
fe
fa
08
ff
03
ff
03
fb
e2
06
f8
0b
fb
10
f7
01
f9
4f
0f
fa
ff
02
fc
fc
f6
08
a9
fa
05
fc
fb
f7
01
fc
08
cf
03
fd
03
0b
02
f1
fb
f6
21
08
01
03
ff
01
04
03
07
a9
fa
fd
03
ff
0a
05
09
01
97
00
08
f3
f2
fd
fe
03
f5
08
f6
0d
fd
f0
f5
04
fc
ff
e6
f2
f9
0e
02
f8
09
02
04
59
fc
fe
02
04
07
09
fe
0e
1a
0c
02
ff
04
fa
f4
03
0f
df
01
fe
07
ff
03
fa
fc
06
f6
00
f2
04
fa
03
02
fe
04
aa
02
07
00
fd
03
ff
00
08
3b
07
00
13
fe
01
00
fd
f7
5e
03
11
ff
f2
00
fc
fb
fb
6a
04
f8
02
08
06
fd
fc
05
0d
00
09
ff
00
02
05
03
fa
4b
f6
09
fb
03
fe
07
01
f6
de
f9
03
05
01
00
fb
0e
02
a9
ff
09
0a
f9
14
0a
03
05
d1
fd
f7
00
03
0e
f9
06
fe
f8
01
fa
fc
00
00
f7
f5
0a
d1
02
00
03
09
03
f6
fa
09
b7
fb
f2
01
00
01
ff
f8
0d
26
13
05
0c
00
04
fe
01
05
58
fa
10
ff
fe
06
0a
fc
ef
5f
f1
fc
fc
fe
03
14
0d
fd
04
f3
06
07
01
01
05
03
f4
60
fd
ff
00
03
f7
fc
f5
00
67
11
06
fb
f7
07
f8
f8
f4
d9
01
f0
f8
00
05
f8
f9
0e
e5
f5
f8
15
09
09
fc
05
fe
6f
09
01
0a
0a
f9
ff
fd
0b
d8
05
04
01
03
0d
01
05
fa
07
04
fd
fe
f6
fd
05
05
f7
ac
fb
05
07
06
f0
fd
06
f2
e2
05
f2
fd
fe
03
09
01
00
67
fb
f8
07
fe
fe
f7
f7
0b
ee
fd
fe
0b
09
f5
07
0b
ff
aa
0c
07
00
0d
f9
f7
00
f7
34
fa
04
03
00
f7
0d
04
01
b3
01
00
fe
01
01
03
03
fa
5c
fe
05
fb
f7
07
01
05
fa
50
f5
fb
01
f9
06
02
04
01
f0
0c
01
0a
ff
fa
0d
02
ed
c8
f9
f8
f6
00
f8
07
fe
01
fe
f1
05
0d
00
06
ed
0d
f5
3f
0d
fa
f6
fb
fb
09
f8
fd
3c
03
06
fe
ef
f1
f8
00
ff
f2
04
02
fa
02
fc
ee
eb
f1
3a
fc
01
fc
0a
01
01
04
01
c9
00
f8
01
00
f9
fb
fe
00
27
f5
05
05
fa
02
ff
11
0c
3e
09
f8
fd
f8
fb
00
0d
f8
43
f6
f9
01
02
f9
12
0f
ec
c7
ff
00
fd
fa
06
06
01
fd
1b
fd
ff
fc
fd
ee
06
fa
f7
b1
f1
fc
0b
03
1a
f8
fb
00
52
05
f9
fa
01
02
f8
05
0d
bf
fc
04
f6
ff
16
f6
0d
fb
10
f7
07
08
09
f0
0f
fd
fb
4b
f2
04
fe
f9
0e
f9
01
fb
fa
05
ff
fa
08
10
ec
f2
00
b9
fc
ff
08
f8
0d
02
f1
fa
06
fd
ff
ff
06
07
01
04
06
d0
fa
05
00
f0
03
0b
09
08
9b
fc
fa
03
01
02
fa
fb
f4
95
00
06
0f
f4
fc
ff
fd
f2
4b
09
fb
fe
fd
07
f7
05
ff
af
0f
08
f7
08
0c
f1
fb
08
e4
05
0c
03
f3
f8
05
0e
03
64
0f
04
f6
04
05
f6
01
f8
c9
07
f6
04
00
05
07
fc
01
4c
f7
f2
f7
00
ed
12
ff
00
f2
ff
f6
f9
ff
04
fd
fa
f6
dc
04
01
00
02
11
f6
0a
fb
45
0a
e6
f1
01
ed
f8
01
05
89
07
0c
01
06
06
eb
05
08
34
fc
00
06
f9
fd
05
05
01
ae
04
0b
03
f8
fa
fc
ef
f9
1d
f9
fe
07
04
05
fe
03
f7
18
0a
08
fe
09
f3
f5
f6
fc
4f
04
0c
06
00
08
f1
f3
01
9d
03
0d
ff
02
f7
03
f9
02
bd
f9
05
0b
02
09
08
fe
04
13
07
ff
ee
02
f6
06
fb
02
5e
fb
fa
0c
f4
f8
0c
07
f4
e6
fc
0a
03
04
0d
02
fd
09
c1
f7
03
f9
03
ff
fc
02
f7
19
fc
01
0a
fa
fa
01
fe
fe
eb
0b
04
01
00
fc
f8
00
fa
c0
fb
03
fe
f8
f9
f4
11
04
c0
0c
fe
09
fa
0a
0f
fb
ee
c4
fa
f4
06
f7
01
fa
00
0a
d9
fc
04
06
0e
fc
ff
ff
09
d1
00
f3
fe
f7
07
03
f6
fb
c5
04
05
f8
f6
02
05
03
03
dd
0b
f0
fb
fb
fd
fe
04
02
b2
0f
01
ff
07
04
fa
02
06
5b
f9
f7
f9
ff
04
03
00
06
2c
fc
05
f8
02
0c
07
ff
07
72
fa
15
fe
fc
0a
0f
07
07
d9
ff
0e
ff
ef
06
fd
03
f4
56
fb
03
0b
fd
fe
02
fd
02
d9
03
fe
0c
03
05
0b
f6
f7
b9
07
fa
0a
f9
00
fc
e4
fd
be
06
03
f5
01
f4
ea
fb
fc
c1
03
0c
fe
02
06
f0
f8
05
f6
fd
fe
06
fb
f5
f3
f8
05
17
ff
02
fb
04
06
f9
0c
06
27
00
0d
03
f9
08
fd
fa
03
47
0a
fd
fe
fb
0c
04
f8
fd
56
f2
00
05
06
fd
07
0b
fa
02
06
08
04
f5
f9
09
0c
03
e3
04
fe
06
03
fc
fc
01
00
74
0a
f4
02
06
f8
07
05
01
2f
f4
fb
01
0d
0a
ff
ee
06
e1
08
08
fe
fa
f0
fb
fc
03
da
0e
f1
f6
ff
fb
f2
00
03
fc
f2
04
fa
02
03
f3
f0
04
55
0f
f1
fd
fd
f5
fe
01
fb
f5
01
fc
0f
ff
f9
fb
f9
03
15
06
f9
fc
02
fd
fa
ff
ff
21
0b
fc
01
0a
fb
fa
f9
fd
9a
fe
08
03
ff
01
04
fa
f9
6c
ff
fa
fc
0c
00
f8
f8
00
e3
fd
08
06
05
06
fb
03
f6
37
05
03
07
02
f8
fa
fd
00
eb
00
f9
fb
f8
04
08
0b
f3
f6
06
0e
0b
0e
08
fc
09
09
52
0e
fb
fc
0e
fb
f5
f3
ff
05
fb
06
fd
f7
f8
fb
06
0c
c8
f5
fe
fd
04
02
08
03
0a
ac
04
fd
05
01
0b
05
0a
fc
5a
01
07
0a
fb
11
05
fe
fb
36
f9
fe
07
01
05
09
00
0d
db
01
01
03
00
ff
0c
0b
ff
f5
0c
fa
07
f6
02
07
00
04
cc
00
f5
02
07
fc
fa
01
0e
4f
f8
f9
fa
f0
fb
fb
01
fe
65
0a
00
05
03
f7
07
fe
05
e9
06
0c
03
f9
00
03
03
01
28
04
02
05
f8
fb
01
ff
04
63
07
fd
0d
08
03
00
02
02
c9
fc
03
f0
10
fa
ff
05
fc
00
f8
0e
fa
fb
04
00
07
f9
e0
ff
03
04
0b
03
f6
fd
f8
34
06
fc
05
0b
fb
00
02
fe
bd
f5
fd
02
00
0b
07
fe
08
07
fd
0d
fe
ff
04
fd
ff
f9
70
11
f8
03
03
01
fa
f0
fa
3c
f2
09
f9
03
06
0b
ff
f2
5f
09
00
06
03
f9
f9
f7
07
eb
f9
01
0a
f5
0b
09
ff
00
40
06
fb
fa
09
07
ff
02
fe
bb
02
f7
f0
07
01
01
05
f4
31
01
06
f8
03
04
fe
02
07
11
00
f9
10
fd
01
f8
05
f6
00
00
0a
02
03
04
15
0d
03
fa
f2
04
03
09
ff
07
04
04
d1
07
f9
06
f7
f2
04
f9
0b
56
07
e9
fa
fe
fc
f9
f3
fd
64
fa
02
f7
f6
fd
06
08
08
42
07
f7
06
07
0a
fd
05
fd
c4
05
05
fc
fb
fb
ee
fe
fd
d8
fd
09
07
03
f6
08
f6
fe
47
11
00
06
05
f7
03
06
0d
54
0b
10
04
01
f7
f8
00
f7
e5
fb
02
fb
02
fe
ff
f8
04
d8
f5
06
fc
fc
ff
f5
01
fc
c8
00
06
fc
01
0d
f7
0b
f5
ae
07
06
fa
11
ff
09
fe
f4
eb
f9
02
ff
f7
f7
fe
0e
fc
b4
ff
fe
f5
03
fa
02
fb
f9
26
0a
ed
fb
05
03
10
f8
fd
ae
f0
f4
05
f0
09
fd
07
fd
c6
0c
f7
0c
03
03
fd
fa
05
36
03
00
03
fd
fb
0b
09
09
51
06
f9
02
02
fe
fd
09
fd
2b
03
fd
03
0e
0a
0b
06
05
00
06
fe
01
fa
00
f5
f6
f9
30
02
02
02
03
fe
0e
03
0c
da
ee
fb
fa
fd
0c
fd
12
ff
2e
0a
07
fb
f9
01
01
05
fe
49
fb
00
fa
04
09
04
0a
f7
ac
01
f8
fb
08
01
fc
03
02
e6
03
00
fd
ff
01
fa
ff
fc
14
0b
06
fb
fc
06
fb
fb
06
f7
ff
f4
08
00
06
01
00
01
b5
03
09
fd
02
03
03
fd
fb
0f
f8
fe
04
fe
fe
00
03
fb
ad
00
fc
fb
07
f7
0d
04
0a
fc
0d
04
00
08
07
05
02
f8
9e
05
fb
fa
04
05
fe
01
03
ba
01
fd
fb
04
fd
00
0b
f2
f0
fa
00
ff
02
00
09
fc
00
ba
fc
04
f4
fc
f6
04
f6
01
4a
08
02
06
fc
f3
00
fd
00
0e
04
fe
05
01
04
fe
02
ff
d1
f1
f8
01
fb
03
01
fb
00
96
fc
fd
09
f9
0e
04
ee
fa
fc
05
fd
04
f8
07
fd
04
f4
f8
00
fb
f9
f9
fb
06
06
f7
5b
0b
0c
06
f9
fb
01
f6
f8
46
f9
fb
01
f5
02
00
f6
0b
c8
00
fc
06
00
f3
fe
ff
08
5d
fe
f9
04
03
fa
02
0a
01
19
fd
09
fd
07
fe
06
f7
ff
25
fd
f8
00
08
fd
04
f6
06
55
01
0e
08
02
02
02
fd
0b
ce
fc
f9
fc
01
00
00
ff
f8
05
09
09
fa
ff
fc
08
fb
05
5b
06
04
f9
08
f2
fa
01
ff
a4
0a
00
09
fd
0a
fd
0c
fa
2b
09
03
fd
fd
07
f7
f7
f6
70
04
06
ff
f8
03
f6
07
fe
51
ff
f8
ff
01
00
01
08
f9
26
f7
03
00
02
ea
05
05
05
36
fb
04
03
fb
0e
07
fe
f7
56
fc
ee
fe
04
ee
fa
03
fc
e5
05
05
02
f9
fc
f5
fe
00
1e
ff
05
01
ff
02
0c
02
03
e0
0b
f9
07
fc
02
0f
03
f5
0f
05
00
04
fe
03
06
f8
f8
68
fc
f2
f6
04
03
ff
01
03
38
f8
06
ff
fa
f3
07
fa
00
b8
f7
03
fe
f7
fa
02
ff
06
f9
fe
f6
fa
f7
01
14
0e
07
a6
08
06
09
08
07
01
00
02
f9
fe
00
0c
02
fc
fe
05
fc
b6
ff
04
0f
0c
08
00
ff
02
e9
04
ff
ff
f7
f6
06
04
f9
51
09
03
05
05
0b
f9
fa
fa
17
f9
06
ff
02
fb
06
00
10
ad
04
10
04
fb
f5
0a
f8
08
d5
08
fd
fe
02
05
0b
07
f4
65
ff
fe
09
02
0d
f9
03
04
03
04
ff
fd
fe
fc
ff
03
fb
f6
f4
fb
09
0c
01
06
ff
fe
54
ef
fd
02
03
01
04
05
09
b7
06
fe
07
09
0b
06
0b
ff
3b
01
01
08
fd
fb
f3
03
06
ef
01
02
00
fa
01
05
03
04
22
fd
f9
09
fb
06
06
fb
f9
11
05
01
f2
01
04
02
00
00
6d
ff
02
02
08
01
ff
f2
07
0f
f2
08
f8
09
04
fe
06
10
70
03
fc
f7
02
fa
0a
f5
fd
e6
02
f6
08
fc
00
fd
02
f6
38
00
ff
08
04
fb
06
14
05
bd
05
03
0d
00
f8
0c
0f
0c
01
fe
f5
08
00
f2
02
f3
00
fd
0a
fc
07
fb
02
03
f0
f9
c3
0e
07
f5
fe
07
fc
04
ff
e1
fa
ff
0e
00
f1
00
09
0a
4b
02
f9
01
04
f6
00
f7
ff
9c
0a
02
04
fb
02
04
02
fb
aa
f8
fd
04
f0
07
07
09
02
d0
06
08
00
03
fc
fc
09
0a
a2
06
fb
ff
f5
ff
f3
fc
ff
4b
02
01
00
02
02
ee
fa
07
52
ff
05
10
02
f5
fb
ff
05
2d
f3
fb
01
fa
ff
00
fc
05
bf
f6
f7
03
ff
fa
fe
f1
ff
fa
fc
07
00
0a
04
fe
ef
01
e5
02
06
06
00
ff
06
ff
f6
21
04
0a
f9
06
02
06
08
ff
5a
06
fb
ff
05
f7
fd
f9
02
36
ff
01
09
f8
0e
ff
f2
fa
a1
0f
07
07
fd
f0
ff
f6
0a
25
07
04
07
02
0b
fe
02
00
70
0c
fe
fc
ec
f3
f6
fc
02
cb
00
09
00
0c
00
f9
00
01
f1
01
03
00
01
06
f9
f6
ff
a0
fe
0c
03
07
07
f4
fd
06
d0
15
05
05
fb
01
05
f9
03
ea
fc
fb
fb
09
00
01
09
fb
e4
f8
fe
02
fc
08
00
fe
f9
30
06
00
03
f6
04
0b
02
02
68
f7
fe
00
f8
05
0c
f8
07
cb
09
01
09
f9
f8
f9
fb
fc
fe
10
00
04
06
01
ff
fd
00
30
09
f9
f9
f9
01
ee
f7
fb
34
03
16
f7
fa
00
04
02
03
c3
fc
f9
0c
0b
fe
0a
06
00
a2
fc
fa
04
01
07
05
0b
01
32
06
11
ff
04
02
ef
f1
fb
41
09
08
f5
00
fa
09
f6
10
0d
f9
05
02
f8
0a
03
0a
f5
28
ff
fa
05
02
0a
01
06
0a
b4
f6
fc
0b
03
fd
08
ff
f0
9f
07
09
fd
04
fc
fe
ff
02
07
fb
02
f5
05
03
0a
f9
06
9b
01
07
05
00
03
09
fc
f9
1d
fe
f8
fb
05
10
f8
03
ec
3d
05
fb
fc
fe
09
02
00
00
3c
ff
fc
f9
06
0c
fc
f4
f6
bc
f9
f3
fe
f9
ff
05
00
01
9c
f7
f2
fb
06
e8
0d
02
08
6e
fe
09
f8
f8
08
f3
f8
ff
09
03
fc
f6
f7
f3
f1
fb
07
5f
01
09
01
01
0b
f5
f8
02
45
07
fc
00
fe
0a
07
fd
0d
31
00
0a
0f
01
fa
01
01
02
5f
01
03
fd
fe
fc
00
f7
00
c3
0c
05
f9
f7
fe
fb
08
fc
ff
fc
fe
f8
09
02
04
fa
fb
e5
08
07
f6
01
fc
fa
fc
fe
eb
01
09
f8
0a
07
05
fc
10
f1
f6
fd
fd
ff
fb
01
05
fe
ff
03
fb
06
fb
f6
fc
fd
fa
e8
04
13
04
0b
fd
fa
f8
ff
6d
f8
f2
f3
08
06
f9
03
fc
be
0c
05
00
02
ff
01
fc
f8
67
04
fc
05
fe
fe
fe
ef
fd
e2
f9
fb
07
ff
0d
08
fd
03
29
02
10
f5
fe
fc
02
ff
f2
2c
fb
fa
06
01
01
f8
0c
eb
97
05
0b
0a
06
fd
fe
07
fe
4f
f5
fc
fd
0c
fd
fa
07
fa
f8
02
fa
fd
ff
03
f9
fa
0b
31
fd
fc
0e
00
fd
fb
07
07
63
00
0a
03
f6
02
0c
eb
09
69
fb
07
0d
fe
05
01
03
fa
11
f6
fd
03
f8
fb
f7
f5
01
39
fd
03
0c
10
fd
f6
fa
f3
a3
04
fa
07
0e
05
01
06
05
bc
fc
06
ff
06
fe
03
08
08
2f
00
fb
ee
06
f9
07
08
05
60
fd
f6
fc
00
09
03
05
04
d7
f7
04
fb
f6
10
fc
0c
f6
56
09
01
01
05
06
03
ff
01
09
fc
f6
e9
f8
fa
07
f8
fe
0d
03
06
08
00
fd
fb
ec
0c
b1
fe
fe
fa
09
05
fe
02
ff
9d
02
07
06
fd
fa
f8
f7
fe
33
0d
f9
fa
14
00
ff
0c
02
02
06
f9
f7
fd
fe
02
ff
fb
c3
01
fe
02
0e
00
02
f4
f5
55
f3
09
0c
0a
06
f6
fb
06
f1
03
f5
04
01
fc
fb
15
05
fb
09
fb
f8
02
f3
01
ff
01
3a
ee
07
01
f5
08
06
00
07
de
f4
0c
05
f5
02
fe
f8
fc
44
fa
08
ff
0a
00
07
f4
fc
1d
f9
fe
06
ff
10
01
08
fa
5c
0d
fd
ff
fd
f9
06
0f
fb
e4
fd
ff
05
08
0a
f6
0b
f9
d0
02
f9
06
0a
03
fd
fe
08
5d
fe
0c
f7
00
01
f5
f9
ff
bf
09
fa
00
f6
fa
0d
08
08
5f
01
10
06
05
fa
0b
ff
03
ec
fc
fb
f3
fe
02
f6
0b
f7
d1
fb
09
09
0a
01
ff
ff
fb
e0
02
ef
fb
fe
f7
0f
06
fd
0e
09
06
09
f8
06
f9
ea
fe
36
fe
02
fd
f8
fc
f9
05
f6
ed
f4
08
fe
05
fe
05
07
02
3a
f7
08
f8
02
0e
fe
06
f9
fd
00
08
09
05
ff
01
01
fc
df
ff
0d
02
fb
00
f4
0e
01
1c
ff
04
02
08
03
fd
f7
03
d9
fd
04
fe
fc
03
fa
03
04
30
fe
05
fb
00
f9
fe
04
04
e1
07
f8
00
ff
08
00
f8
fd
38
fc
02
02
05
04
0d
10
f9
e1
fe
fa
08
ff
fa
f5
fa
02
93
02
ff
ff
08
fd
0d
06
05
eb
f5
fd
12
08
06
f7
ff
fe
37
02
11
fd
ff
02
01
f9
07
ca
ff
fc
fb
fd
fe
02
f9
fc
b5
fa
f6
fb
fb
f5
02
01
fe
de
07
08
07
04
fa
fb
fa
06
17
f5
05
f9
06
fd
fd
06
03
d7
07
f8
00
fe
0a
fb
f5
06
4b
f7
05
02
04
fa
01
fe
ff
c9
f8
fa
03
09
01
05
05
fb
16
0c
00
07
fb
f4
fa
07
02
2d
0e
fd
ff
09
ff
0b
09
fb
42
f4
fe
14
06
fd
fc
05
f4
c5
04
fb
fc
ff
ff
02
0c
05
cc
08
0c
02
f0
06
fb
06
fa
a1
04
fc
fb
f4
fd
fa
0d
f9
d7
00
03
03
04
fd
fe
02
05
c7
09
f8
08
fd
03
fe
fc
ff
49
f4
05
01
04
f5
f1
04
0c
19
0a
fd
ff
06
fb
08
f9
fc
73
fc
08
fa
fe
01
00
03
01
65
fc
0c
05
02
00
0d
fe
06
9a
f2
fc
08
00
fe
05
05
f7
08
fd
01
05
0a
09
f6
00
01
94
ec
f5
05
02
fa
f4
05
04
c0
01
01
f3
06
05
f5
0c
fd
af
04
02
fe
f9
fc
f3
ff
03
2c
01
06
fa
f6
f5
fd
0d
fe
25
ff
fe
ff
f8
07
fa
f1
01
99
fd
03
fa
fb
08
00
0a
f8
60
06
03
fe
fa
fc
0e
f9
01
de
06
fe
04
0e
01
f2
04
ff
3c
07
0b
02
fd
ff
03
0d
04
f0
06
fc
fc
04
03
02
03
04
c8
07
0c
02
fc
04
ff
06
01
65
fb
f5
f8
07
f7
0a
fc
f7
b8
f2
f1
0c
fa
07
06
02
07
70
f7
fd
0a
fb
02
fc
f9
09
e4
f4
f7
08
f5
fe
01
03
fb
f6
03
ff
06
fc
02
00
f6
fe
af
fd
05
08
f3
ec
fd
04
fb
4d
0a
f1
fd
04
fd
07
05
f8
a1
fc
07
01
03
