000000000000a83a
000000000000c444
ffffffffffff11ae
00000000000020b6
0000000000012b12
0000000000006222
ffffffffffffa737
fffffffffffdae89
000000000001eaa9
fffffffffffee2f3
fffffffffffea187
ffffffffffff1fb3
ffffffffffff6a77
ffffffffffffa28b
ffffffffffffc7ed
0000000000009589
000000000000ee52
ffffffffffff165a
000000000000175d
ffffffffffff9dde
ffffffffffff7d28
ffffffffffffb53c
0000000000017a82
0000000000013916
000000000000c8f0
0000000000004ac4
fffffffffffeb8e5
0000000000019b38
000000000000e04d
ffffffffffffe8a3
fffffffffffea187
ffffffffffff4069
