00
00
fd
0b
9f
fa
03
08
12
08
01
fc
01
d6
f2
01
03
00
fe
fc
f7
02
22
02
01
fd
fe
05
04
01
14
c0
03
fa
f9
fe
f9
ff
05
f7
43
fd
fd
0b
05
0f
08
04
06
04
00
06
ff
05
f9
03
01
0d
cc
06
fc
03
00
f9
f8
f7
f9
d9
03
01
f5
fc
01
03
03
02
30
0f
fb
fe
fe
fe
08
fa
00
4c
0c
03
f9
f8
05
ff
02
07
b2
09
fb
02
0c
fa
01
0c
07
e4
f5
02
01
fc
fc
01
03
06
3e
ff
07
fc
09
07
f5
04
ff
19
00
fa
f6
f7
fc
ff
08
f6
89
fc
fc
fa
fe
08
fc
ff
01
71
04
f9
f9
f9
fe
01
fe
00
fb
ea
ff
04
ff
06
01
ff
14
fd
09
fe
0d
00
f2
fa
f4
06
10
fd
0a
03
fb
fe
05
ff
fe
9c
04
f8
02
05
fa
04
f3
ff
0f
01
0d
00
04
05
fe
fd
fe
f9
f3
09
fc
00
fd
f6
00
08
79
06
fc
00
f2
fd
04
fe
fc
e4
fa
fe
0b
fd
f2
0a
fe
f9
4f
f7
04
01
00
04
fc
fe
05
a1
07
ff
07
03
f5
fc
f3
f8
27
04
09
fb
01
0d
05
0a
0b
94
f0
fb
09
01
08
fc
01
03
3e
00
f6
05
00
09
fc
0d
00
bf
0d
fa
01
f9
f9
00
ff
07
a7
06
02
00
05
f2
05
fc
fc
e3
f5
02
07
fb
f4
fd
f6
f5
a4
05
fc
02
02
00
02
fa
00
49
06
01
08
fa
fe
06
08
01
5c
01
fc
fe
04
f4
f7
f3
fa
de
01
fc
ff
02
0d
ff
f7
f8
b6
0b
fd
f8
fe
f7
02
ea
f7
f1
09
f6
0a
fb
ee
f9
07
08
d3
fc
f6
0b
ff
05
07
05
07
47
fa
04
fb
f1
fd
fc
00
0b
24
09
ff
fe
fd
00
06
03
02
be
fe
fd
06
01
0e
f0
f7
fa
ee
04
08
02
01
fe
f2
fd
f8
50
00
fe
f7
fd
06
f6
fd
fb
b8
03
f0
0c
05
f2
ff
f8
0a
68
fc
ff
fb
01
08
ff
f7
ff
e3
f7
01
07
f2
00
fa
f6
01
17
01
f5
fd
f8
fe
05
ff
fa
e7
fd
0c
f8
04
f6
06
0a
f8
07
fd
02
03
fe
06
0d
04
fc
eb
fe
0d
f8
03
fa
03
fe
f8
ec
03
f1
00
03
fb
09
fd
fc
25
fb
fe
fd
f3
06
03
fa
ff
b2
01
04
ff
02
f7
0d
01
00
c5
fd
06
02
02
0a
08
fb
fc
9d
03
f6
ff
ff
ff
05
05
09
45
02
f3
fa
08
02
02
fb
f6
15
05
f7
f4
06
f9
01
08
01
d4
00
00
00
fd
0a
fb
f2
fc
8d
04
02
0b
fe
0e
fe
0b
fd
78
09
0c
fb
06
05
fe
07
05
ee
f5
ff
fe
00
fc
0e
02
fb
5e
04
ff
fa
0a
13
fc
02
07
52
00
07
07
fc
fd
06
08
01
c4
01
00
f7
f6
f6
ff
f8
08
df
ff
fc
00
ff
01
fd
02
fa
c7
0a
fe
fe
0b
fd
08
f7
fd
03
ed
06
0b
f7
04
00
fd
01
54
02
ff
fb
05
f0
f8
01
f7
a5
03
f7
fa
03
03
10
fc
f2
ba
fd
05
eb
f5
03
fa
01
fb
b2
0c
03
f9
0b
fd
07
fc
f3
da
f3
05
09
02
06
fa
07
fb
1e
05
01
05
04
fa
fa
fe
fd
16
fe
05
0b
f6
00
05
06
ff
ec
0b
00
06
f4
08
ff
fa
09
c0
f9
05
f2
ed
f4
04
00
fb
cc
fd
00
fa
0c
fb
07
fb
02
69
13
ff
07
09
f2
f6
09
fe
65
04
ff
05
01
ff
05
fc
fa
6f
0a
fe
f7
0b
04
fa
fb
f9
b6
01
f9
fb
f4
fc
00
fa
f6
b1
fe
03
04
04
07
03
06
03
5e
04
03
03
ff
f5
02
0d
fc
38
07
f2
fc
09
f7
09
01
fd
0e
0e
03
fd
03
05
0f
fd
00
dc
ff
03
01
11
fc
fd
fc
05
37
0a
00
f8
fa
05
01
07
06
29
02
ff
fb
0d
06
ea
01
05
e5
f6
0a
09
f7
03
04
06
07
ea
00
07
04
02
fb
11
f9
00
c8
f8
02
fb
ff
01
fd
05
fd
f9
06
05
0a
f6
0c
fc
0c
fb
e4
03
01
01
02
f7
ff
09
03
24
fc
05
0a
f5
07
09
f6
04
bd
0b
05
fb
02
07
f7
fa
fa
2f
fe
07
0c
ff
00
fd
f4
fd
7c
0b
fe
0d
fe
00
ff
07
fd
61
03
fd
03
fe
ff
f6
fe
ff
0e
ff
06
06
02
fa
02
03
fe
06
fd
fa
07
fe
03
02
fb
05
49
12
fd
07
fd
f9
f9
01
f5
2a
0c
0c
fb
ff
fd
fe
fe
02
35
05
fb
03
fe
0e
0d
01
05
64
fc
0f
fa
03
0a
06
fb
fb
de
fa
15
fe
fd
fb
01
0f
fd
23
ff
ee
fe
04
f2
fc
0b
0c
18
fd
f5
fa
04
fd
f0
f8
0f
c6
07
fa
00
0f
00
fd
f7
fb
b4
fa
13
03
f4
f5
00
ff
01
44
fd
00
ee
f8
fc
04
02
02
b9
07
f2
fc
f5
0b
03
fe
00
63
0b
00
03
f7
f7
04
00
01
d3
06
fc
02
07
f6
fe
f8
0e
48
f4
03
07
fa
02
00
fe
fd
fa
01
fd
05
04
f6
fd
f5
04
ba
fe
06
07
f0
01
05
f0
0b
d9
fc
04
02
fa
f6
f4
fd
fc
55
fb
02
ff
fd
ea
fe
f2
fe
0c
00
ff
fb
05
fe
f7
06
f8
20
0d
05
05
f7
f4
fa
04
0c
3e
f9
f5
04
09
f9
f8
fc
fd
ef
f2
03
07
02
02
01
f8
f5
d0
05
04
07
00
ff
01
0a
f1
e4
fd
f8
fd
01
f9
04
05
08
18
07
fe
f3
06
06
fe
f8
0d
4a
f4
04
08
fa
00
0e
0b
07
1e
04
ff
f8
0c
fb
fd
f2
ff
68
01
f9
01
fd
fa
02
f8
f0
9a
0a
f9
08
0a
0a
fe
06
00
42
fe
f9
fa
fb
f5
fc
fa
f3
18
06
01
02
04
07
01
fb
09
39
f8
03
08
07
05
02
03
f0
c0
02
fb
04
ff
08
06
f6
15
e6
01
02
fa
f2
f5
06
fa
03
21
f5
fc
f9
fa
00
fc
fe
07
f3
fe
10
04
fa
02
04
fe
03
db
fd
02
f5
f8
08
f8
01
f0
10
06
00
08
ff
07
01
f0
02
a9
fa
03
04
10
fd
fd
f5
fe
98
fa
fb
fe
04
f5
03
f2
07
fa
06
01
09
fc
02
0b
fd
fd
61
f9
08
06
0b
f0
fe
00
f7
db
0d
f7
0b
07
fc
0d
fc
08
d7
01
fc
f2
0b
f8
09
03
01
3a
fc
f3
08
f5
05
f8
04
f6
40
f1
01
01
0a
fb
ff
03
07
50
09
0b
f5
03
03
02
03
f6
88
fd
fe
f9
ff
ff
06
fb
fe
5b
f8
00
06
04
f2
06
f7
fb
3b
fa
04
fa
fd
02
06
09
fb
78
fe
04
f1
fd
06
ff
04
08
8b
fd
fb
ef
01
f2
e7
0a
00
65
fd
00
0a
09
08
02
04
f7
59
f7
06
f2
06
fc
02
00
01
7a
08
01
0f
02
04
04
05
08
3a
05
0e
03
f9
02
01
0f
f5
db
f9
01
04
f8
fc
f4
fc
01
9e
f8
08
01
10
11
06
04
04
ae
f2
01
fb
01
f5
fa
07
01
a9
ff
ff
f3
fa
00
fa
07
fc
6b
04
ff
03
00
08
05
fb
f1
20
fe
03
0b
00
0d
fa
07
f8
8e
02
08
03
07
f4
fd
05
f2
c1
0a
02
0c
ff
f2
0a
07
fa
9f
02
03
fa
fc
07
04
f3
e7
fd
fd
ff
00
01
f7
ff
fb
f3
5a
09
f5
09
01
f9
0e
f3
01
f7
09
f8
0a
ff
00
06
0c
02
c7
02
02
0d
02
04
02
f3
03
f9
f7
fd
fe
06
05
fd
05
07
1e
00
fb
f8
f9
00
04
fc
07
84
fe
0c
fd
fd
fc
00
09
00
70
ff
0b
03
01
0c
02
00
07
26
0d
02
0b
00
0b
01
0e
02
49
fc
fa
f9
08
f7
fa
14
0f
3c
03
fe
f6
f5
0a
fc
08
f2
59
0a
06
f7
07
f5
f8
fc
f2
42
07
f4
07
0b
09
01
03
01
6a
07
fd
07
f6
f8
f6
fb
00
be
06
f5
00
00
f9
f1
08
0d
b0
f6
06
f3
fc
0b
fd
09
f5
09
11
fd
06
f4
0d
f7
0d
f9
be
0a
07
07
f9
01
02
0a
05
5f
fe
fb
fa
fe
01
ff
05
00
13
02
f8
ff
0d
02
f0
04
fd
64
01
05
01
f7
fe
fb
04
fa
d8
fd
09
fb
09
f3
fa
f4
04
55
fb
01
ff
06
0a
09
f5
ff
63
08
f3
08
0f
fc
f0
03
06
c9
04
03
03
fc
fb
0e
0f
fa
3f
f7
01
03
04
07
07
f8
fd
ec
fc
fc
f5
f5
04
fa
0e
08
7b
05
07
f5
f5
f4
ff
13
fa
3f
08
04
fd
0a
06
01
06
f8
b8
ed
e8
00
fe
f6
f9
03
fa
2a
02
09
01
fd
fd
00
0a
0e
5f
06
0c
f2
fa
07
0c
fc
ec
2c
02
ff
fc
0d
fd
fe
f3
0d
f0
0c
fe
fc
fd
0a
11
f7
05
3e
f8
fe
fe
fc
03
01
07
ff
6e
fe
fb
00
ff
05
fb
07
02
ec
f7
fa
fd
fb
01
0b
fc
f3
34
08
02
0a
fc
ff
05
f1
02
c8
00
f8
f1
f9
fa
0c
06
02
01
fc
f5
fe
04
00
fd
0c
00
ed
09
06
12
07
ef
02
08
f6
5b
fb
02
09
fe
02
fe
06
f9
cc
02
09
f4
f1
06
fa
fe
fe
00
ff
f9
f6
04
fc
f9
ff
0e
60
0c
02
01
f8
09
0a
f8
04
17
02
f8
07
06
fd
fd
03
0a
a7
0a
08
08
fc
f4
ff
fe
08
53
fb
fd
fd
fd
03
08
06
03
7a
0e
07
fb
ff
f7
f6
03
13
57
0f
08
ff
07
f8
00
06
f6
a2
04
0c
fa
07
f5
fc
fd
00
48
01
fa
fb
f0
03
00
03
fe
55
09
f8
07
05
02
01
fa
07
1c
fc
0a
fa
fa
f7
f9
f6
f7
bb
10
0f
12
fd
fc
08
fc
fe
d2
06
ff
0a
10
0b
ff
02
05
68
f9
fe
03
f5
0a
f7
05
04
32
0d
0a
f8
00
f7
0c
05
02
cb
fb
f8
f8
00
02
f9
08
07
a4
03
fb
07
ff
05
02
05
f8
54
fa
08
04
f9
f8
fd
0a
fa
50
fb
fe
02
04
09
02
f7
06
90
ff
07
fc
08
fe
f6
fb
f5
cf
02
06
fe
ff
fd
01
0a
f4
98
06
f8
fd
05
02
05
f8
00
5b
08
ff
00
02
fd
03
f6
f6
8b
07
02
ff
fe
fa
f6
08
ff
a4
03
f5
02
05
01
fe
ff
03
e1
f0
07
fb
fc
08
02
fb
fb
12
fc
02
04
06
f5
fd
02
fe
64
ff
fd
fa
05
03
08
fe
f5
5d
02
fb
05
01
0c
02
03
ff
a2
04
00
02
08
02
03
07
f9
04
f5
06
fd
fd
02
08
fe
04
15
fe
00
08
fb
0b
01
05
f6
6c
ff
f8
01
fa
0b
f9
05
01
fa
fe
00
03
03
f8
02
09
fd
88
0a
ff
fd
00
0e
f3
03
f4
67
fc
01
04
00
fa
02
fa
01
63
f6
fd
05
06
06
01
ff
fb
dc
00
08
07
fb
10
f6
02
00
ad
0c
04
00
00
f9
00
05
04
4b
fa
01
fc
02
0a
09
fe
01
de
07
08
f2
ff
05
02
fc
0a
b2
00
02
08
f6
ff
f9
fc
f7
f6
fb
0c
02
04
04
ff
00
0b
cb
07
12
04
f9
fd
fb
01
f2
b2
00
0b
fc
06
02
02
02
04
04
f2
f9
02
fc
ff
ef
f9
03
6e
fe
f9
02
02
04
fb
fd
f5
e6
09
03
f6
1a
ec
04
fa
03
f4
fb
fc
fc
06
fe
00
09
00
f9
04
fd
07
f7
f2
08
03
fe
2c
02
fa
ff
0d
fe
0c
fd
02
a5
06
fa
04
fd
00
fc
08
03
67
00
fc
09
05
02
f5
fb
06
23
fb
f1
fa
11
05
03
f8
01
6e
f7
0b
00
01
fb
fe
0a
01
34
fe
05
f6
f2
f1
f8
f5
fa
50
f4
fc
03
f7
ff
06
fd
f8
91
0b
05
f8
09
03
fb
09
fd
da
ff
ff
ee
06
f3
fe
07
fa
08
08
f2
f5
04
01
08
f1
07
f3
01
f7
fc
fe
fa
f7
06
0d
ce
fc
fb
fb
04
0e
03
02
03
ad
06
08
00
09
05
06
f3
f2
65
00
fd
04
fc
ff
00
07
f9
d9
07
05
09
fa
fe
fe
04
03
52
fc
03
04
03
fd
ff
03
f8
19
f9
0b
01
fd
ff
fb
0d
08
d0
f9
ff
ff
07
07
00
02
f9
10
06
04
02
fc
f8
fe
ff
f7
db
04
f8
f8
ff
f8
04
fe
fa
4f
f6
f5
07
f5
0b
f6
06
00
bc
fb
f5
00
00
fc
0d
01
04
a1
0c
08
0a
00
fd
02
06
01
e1
f9
01
03
00
f8
07
04
fb
dd
07
fe
ff
fa
07
0b
fd
f6
45
ff
fe
fc
fa
f9
f8
0c
02
44
02
03
f5
f6
00
00
fe
f7
71
08
01
0d
0a
ee
fc
ef
fc
e1
f8
fb
07
f3
07
04
f6
02
39
ff
06
02
09
fe
fa
f8
00
bf
00
00
00
01
fd
06
04
ff
03
03
ff
ff
09
05
06
fb
f8
37
f9
ee
04
05
fa
f6
03
fb
d9
fa
f9
0a
06
fb
07
02
04
3b
05
f7
06
f8
04
04
f7
03
ec
05
01
fa
00
fa
f9
ec
fe
ac
12
ff
f0
08
08
0b
08
01
6a
fd
02
09
f7
ff
0a
fe
05
0b
fc
08
fb
fc
00
06
fc
02
eb
02
fd
02
12
f5
fa
0d
01
b5
fb
f6
00
0a
f8
f8
f9
02
93
ff
f7
f8
ff
0b
09
f7
fd
e6
04
00
02
f2
fb
fa
09
04
ae
fa
fe
fe
07
04
fd
08
f5
33
0c
f3
01
ff
05
f9
00
05
3b
f8
09
fc
fe
fa
07
ff
fc
b6
fa
fe
f9
fb
f9
fd
f3
03
52
fe
fc
fd
02
fc
05
08
fd
5e
00
f3
07
01
f7
fa
00
06
54
01
02
04
fc
01
fd
06
02
34
f8
04
00
fa
ef
06
fb
0b
b9
0a
f5
fe
08
ec
03
0c
07
d7
f0
ef
fb
fb
f9
f9
0a
fc
ae
0b
02
fe
03
ff
f4
fa
f6
0b
07
f6
07
02
f1
f9
03
f8
d8
04
fe
fd
02
05
08
03
fa
13
f5
f5
08
03
ff
fe
02
fc
3c
f9
fa
08
0a
fd
06
10
fe
f3
06
f2
fe
f8
02
fc
00
04
33
f2
05
0f
ff
eb
03
04
00
39
fe
0a
01
fd
ff
01
02
fa
97
05
09
fa
02
fa
08
f7
08
60
f6
f7
07
f6
04
07
fd
09
ae
00
02
f9
04
f1
04
f5
f8
d1
02
04
0d
fd
04
fb
fa
05
07
fa
00
01
08
f7
fa
f3
f5
40
ef
ff
f8
09
f0
03
01
fc
a1
0f
07
fa
fc
08
00
fa
f7
9d
0b
ff
09
fe
fa
f4
fa
f7
07
02
fd
04
ff
ff
f1
fe
13
88
fe
f6
f7
fd
f8
04
00
fb
8d
fe
07
fc
0b
02
07
06
fa
b7
f6
03
ff
04
fd
04
04
02
28
00
fc
08
fa
04
00
f7
01
19
0b
02
fa
03
05
f9
f5
01
52
f9
fe
f6
08
08
03
04
fe
65
fb
05
fb
02
0b
f9
f4
07
90
f6
01
06
0f
05
09
ff
f3
47
e8
fb
f7
fc
08
05
0c
f7
8d
05
f9
fd
03
fa
f5
00
02
e7
fe
03
f8
f6
04
00
06
f6
15
fd
f7
00
ff
07
04
0c
f8
9b
fb
01
f3
08
06
f2
f5
08
39
f7
fc
0b
f7
03
fc
0b
fb
a1
e5
f2
f9
fa
fd
ff
02
08
0a
02
07
0c
f9
fa
14
09
0e
63
09
f7
09
fc
fb
fa
08
05
6c
ff
f9
08
f0
ff
f9
fc
f9
d9
fc
ff
08
05
fe
0a
0d
09
66
ff
fe
fe
05
f9
08
fd
08
67
fd
01
fb
03
0b
fb
0c
f9
e0
fe
f1
03
03
fb
f6
f8
07
62
f1
f7
05
04
f4
0b
0f
07
b4
04
00
06
fd
f7
03
f8
00
1f
fd
05
f2
fa
f5
f6
f8
09
59
02
f9
00
07
03
ff
fb
06
db
fc
f4
02
f8
ff
f9
fa
fe
55
02
f4
04
fd
ea
02
09
eb
9f
ff
03
06
fa
05
f9
fd
fb
f6
06
0a
ff
f6
03
02
f8
06
f9
01
fc
00
fc
08
f8
fe
fc
bf
f6
06
10
0a
01
f4
0b
09
c6
0c
fd
f6
ff
fe
03
fb
07
52
f8
fc
07
00
fd
02
f1
fe
bc
f5
fd
02
fb
0b
0d
fa
04
a0
fe
ff
05
f8
0d
04
06
f2
a3
09
06
fc
04
ff
05
f9
fa
60
f9
05
fa
f9
fe
fb
f8
0d
99
f3
fe
00
fe
f5
03
fc
f9
22
01
f8
06
ff
f9
19
07
f6
88
fa
f4
02
00
ff
ee
fc
fe
f5
fb
08
f8
0a
08
fc
f9
06
37
0b
f1
0f
f7
f2
fb
08
f2
9f
f7
ff
f5
fa
ef
05
07
ec
e8
fd
0b
f8
08
f9
00
ff
ff
68
fd
fb
01
fb
06
fc
0b
fc
bd
00
fb
f8
fb
f2
ec
00
02
08
fd
fc
fb
02
12
fb
f4
03
59
06
fa
05
06
f9
fc
0a
05
de
00
f4
f1
05
f8
fb
f2
f8
99
f7
f9
12
08
0d
f8
04
06
31
0b
00
05
0d
05
fb
07
f3
9d
0b
07
fc
fa
ff
fa
0d
f2
b6
fb
f1
0a
03
05
01
00
0f
68
fd
09
05
07
f9
fc
01
06
bd
fc
09
fc
00
06
03
04
01
65
06
f9
00
f6
08
00
02
02
28
08
fd
03
fa
fe
fe
07
f7
ff
01
01
01
fe
ee
f9
06
fb
f5
06
fe
04
02
03
fe
0e
13
ac
02
fb
f3
fe
05
0c
00
fe
65
05
f6
0e
0d
fe
02
ff
07
cb
fe
00
fa
fe
fa
0d
f6
08
e2
09
f8
fa
0a
f8
06
05
f9
4f
02
0a
04
07
ff
f9
fe
ff
ea
05
f0
f7
fc
04
03
0d
fa
29
03
01
f4
ef
f1
fc
07
f7
e0
00
0d
06
09
05
04
04
0c
25
fa
02
04
06
13
04
03
f6
60
05
ff
08
fd
0a
06
06
02
20
ff
f8
f8
f0
05
ff
14
09
1d
fb
04
f3
f8
05
fb
f8
03
51
01
00
0a
00
f7
06
05
07
0a
13
07
02
fe
fc
fc
ff
00
8e
00
08
fc
fc
06
0a
ff
03
b3
06
04
f9
ff
03
f2
04
07
09
f6
fc
f5
f9
07
05
09
07
2d
0e
03
fa
fa
00
fc
03
fd
0d
12
04
0b
06
ff
05
12
ff
09
04
02
f9
fb
f7
03
05
06
41
06
00
fe
03
01
f8
00
ee
45
02
01
01
f9
03
f1
04
04
5b
08
01
f9
00
f9
01
f2
ff
06
0e
05
02
ff
01
01
ef
04
99
ff
f9
02
08
08
fb
fc
0e
fc
01
02
f8
09
fb
f4
07
f8
56
fb
f8
02
04
fd
03
fd
00
e0
08
f4
05
04
fd
03
fc
05
01
0a
06
05
03
01
03
fc
02
4e
fa
02
06
fb
07
07
05
09
4f
07
04
f7
0c
ff
0e
ff
ff
b9
01
03
f7
f2
04
fe
ee
0b
35
05
05
08
f8
ea
f1
fd
f5
ea
0d
fa
03
06
00
fc
05
fc
d9
fe
03
ff
04
0f
f9
fa
fb
c0
03
00
02
f6
ff
01
fc
02
1b
08
fe
fc
03
08
09
fc
09
34
f7
06
00
fc
08
01
0b
01
a4
f6
ff
04
01
07
ff
13
05
24
f7
f8
03
11
07
f4
f8
f4
b9
08
f3
fe
f7
f8
fe
fa
fe
c6
ef
04
fd
ff
0a
11
00
06
66
ee
fe
fd
fe
01
ff
02
01
18
fc
06
0a
fe
fa
fa
03
06
5b
00
05
04
0c
fd
09
01
05
11
03
03
05
04
f7
02
04
ff
51
ff
fd
f8
0a
05
0a
f7
ff
74
fd
09
fe
06
08
08
04
07
6b
fc
02
0a
ff
05
f9
fe
fd
71
08
01
fe
f9
f7
fe
00
05
42
fd
0a
02
00
06
12
02
ff
1e
05
00
f9
f8
04
06
0d
ff
97
f6
02
ee
f8
08
06
04
fd
0d
0e
0b
fb
02
0d
03
03
fc
72
00
08
03
fa
ff
01
0c
fc
cf
f4
04
f7
fa
f7
fb
03
07
bd
f8
01
f2
fb
01
14
01
07
68
07
00
f4
02
f6
fd
ff
07
3a
05
0c
08
f9
fb
05
f7
01
b7
06
fd
0a
05
03
00
00
f7
3a
06
01
05
05
f7
05
02
08
d9
07
04
fd
f7
f8
fa
f6
f2
b2
f9
fb
05
02
07
ff
04
04
56
fd
0b
03
12
00
05
06
fd
e8
0c
f5
08
fb
0b
02
fe
06
2a
00
00
08
04
f3
05
03
0b
9c
08
06
03
f6
03
00
0d
09
a9
fa
07
f8
fe
03
06
00
0d
37
ff
03
f9
fd
02
f7
fd
01
66
00
fb
07
fd
00
02
fa
00
61
0a
07
01
13
00
f9
f1
00
3f
00
fb
00
0b
f4
05
06
ff
b8
fd
04
05
fc
08
fe
07
f9
c9
f1
fa
00
05
f7
fe
00
f6
a2
01
fd
05
fc
f8
02
fc
06
a7
02
0a
fb
fc
f5
0d
04
01
98
0c
08
fe
ee
00
fa
01
00
35
fd
03
02
03
fb
09
05
02
4c
fb
02
fb
0f
00
00
0b
fa
a9
03
f6
fe
fd
fd
02
fb
02
9e
0a
00
02
00
e9
04
01
06
2d
0b
0f
fe
00
05
04
f9
f6
53
01
fc
f7
08
02
02
fa
01
de
07
f7
fd
0a
02
fb
f7
fc
96
f6
fa
fe
0c
f7
0d
05
ff
08
fd
f8
fa
fc
02
f9
00
09
96
0f
0a
02
fd
02
04
ff
03
44
06
05
07
fc
05
ff
04
fa
eb
fd
01
00
ff
ff
ff
04
07
4e
fa
fd
fa
03
0d
fc
09
02
eb
00
03
00
fa
f8
02
05
07
32
fe
fe
09
06
08
fd
02
01
26
08
02
00
fe
f9
06
f5
fc
b1
00
f5
04
f4
09
04
ff
02
82
0a
09
05
fa
fe
f8
0e
05
d8
01
fa
f4
0b
0d
09
04
f0
60
08
fe
fa
01
0c
fa
06
ef
d0
fd
0d
03
f3
f9
02
ff
fc
29
05
04
fb
12
07
08
fb
fe
4e
0b
0a
f6
ff
09
03
0d
02
f5
fe
02
08
fe
0a
ff
f6
ff
a6
03
f0
ff
02
06
f9
f8
02
c0
05
fa
fc
fa
0e
0d
f4
04
70
ff
0a
05
fd
0a
02
fe
01
ea
05
10
0b
ff
0a
f9
01
05
ad
03
00
00
f8
fe
06
f5
08
f9
0d
ff
f8
fd
f3
fb
08
0a
e1
05
ff
06
f6
f2
01
01
ff
53
01
04
01
fd
f5
f6
f8
ff
e9
fc
01
08
00
f3
0b
05
fe
bc
fe
04
01
fb
03
f7
05
fd
a8
05
07
f8
04
f4
00
fd
0b
4f
04
03
09
05
07
03
f2
02
88
03
ff
02
ff
09
02
06
fc
4c
01
06
09
fb
fe
fc
08
06
da
06
fc
f3
0e
fe
f8
ef
fb
4c
05
04
00
04
02
00
00
09
ee
03
03
f6
0d
fa
02
08
fc
21
08
07
f9
0d
02
f7
03
f6
bc
fa
f6
04
04
fa
fa
fb
f3
b7
06
fe
02
fb
01
fc
ff
19
75
01
01
06
f5
13
03
15
ff
2b
01
fa
f4
10
0b
ff
06
04
d8
03
05
fa
02
00
fb
07
f9
5f
ff
01
07
f6
f5
ff
fd
fc
98
fd
f9
0a
01
03
fe
ff
00
5e
07
06
fd
01
ff
fe
07
02
a1
00
fa
03
06
12
0c
0c
00
b1
06
09
fd
01
ff
04
01
ed
1c
06
02
f8
fa
01
05
fb
f4
16
08
00
02
07
06
03
04
07
4b
0b
14
ed
fe
f9
02
f9
fb
1c
fc
00
07
02
01
02
0c
07
52
fc
f8
06
05
ff
fb
03
09
2f
fd
06
03
06
12
fe
06
0d
40
07
02
f3
0b
f3
08
fd
03
14
01
f9
08
00
f4
ff
01
f4
bd
fc
02
fd
f5
00
0a
02
fe
f7
03
03
f8
01
03
f9
00
f1
ee
fb
fe
11
ff
fb
fb
00
08
f6
08
fd
ff
0c
f8
f7
03
06
21
ff
0a
fb
fc
01
01
f8
f7
e6
01
04
03
01
f9
03
07
01
05
07
0e
f5
fe
fb
fc
00
0e
2f
fc
01
01
09
00
ff
fc
f9
32
f7
03
03
ff
fc
fc
f8
f9
e5
01
03
0c
ff
09
0b
03
fc
ca
02
03
fb
08
06
09
09
05
74
04
04
fb
fb
09
06
05
05
0a
fb
02
05
01
04
f6
06
ff
de
fe
01
f2
fc
ff
f3
09
fa
46
04
fc
fd
f7
f9
0b
f5
01
3a
ff
fa
f5
fb
09
fa
04
0f
6d
08
f9
01
f9
08
fe
0a
fb
ad
fd
01
00
0e
fe
01
03
fe
f2
fc
04
07
0d
fe
fe
03
fe
cb
fb
00
07
f9
09
fe
00
fa
8a
f2
fd
06
fa
05
08
04
ff
ea
03
f8
fc
04
01
fd
ff
00
b6
0a
ff
f1
fd
fc
fa
f8
fe
f7
fa
04
06
05
00
f8
04
02
d2
f7
12
fd
04
fa
fa
ff
f9
eb
fa
17
ff
fd
04
fa
07
ff
ed
12
09
00
f2
02
09
fe
fe
cd
f3
fa
08
00
fe
02
00
01
0e
07
fb
07
08
fe
fa
0b
fa
13
0d
00
fa
11
ee
03
02
04
33
07
03
01
06
0b
04
f1
ff
9b
fc
08
08
ee
0c
07
ff
fd
2d
06
fd
fc
fd
05
fd
f4
ff
52
09
00
fc
fb
09
03
05
05
2e
03
06
06
03
f4
f4
0f
fa
21
fb
0c
f2
13
ff
05
09
fa
30
01
01
02
02
07
fb
fd
ff
9c
03
fb
f9
f9
05
fe
ff
06
bf
02
05
06
f8
02
04
fc
fd
46
0a
fe
0c
0a
ff
fd
f9
f4
10
f4
0b
04
f4
fd
04
f1
02
90
f8
fb
fe
fa
f9
ff
f5
03
6c
fd
00
fa
f9
f3
fd
01
fa
54
03
04
e9
04
01
09
02
07
57
03
f6
06
09
03
fc
fe
05
da
0a
03
05
fb
0f
01
00
04
cd
fb
f3
0a
00
fe
f5
f5
f6
b8
fa
0d
ee
fa
08
03
08
fe
23
0a
f9
03
01
fa
03
f8
0d
37
05
fd
02
04
fd
fc
06
06
e6
06
fc
fc
0c
01
fc
06
04
39
fd
ff
01
fc
ff
03
fe
00
b6
ef
02
ff
06
02
f9
07
09
f3
0b
05
03
0c
03
fc
01
09
21
03
05
06
f3
00
fe
f8
05
d9
f7
09
02
fb
f5
f1
02
13
9f
00
ff
f9
0d
0a
02
03
f7
3f
f5
fe
04
03
fb
f3
fa
fe
d0
fd
fd
06
fc
fd
01
02
00
07
fa
fe
f7
fb
f6
02
06
fd
3f
07
08
fe
08
03
03
fd
fd
50
f5
04
fb
08
02
fb
0b
04
b9
09
fe
08
f6
02
fd
f4
fe
92
02
03
f6
f7
08
0e
fb
f9
02
02
fe
f9
fe
0d
02
f8
fa
cc
f7
fe
ff
0c
05
fb
fb
fc
3d
fc
fc
00
07
00
fb
fa
01
54
ff
ff
03
0e
03
02
08
f9
d7
f7
04
fd
04
03
fb
fd
03
c5
00
fa
00
03
0b
05
fe
00
54
f8
03
02
fd
10
fd
05
eb
9c
f8
07
fe
f4
fb
f6
f8
ff
0a
f1
fe
01
f6
fc
04
03
ff
27
f6
f6
fa
f4
02
fe
fb
03
f3
f7
05
08
f3
fa
09
08
04
cd
04
fe
03
08
07
06
04
04
cd
fb
02
03
f6
08
f7
05
05
5e
03
fa
08
f3
f9
04
00
0e
f3
fb
fa
fe
fd
f9
02
f7
00
f8
fe
00
fd
f7
00
fc
fd
f6
6f
00
fe
01
0b
f5
06
f9
ff
c6
f5
ff
03
f1
fb
fc
00
05
fa
05
f9
fb
04
07
f9
18
fe
9a
01
0a
fb
fe
fe
07
01
00
a9
01
03
fe
fe
05
fd
09
f7
bc
05
03
fa
fe
fe
fd
13
f5
b2
0b
07
00
09
07
05
04
fc
34
08
f9
00
03
06
07
fe
fe
66
01
f3
fc
07
07
02
0a
02
03
02
f9
01
03
e9
02
06
05
10
07
f6
fc
01
f9
06
04
f9
e0
f9
f9
09
ff
05
fe
fc
fc
66
fb
0a
0b
fd
fa
fa
00
07
6d
07
04
ff
01
0c
02
f7
fd
0e
04
fa
02
fb
f9
fd
06
08
39
02
f4
ff
0c
fb
fb
03
fb
03
01
05
0a
fd
0d
01
06
03
73
fb
07
02
06
f2
eb
04
fd
8c
09
ff
fe
fd
09
fa
fe
08
c2
13
0c
00
fe
04
fb
0b
fb
8e
fe
03
f0
fe
f4
12
02
03
2c
fd
f7
ff
03
fe
06
06
06
2e
ff
00
fc
03
09
eb
fc
fa
f1
fc
02
01
fd
f6
fd
15
07
e1
09
04
fd
02
fe
fe
00
fe
18
03
02
03
f9
09
08
fc
fe
bf
f4
fb
f5
09
19
09
fa
f9
6c
02
04
f8
0b
fa
03
08
06
46
04
05
f8
fe
fc
fd
0d
05
31
fe
08
f4
f6
f4
f6
fb
05
d4
fb
08
02
01
0c
f9
eb
ff
5e
fc
00
06
00
f0
01
07
02
fe
0b
09
fb
02
08
f6
01
f0
16
fe
05
04
fe
fd
04
0c
06
a4
fd
f4
fd
00
f3
04
f8
08
dc
08
00
f9
06
03
ff
f3
fd
99
07
f6
fe
06
f6
0e
fe
03
69
03
fc
06
fb
01
fd
fd
11
b7
f7
f6
f8
06
02
fa
fb
00
7a
08
f2
ff
00
03
fe
ff
fc
02
0b
00
fa
ef
01
ff
fd
f8
bd
05
0b
ff
13
fa
07
f7
f8
1e
01
12
03
fb
fd
fa
0d
f6
01
09
fe
f3
04
03
05
fb
0a
2d
fb
f9
03
fc
fd
05
f9
03
1b
fe
fc
09
ff
01
0a
01
03
b2
fe
06
f9
f8
fd
f6
f3
fd
19
09
04
07
03
f6
fd
fc
fd
36
05
01
0b
04
02
03
fd
07
00
01
0a
0f
0d
fc
04
01
04
55
04
fb
06
0b
ff
09
ff
00
0c
f4
f8
06
ee
fd
f9
02
f8
4f
fa
fb
f7
0b
fc
01
05
02
5a
09
0e
05
ff
f4
fb
02
f3
d1
02
ff
f2
04
f3
04
06
fc
c3
06
06
05
00
fa
00
f8
fc
c6
00
04
03
0d
fd
f4
07
09
53
ff
fd
00
f8
08
fc
04
09
46
fe
04
ef
02
0e
ef
f6
fe
57
ef
0f
01
fe
ff
04
08
01
f2
08
03
f0
02
fd
16
fb
08
49
0d
02
00
00
04
fe
04
fb
23
fc
f8
fc
04
07
f9
01
f0
bd
00
0d
fc
f4
f8
f5
06
03
25
f9
fa
05
f8
07
01
02
06
c1
08
04
f7
06
f6
0b
fa
02
39
f8
fd
01
fa
04
01
fd
fc
f1
0a
fb
f6
05
f5
08
f4
05
1f
fb
06
08
00
02
08
fc
08
f3
01
00
f9
06
03
05
f6
f7
17
ff
ee
02
09
0f
fb
fd
f4
03
03
fd
02
fa
f9
f6
fb
02
00
ff
09
08
f9
fe
04
fc
fe
c0
ff
08
f6
ff
0a
fe
0e
00
cc
07
06
f6
00
02
0e
0d
fe
3b
07
01
fb
f9
0b
f7
f3
02
b3
05
fe
0b
04
04
fc
f8
0c
37
f9
f2
08
f5
00
02
03
fe
62
fe
fd
fa
04
08
04
0a
f5
5e
00
05
02
ff
0a
f3
0b
fa
35
fa
f9
08
01
02
05
f8
07
d0
f8
01
00
0a
fc
00
fb
02
5d
fa
f3
08
00
f0
0b
fa
09
b7
08
fb
09
f7
03
0a
fa
0d
94
f2
00
06
f6
f6
0f
06
fb
5c
f6
02
fc
09
fe
f3
03
01
dc
fa
05
f9
f7
f8
02
01
03
17
06
f5
03
07
fc
07
fe
05
da
fe
ee
03
fa
03
02
08
02
fe
fc
eb
09
0d
fb
fe
fb
0b
4c
fd
f4
fa
fb
0c
03
f2
05
28
f6
09
07
fd
f4
0c
03
01
f2
04
fb
f3
f1
fb
fc
06
fd
d4
0d
fa
fa
11
fa
f1
07
04
b7
f4
f3
fd
08
f9
f5
fd
f8
01
07
02
0e
0c
fe
11
06
04
50
f9
f9
07
f9
03
01
0d
f5
ff
07
f9
fb
00
11
10
02
03
c3
f9
fa
f7
05
05
fa
05
00
d5
03
f9
fe
f5
05
fb
00
f8
08
f2
02
08
02
0c
0c
08
f8
9c
01
f8
fb
08
fb
00
fc
f7
d1
fc
fb
06
ff
11
09
0c
15
17
ff
08
0a
fb
0a
fd
fc
00
d2
f5
f7
f2
0b
fe
f3
fb
fa
f1
02
04
f5
05
04
f9
06
fa
91
01
02
fb
f1
fd
ff
ff
f5
e0
02
02
08
03
09
18
05
01
5d
06
fa
04
07
03
fb
00
fe
ce
03
fb
ff
03
f7
02
03
f2
3f
07
ff
fc
01
ff
04
09
fe
5c
fc
fd
03
f8
fa
fd
0a
05
18
0c
00
0c
04
02
06
ff
fa
b6
04
09
f8
03
08
f2
01
ff
eb
02
ff
fe
f6
fb
f1
f9
05
c0
05
04
fc
10
09
04
fb
0b
b3
f8
f3
fc
00
fd
ff
03
f6
c7
fb
03
fb
f5
07
fb
04
10
ed
ff
0f
13
01
fe
f8
09
07
a2
02
f9
06
ff
05
02
06
fd
9e
f8
f7
f4
02
f3
ff
fc
06
c7
fa
fb
ff
fb
0a
04
f6
f6
8b
fa
0a
fd
03
00
0e
00
f8
a3
fc
0a
00
fc
fd
04
fb
f7
db
02
0b
05
04
f7
01
05
f7
d6
f8
f9
ff
f9
ff
fb
f4
ff
5d
f7
fb
05
fb
f5
02
fd
fc
f2
fb
0b
01
06
fd
07
fb
fb
15
00
10
10
01
f9
00
fb
fc
ff
0e
f8
fb
fa
f8
00
fa
fd
ab
fb
07
02
07
03
07
f9
fa
2d
00
fb
01
08
03
fb
00
fa
ab
fb
01
01
f6
00
f7
f9
f9
40
fc
fc
05
07
03
fc
05
fe
cc
f1
00
01
ec
f8
08
05
fd
53
fd
0e
f7
0e
fd
0a
10
06
27
fb
05
06
01
fa
ff
00
00
3f
fe
fa
07
0c
03
fc
fd
f8
fa
ff
f2
06
09
04
02
fb
05
02
06
02
07
02
00
f9
f2
f8
1d
fd
f7
fa
fe
02
f5
f9
09
da
f6
03
ff
ef
f4
00
f8
00
3a
f4
00
0d
10
0a
0e
06
fe
4c
07
02
06
09
01
fc
fd
0d
30
01
08
01
f9
fc
fb
f6
08
57
02
00
f4
f6
f9
02
00
03
44
f6
fa
ff
fc
f9
fd
04
ff
e6
fb
f9
00
fd
0b
fd
f0
ff
0b
03
fa
06
06
fe
f4
0a
05
3c
00
f4
0c
f9
0c
04
fa
08
57
09
0a
06
09
fc
07
fb
05
2f
f8
07
f8
0a
00
fd
05
03
97
04
f6
fe
04
04
f4
09
04
44
fe
09
00
00
fc
fc
08
0b
b3
02
09
fa
ff
04
00
ef
fd
00
0a
04
1a
fb
04
fd
f7
fc
b9
00
02
fa
10
fd
00
04
f9
5f
f1
f8
03
01
10
03
02
f7
44
0a
fb
f6
f9
f8
02
02
07
66
07
07
04
fa
fb
04
f7
01
9a
fc
ff
05
f8
02
fc
f7
05
dc
ff
f1
f5
09
fc
00
f7
fe
14
02
02
fd
ff
fe
ff
f9
0a
9a
02
ff
0c
05
fb
ff
07
02
37
fe
09
f7
fd
fc
fa
fa
04
e5
f9
00
0c
0d
09
f8
fc
0d
4f
f2
fe
0d
01
fd
fa
f7
00
d9
07
00
04
03
f9
fe
0a
04
fd
00
f8
ff
09
ff
fd
fa
07
69
02
00
03
fb
11
f9
0b
fc
44
f3
03
fb
0a
04
01
f8
0b
71
03
01
fa
02
00
fe
ff
fa
3b
00
07
fd
fb
f6
04
06
fe
3c
fd
02
fe
07
f5
e9
fc
fa
b7
fc
ee
05
04
00
09
07
f5
c7
ff
fd
f9
f4
f4
05
f7
07
af
f8
fe
06
0c
fd
01
04
f9
03
fd
fe
0d
fc
fd
00
f5
f6
9f
04
00
02
00
f9
02
fa
fe
9a
ff
08
fc
01
0a
ff
f8
13
a6
fe
0c
00
02
ff
04
0c
fa
1f
f1
f3
0a
15
05
03
f3
09
ac
06
02
fb
06
fe
09
00
f4
8f
0a
05
fd
fc
f4
fc
06
01
fe
fc
00
fb
08
f4
fc
02
03
3f
f8
f8
05
0e
fd
f2
ff
ff
19
0d
f7
fd
07
05
f7
fa
06
22
f3
fd
13
04
fa
ff
00
f5
cf
fd
fc
f1
ff
05
fc
ff
f6
e0
fb
fe
02
fe
07
02
12
f6
6c
01
fb
f7
03
f0
ff
fd
fc
e7
04
01
fd
07
0c
02
01
fc
b6
eb
07
fb
fa
fc
f6
fd
f8
a3
0a
04
01
f7
f4
ff
06
fe
05
01
fd
05
00
03
0c
00
f9
24
01
f7
06
f8
ff
01
f2
04
c3
fe
fa
0d
f9
f6
0b
f7
f8
5d
fe
fd
06
03
02
06
06
ff
aa
01
01
0b
00
04
f3
f5
08
a2
fc
00
fa
fa
02
f5
f3
f4
30
02
03
f3
01
fb
fd
fb
f1
0c
fc
0b
01
01
07
03
fc
03
cc
04
09
f2
fa
02
03
09
02
27
fe
01
fb
fb
02
06
fe
fa
0d
0b
ef
07
02
fc
02
f7
04
f9
fe
04
ff
02
f8
09
fa
f8
cb
f9
0b
06
16
04
ff
f4
07
29
07
0e
03
f8
11
01
fc
f7
13
00
00
ff
fe
00
02
f7
0b
de
fb
ff
fb
fb
03
fb
ff
0a
9b
04
f6
08
01
ef
04
f3
fa
9c
f8
f8
0c
09
fd
00
0b
0f
12
fd
00
fb
fc
f6
ff
fe
fd
2e
f2
0d
02
00
02
f7
fd
ff
61
fd
0a
f1
f7
00
06
08
0e
dc
09
07
ef
00
fd
f7
f6
fb
b0
f5
04
02
f4
fc
fc
f9
ff
68
fb
fe
03
04
fe
f8
04
06
09
00
04
f7
f2
00
05
04
10
2d
fb
02
11
05
f0
05
0d
fb
15
fb
03
00
ff
00
fe
f1
01
fe
11
04
03
fe
fe
fe
06
04
d1
0d
f7
05
00
fc
fd
f6
ff
65
fe
0a
00
0b
01
00
10
0c
d3
05
f7
06
00
07
fa
0e
09
cb
06
f7
f2
0c
0f
04
0a
fb
cf
fc
03
f8
ff
08
01
fa
f0
df
09
06
fb
06
f9
06
05
ff
00
f5
02
fb
08
08
04
f1
08
ae
08
11
02
09
00
f0
08
fd
26
fe
fd
ff
0b
02
07
06
fa
a0
fe
0d
f5
04
fa
0c
ff
f8
0b
f7
1b
fc
f9
05
09
fd
fc
2b
06
ef
01
fc
fb
fa
f9
0c
cb
ff
f7
02
01
01
04
04
ff
14
fe
fd
06
03
00
fb
fd
07
48
ff
03
fc
00
01
f9
fd
0c
39
0d
00
05
04
06
08
f5
0a
b1
fe
03
04
f9
fd
05
02
fb
c8
fd
fc
f7
04
ec
f2
02
ff
7a
08
f2
fe
fb
02
fc
fa
fb
23
fe
06
06
09
08
f4
0b
f3
43
01
fa
05
05
01
06
01
09
cb
03
0a
f5
04
08
06
00
f8
b9
09
f7
fc
03
0f
00
f7
00
54
fc
05
09
03
ff
02
03
fe
49
06
fd
01
05
01
f3
00
02
e1
00
fa
02
07
05
f6
fe
08
a3
08
f1
fd
fc
05
ff
01
fe
46
fe
02
06
00
08
f6
03
02
94
fb
05
0a
06
03
0c
05
fa
b8
fe
ff
05
00
0e
00
00
07
ee
08
f9
01
05
00
f0
f3
f7
97
02
f7
f4
07
f6
f9
f9
fd
20
fa
f5
03
fe
f4
05
f7
18
9d
00
fc
0f
fc
04
fb
04
ff
ff
0d
f8
08
00
07
05
09
fe
34
03
fa
f9
00
ff
ff
f5
fd
39
03
ff
05
05
fd
07
00
ff
98
00
0d
f9
00
00
ff
fd
0c
92
0a
04
fc
01
04
fc
ed
fe
92
ff
03
fc
fe
ff
0c
02
09
e7
00
00
f2
05
fd
f7
0a
02
a8
ff
06
07
ff
0b
fa
fe
fc
9d
fd
03
0e
f3
04
ff
01
fe
4a
fd
09
fe
ff
0a
f1
03
fc
3d
ff
04
fd
00
05
05
fd
02
a0
02
05
fe
05
fd
f1
f8
03
3b
05
f7
00
00
f8
00
fb
02
fe
06
01
03
00
0c
f3
04
fe
6a
f9
f7
0f
ff
07
0e
05
ef
1b
fa
04
f8
0a
f9
fa
03
03
e3
f2
00
02
fc
f1
05
f8
ff
9b
fd
fb
04
fd
fc
0d
01
ff
2e
03
04
ff
03
fa
fc
00
09
27
04
fe
04
fe
00
0b
fb
01
bc
0b
12
ff
08
03
fc
f7
01
3e
f0
00
00
02
fd
07
09
00
92
fd
0b
fe
06
ff
10
02
02
66
01
f7
03
07
05
0c
ff
04
45
03
07
f8
06
00
0e
05
0c
02
00
01
03
06
06
0b
04
02
e2
06
00
00
04
f8
fb
fb
fb
a0
fe
fb
fc
fa
06
04
00
fa
49
02
06
f7
09
00
fb
fa
f9
bf
fa
ff
fe
f4
01
02
01
f3
9c
01
fc
fb
fd
fb
fa
02
06
f8
ff
fd
09
fb
05
11
ff
01
97
0b
03
f3
08
11
fc
07
fc
60
0b
07
08
02
04
fd
fd
fd
2b
03
01
02
fe
fc
02
03
03
0a
04
06
f8
0f
fe
ff
07
fb
7f
fd
06
01
02
02
f9
06
f7
02
f9
08
f9
07
06
fd
07
01
8f
03
0f
0f
04
ff
0b
ff
06
22
09
03
fb
06
05
06
01
fc
ab
f7
ea
ff
0d
0c
0a
05
0b
d5
fc
f6
07
05
f9
01
09
fc
90
f8
f7
fb
09
01
ff
03
f8
db
fd
01
02
ff
03
fa
f5
fa
5b
02
11
05
ff
02
fc
f6
09
24
fc
0b
fd
f2
fc
ff
01
f9
d1
ff
f5
ed
fc
f4
09
14
fe
51
02
f5
f9
0c
00
f9
02
17
2f
f7
03
fb
fa
03
ff
07
00
b9
f4
0b
fe
01
04
fe
f1
fd
71
0a
09
05
fc
07
04
fe
ff
18
10
02
fc
05
00
fa
07
03
cb
fb
f3
08
fe
00
fe
ff
f6
30
f2
05
fb
fe
01
00
08
18
d0
05
ef
08
09
fc
fd
00
06
f0
0e
ff
fb
fb
0a
03
04
f8
34
03
f4
ff
14
fa
fa
fd
fa
cc
07
ff
f5
0a
09
00
00
05
d7
03
f8
0d
02
f9
06
0b
f7
d3
f7
00
08
03
fa
ff
08
06
1e
03
f3
09
fe
f9
ff
02
f5
3d
00
fd
f7
fe
f0
f7
f7
f8
5d
f5
ff
01
fd
05
07
00
04
d3
fc
f8
fe
06
f8
f8
03
fb
cb
0d
08
0e
f6
fb
f5
fa
01
9c
0b
ff
02
f5
fd
06
00
fb
cf
0a
fb
fb
03
02
ff
fc
07
30
03
fd
fa
0a
f9
f5
fd
f8
28
00
01
00
04
00
fb
01
07
d6
07
04
f8
fe
fc
06
f8
05
a1
f8
fd
f9
f9
f1
f8
00
fb
4d
0a
02
f3
0b
01
02
01
10
a5
05
04
13
f4
fe
06
07
02
44
f5
04
06
0b
f6
02
00
f3
16
ff
00
fd
01
02
f6
02
02
92
04
ff
03
0c
0d
f2
f0
01
d3
03
fb
f9
f8
10
fc
f3
fc
1d
fb
0b
f7
fa
f5
09
10
03
ce
00
f5
fb
ff
ff
0c
02
f4
3c
04
f7
06
0f
01
09
fb
05
5b
f7
09
04
ff
f7
f8
fc
fd
62
f9
08
03
08
04
07
fb
f8
a8
fe
04
fa
01
fd
fe
03
fd
ab
ff
fa
03
02
fd
01
04
fe
27
01
05
06
04
fc
fa
05
00
3f
fd
06
fe
fc
00
03
03
00
2c
07
fb
02
06
ff
0e
01
ff
ee
00
03
02
09
03
10
01
f3
5c
06
03
fe
06
fd
01
02
08
29
06
02
03
f9
07
fa
06
0c
f3
03
ff
03
02
02
f2
06
fc
28
fb
08
fb
ff
01
00
fe
05
1f
07
00
06
04
f2
fc
fa
fb
24
f7
fd
fb
fb
07
fc
f4
fb
0e
fc
05
0c
f4
fd
ff
0a
f8
db
fd
03
09
fb
fe
07
fc
fa
dd
00
03
05
f8
03
f3
f3
0b
0a
04
fb
04
08
00
03
09
05
53
00
07
fd
fb
0a
00
03
03
04
00
08
fd
00
ff
ff
fa
08
fb
fd
03
f4
fc
00
04
f2
09
ec
02
02
fc
fd
0e
fd
f5
08
3c
07
fc
ee
0b
07
f6
00
01
89
02
0a
ff
03
04
00
0c
03
11
fc
01
0c
f2
06
05
05
fc
6c
fb
fe
f6
fa
02
ff
04
04
06
fa
fe
f9
0e
03
fc
02
f3
e3
02
f2
01
00
f4
fd
07
0d
c0
01
08
fc
fa
fb
07
f7
06
0f
04
08
03
ff
08
10
f8
f5
11
fa
05
04
fe
07
01
0a
fb
30
02
f5
00
08
f9
f6
fb
f8
40
01
f6
00
f6
fe
02
f7
00
3b
fd
09
fc
ff
04
ff
07
f7
b3
fd
05
08
05
fc
01
f9
06
88
fe
fd
06
fd
02
00
f8
01
3e
07
0a
f0
fd
09
09
f0
03
bc
f6
fc
fd
0e
02
fd
01
fd
3a
06
10
f1
01
fb
00
02
ff
51
fe
02
04
0f
06
02
fb
03
45
f8
04
f0
0a
15
fc
f2
04
d4
04
fa
05
0e
fc
ff
ff
f9
c5
fb
06
02
0b
01
0b
f3
fc
11
05
fd
03
fe
05
ff
f7
00
db
fa
fc
02
0b
08
06
f6
05
e7
f8
fe
ed
0a
03
f9
ff
02
9b
04
fe
f6
07
fc
fd
fc
06
d9
0a
fe
03
fe
0b
01
fb
fd
cc
01
fe
f2
03
0d
f7
ff
f9
e0
03
fa
08
ff
04
fb
f5
fd
b1
fe
01
f4
ff
05
ff
05
01
5a
01
00
0b
fb
09
06
ff
f8
18
f1
05
f8
05
06
02
f7
fe
04
09
fa
01
0f
03
fb
00
02
3a
f8
fd
0a
01
10
fa
f6
08
10
03
08
05
05
fb
fa
f7
05
32
03
05
00
f7
fd
fe
ef
f0
ae
fe
ff
01
03
08
f5
00
09
b0
09
06
f9
fc
02
0a
fe
fe
67
f9
ff
fa
fb
03
07
09
f1
ee
09
02
02
07
f2
fe
01
fe
5c
01
02
04
0b
fa
fa
f0
fb
3a
ff
f4
0b
0d
fe
07
01
05
ae
02
fa
ff
f8
f4
fb
fe
ff
b4
fc
06
10
05
04
08
ff
f6
72
08
f8
01
0d
06
f6
04
fd
68
fa
f7
02
00
fd
fb
fe
09
46
04
01
00
0a
06
01
f8
06
3b
00
03
f6
03
ff
01
f3
fc
02
f1
fa
05
10
ff
f5
ee
0c
d9
05
18
fa
05
01
05
05
00
57
f6
fb
fd
fe
f7
f5
ff
02
ae
f5
fc
fa
03
f8
f9
09
13
fc
ef
f6
0e
07
fe
fb
f8
fc
cd
fd
03
f6
01
f9
06
fc
01
f6
03
f7
10
05
fc
fd
ff
f7
f2
fa
04
f6
0f
08
fe
00
f6
f7
f8
f9
02
fd
f8
fd
13
fa
a2
f4
f7
f8
07
f2
08
fa
04
58
03
08
04
03
0c
fa
fe
03
3d
fc
04
fc
03
05
f6
0a
f2
2d
04
fd
ff
02
