0000000000000dfd
ffffffffffffea05
0000000000000d7d
fffffffffffff682
ffffffffffffdf87
00000000000028f7
ffffffffffffc40c
ffffffffffffd609
0000000000002977
0000000000003f73
ffffffffffffe605
ffffffffffffdd07
00000000000005ff
00000000000025f8
ffffffffffffd908
000000000000127c
0000000000000efd
ffffffffffffe785
0000000000000080
fffffffffffff482
ffffffffffffee84
ffffffffffffdd07
ffffffffffffdf87
000000000000047f
0000000000002778
000000000000177b
ffffffffffffc18d
ffffffffffffd609
000000000000057f
0000000000002d77
fffffffffffff502
ffffffffffffea05
