00
0a
06
f7
70
05
ff
fc
03
01
03
00
03
57
09
00
08
03
08
04
04
fd
5f
04
08
03
0d
f4
fc
09
00
68
06
05
02
03
04
02
0b
05
1b
00
f9
fd
06
ff
fe
00
ff
58
00
fc
fe
fc
f9
04
04
f8
52
fb
fa
f8
f9
fc
fe
04
f9
0a
01
00
ff
01
fa
fb
14
03
9d
01
f4
f7
fb
03
ff
02
fc
c1
f7
f7
ff
16
f9
03
14
fa
9f
03
06
00
fd
02
f4
06
fc
05
fe
fe
fc
09
02
08
fe
f8
e4
ff
f9
01
04
05
04
f5
f5
2e
fe
07
f7
01
02
03
0c
f8
a2
05
03
00
f5
fc
fa
0c
f5
4b
fd
fd
07
fc
ff
f2
fe
fe
92
06
fd
02
00
04
fb
09
ff
74
05
f4
05
01
06
00
fd
0b
65
0d
fe
02
01
08
fb
fe
04
e4
f6
fc
0e
0a
00
fa
fe
08
8b
05
0a
f9
f5
fd
f9
03
07
59
00
f7
01
fb
04
12
fe
fe
32
ff
02
01
f5
fc
03
ff
fd
bb
fc
f3
02
f7
01
03
03
f5
b2
0b
f3
00
06
01
04
03
ff
46
09
fd
09
ff
07
08
05
0d
40
08
fe
04
01
0c
06
06
03
47
02
f1
08
fd
fe
07
fa
00
07
0b
f6
0a
01
00
03
fe
fe
ef
05
fa
04
11
f5
0d
01
05
62
0a
02
f5
fa
00
00
f8
fd
a3
ed
00
0f
fd
f4
f9
0b
fc
21
fc
00
fc
fb
fc
f9
01
ea
4c
00
07
f0
0a
f8
04
01
09
b6
fe
01
12
f3
01
ee
fc
09
6d
0b
05
00
0a
08
02
f6
02
20
05
f6
fe
fd
07
00
fd
fc
bc
f8
07
f2
03
fd
04
f3
06
33
00
f8
01
09
09
fa
fe
fb
ce
06
06
10
03
06
0a
fe
fb
8e
f4
ff
ec
fc
09
f8
f7
fc
a5
01
f8
f3
03
01
07
0e
05
ca
fd
04
03
f6
08
ff
04
01
49
03
02
01
f4
fc
02
fe
00
df
01
f9
14
05
f6
0c
03
fc
9d
01
f7
05
fb
f9
00
05
f9
70
02
03
ef
fb
04
02
f1
00
d1
02
02
fb
04
02
06
03
f8
cc
04
ff
ff
02
ff
02
fc
fc
e9
02
f8
02
0e
05
f6
02
fc
4a
01
03
fd
15
f8
fe
06
fd
2b
00
02
04
fc
0c
0a
fc
03
1d
fb
01
ff
fb
fd
02
fc
fb
fb
05
f6
fd
02
f8
05
fd
fb
d1
08
09
f5
08
f5
09
04
05
5a
0f
07
03
08
f9
fe
0e
12
9f
fb
03
0a
04
03
f9
07
04
16
fb
05
fc
01
fd
fa
02
f0
ae
fe
fc
f5
03
01
02
01
02
14
0d
fd
03
ff
fa
07
04
01
2b
06
04
00
fc
09
f7
f3
08
c5
fd
f6
fd
09
00
fd
00
f2
17
02
07
05
04
09
08
fb
03
f7
08
f4
04
fb
f9
fe
03
f7
18
09
ee
f7
05
f2
ff
00
f4
5d
06
08
e9
f6
02
f5
f0
fd
1c
f5
f8
00
f5
07
f3
f8
06
4a
07
07
0a
05
08
05
f9
fd
f0
0d
ff
02
04
f7
0a
02
08
39
01
f5
f3
fa
02
03
fb
0a
ae
01
f9
04
07
01
fc
f5
01
58
fe
f1
fc
fa
ee
0a
01
f3
c4
fc
03
05
ff
fc
ef
09
00
a7
04
0f
02
fd
01
f9
01
f8
a5
fc
fd
ec
fa
fd
f4
fb
fe
b2
0a
02
06
f5
03
f9
fe
03
88
08
fa
fe
f8
f9
08
02
0f
16
f7
0e
f3
f9
f4
fd
00
f9
2f
ff
06
f8
05
ff
04
f6
0c
43
03
03
fb
fc
05
f6
0e
f7
e3
09
04
03
09
04
fd
fc
f8
bf
03
04
0b
fd
fc
ff
03
f7
be
14
fd
0e
04
fc
fd
04
fa
2c
0c
fd
ff
00
06
07
fd
03
c6
f2
fe
fe
ef
ff
f8
00
fa
ff
f9
f9
00
01
0b
05
00
fa
2f
ff
0a
03
0e
08
07
fc
03
8d
0a
10
05
09
06
fc
06
03
db
fa
06
04
04
07
fd
08
ff
02
03
00
07
0c
f8
05
09
fd
12
fa
f5
f8
ff
01
fc
ff
f7
3b
06
11
09
f8
f9
ff
02
f8
9b
fe
0c
ff
ef
02
f7
13
14
a8
fc
fa
0e
ff
01
fe
02
fe
03
f6
fc
0c
f8
07
ff
fd
03
e4
07
11
f5
01
02
fc
fc
03
a8
0d
f7
ff
fa
0c
06
fd
06
9d
03
00
fe
fe
fd
ff
06
f2
24
06
f4
03
fc
fa
fe
fb
00
41
fd
f5
fe
fb
fc
fe
f9
ff
d1
f7
00
ff
05
f4
04
04
04
16
02
02
01
01
00
06
03
fb
d8
f1
fe
0a
fb
f9
03
f3
fd
ab
ff
f7
00
04
f8
ff
fa
fa
3a
fa
05
09
01
0a
00
11
07
5e
fc
00
00
f5
09
f4
f6
f2
c7
fe
fd
ff
06
f9
fd
fc
fb
68
fc
01
07
01
08
fc
08
04
cd
fc
05
05
fd
0f
f4
05
0e
4a
ff
fc
f5
05
fc
02
f4
ff
5b
01
fb
f6
00
f9
fc
f5
08
ef
f5
fd
fd
f4
0a
09
0a
0f
f0
03
06
08
f4
06
fe
fc
f3
9b
fa
03
06
fb
f4
08
fd
ff
70
06
fc
02
f9
08
fc
00
03
fa
11
04
fe
f6
fe
0a
03
e7
fc
06
0b
0e
0e
fa
01
f8
fa
26
f9
fe
05
0a
ff
0b
0c
02
c3
ff
04
fd
01
fb
fd
fb
fc
32
fa
fd
01
01
03
02
0f
fd
0e
06
ff
0c
01
06
08
07
06
cd
fc
ff
f3
fa
fa
00
f7
fc
03
fa
f4
fb
09
fb
f9
f4
fb
39
05
03
08
09
0c
fe
fb
00
3a
05
04
06
01
09
09
09
fd
af
01
fe
01
f8
f7
07
ff
fb
65
f5
ff
06
fc
fd
f7
00
0b
3f
0f
0b
fb
0b
fd
0b
f7
0c
c7
fc
0a
ff
fd
05
08
02
00
52
00
0e
fa
04
ff
0b
00
08
bd
fa
fa
fc
07
fe
fd
00
05
e8
0b
0b
fa
05
02
f9
01
ff
93
fa
f2
00
f5
fc
11
fd
01
c8
fc
fb
05
fa
ff
fc
03
f6
29
f7
ed
03
01
fd
f9
04
02
cd
ff
06
02
04
fb
06
f5
03
aa
fa
f1
fc
fd
fc
06
ff
05
02
02
f8
fe
03
02
fe
01
06
0b
01
08
0e
0e
00
07
fb
03
bb
05
fd
01
f7
0c
04
08
fe
ff
ff
fa
0b
08
03
fe
f8
f4
b9
0d
f8
07
fa
ec
01
02
03
f8
fe
04
fc
05
ff
0c
04
fe
d2
fc
01
06
09
03
06
05
fb
6d
0a
01
02
00
13
ff
02
01
86
fe
04
00
0f
09
fd
01
11
d4
fd
ff
fb
02
05
fe
fe
f6
dc
09
03
fe
05
ff
fd
fc
f9
ee
fb
f7
07
f2
05
f5
0d
09
8c
fa
fe
01
06
fb
0a
03
fd
21
fb
01
f1
01
00
09
02
02
a9
ff
ee
fb
0d
05
f8
03
06
f0
fd
05
f6
14
11
fe
05
fd
ea
f9
10
f2
07
00
f6
fc
ff
c1
f9
fb
f7
fa
fe
f1
00
04
8e
07
f8
f9
05
03
f9
fc
08
b3
ff
00
fe
f0
06
fc
f6
fc
65
02
09
fe
ff
f9
04
04
f5
11
0a
03
fc
0a
ff
f9
05
fa
2e
fd
f3
0e
fe
f9
ff
04
f9
ee
fa
fb
07
06
f7
f1
f6
f0
b4
06
02
00
06
00
01
01
f8
b2
07
f6
ff
09
f8
0e
04
09
47
fb
07
fc
01
03
f9
0d
01
25
f6
01
ff
03
f9
fb
01
fa
32
fc
fe
07
ff
fe
12
11
f1
a0
f8
fd
07
ff
f9
03
01
f5
3d
05
00
01
00
fd
fc
fb
14
f2
f7
fc
00
02
fd
fd
00
0a
c8
eb
fc
ff
07
03
ff
ff
fc
f4
fe
14
01
0e
fe
03
01
05
a3
f3
05
f6
08
07
05
08
f3
24
01
fd
f5
fb
05
ef
ff
f1
14
09
fe
01
04
fb
f8
f7
07
27
fe
09
04
fa
f4
f2
0e
03
57
fe
03
01
07
0b
01
fd
06
95
fe
fb
0b
00
01
fd
f6
00
d2
06
10
fa
05
0a
0c
fd
fd
c6
05
fc
01
01
0b
03
fd
fc
54
f9
06
fc
03
0a
01
fd
ed
10
11
02
00
f4
f8
05
08
04
eb
f8
09
ff
00
fe
0e
00
09
30
f7
f9
08
ff
0b
07
0c
fa
32
fe
07
00
fb
0b
05
02
fb
b6
fe
00
fa
03
06
ff
04
07
28
fb
fb
ff
06
fa
00
00
00
5c
01
01
fc
03
0c
ff
f4
02
33
0b
0b
fd
fd
ff
06
f7
06
e9
f4
f9
fa
ff
06
06
f5
04
65
fc
f9
fd
00
fa
00
fa
03
44
00
fe
01
fd
0a
f4
fd
fd
e7
f8
01
fc
00
ff
08
10
f3
37
fc
02
fb
fc
fc
02
06
04
58
00
fd
0c
fd
01
00
05
01
f3
02
02
fe
fd
f8
fc
f8
03
3d
f1
fa
f9
f8
02
01
f7
02
3e
fb
0c
0d
00
fc
01
fb
f8
9b
0f
01
ff
fa
03
0a
fb
09
33
0b
03
10
f7
03
ff
00
f5
b7
fb
fd
f6
00
f6
f3
fc
0a
d9
0d
03
f8
01
02
f4
ff
01
d8
02
fe
0a
07
00
f3
12
f9
31
04
11
04
0f
06
01
04
ff
4d
ff
07
f4
f7
01
06
ff
02
f5
f9
fe
06
ff
04
01
02
ff
b1
fc
0e
04
07
fe
fa
08
0c
b1
fd
fe
00
07
01
f4
fc
ff
65
04
03
07
04
0d
0d
05
fe
cc
02
f9
ff
03
ff
03
fc
0a
d7
0d
04
10
00
07
0f
fd
0a
ba
02
ff
03
00
fe
0b
08
ff
c4
f6
03
03
fa
fc
fb
fd
04
ab
ff
06
01
fa
04
09
fe
01
97
0b
f7
00
fe
02
0e
ed
0e
b7
00
01
13
f4
00
0e
fd
07
cf
00
05
06
f0
02
fb
eb
03
57
f5
ee
03
fa
0a
00
fd
01
ce
f9
ef
01
02
02
fc
ee
03
f5
fa
08
fd
02
0a
01
02
0d
e9
f7
02
ff
f8
f9
fe
07
0f
cf
0a
04
fc
02
04
ef
01
fb
5e
02
ff
0f
02
f9
08
06
03
3a
08
f8
fd
01
07
fe
01
f9
c4
f9
01
05
fc
fa
ee
f5
0c
fc
f0
02
fd
03
fc
f8
02
fa
6d
00
00
ef
06
fb
f8
fe
12
28
fc
07
00
f8
05
04
f8
fc
ca
f7
01
08
02
fc
02
ef
f1
cb
fe
ff
fd
fd
02
f8
05
07
0b
fa
02
f3
07
02
05
fa
09
ee
08
01
fe
03
05
f7
08
01
61
f9
03
ff
ff
0a
0c
01
fa
0c
fa
0b
fc
02
03
f8
f9
fe
70
0b
08
f5
fd
05
fc
03
05
62
f4
04
01
03
08
02
01
05
74
fd
04
03
fe
00
f6
fc
06
ea
00
02
03
00
f6
f7
01
f8
bd
ff
00
02
04
fd
fe
0a
fb
9b
ff
02
fb
00
03
fc
01
01
73
04
00
fa
01
fd
f9
f8
f7
31
0a
00
02
fe
ff
0a
05
ff
f1
ff
ff
01
00
fb
02
fd
f4
09
fc
02
04
fd
02
04
f8
fc
f6
00
fc
fc
fa
03
04
03
f3
fe
03
00
fd
fe
04
00
08
fa
95
06
0b
00
f8
f8
09
f8
fd
fa
0b
03
f9
04
03
f7
07
07
37
09
02
fc
02
fd
f9
0b
05
c9
fb
01
07
ff
01
f5
ff
03
57
08
03
03
f9
02
10
05
f3
b9
f2
01
09
02
fc
11
fe
f6
c7
04
03
08
fe
fc
05
02
fa
6a
0a
fb
01
05
01
09
05
00
a7
09
ff
fe
ff
03
fe
04
06
f4
fb
0c
04
fd
fe
f3
f9
f9
d9
04
07
f3
ff
fc
f4
ff
fe
f9
00
f4
04
fb
f1
fb
ff
f9
42
03
f7
fa
00
05
f2
f8
08
a1
ef
fd
0a
04
07
02
01
09
b2
05
07
01
fd
04
0e
01
f4
cd
10
04
05
fc
03
fa
04
01
b0
04
01
ff
fd
fe
fb
00
fd
e0
08
fd
f3
10
08
fb
fb
09
9f
f8
07
06
fe
05
f9
06
ec
3f
01
08
07
fe
fb
08
fd
ee
f9
13
fb
fd
01
04
fc
00
08
90
0e
ff
f5
01
09
fe
0b
fd
de
03
fc
04
fe
07
fa
fa
0b
fb
03
00
f7
fb
00
ff
00
00
8e
08
04
04
fb
f5
02
fe
f2
47
09
06
09
02
04
fa
fa
fb
3d
0c
05
f6
0b
f4
10
02
ff
46
11
f7
fd
fe
02
04
ff
09
e0
02
05
fb
06
0b
02
06
f0
f0
04
03
0e
0b
01
f9
09
09
de
fb
f9
01
ff
f6
fd
0f
09
da
05
f7
fb
03
04
03
fa
0f
72
fb
0d
fc
07
f0
0e
07
00
e9
fe
f2
fe
09
08
08
0d
05
41
0b
07
01
00
01
06
ff
0c
3f
00
03
fb
fd
fb
07
f6
0d
36
05
02
07
09
00
f4
01
ef
5d
fb
0a
09
fd
02
0b
07
f9
5d
fd
0e
04
f8
fb
09
02
f6
90
f9
09
fa
ff
ff
07
01
01
fb
0c
ff
fa
0a
06
fa
09
09
c5
04
08
06
00
fb
0a
fb
f8
3a
02
f7
f8
fa
03
0b
04
0e
cb
fe
0a
06
07
0a
fc
08
0f
05
f5
fc
f6
0d
f8
fc
0b
fb
0a
0a
f7
01
fb
03
06
06
02
ad
06
06
03
f5
f7
f3
ff
02
ad
ff
0d
f6
fd
06
fe
fd
fe
46
f6
03
fe
01
f3
fe
f7
ff
9e
01
f6
fe
f5
fe
00
fd
09
9f
05
02
07
f4
0b
f8
02
ff
b4
05
ff
fe
fc
02
f4
f7
fa
0d
03
00
fe
fb
03
0e
f3
08
ab
08
f8
05
f6
fc
03
03
fe
ff
08
03
02
f9
f6
fb
fd
fb
ba
ff
ff
fe
05
f9
03
f8
f7
9f
f9
01
05
0a
0b
01
fe
0e
f0
02
ee
ff
08
fc
05
f7
05
ee
00
f7
fe
f8
f6
f8
f4
00
4d
fa
02
01
0a
01
f8
fe
0c
8d
fe
f8
f9
02
fb
ed
04
1c
59
00
01
f0
04
ff
06
f9
1a
01
fd
07
fa
fe
fc
fe
fc
06
cf
fa
fb
07
02
f7
00
08
05
95
06
0b
09
ee
ff
f9
03
f2
b1
fb
01
f7
01
fb
00
f9
0c
2c
04
fa
fc
fc
00
01
fc
00
4c
05
04
06
ff
f6
0a
02
00
25
f7
fc
05
0b
00
02
0f
0f
32
03
03
fb
f9
fe
fa
01
0c
17
0b
07
00
ff
07
f1
04
fb
e8
0c
04
04
ff
f8
fd
01
fa
aa
00
03
fd
01
fe
00
01
00
2c
03
f9
03
07
01
fb
f4
0a
b3
fe
13
05
ff
fe
00
fc
02
f8
06
05
04
10
fe
fe
02
fe
b2
0d
08
fd
04
fe
00
01
04
ae
08
fe
fb
04
02
08
ff
03
a2
01
fc
05
09
0d
03
f4
03
21
fe
03
fe
0c
fc
fa
06
01
bb
fc
0b
f8
fb
05
0a
fd
07
b9
0b
06
02
05
01
f9
04
eb
7d
05
fa
03
00
01
05
fc
01
9b
f8
0d
fd
04
0a
fb
ff
18
95
ff
10
fa
ef
02
fa
00
04
4e
f9
02
0b
11
03
07
05
01
5d
f9
03
fc
02
ff
fc
01
fe
17
0d
07
02
04
00
00
05
07
4e
05
05
06
01
04
fe
fd
fa
df
f9
fc
f4
fc
f7
fd
04
06
64
01
07
fa
01
01
f6
00
02
91
fb
ff
05
fc
f1
03
02
fa
ee
02
0a
01
06
f8
01
fc
f2
68
08
f9
02
06
fd
00
fe
fd
37
04
01
02
f9
0c
f4
fa
f7
17
04
f5
f8
f7
00
ff
00
e7
03
ff
00
f4
fa
07
00
fb
00
1a
fc
06
f8
04
0e
f4
01
fa
ea
fe
08
fc
02
02
fe
08
fc
43
fd
fd
05
fd
f9
fa
fe
05
c8
09
00
f8
f7
f7
0e
07
f6
95
0a
f9
00
13
06
02
f0
e8
12
f9
f7
06
fe
02
11
fd
fc
5b
fd
f9
0a
01
02
fe
02
09
d2
fd
fc
fe
e9
08
f5
fa
f5
df
f0
02
f0
f4
07
f4
f2
07
88
03
0b
fd
f5
00
0b
0d
ff
3d
0d
03
07
f9
0f
05
05
03
46
fd
ff
03
00
f9
ff
10
f9
b0
08
fa
05
fc
f1
02
11
07
ff
05
f8
f3
f7
ff
ff
08
08
31
f2
09
00
03
06
01
f7
f7
42
0b
ff
0c
05
fa
05
0c
f8
21
f8
f8
02
f5
fe
fe
ff
0d
86
ff
fe
06
fa
f4
fb
ff
06
8a
fc
0c
06
04
fd
01
fd
fe
49
f9
fb
01
01
00
00
15
f8
ac
00
11
04
09
f8
fe
0a
06
0b
fe
03
00
0c
05
fe
07
fc
71
f3
fb
fc
f4
0c
f5
f7
f5
4b
0b
f4
f4
04
06
01
f9
f9
60
05
03
10
05
ff
f7
04
fa
1b
fa
08
05
fb
00
06
fe
08
a7
f5
07
fa
fe
01
f1
08
04
26
f3
06
ff
01
ff
05
0f
0f
38
f4
fe
03
f4
f8
fd
f6
0c
e9
fd
05
0c
06
fd
fd
01
fd
0f
0f
0b
09
02
f2
03
fe
0a
48
f4
00
09
fd
00
15
06
0b
59
f6
fc
05
fa
fa
01
01
05
d6
f6
fa
06
fd
0b
f8
0e
00
31
04
fb
fe
fb
11
04
fd
fe
c5
f2
02
05
02
03
06
06
0e
e5
f8
07
00
f7
fc
fa
ff
0d
bb
00
04
05
fe
04
04
fd
06
c9
f6
fb
fc
00
0e
fb
f6
f9
45
06
f6
fb
00
ff
09
fa
fb
a0
fd
01
05
04
f8
01
ef
04
de
05
02
09
08
09
0c
f5
00
cf
0c
01
f7
01
fc
fe
05
01
3d
10
02
ef
fa
0e
09
f9
00
f9
fc
ff
fe
f2
01
04
ff
05
30
ef
0c
16
09
01
fd
0d
02
de
07
f9
fa
f7
04
02
0e
fc
3c
08
f1
00
04
08
fc
03
fb
15
f9
01
f6
fc
ff
02
fa
08
93
fb
02
f7
ff
f7
fe
08
f3
d6
06
fd
0f
f9
f4
fd
01
fb
90
01
0e
04
fe
fa
0e
fd
f6
8c
f2
fa
02
02
03
01
fe
fd
fa
03
02
03
f5
00
04
fa
fd
06
0a
0b
f3
fb
fe
fd
03
07
11
01
01
f6
00
03
05
f9
06
aa
06
fc
fa
04
01
0e
fb
02
f3
fb
ff
fa
fd
f9
fd
f0
04
3c
07
0b
fc
05
f8
ff
06
00
3f
fa
07
ff
f5
f1
fc
fa
fe
43
07
fd
fa
f3
01
f8
ff
f5
25
09
f6
fd
03
fe
fd
04
fc
3d
03
eb
05
02
01
01
fa
03
d7
04
04
fa
07
01
00
06
fe
f8
ff
ff
04
ff
0c
fa
01
06
13
02
00
f7
f9
03
ff
02
ff
73
fb
13
09
03
03
00
01
01
f7
05
04
fd
00
f6
ff
09
03
c7
0a
00
0c
00
01
f2
fe
01
19
f8
00
02
02
fa
fa
fe
f9
61
04
09
07
ff
f2
fa
0c
ff
16
f7
05
05
05
09
ff
00
ff
af
02
fb
00
fc
f8
ff
ff
00
a3
07
01
f5
fb
0b
0d
08
02
d5
05
f4
fc
02
0a
09
0d
07
37
f7
0c
04
ff
fe
fc
fc
f6
8d
07
fd
02
fd
04
ee
02
01
d0
01
f6
06
03
ff
03
01
0a
4a
00
0d
02
09
03
0a
fc
fe
cc
01
f7
f7
fc
07
f9
06
02
df
01
f4
02
fa
04
fa
fa
02
b3
ff
ff
04
fd
f0
0b
f9
00
99
ff
01
fd
0e
fb
fd
fe
fc
dc
02
00
01
fd
03
07
00
f6
ed
04
fc
0c
0d
f5
ff
07
07
f3
fb
ef
fb
02
fd
fd
02
fa
aa
00
03
04
f5
fe
ff
ff
01
9f
02
fa
fc
f7
06
06
fb
fd
0e
ff
06
02
01
07
08
fb
f6
11
05
09
fe
fb
fe
ff
0b
01
d6
01
03
f9
ff
f6
f9
0a
04
46
fd
07
02
fe
fd
03
11
12
12
fe
0c
fd
f5
f6
07
00
0f
04
fc
fe
00
03
f4
06
ff
08
22
ff
06
fe
00
04
05
ff
fd
e6
fc
f4
04
f8
0d
fc
09
03
d0
ff
10
08
0a
06
06
08
fb
f4
fe
09
04
f6
f3
f7
fd
f0
6d
03
01
05
f9
01
0b
f8
03
ab
07
0d
04
ff
03
0b
fc
01
fe
fb
05
fc
09
fb
fb
0c
ff
df
f7
0c
00
f7
f9
fa
07
f8
de
f3
fa
f8
fa
fe
f5
03
0d
3b
07
f8
fe
ea
0a
0a
03
f9
22
ff
0a
12
fc
02
0e
08
fd
ad
fd
0b
ff
08
06
11
f9
16
b7
05
06
fd
06
08
10
02
08
22
00
03
f9
11
08
03
fe
09
ae
08
07
00
01
ff
fb
13
00
fe
ff
00
11
07
fc
04
02
05
4a
f8
fd
02
f4
07
09
00
fb
d2
00
fc
f0
10
08
fd
05
fb
a7
f4
f7
f5
ff
01
f6
0a
09
31
06
00
f7
fb
fe
10
00
01
e2
01
fa
ff
01
02
03
fe
fe
0c
fc
03
05
07
fb
10
09
ff
4e
f7
f9
17
01
01
04
fd
0b
24
fa
fd
05
fb
fa
fb
fd
f8
12
fb
fe
02
f5
f9
08
fc
f7
e6
00
f4
fe
fc
16
13
f9
06
44
06
05
fc
04
07
10
fe
02
5f
fd
fa
fd
fd
f4
f5
f2
0d
69
02
05
fe
ef
f0
fd
06
0a
c3
f6
f3
07
fc
f5
f6
fe
19
3f
f8
05
fb
e9
03
00
00
fc
b4
06
00
08
1a
03
fc
05
fa
4b
04
fc
04
09
f7
06
07
05
d3
03
fe
fb
fd
06
01
06
f6
c8
0b
13
07
ff
fc
f4
01
fe
17
01
fd
f8
fc
f8
f6
0f
f2
4e
02
0b
0b
09
0f
0c
f4
04
59
05
0d
03
0b
f3
0f
0f
01
c4
03
02
00
06
f5
eb
01
01
a0
fa
07
08
fd
fb
f5
03
00
0f
05
f9
05
f6
00
fb
ff
02
ba
fa
fb
03
03
0b
0f
f9
f8
ce
0a
09
f6
04
02
03
ff
fe
47
f8
0b
02
fb
fc
05
ff
09
ff
fe
06
f5
fb
06
06
03
04
ac
01
02
01
02
ff
ff
04
04
fe
0a
07
ff
f8
fd
fc
fa
07
66
f8
fb
f9
03
01
fe
f3
0b
f1
fe
06
ff
ff
01
04
01
fb
10
f6
fe
fb
ff
01
03
fb
13
32
fe
02
06
fa
06
f8
f3
06
51
f8
0a
fd
f9
00
ff
08
fe
c7
fa
06
ff
07
04
00
0a
05
f8
fb
ff
08
fb
ff
00
05
f7
19
01
fb
07
fb
f8
04
0b
04
2e
fa
05
f0
fa
f9
00
02
07
39
07
0b
01
fc
01
06
07
fe
99
05
04
02
f8
0c
ff
f9
f9
a1
00
fd
f4
05
04
00
f7
fd
5b
fb
fa
f8
f7
08
ff
04
03
7c
02
fd
ff
f4
00
fa
04
00
dd
05
fe
02
fe
04
f6
f7
0b
c4
07
fe
fb
ff
fb
09
fe
0a
1c
00
fa
f8
fc
06
01
04
f1
5e
f8
fa
04
05
01
09
f8
01
40
fb
fa
f5
f7
05
02
f4
08
07
f9
ff
05
03
05
08
fc
05
e4
00
05
fc
ff
fa
03
02
fb
69
fe
ff
05
04
00
05
fc
fd
4b
07
fa
fc
fd
02
0c
02
18
c2
fc
02
ff
11
fb
f8
00
fc
15
ff
02
fb
0a
fd
fe
06
f0
cc
01
fa
06
02
00
fb
0d
ff
f6
01
f6
16
02
06
0a
09
ed
c6
fb
fb
01
02
00
fd
ff
02
ac
f8
09
f1
08
00
fe
02
07
1e
0a
fe
f7
04
03
ff
03
05
63
ef
ff
fc
08
fa
02
fd
fe
ab
fd
fd
fb
fe
08
08
05
f7
3c
0a
0f
fe
f8
04
fe
03
04
e0
03
06
05
fd
fe
fe
fe
04
32
04
fd
01
f9
f5
f9
fb
00
da
fc
f8
fe
01
fc
0c
02
00
f2
05
fc
fe
fb
fd
fe
fa
08
3b
06
04
0f
fe
06
fd
02
fc
97
f7
07
03
06
ea
f3
fa
06
67
0c
f9
f5
fd
04
f5
f9
07
69
07
04
06
fe
ff
fa
01
01
ca
ff
f4
f3
05
04
fb
03
09
eb
f8
f4
f8
06
ff
fc
04
02
54
fb
01
0a
06
fd
00
fe
0c
4e
03
01
fb
fb
f8
f6
03
04
01
09
fe
00
0a
03
fb
03
09
03
fa
07
03
ff
06
f9
06
07
d9
f6
03
0c
00
00
00
05
08
20
02
fc
fb
ff
f4
0a
01
03
f8
fa
03
08
f5
02
03
fd
04
ce
fd
02
04
f4
ff
fa
03
f0
8b
f9
07
04
09
f4
f5
00
fb
e9
fd
fa
02
ff
04
08
06
f7
c4
05
0f
fa
04
05
ff
00
00
54
fe
07
00
06
ff
0a
fe
04
c7
f2
07
fe
f7
02
0c
fe
fe
99
f9
06
0c
ff
03
fc
f8
fc
dd
01
fe
02
05
0c
05
06
ff
d9
fd
0d
08
05
fd
00
fe
ff
72
00
03
ff
02
07
10
08
04
c8
fb
05
f8
fa
ff
07
f8
04
49
fd
03
01
f5
09
09
fd
03
a3
00
07
03
fd
04
05
00
03
d5
fb
07
02
0c
fa
00
00
fc
04
ff
fc
f9
04
f9
fb
05
fd
9e
f5
f5
02
fe
fb
05
09
04
bf
01
fc
00
02
02
f5
0a
0a
3e
f6
0f
f6
03
f9
fe
ff
f9
03
fd
fe
01
01
fb
fb
0d
04
5e
08
f5
f5
09
0a
0d
0e
06
98
fa
fc
08
0e
ff
0f
ff
01
48
03
f9
0a
e9
f8
03
fa
f8
55
f9
fd
fa
0a
08
05
fd
08
9a
f1
07
03
03
0b
0a
00
f5
b7
01
03
ff
f6
02
02
0d
0b
ec
0b
03
f5
f8
04
02
0b
01
b3
fb
fd
07
0a
0c
fa
fd
fa
4d
03
03
07
fd
01
fb
f9
fe
c5
ff
ff
fb
00
fe
f9
f9
09
c0
05
fd
f8
08
02
0c
f8
fb
cb
01
ef
02
03
fd
fe
ff
f8
b3
00
02
00
05
00
04
fe
04
05
00
f6
fc
01
00
f3
fd
02
9a
03
08
02
f9
00
fe
00
07
20
f5
f5
f3
03
00
02
f5
03
c5
04
00
f8
02
ff
ff
fa
00
dc
0c
f9
05
f9
f3
fe
00
05
55
0d
fe
fc
04
02
ff
fd
f6
be
f9
f7
00
0c
04
ff
fb
f9
a2
ff
fc
ff
fd
f7
fd
fd
f5
9d
fc
04
06
0c
f4
fe
02
05
08
0f
01
fa
fe
fe
07
05
fa
06
ef
fa
0a
02
00
07
0c
03
cd
f9
fb
06
f8
fb
04
fe
05
1e
02
f8
02
03
fd
02
fb
f0
a5
00
00
f4
0a
0c
07
08
00
d3
0e
02
01
00
fc
09
fe
04
b5
0b
fb
0c
03
01
ff
07
06
e8
fe
02
03
01
f7
f8
02
f9
b6
05
fe
f8
03
ff
09
05
f5
dd
fd
fa
f5
f9
02
ff
fe
0a
dc
ff
0e
04
02
14
0d
03
06
38
02
fb
ff
0b
01
f6
11
fe
d5
11
07
f6
04
0e
fb
fb
04
f3
f9
fc
ff
09
01
fb
00
fc
c8
ff
fb
eb
07
03
f0
0b
fa
44
f7
03
05
00
fa
04
04
0b
9f
fd
03
04
fd
fc
fb
09
04
c1
04
f5
04
fe
0f
0c
fe
04
15
f1
f8
04
00
f9
f4
f7
03
fc
0a
00
04
03
07
00
f4
01
3f
fd
fb
0b
03
03
fc
07
03
da
ff
0d
03
ff
fb
0a
fb
f9
3a
01
04
03
ff
04
fd
fc
fc
40
f5
0e
fe
00
fa
08
fc
fc
9c
01
f7
07
00
01
f8
ff
fc
b4
05
12
f4
05
00
01
00
ed
b2
fc
04
f0
08
f8
05
01
fc
d1
f2
f2
0b
f7
f9
04
ff
fe
0a
fc
0b
f9
0c
fa
fe
ed
00
63
fc
fd
fa
0d
07
f2
fe
f8
e4
fc
00
06
00
fd
07
f9
fa
d4
03
f8
03
08
f7
06
f3
f5
94
08
fb
fa
f6
06
0a
02
fe
97
f7
01
f6
fc
fc
f9
02
0b
60
fc
f6
02
f7
05
f9
02
05
5a
00
fd
09
fd
03
f5
06
fe
32
02
02
01
0e
00
0b
03
03
71
13
f7
fb
f9
00
0b
f2
01
25
fd
03
f8
fe
fe
f8
06
fb
69
fc
09
09
06
f9
f5
0a
f9
0a
07
fb
f8
05
fd
fe
00
01
24
fc
02
01
02
fe
f5
03
fe
00
f8
03
09
fc
04
0c
0a
03
1e
f2
fd
ff
f3
fa
f4
0c
05
ef
fe
fc
fa
f8
ff
04
0b
05
2f
f8
f9
05
05
0a
f6
01
03
d8
fd
fa
f5
fd
11
f5
0d
fd
a3
03
fb
01
01
fb
f5
07
08
38
03
03
06
fa
f9
f9
07
f6
4a
00
fd
00
05
04
12
f9
02
95
f3
f6
f8
f4
02
fa
fb
ff
3e
05
02
f6
01
00
00
ee
f9
b6
08
fb
f5
04
f6
00
0f
08
f9
f4
fd
08
fa
f9
f9
02
f0
e3
01
0b
0b
04
fd
fa
02
08
b0
fa
fa
ff
06
fc
0c
f6
04
55
04
00
00
fe
08
fa
00
fd
14
fc
f5
ec
00
05
04
fe
fa
32
0c
fe
f9
f9
fa
07
ff
f7
d3
fa
ff
01
f6
f8
fd
f9
fd
97
01
02
06
07
fe
07
fa
03
62
fc
f8
f6
fd
06
fe
01
ff
40
f5
fb
01
fd
fe
0e
fa
fa
2f
ff
03
04
ff
f5
fb
04
05
ff
fc
03
05
f7
08
01
04
08
be
ef
f1
f8
f8
0b
14
ff
0d
41
06
02
00
fc
0a
0e
00
03
c9
f7
ff
01
07
0e
06
fc
fb
08
04
01
fa
09
f8
fb
06
06
e2
0c
01
01
ff
01
05
02
01
3d
04
fd
04
ff
05
04
05
fc
5f
f8
02
f7
01
05
ff
0e
06
13
ef
05
fc
f6
05
00
01
03
bb
03
05
f9
f3
f8
fb
f8
fc
67
fe
02
07
04
04
07
02
f9
cf
ff
01
09
08
fb
04
02
05
64
0f
03
13
fe
ff
00
fa
fd
cf
06
04
01
fd
03
06
05
00
cb
f6
f9
fd
00
06
06
04
00
0d
fd
f8
08
fb
02
04
fe
05
4e
07
06
04
09
0d
0c
03
01
b8
05
f5
0f
f8
fe
14
fd
ff
76
ff
fa
fe
f3
f9
00
fc
08
40
06
f6
04
02
f7
00
f4
1a
d7
04
ff
fa
04
f8
ff
09
02
af
06
05
0c
06
f9
f8
fb
03
66
ff
01
0d
fd
fa
f9
fc
05
33
0b
fe
03
02
01
04
00
05
33
f7
ff
fe
00
f3
03
04
03
51
f9
fe
f8
08
fb
fa
01
f6
bd
05
fc
f9
01
13
0a
06
ef
8b
03
fe
00
08
03
f7
fe
08
27
03
fb
f9
02
f1
ec
f9
08
f6
03
fa
f4
01
fd
f6
fa
0c
7f
03
01
fc
fb
fa
f9
f9
ff
d2
06
fb
fe
05
00
0c
f4
f3
a8
09
f2
fa
05
03
03
0a
ff
1e
fe
03
11
f8
07
f8
fa
04
25
f9
f8
fa
03
06
fc
fa
04
15
ff
01
ed
01
01
ff
00
f8
25
ff
04
fd
00
05
08
03
fb
d0
fe
fd
09
08
fb
01
fa
f8
2c
07
fe
f7
fe
01
fc
07
07
13
f3
ff
01
04
fc
fc
07
01
d2
f8
f6
00
f6
01
fb
f8
f8
43
fe
03
01
fb
ff
05
04
fb
4c
fa
03
01
ff
06
00
08
fb
b0
f8
0b
fa
07
fd
02
fe
f8
08
06
f4
00
fe
01
f9
02
f9
2d
02
01
00
fd
fe
f6
fe
fd
0a
00
fe
fc
05
ff
ff
fe
00
bc
01
fd
f9
02
08
05
08
0e
96
08
fb
fc
01
01
0d
03
01
e8
fa
f9
01
06
f9
fb
fb
ff
21
0a
fa
fb
04
fd
04
fc
06
44
00
fa
f6
f1
f3
fe
f9
12
b8
03
fa
f7
fd
09
fa
f8
fe
14
05
f5
fd
00
f2
0e
fa
fa
23
04
04
0c
f7
ff
01
fb
f9
96
04
ff
04
f8
fd
fc
04
fd
d6
01
0b
ff
00
fa
f7
fe
06
9e
ff
f6
fc
09
fb
fd
05
02
1d
07
10
05
0b
05
04
fc
0b
3f
04
06
fb
fe
fd
07
ff
fd
ef
02
04
02
03
f6
05
ff
ff
1c
02
00
05
00
06
fa
00
f2
66
07
04
03
fd
fb
07
04
0b
f1
01
06
00
f9
fd
f8
01
02
02
08
ff
04
f9
03
fd
02
fa
c0
fd
08
fb
02
f3
07
0f
0f
45
f9
03
06
f3
ff
09
0f
f7
be
fb
00
f6
ff
ee
05
f9
03
21
12
fa
ff
ff
02
fa
08
01
32
13
05
03
fc
fc
f2
00
08
5c
fb
07
fe
f8
02
fe
ff
00
bd
fb
f8
fb
fb
fe
08
f1
00
11
00
f7
03
fd
fb
f6
fa
fd
05
08
f8
05
fa
02
11
04
13
0f
fc
06
06
f7
0d
09
04
09
02
fa
f9
05
0b
fb
02
09
00
29
05
03
0a
f4
ff
01
04
08
f7
00
fb
07
02
ff
04
01
fe
d3
04
fc
f8
ff
01
fa
09
f3
5c
f5
01
03
f6
f9
02
04
fe
c3
f4
08
0a
fa
07
fa
ff
fb
e5
ff
fa
04
00
0a
04
00
0c
d0
f8
03
05
05
07
fa
0b
ff
79
04
ff
fe
06
03
fb
05
0c
6b
f6
00
00
fa
fd
0d
04
03
2d
fb
01
f8
07
07
08
f6
fe
5a
fd
fc
fa
07
01
fc
f6
fd
9f
03
04
03
07
fc
01
01
fe
40
fa
0e
f8
03
f9
09
f7
05
d1
03
10
fc
03
f6
04
04
fa
f4
ff
02
f9
ff
fc
00
01
f4
07
f2
02
ff
04
f8
03
04
0d
fb
f6
00
ee
00
00
ff
fb
06
ac
0c
07
f3
0b
04
01
00
ed
ae
04
fb
07
03
12
fe
01
fc
2e
f5
f5
03
12
fd
06
fd
f6
72
f7
0b
05
05
08
05
fd
01
a0
f8
0a
fa
06
0a
04
04
09
30
f6
f9
f4
04
0e
06
01
f4
ca
ff
fe
f7
12
07
fd
00
09
00
08
01
05
09
f9
ef
fd
fe
11
fa
fe
f7
06
02
06
03
f8
57
f6
06
fb
03
f7
fa
05
01
af
fa
0a
f9
fa
f8
13
02
04
8d
00
05
02
f5
0f
04
fe
fc
48
fc
03
fd
00
0a
05
09
00
f0
fe
0c
fb
0b
13
fe
03
f2
bc
fe
00
fd
07
0a
05
09
fb
70
03
05
03
0a
08
fa
08
fe
4a
f1
04
ff
0a
08
07
fb
fc
c4
f9
fe
03
06
14
fb
f9
f1
d8
04
f7
01
fc
f9
0a
06
04
16
06
0b
01
08
05
fc
fd
08
de
fe
01
04
ff
15
13
01
fc
d1
0c
fb
04
f0
09
03
03
02
0c
ff
fb
02
06
ff
00
03
0f
32
00
0a
fc
14
fe
fa
01
0f
08
fb
f9
fd
08
f7
fe
f7
f8
41
05
0f
06
07
09
06
f7
08
34
fe
fe
01
04
ed
04
00
03
42
06
09
fb
fb
fa
00
01
fd
fe
07
f6
ff
08
fd
04
04
03
4e
07
f9
05
01
fd
fc
01
12
24
02
f8
06
fd
08
ff
0e
fd
d2
01
fb
f6
0a
fc
ff
ff
fb
d5
03
0e
fe
05
02
04
fb
f7
ce
09
01
04
00
f7
f8
02
fd
8e
0b
fe
06
ff
f4
ff
00
fd
ce
08
0a
05
05
05
fb
f6
f7
c0
f8
03
ff
fc
04
08
f6
07
b4
01
07
04
06
0a
00
fe
03
67
fd
fd
00
07
fd
ff
09
fa
a5
fb
0e
fe
ff
fd
09
f6
00
17
08
fb
ef
fb
06
ff
09
fc
d1
fd
ff
04
05
05
f8
fd
00
6f
f0
07
05
04
fb
f8
06
f6
02
f1
fc
fb
f4
fa
0a
07
0a
4e
00
02
0a
05
00
f7
f7
ff
b6
00
fe
01
f6
f7
03
f5
f2
08
01
fa
f2
fa
fe
04
f7
02
15
06
00
09
f9
fe
02
e9
03
e4
0e
09
ff
fc
00
fc
08
fa
97
fb
09
fe
fc
0e
fa
05
fe
2b
07
f9
03
05
f0
05
03
04
eb
03
fc
01
07
f9
01
0e
01
4c
fe
ff
0b
f2
f5
04
fe
fa
55
ff
fb
0d
f9
0c
00
fd
fa
e0
03
fb
02
f8
04
09
05
03
5d
0e
f8
01
fd
ff
05
f0
07
99
07
06
00
01
02
f8
01
04
9b
ff
06
0e
06
f5
f7
02
05
4a
f4
03
ff
02
fc
fc
05
02
32
f8
f2
fa
13
02
f5
fa
01
d9
02
f5
fc
fa
01
01
ff
fb
39
0c
f8
f6
0b
00
0a
08
f9
44
03
f9
fd
0a
02
ee
ff
03
2a
fe
00
01
04
f9
02
04
0d
d4
14
f0
ff
fe
fe
03
fa
09
17
08
fb
fa
f7
fa
09
f0
f7
e2
0b
f8
fc
03
f3
05
fc
0b
a8
ff
f7
fa
08
f6
03
0a
07
3a
0b
fe
08
00
f7
f2
00
f7
46
fe
00
00
08
f5
f9
fe
f1
2a
0d
fb
fb
fc
ee
f6
03
0b
c3
fb
fe
05
f3
05
05
03
01
0e
04
04
fb
0d
03
03
03
08
51
0f
06
05
fd
0f
fc
f7
fc
4c
fe
04
01
0a
f2
02
f9
fb
06
06
eb
fe
01
00
f7
fc
fc
4c
ff
07
0c
0d
09
07
08
09
ea
f7
f8
fb
f9
f8
f9
f9
02
c6
08
ff
f3
02
ff
fa
0d
fb
06
fc
fd
01
f6
09
fc
0c
fd
c7
05
04
ff
09
f0
f9
fb
f6
44
06
f7
01
f6
f1
05
00
f5
d7
11
f8
03
ff
06
06
00
f2
15
06
00
03
01
fa
06
f8
f7
10
fd
05
05
08
f4
fb
fd
01
ab
00
fd
f2
09
f7
fe
03
02
fb
fb
fd
ff
f9
fc
fe
0b
00
55
f5
fb
05
00
0c
f2
f3
f9
bc
f3
04
05
01
0c
00
00
05
44
06
fc
05
f2
f9
ff
fb
04
09
fd
06
fb
05
fc
0c
02
0a
91
09
f7
f7
fe
f1
fa
fa
06
e4
11
09
08
fe
01
fa
0b
ff
d0
02
fc
02
ff
09
04
fe
07
df
f3
03
ff
03
ff
06
06
f9
39
f5
09
01
00
ff
04
0a
fd
e2
03
08
05
f8
fd
fd
06
ff
0d
01
fb
fc
f8
0c
fa
fa
03
5b
fc
fd
fb
03
ff
03
fc
00
4d
fd
04
00
fd
03
07
05
04
4c
0a
00
0a
03
06
02
fd
01
5c
07
07
06
f9
fd
02
01
09
f9
00
03
02
03
01
02
fa
fd
35
fe
06
f7
07
00
02
fa
fe
fe
00
ff
05
fe
fd
fb
07
fc
36
f5
fd
10
08
f8
fd
01
fe
4c
06
05
03
eb
02
fc
f9
04
30
f6
06
f6
fb
05
03
06
f7
da
04
04
fd
f2
f0
01
f2
02
cd
07
09
03
03
f8
02
00
03
6d
fc
00
07
0f
f7
fe
fa
06
48
0c
04
00
0e
05
fe
fd
fb
b7
ff
07
09
f8
0b
02
05
02
b1
fe
0b
fb
fd
0f
00
09
0f
91
fb
fc
f7
04
f1
05
05
08
d1
03
0b
fc
08
f8
fe
04
02
64
07
09
fd
f4
04
08
05
03
c7
fd
f9
07
02
00
06
09
fd
07
03
07
ff
fb
f3
07
06
f7
d8
0d
fa
07
03
01
0b
04
f7
4e
0a
f6
0b
01
f3
03
03
f9
a6
06
f8
fb
fc
0b
fc
f4
fc
1d
fa
01
05
03
fd
fd
ff
03
a4
f3
fe
04
0f
02
f8
fc
fd
33
f9
fc
fe
00
06
05
02
fb
39
09
fe
fb
01
09
f9
07
fd
ac
10
f7
f1
07
fd
fa
f2
f7
43
04
04
03
07
ff
01
fd
00
17
fa
f1
ff
06
f9
07
fb
0a
5c
f9
f7
ff
04
03
04
03
f9
15
00
f3
fe
04
03
01
03
fd
1d
fd
00
f6
fd
f8
05
12
03
13
0b
01
0a
fc
ef
00
05
ff
b6
f8
0f
0e
f6
f6
06
fb
01
da
0a
07
f9
f5
fa
f2
f5
fa
2c
fd
f9
f6
f6
05
02
05
04
0b
0d
0f
07
04
00
01
f7
01
12
0b
04
fb
00
f6
0b
0b
07
25
0b
04
f8
f8
f7
f6
ff
07
e2
04
f3
fb
09
fe
f7
00
f6
26
f9
04
01
f1
f4
04
ff
03
52
f7
03
02
03
0d
02
00
13
a7
11
02
f5
fb
08
fc
fe
06
d3
fc
01
06
fe
f7
02
05
fb
1f
0b
0c
0c
f9
10
f6
fe
06
a8
07
f8
fd
f8
05
09
05
08
fd
08
fd
07
f4
fc
fe
00
fa
06
fc
ff
01
ff
01
00
fd
00
47
05
0c
f9
fd
02
07
0a
fd
21
fa
09
00
fd
02
f9
fd
fc
e2
02
0b
ff
0a
04
f5
00
f1
9b
00
ff
0f
02
ff
04
fc
f9
a9
fc
fe
05
07
03
04
03
f7
dd
0d
f4
f8
f7
f6
fd
fb
f9
48
fd
09
fd
08
00
0d
02
f8
08
fc
fa
e6
05
06
f9
f6
02
f7
fb
fd
f1
05
0f
fa
08
02
fd
fd
f7
fa
f8
03
f9
01
f6
cd
fe
00
f7
fd
f4
03
fb
fd
c5
f6
f8
fa
ff
0d
01
f6
f2
a3
fb
f9
08
06
05
03
ff
ff
24
f7
f0
07
ff
0e
01
08
05
16
05
f6
fc
0d
fa
ff
02
f7
41
ef
02
f3
f1
0c
01
f3
ff
bc
05
05
fe
01
fd
f8
fd
07
52
f2
fa
01
00
04
09
fb
01
42
f8
05
f4
01
ff
00
f3
f5
b1
fa
03
02
fb
01
00
05
fb
53
0b
fc
fa
08
f6
02
01
f9
42
05
fe
03
00
00
ff
04
0b
f8
f9
08
f9
f7
ff
f6
03
02
ae
fe
02
fe
fc
08
03
02
01
47
fa
ff
03
f2
09
0c
fb
fa
5b
f9
0e
02
08
0c
04
02
03
cf
02
05
f9
fe
03
00
e8
07
d4
0d
fd
08
03
f8
01
fd
f9
3d
00
00
f4
08
00
f6
fe
06
50
f9
05
f9
ff
f7
f5
ff
04
43
00
f5
05
03
00
0a
f4
05
8b
01
01
fe
02
07
00
fb
0a
64
ff
03
02
f6
05
f9
10
03
03
f9
f6
03
07
fb
ff
f4
fe
75
f9
08
02
01
02
02
0c
04
35
fa
07
0c
ff
fe
03
f3
0b
bf
01
fb
f5
02
03
0e
fd
fe
40
02
00
0a
05
01
0d
00
f2
fa
ed
09
00
fc
fa
01
0a
f2
03
05
f9
f8
08
fc
fd
fd
f7
af
06
fe
03
fe
f9
f9
00
02
f3
05
ff
fb
07
fb
f9
f2
0b
db
f9
fa
fe
03
fd
0c
0b
f6
c8
ff
0b
fd
06
f2
0f
00
ed
06
fd
00
0b
04
08
f8
00
f5
05
f5
f6
01
05
00
fd
04
07
04
0a
fb
fd
fc
00
0c
f6
f9
01
06
fb
00
ff
fc
0b
04
fd
43
f7
0a
f4
05
f9
06
07
f0
dc
00
02
f6
07
f7
fd
00
f7
7f
0c
05
f4
00
02
fd
00
f2
26
06
f1
fa
f1
fb
05
fa
04
f3
04
12
0a
0b
fd
f3
09
06
1f
00
fc
f8
03
03
fe
02
ff
05
09
03
fc
f8
f3
ff
ff
fb
11
05
f2
0a
fc
fd
08
07
f6
c4
f9
01
0b
01
02
00
ff
0b
bb
06
f7
f9
05
02
f5
f8
0c
db
01
ff
fc
05
03
07
02
01
59
fd
f9
fe
02
06
00
fa
02
3b
07
08
fe
03
f9
03
fe
fc
be
0a
fa
fd
fd
00
fc
02
09
53
01
fc
fa
06
f9
04
f8
02
b3
f3
fa
fd
00
f4
02
ff
f9
f7
01
05
03
f6
06
f8
fa
01
60
f8
09
07
0c
fa
f6
fc
fc
64
06
05
01
03
f9
fa
0b
fe
61
09
07
04
08
fc
fc
f3
09
33
f7
08
f9
01
0c
02
ff
03
c8
02
fa
f8
f5
f9
fe
fc
f8
63
fa
01
05
fc
fa
01
01
f3
ba
00
f9
f3
f6
ed
fd
f7
ff
9b
0d
05
02
fc
02
00
fb
0d
26
02
03
0b
fa
f9
f7
fe
03
f6
f7
fb
f2
fa
01
01
01
03
ed
03
f9
f2
03
05
05
fc
01
0a
01
01
05
03
fa
01
00
0a
14
08
00
11
fa
0c
f4
ff
fe
23
fb
06
04
09
00
fb
f0
f3
5d
f3
fe
f7
fe
fc
07
f9
04
b9
08
05
03
02
02
02
09
f6
63
ee
f3
ed
06
f9
fa
06
fc
16
01
f9
f3
00
03
01
fc
04
2d
fb
02
fe
f9
03
ff
fd
fa
31
02
03
0f
06
04
0c
f9
f9
cb
05
f8
f5
00
f8
fb
07
ff
40
05
04
ff
04
02
fb
03
03
14
0e
f8
05
02
01
07
06
fb
2a
f7
ff
f8
06
00
02
02
06
ec
fc
08
01
04
06
fb
fd
fc
fa
03
04
f5
ff
02
03
15
fe
28
f4
f8
f3
05
07
00
04
01
06
f9
00
ff
06
fb
f8
fa
02
25
02
f6
f8
07
03
ed
06
00
16
fe
fd
f8
01
05
03
08
02
18
f8
00
06
ff
02
05
fd
fd
10
01
ff
fe
03
08
10
fc
f5
0c
fd
03
f5
fe
fb
02
02
04
2b
04
fa
08
ff
fe
05
fe
ff
db
fb
0a
00
04
fa
f7
06
fe
7a
f4
01
f9
00
03
0a
fa
01
95
fd
09
03
03
04
07
00
fe
63
07
f8
fc
04
ff
05
f3
fe
92
0c
04
08
f3
01
f6
fc
02
c0
09
00
f6
03
ff
fe
fa
05
0f
fa
04
0d
ff
fe
f6
fe
fd
6d
f9
03
03
f0
02
00
02
02
6c
00
00
00
01
09
0b
01
03
50
fa
05
01
02
fe
fb
03
01
4c
07
0b
09
01
02
00
05
01
a3
08
0c
09
fe
02
f7
f6
fd
fb
fe
0a
01
fd
07
01
f9
f8
f2
fb
f9
e7
ff
fb
f9
02
00
ea
eb
0b
03
fe
00
f9
f6
fa
d9
f5
03
03
fd
f6
f8
f9
0b
99
f9
0d
fb
ef
00
0b
08
f6
f0
fe
fd
07
01
f2
f7
02
f4
b7
fd
f6
ff
10
fc
fe
fc
fe
62
01
0e
01
fb
07
f9
f9
fb
05
04
fe
06
07
02
02
02
f8
28
00
06
03
f7
f7
f8
03
0e
d1
03
f5
fa
0f
09
06
f1
fc
3f
fb
ff
f8
12
0b
0e
0b
04
21
fc
f4
09
01
f4
fe
04
06
1e
01
02
fb
ff
05
fb
f2
00
dd
f7
02
04
0a
01
00
06
02
dd
f9
03
04
02
fc
04
09
08
5a
f9
fe
f8
fe
f6
fe
0a
fe
01
fb
06
0b
07
06
02
08
f6
60
fc
00
f7
15
fe
ff
09
f8
0b
fb
f9
02
04
fd
fd
0a
02
d7
f9
05
fd
01
02
0c
f9
fa
a7
02
00
f7
fc
f8
07
08
00
20
ff
fd
00
f9
04
fd
00
f2
6d
03
f8
04
fd
f7
f2
fd
ee
8a
08
07
f7
09
fe
0a
f7
ff
ae
02
09
f2
06
09
04
ef
03
41
f5
12
fc
00
f7
f8
fa
fc
36
f9
10
f7
ee
f3
f6
fc
fe
48
00
fe
00
fa
ff
11
05
01
18
01
f3
f1
0d
0d
f8
08
fb
b2
08
fc
04
05
06
0c
02
f4
ec
08
07
ff
fe
f0
fd
fc
04
1f
0d
0b
fd
ff
02
09
fb
fb
cf
f6
f9
f6
07
