f9
09
08
0b
fa
0f
ff
0f
f9
ff
f9
08
06
2a
00
f9
0c
01
07
03
03
f6
ab
00
0b
f9
fe
fc
0f
07
fc
30
04
01
06
0c
03
f6
fc
f9
6d
05
fc
00
fc
04
f5
ff
fa
c1
03
fb
0e
00
04
04
02
05
c8
fe
06
01
0d
f8
f4
fd
f3
ab
fa
07
03
f3
02
05
fc
00
92
ff
0d
01
f9
03
01
07
07
ef
06
06
0e
f8
03
fe
0a
01
d3
06
07
fe
fa
fb
ef
eb
06
38
07
08
00
ee
01
05
06
01
f3
fd
02
ee
f6
03
08
fd
05
c6
04
06
f8
fe
f6
f2
00
0b
dd
00
07
f3
09
fb
e4
fa
0f
ee
f5
ef
0a
ff
13
06
03
02
a0
fe
ef
ff
05
f9
0a
fd
00
46
f6
00
eb
f9
07
03
f2
0b
b9
ed
12
f8
fb
f8
f5
fd
04
fb
01
07
01
fd
fe
01
13
ff
41
05
fa
04
03
f0
f6
02
05
17
02
00
03
fc
fc
05
12
07
31
fc
0f
fd
0e
0a
fe
01
05
06
0c
f6
0a
02
f0
f5
f9
06
47
05
02
fd
fc
0f
fd
08
fc
22
0a
08
0c
f7
09
05
03
00
50
f4
02
fe
f6
01
f9
00
00
94
07
04
fe
fa
07
ee
f1
f9
0a
fe
0d
09
f8
fd
06
fe
fc
ab
fa
0d
0a
fd
08
01
fd
fb
a4
f4
14
ff
fe
00
ed
0d
fe
b7
f5
fd
02
05
fe
f0
f7
05
20
0a
03
f9
fe
02
fd
08
f8
e1
03
0a
ef
fa
05
06
f6
08
44
fd
fb
08
07
05
f4
f8
fa
1a
04
00
f3
f4
02
ff
17
f9
00
0c
0f
fa
12
08
0c
15
f3
3b
00
03
04
02
06
08
09
fa
55
0f
f3
fc
0b
fc
f4
fd
0f
53
fb
04
06
03
fe
fd
00
0a
cb
00
f9
fe
fb
ea
fd
f7
0d
24
05
00
fd
fe
0d
07
f8
04
0d
fd
02
01
fa
01
f4
fd
09
03
f9
fe
fb
08
07
07
00
f4
31
05
f4
f6
01
f2
fd
05
f7
3a
04
fe
04
fd
f5
00
06
fe
b9
05
fc
fe
f6
0c
10
ff
0c
58
ed
ff
00
01
f6
05
0c
02
5c
03
fb
05
05
0c
f1
00
05
3e
07
09
fc
fa
ee
04
fc
11
fe
fd
ef
fd
0a
00
fd
0b
fd
c6
fd
f6
f9
fb
0a
0a
08
fa
95
00
00
fd
f8
09
01
00
fb
b6
f4
01
02
f8
fa
f9
eb
09
ac
f8
fb
06
f2
ff
f9
ff
fb
0f
03
09
fb
fe
11
08
02
f7
ad
f8
fd
06
fc
f3
07
03
07
b7
08
08
08
0b
f9
00
0c
03
1c
0c
0a
f8
05
09
01
01
f9
c2
fa
02
0e
01
f4
01
04
fe
0d
fe
fd
f6
10
fa
fe
ff
f5
a6
05
09
f7
f2
f8
09
03
01
f6
11
fa
fe
00
fb
06
05
f8
57
08
0b
03
fa
06
f6
0a
fe
b4
09
02
05
fe
05
01
09
f0
f0
f9
02
fb
01
03
17
f7
04
1c
04
03
06
03
f8
05
00
fe
03
07
03
03
04
01
0b
f9
08
23
0b
08
fb
07
04
fe
fe
0b
21
00
02
05
07
f9
08
fb
0b
69
02
fc
fb
07
01
fa
f3
f0
3b
00
0d
0c
f6
f6
fd
ff
f3
0b
04
0c
0c
04
f6
01
01
f6
d0
02
04
fe
02
00
fe
ff
0d
9d
0e
00
ff
06
02
fc
f4
07
15
02
01
04
05
06
fd
09
02
4f
fa
f7
f9
f7
f3
fa
fe
fc
26
08
02
f9
02
ff
f3
02
f8
bc
fb
fd
fb
05
10
ff
01
07
26
f5
fc
fe
02
08
07
fd
0d
59
ff
fe
fd
00
00
f5
fb
03
68
07
05
fe
fe
08
00
03
06
5d
f8
fb
02
f9
06
04
09
0a
2c
ff
f7
01
07
ff
04
06
01
1b
00
f9
fd
08
09
09
01
0d
04
01
f0
0b
fb
f7
fb
01
f6
ce
ff
ff
02
ff
04
03
ff
14
c8
03
06
f9
05
11
07
03
03
c2
07
fe
fe
02
05
05
11
0a
53
08
01
0f
05
ff
03
02
fb
c4
06
01
fa
05
fb
01
f8
f5
9b
0e
08
f8
fe
fd
04
06
00
5e
f9
fb
0c
02
f0
04
f9
01
3b
08
07
0e
f4
09
ff
0a
fd
01
03
10
fe
09
ff
fa
02
00
99
08
03
02
09
fb
f3
f7
f7
cd
fa
00
f7
00
06
f7
f9
02
a3
06
10
fe
06
06
05
09
0a
d6
fe
f9
fe
fb
05
f5
05
06
a1
f7
f7
08
00
f7
0c
f1
03
20
03
f6
03
f9
f3
fe
ee
fc
28
00
f4
fc
fa
f8
03
fe
02
35
fa
04
ff
00
f5
0e
09
04
99
0e
ee
fc
0e
00
fe
06
03
66
fc
f8
fd
0f
04
eb
f5
f9
07
10
0c
0b
06
05
fa
01
fa
38
ee
fe
02
f5
fc
03
0e
f3
0b
fe
fb
08
f6
03
06
01
00
35
fa
04
f5
0a
02
f4
fb
f9
61
fd
10
0a
09
05
03
f2
fc
9e
0b
fb
ff
f4
f5
0f
fb
04
ba
fd
01
03
f2
f5
0d
fb
fa
9e
03
fc
06
05
0c
07
04
fb
bd
fb
fd
07
0b
f2
03
04
f5
bb
12
03
01
10
03
fd
f1
fe
c2
09
f2
09
fe
f9
02
f9
fc
02
01
f5
04
f9
fb
03
f8
f7
51
00
ff
ff
04
06
f8
fa
03
04
0e
00
fe
0a
03
ff
0c
f8
44
03
fa
fd
f3
05
fa
02
fd
31
f8
fe
f9
11
01
07
f5
f8
cf
f9
f8
ef
fb
fa
06
f4
04
fb
11
fa
03
02
03
08
09
06
65
00
01
0a
fb
fd
fe
06
fa
9e
fe
f4
f7
ff
13
f1
fe
f9
a6
0d
0a
fd
09
ec
fe
f5
fb
bf
06
ef
fa
ff
fc
0b
f0
06
d1
01
04
fa
02
f8
02
fd
08
a6
fe
09
f6
01
f8
04
15
f5
2a
01
08
fc
01
08
10
06
fd
1a
01
02
00
fe
ff
f9
f9
f4
c4
00
f6
03
01
02
01
fd
0a
19
fe
06
ff
fc
fd
11
fe
04
45
09
06
0b
fe
f8
01
f0
04
37
03
fc
00
00
05
fb
00
f7
cc
fa
08
0a
fb
ff
f5
fa
fe
be
f3
03
05
01
f1
02
02
fa
55
08
12
ff
fa
fd
05
05
fc
66
05
02
fc
04
fe
02
f5
0d
eb
05
07
09
04
0d
04
05
ff
00
fb
ed
f8
09
f8
f6
f5
f9
10
04
00
01
ff
fc
00
0d
05
12
fe
06
f6
03
fd
00
06
06
59
fb
fa
01
03
05
0f
0b
02
2f
03
f3
fc
02
0b
00
fb
08
6a
fb
07
02
01
f8
02
0b
05
5b
f5
06
fb
fd
f5
fb
fb
10
1d
07
fb
02
05
fd
04
fb
f9
9f
02
04
0c
09
f8
0e
05
fe
19
fb
fc
09
08
fc
00
0c
f4
17
01
04
00
f8
01
fb
ff
0b
d2
0c
fa
fa
ff
02
05
01
ff
09
fb
0b
09
09
f6
07
05
fe
b1
07
0d
04
0b
06
01
02
11
73
f8
09
fb
ff
03
00
00
01
d4
03
06
02
f5
fb
fc
fb
02
cf
11
09
07
09
fb
fd
01
f3
5b
09
03
03
08
f8
f7
fb
0c
a6
fd
11
04
ff
fc
03
fb
00
02
00
0b
04
04
fe
fc
fe
f3
21
05
01
f7
fd
fe
f7
0b
f8
93
16
f4
06
0e
ff
07
04
fc
4e
f6
f6
f9
01
03
02
0c
f5
fa
fd
f8
01
01
fe
fc
01
00
48
05
04
f3
03
fd
f6
fa
01
19
0b
0a
fe
06
fe
07
f3
05
9a
fa
f9
01
fc
fe
0a
fb
05
df
ea
f8
ff
fe
05
fa
04
00
9e
ee
ff
05
f5
f0
06
fd
fd
fa
f8
04
01
03
07
fd
0f
fb
05
04
08
fe
ff
fa
fb
fd
fd
d8
f7
fb
ff
06
06
02
05
02
f8
02
f5
03
f9
fe
00
02
fd
11
f9
fc
06
05
fe
00
0c
09
47
08
03
02
0a
0f
03
fa
08
72
06
05
f9
07
05
05
f9
0c
46
fd
fe
07
fd
05
fb
04
0c
eb
f5
fb
f7
05
ff
05
f4
13
38
f5
f4
06
f4
fe
09
ff
0c
c3
09
00
02
03
0f
fa
fd
f3
9f
06
06
01
03
fa
11
fd
00
f5
09
ff
f6
07
ff
f9
0c
05
e0
f9
ea
0f
05
fb
f1
f9
fc
d6
04
07
00
03
f6
ff
01
fc
39
0a
01
0d
01
03
00
ef
f9
d4
fe
ff
03
03
09
00
f8
0c
e9
06
fc
fb
01
00
f5
08
fe
86
fa
ff
f9
02
fa
04
f3
f9
8b
ff
04
01
0b
fa
ff
06
f3
d7
fc
f3
0b
fd
03
06
03
01
9a
f4
0a
fd
f9
fd
04
f1
09
e8
0b
0c
f7
07
01
fb
05
fd
ca
01
06
fa
00
05
f8
f4
fe
ce
00
09
0c
08
07
fc
03
fa
97
01
fc
00
01
01
06
03
08
fb
fc
f8
fe
00
f8
00
07
0c
a2
02
fa
03
f8
fb
fe
f6
ff
23
fe
fd
00
fe
fd
fc
f7
ff
17
f7
02
fd
fc
fd
03
fe
ff
d3
09
fc
ff
ff
01
fd
00
02
fd
04
f7
fa
fd
00
fa
fd
03
4e
05
08
f0
03
ff
00
08
fc
a0
fb
f9
06
fb
00
ec
06
ff
1a
03
01
f7
01
04
03
02
f8
3a
f4
fe
0d
ff
fe
ff
f6
00
59
04
05
fe
fc
f7
fb
05
fb
1d
08
00
00
01
06
02
01
ff
67
02
fe
f9
04
f9
02
f6
ff
6b
03
02
fc
05
f5
06
06
01
98
fe
fa
07
fe
02
f3
06
fb
8e
02
fc
ff
f8
fc
00
f8
f5
42
02
fc
00
fe
01
03
03
00
92
00
06
02
f9
07
03
06
02
32
05
fa
01
fb
06
fd
04
fb
56
f8
02
0f
fb
fc
fa
fc
00
8d
02
fe
f6
fc
fe
07
01
07
90
fc
fd
0b
fc
07
06
fd
fa
61
fe
08
fa
04
ff
fa
05
fb
ac
04
ff
01
fb
04
02
04
fe
2e
fe
01
fd
fc
fe
fc
f6
fc
9e
f9
02
fa
01
0b
fa
fd
0c
44
0c
03
09
07
fb
00
02
ff
f8
f4
0c
02
03
fe
07
ff
02
02
01
f3
fd
08
fc
fd
fa
fe
99
01
03
f9
00
f3
f1
0f
00
41
f7
0a
05
06
0f
0d
fe
fa
a7
05
01
fd
f9
06
f8
ff
fd
b7
0d
f1
01
fc
04
00
f5
03
49
03
02
f5
09
05
fe
04
01
22
09
fb
04
04
00
04
f6
0a
ce
f5
04
02
04
fa
00
07
f6
3f
08
fe
08
f1
01
f7
01
fc
27
fc
01
fa
05
fe
f6
f5
f4
e4
07
08
00
0a
08
08
fd
fe
61
06
f5
fe
fe
02
0a
02
fd
dd
11
06
fb
09
04
ff
0d
06
bc
fd
f6
05
fd
f6
f1
fb
04
d3
fe
04
ff
04
01
fc
ff
fd
1e
ff
08
fb
fc
03
0b
ff
00
60
fd
f7
07
ff
00
02
fc
08
2c
fd
f6
02
f9
fb
04
f8
03
f1
02
0c
fe
ff
00
0b
08
fa
3b
07
fd
04
00
0b
fa
05
02
92
0f
f8
ff
fb
f6
05
fa
fb
60
fa
02
0a
fd
03
0c
07
03
da
00
fd
0a
00
fb
f9
05
fa
5f
01
13
fa
f5
02
fd
f5
04
5e
14
ef
f8
fd
fe
06
09
03
a8
f4
0d
fa
02
01
01
04
f9
91
ef
0e
fc
0d
04
03
02
f5
85
12
0a
fd
07
04
07
07
f6
dd
03
03
01
f6
f9
f8
12
03
c9
01
fb
f9
04
ee
ec
06
0c
11
03
01
fb
0e
07
06
07
f6
44
06
15
f7
06
fa
f7
00
03
5a
fb
fe
06
0a
00
04
07
07
9f
fb
fc
fb
00
0c
0d
02
f1
27
10
f3
f0
fb
fd
fb
f8
02
4d
f7
fe
0a
0b
03
ff
f7
00
13
fa
0f
09
00
ff
02
fa
02
fd
f6
06
08
fd
09
10
03
f4
47
f9
07
09
07
08
0a
05
fc
ca
00
f4
07
f4
f7
fa
f7
0c
b8
05
01
04
fb
01
fc
09
03
14
03
09
07
00
03
fb
0b
f0
ad
02
f6
fd
f1
00
fb
fb
03
0d
f7
00
01
07
05
fe
fb
fe
31
ff
03
07
fd
06
07
fb
02
ba
02
01
f7
05
07
ff
06
f0
b2
06
07
04
ef
f8
fc
f9
02
2f
03
ff
f8
01
01
00
fc
08
fd
03
01
fe
10
ff
fe
f8
f3
ac
07
08
05
fd
04
fe
f8
0a
ff
07
fc
03
f5
05
f7
04
fa
90
ff
f6
0a
07
0e
07
05
f8
07
fb
05
14
05
07
03
0f
f8
f9
ff
02
06
f9
0b
02
fc
04
68
f0
06
06
0f
fe
f0
01
f4
02
03
ef
14
fd
04
fb
f9
fd
c4
f5
06
f8
03
07
0c
0b
08
2e
ff
f8
fa
18
03
07
11
01
9b
02
03
04
f7
0b
fc
04
fb
17
03
fa
0b
fe
f9
f7
01
fd
4c
08
08
0a
00
05
0c
01
fc
30
fd
04
00
0a
01
0e
01
f0
29
fe
06
fb
ef
13
fc
06
0c
37
f6
fd
10
03
03
0d
fe
fd
17
06
08
fc
09
09
ff
f7
ef
a0
05
07
00
08
fa
06
03
fc
1d
09
fb
07
fc
fd
f3
f2
fb
3a
f9
08
fd
fe
08
ff
00
08
c8
02
fd
fc
00
00
00
fe
00
db
fc
f8
ff
0f
0f
fc
04
04
ba
06
04
fb
00
fd
f4
06
02
0c
fc
01
06
04
ff
00
01
0d
32
fa
fa
f8
01
03
07
fc
0b
27
fa
fe
02
04
03
02
03
0d
e5
f5
0b
fe
0f
0d
f8
f0
00
17
fa
04
09
01
fc
fe
ff
02
a4
00
fa
f5
06
f4
fd
00
f8
bf
0d
03
ff
f6
03
ff
07
0c
56
fe
06
06
0d
f8
0a
02
06
06
10
01
07
00
04
f0
fa
ef
c7
09
01
f7
fd
ff
fc
ff
f3
62
04
04
00
09
f9
00
04
09
f9
ff
03
07
0a
fc
06
fd
f6
35
01
0b
fe
08
03
04
fd
fb
c6
07
01
00
01
fa
fe
00
f7
d0
ff
0b
f6
fe
fd
f6
ec
f6
a2
05
08
f1
fd
fe
09
ff
0c
55
f8
04
fe
fe
15
fd
f1
f8
fb
f9
f8
0e
0a
06
f9
fe
ff
d8
fe
f8
ed
f1
f9
f8
ef
fe
49
fb
fb
f8
f9
ff
0b
ff
04
ac
fa
03
08
0d
09
03
07
05
51
ef
f9
ff
ff
f8
06
fe
ff
94
07
ee
fc
01
f7
05
ff
0d
2b
fa
fa
02
f3
f9
f7
00
fe
ba
05
fe
f5
fa
fe
ff
05
01
74
02
03
ff
00
05
fc
f5
0c
55
ff
00
07
00
02
00
f5
fa
db
fc
f8
f7
19
fd
00
fe
06
07
fe
08
f9
05
ff
f9
05
fc
eb
0b
00
00
fd
ff
01
00
fe
f3
0b
08
ff
00
0c
0a
01
fc
71
05
0a
0a
09
fe
f9
f3
04
63
fb
fa
fe
05
fe
07
ff
03
c0
01
fc
fc
f2
fc
03
0d
fe
42
02
02
f4
f1
ea
0c
01
f6
36
f4
f6
0a
fe
fe
05
ff
06
3d
05
06
fa
ff
02
ff
ff
fc
05
0b
02
fe
06
03
f7
04
01
eb
08
ef
f7
05
00
00
fd
fa
67
fd
f7
f7
ff
fe
f8
02
ff
04
fe
fa
01
09
08
fb
fd
0b
16
0b
05
05
fb
06
fe
02
01
fb
f9
0a
03
f8
08
fa
ff
fe
e2
06
f5
f1
fd
05
09
05
fe
a1
05
fa
00
f5
06
fb
0b
f6
f9
09
fb
09
01
f9
0d
05
fa
2d
fa
fc
00
05
04
0d
07
01
25
13
00
0a
0d
fb
07
05
f8
f6
fa
f9
fc
0e
07
00
fe
09
95
02
0e
00
fa
02
03
0d
fa
9d
01
ed
f9
04
fa
00
05
04
5e
f8
08
fe
06
05
09
fd
ea
29
04
ff
fd
fa
f9
01
01
f7
19
f5
f9
f5
f9
f3
03
03
00
24
04
0a
01
01
f0
09
0d
f8
14
fc
01
fc
03
01
fe
02
fa
fe
fd
fd
00
f7
04
09
01
f7
b2
03
fb
08
ff
07
00
fe
08
b1
fa
fe
09
02
ef
f7
04
fc
15
ee
fe
fb
01
0e
0d
00
fc
6e
09
07
fe
f3
01
03
06
f9
f1
05
00
fb
fd
fe
00
f3
07
09
08
00
03
fe
01
03
fd
fb
31
fd
03
fd
fc
f4
04
fb
0d
4b
fe
04
0b
07
ff
fd
03
01
3d
0a
07
06
06
fe
ff
f7
05
91
0e
04
fd
03
fb
f7
01
fb
5c
02
fb
05
02
05
fd
ff
fa
d4
06
02
02
f4
09
09
03
fa
65
08
01
fe
04
fa
02
0c
00
54
f5
f5
fc
0c
f9
f5
ef
fc
1f
fd
07
f9
ff
f8
f7
f6
fc
49
fa
fb
fa
06
f9
fb
00
f9
95
00
ff
08
f8
fc
07
ff
f8
9c
0b
05
08
fa
fa
fe
fb
09
f5
04
ff
02
ff
fe
00
05
00
64
0b
01
0c
07
06
fd
05
f1
01
fa
fe
03
06
00
08
07
fa
31
fe
f1
00
04
14
07
0c
fd
53
03
fd
0e
f8
01
f7
02
fb
34
01
fe
fb
06
01
00
00
f7
b1
10
0d
fc
f0
06
fe
09
ff
d3
f8
f9
fa
06
01
01
06
fc
a3
fe
09
02
fb
04
03
01
f9
e0
08
02
00
07
0a
02
fd
fa
69
05
01
f9
f9
fa
02
09
04
d9
03
06
03
f8
00
00
03
fb
15
fc
08
f6
08
fc
00
f7
05
4b
f7
04
04
0f
f9
f9
fb
0c
6d
fa
ff
05
08
f9
fc
00
fd
4f
05
00
05
ff
19
fb
03
02
d9
03
04
04
00
00
fe
fe
ff
60
ff
ef
fa
ff
03
10
0d
03
be
fd
f5
fe
f7
01
fb
0f
ff
06
0d
00
fe
0c
09
f7
f8
01
cb
fe
f6
f4
0c
01
0e
01
fa
a0
fe
02
f1
02
ef
05
00
03
17
05
f8
05
f8
f7
0e
0e
fb
10
f9
f8
03
02
0e
00
f5
f0
2d
fa
0c
fb
09
02
0d
06
02
92
f9
f7
f9
fd
08
fc
03
09
9f
fe
00
01
fd
06
f4
05
10
e0
fe
06
05
ec
fe
ff
04
f4
47
02
02
0a
05
fb
f8
04
02
1c
fc
05
00
fa
08
16
f1
0f
95
f7
03
06
ff
f4
fc
fc
0d
fc
f8
fa
03
f7
f5
ff
06
02
68
03
00
01
f8
02
f3
f7
03
3b
00
f6
fe
f9
07
ff
01
fd
f0
06
ff
fe
fe
10
f8
03
06
d3
f9
03
05
02
03
07
f8
fe
cb
01
fb
03
fc
03
f1
f7
03
54
03
fa
03
f6
f8
00
04
01
d3
f8
f1
f8
03
00
08
fa
f8
ec
fd
05
fc
01
0b
f6
06
05
15
f8
ff
f6
0c
06
f6
06
fc
43
11
04
f9
04
fc
03
04
fe
17
09
fa
f9
f9
01
fb
03
04
1c
fa
f2
f6
05
0f
f0
0e
0e
40
0b
fc
04
05
0b
07
fb
f9
e8
08
fa
f2
05
f6
0c
f5
f4
0e
01
00
fc
09
04
02
04
f3
41
0b
04
03
f5
0d
f9
02
0c
11
fd
fc
0c
00
fb
0d
fd
fe
f5
f9
fb
09
01
02
0b
08
fb
06
05
fd
01
08
09
ff
16
ff
91
ff
fe
fa
06
09
f9
fa
fa
2e
05
fc
f9
01
06
04
06
fb
11
06
fd
fd
06
fb
01
f8
fd
e9
f6
04
06
03
03
03
03
ff
61
04
02
05
00
0c
10
f5
f8
e7
0b
fe
f9
07
01
fe
fa
fb
1d
02
03
03
ec
01
f6
fe
ff
44
06
ff
f7
e9
f3
01
03
05
dd
03
06
0a
fb
04
0f
06
04
cc
01
01
03
07
01
03
f6
fb
c5
f9
03
fc
fc
fb
f4
f9
04
22
03
01
06
f3
ff
07
01
fd
cf
f7
fd
f4
11
f7
01
05
06
4c
f1
04
03
fb
f1
0c
f9
fe
40
fb
06
01
fc
08
07
ff
01
e2
06
fe
fc
f5
01
00
fb
f8
1a
03
02
fd
f8
fd
00
07
f2
ec
07
fe
ff
f7
07
14
fa
f5
5d
02
00
07
07
01
f9
02
00
d5
fc
fb
f6
f9
03
fa
fa
fd
e4
08
fc
05
fb
04
fe
f3
fa
c0
08
00
fe
00
fa
09
03
07
95
fb
00
fc
07
10
ff
fd
fc
b6
ff
05
fb
04
05
f5
02
04
4b
fe
fc
fe
03
fe
fa
06
0c
16
04
06
0e
fd
fd
00
ff
01
1a
01
0f
04
07
fe
05
00
f8
a9
00
01
fd
08
07
fc
07
fd
a7
fb
00
fd
f9
04
05
0d
09
ab
0a
f7
04
03
fe
01
f6
09
4a
f7
0a
09
00
f7
fd
f5
02
e6
05
08
03
fb
f7
00
f7
fb
c8
06
09
fe
00
0b
00
01
fd
da
fd
fe
06
08
fb
04
0e
01
be
f8
fb
05
16
e5
02
f1
05
38
09
06
f9
fc
f2
fe
06
03
f8
05
00
01
03
fa
08
00
fb
2a
00
0c
12
fb
0b
f4
fb
05
3a
f9
0c
0b
04
fa
fd
06
fa
98
05
04
ff
07
00
00
05
f8
03
fe
fa
e7
01
ff
fd
f7
f5
c8
02
01
fa
fb
fa
fb
fb
fb
ad
08
01
03
fe
03
05
09
05
df
06
03
0a
0b
07
03
ff
f1
d0
fc
fd
ff
f5
f9
fe
fb
fc
16
07
0a
fd
ff
ef
05
04
fe
62
ff
04
06
0c
07
fc
04
f2
3b
00
05
01
04
05
ff
07
00
41
f3
fe
08
fd
09
04
03
05
f1
00
07
02
07
f4
f2
07
08
8d
04
01
09
0b
15
fb
f8
fe
b7
01
03
ff
fc
12
06
01
09
c7
fc
fa
fc
09
0b
fa
08
fe
93
fd
09
08
f1
01
09
01
fb
b2
f9
07
04
ff
fd
00
fc
fd
d3
fa
03
fd
01
fe
ff
00
fb
e3
fe
05
f9
00
fd
01
05
01
ea
09
fe
05
f8
ff
f8
01
f5
4b
05
0c
fd
0a
00
09
fd
fc
cf
0c
0e
06
04
f1
f9
05
f4
9a
00
fc
0b
fa
f2
f5
06
f2
03
f8
fe
01
fc
07
10
03
fa
11
05
01
fe
f4
f8
14
04
01
44
00
05
01
05
0e
02
fd
12
14
03
ef
f9
04
06
f6
fe
fd
24
08
f9
fa
01
08
f9
f3
0a
db
f8
0b
02
09
03
0a
03
f9
26
f9
02
01
fd
00
fe
fe
04
39
f7
06
04
09
00
f3
08
00
c7
f3
01
02
06
05
05
04
fe
42
02
0a
00
fe
0c
04
ff
02
04
fc
f4
03
f5
f5
05
08
05
60
ff
04
00
fd
02
00
04
0f
1b
f0
04
fb
0d
ff
03
0e
01
b1
fb
fc
05
02
fe
fd
00
f1
a9
fe
00
ff
01
02
fe
fa
04
f5
02
01
fc
08
04
08
fe
18
99
f7
01
fd
03
07
00
fa
fd
5d
01
0a
02
f7
ef
00
0c
03
ef
04
03
fe
fa
fa
ff
f8
f2
47
04
01
02
04
06
02
02
f8
4f
05
03
00
f6
04
02
07
fd
a4
fb
fe
fd
06
f8
07
fe
07
2d
0f
ff
01
fa
fb
f5
02
f4
ea
f8
0d
fb
01
00
f7
fa
f4
d4
f4
fd
fd
fa
fe
03
f9
14
34
02
fa
06
fc
06
0f
ff
00
6d
01
fe
fd
f6
ff
f1
f8
f2
11
02
03
f7
f5
ee
fc
fd
0c
21
02
05
fd
00
0c
05
02
fd
3c
fb
01
01
fb
04
f0
00
08
c1
fd
0d
00
0d
0c
03
03
01
35
f9
09
02
00
f7
0f
03
0f
b8
02
0a
ff
fe
f7
03
f7
02
34
01
05
06
01
fa
f9
f8
f7
ec
fa
05
ff
f3
08
03
07
08
41
00
fa
07
05
08
00
ff
0e
99
0d
07
fe
00
fc
f6
08
f2
59
07
0d
03
f6
0d
fe
00
02
fa
08
f8
0c
09
fe
00
f6
fe
60
03
f7
0b
ff
fa
08
fb
fd
01
02
fb
f4
f7
f6
02
ff
f6
cb
f7
0a
f2
01
08
0f
08
00
94
00
0c
f6
01
ff
ff
04
06
a7
03
03
09
ff
fd
fe
fc
01
d2
08
fb
0c
00
01
08
01
03
fa
02
f9
fe
09
04
08
13
f7
05
f9
0c
f1
00
04
01
03
f1
bc
0b
02
0a
fb
f4
fa
ff
f9
a5
f7
ff
06
07
fc
fb
06
f7
4c
00
07
07
04
11
ff
03
03
e3
fd
fa
fb
03
fe
0b
08
0c
46
09
12
f4
00
0b
02
01
fd
58
fc
04
05
ff
f1
07
f6
fa
db
02
08
f4
01
fe
fc
05
fd
04
f5
0c
01
f6
0a
0b
fb
0e
f7
09
06
fa
f7
f6
07
05
0b
37
05
fe
f0
ef
fc
02
02
fe
ca
f2
fc
02
f9
fd
ff
ff
03
97
00
08
01
00
0b
0b
06
10
d0
0c
03
f6
f8
f6
03
04
12
6a
05
ed
0a
04
fe
f1
ff
0c
32
06
00
f2
06
02
05
01
fb
c1
07
01
06
03
fb
fd
09
fc
e6
00
01
fd
f6
08
0f
00
f5
fb
0d
f2
fd
fd
f9
fb
fb
0d
48
f4
fe
06
03
fc
fe
ff
00
78
01
12
07
10
fa
fb
fb
f5
af
06
fd
04
fc
fe
04
fa
f2
ce
05
01
05
fc
02
fe
06
06
54
ff
fe
0b
02
fd
02
fa
0a
d1
f3
fd
fb
08
fa
02
0f
02
1f
fc
04
07
0c
fe
06
ff
fd
45
fa
f1
07
0b
07
fa
01
0d
b3
04
06
fb
04
ff
03
f9
f4
e2
fa
ff
fb
ff
08
f9
f3
07
f5
03
07
f2
02
fe
01
03
f5
c0
ff
02
04
06
fd
fc
f4
11
22
08
fb
06
09
05
06
fc
15
34
0e
03
00
0c
f9
fb
fd
ff
ba
fa
03
02
09
03
f5
fe
08
e9
fb
fe
f8
02
03
01
ff
05
3a
ff
fa
0a
0f
fb
03
f4
f1
d2
09
05
0f
18
05
04
0c
fa
60
ff
f9
fb
ff
08
07
01
fb
3b
fa
02
fa
07
04
fb
fd
00
ce
01
e3
0c
01
03
f9
0c
f3
cd
fc
09
03
0a
04
03
fe
f5
d2
07
f3
f5
06
06
ff
0b
ff
53
fa
f4
03
ea
fe
01
ff
f6
61
07
f7
01
04
f5
fd
03
ff
ba
fc
f9
f6
f9
12
0e
f8
f6
04
f5
08
ff
fc
03
04
06
ef
3d
f2
01
fa
e5
0e
fd
fa
00
18
fc
00
0b
00
06
0a
f6
0b
67
08
07
00
00
10
fd
0a
08
1a
fc
01
ff
fa
07
0b
03
03
e5
ff
00
00
fd
f5
fd
f8
f9
b6
fb
fd
0d
05
fc
0d
fe
f0
d0
0b
05
f5
fe
04
03
07
01
35
0a
ff
fe
fd
0e
fb
03
fe
67
fd
05
ff
fb
f4
06
07
05
de
fe
0b
f9
10
f6
fa
f8
fc
ee
ff
07
01
10
f9
08
fb
fb
43
0e
05
ff
fa
fb
0f
03
01
38
f8
0c
02
f4
f7
fb
0a
fd
96
04
02
03
fd
fa
ff
07
04
08
07
fa
ff
00
f8
fe
ff
ff
2e
fe
f4
fb
04
fd
fa
05
fe
ef
03
fb
f8
fa
fa
02
0e
fc
9b
fe
f5
01
05
fe
07
05
00
4c
03
03
f9
08
fd
fa
fa
f8
36
ff
04
fe
02
ef
00
08
fc
dc
03
f7
fd
ff
ec
fc
f9
09
e1
f8
fd
05
03
03
04
08
fe
a5
08
fb
f3
fe
06
01
04
0a
ba
ff
07
f6
08
00
fd
03
fd
ba
04
f2
02
f9
fc
f4
fb
05
3d
00
fc
0a
01
0d
f1
f8
fa
20
05
0a
fd
f8
0e
05
03
04
66
fe
ef
fb
fc
fa
f1
04
0e
cc
07
07
ff
f5
04
04
fe
ff
4d
0c
01
ff
f9
09
ee
f9
02
a6
08
fd
05
fe
fa
05
f7
07
dc
00
fe
03
06
f9
01
04
fe
4c
09
06
0d
ee
f4
fe
f7
07
c9
00
0a
fd
0b
04
07
fc
f7
91
03
05
04
03
f3
fe
f6
f4
a4
ff
01
02
02
03
ff
08
01
10
02
fe
09
f5
01
0c
03
01
23
05
01
fd
09
09
f4
fa
08
19
fe
ef
11
ff
03
fb
0f
ff
a5
fc
fe
f9
0a
f9
0d
00
00
18
fc
ff
fb
0b
04
fb
fa
f9
d0
02
fe
ff
f5
04
07
0b
01
49
03
04
01
f5
01
f8
f9
f8
2f
f8
fc
01
05
07
f7
06
0a
27
05
f8
f6
0b
fe
00
f1
0c
f3
fd
fa
01
08
fd
fb
04
09
a9
04
03
08
04
07
0c
f8
06
b2
fe
01
08
ed
fd
fd
fe
05
31
fc
fb
01
03
04
05
fc
07
b0
f8
00
ff
fa
ff
08
0d
06
74
fd
01
06
07
f6
04
0d
06
ea
f3
f8
ff
07
06
ff
03
04
a6
09
02
05
f9
fd
0f
05
f0
df
fe
04
f9
fd
f4
0c
f8
0d
1f
f4
fa
08
05
fb
ff
f1
01
05
fc
06
0c
f8
ff
03
fa
fe
17
f7
04
03
05
ff
08
02
fa
b0
02
05
f2
ec
f1
05
00
06
2e
f2
f7
01
13
fe
07
f6
05
c3
f9
14
08
f6
00
00
ff
03
42
f9
08
fe
04
fc
04
0a
ff
26
fa
00
fb
05
fe
06
06
05
8b
04
10
fd
fc
03
fa
fe
02
fa
f5
fd
fc
fe
00
fb
fd
f8
3f
04
fb
ff
01
ff
04
09
02
c7
00
04
fb
f4
ff
ff
06
fa
98
01
fd
fa
f4
ff
fe
fa
ff
c4
07
f5
fe
fa
fa
f9
f8
ee
a2
0e
08
f9
07
fc
ff
f9
09
5c
07
00
f9
08
fe
f2
f0
06
9e
f2
06
f8
00
03
07
fa
f6
f6
f7
fe
04
fc
f3
05
01
fa
c5
07
0d
0d
01
06
09
fd
fb
0f
f5
09
07
03
07
fe
08
08
f7
f4
ff
f2
00
f9
f6
fd
03
e7
ec
f9
fb
f3
ff
fd
01
19
4a
00
fa
04
0c
fe
fc
fb
0d
2c
03
fc
fd
01
05
01
f8
fb
9e
f4
f2
00
f8
04
fd
fa
f8
0c
0e
03
02
02
03
f9
05
0a
a3
fa
fb
07
00
0d
03
0a
0b
f0
11
03
01
07
01
f9
00
f9
e1
f6
fc
f9
f9
0b
f9
f6
05
12
04
ff
09
0e
0f
04
ff
03
c3
05
03
e9
03
0e
07
f4
02
2c
08
fa
ff
03
fa
f7
f2
03
d4
0c
fc
0e
f5
f6
fc
f8
03
77
ff
fd
03
04
f8
f3
f6
08
46
01
f7
fe
05
ff
fd
fe
13
24
01
fe
01
01
00
05
f8
fe
a3
01
f8
0f
04
f1
05
0a
f4
b3
07
0b
00
f5
fd
16
f7
08
63
05
f9
08
0e
02
01
eb
fa
30
08
ef
03
f7
f2
fb
03
0b
03
fd
f5
0b
f5
03
09
f8
fd
f1
fc
01
05
00
f4
00
f3
ff
00
fc
01
ed
fe
02
0f
05
04
bb
f8
04
01
ef
00
fa
0a
09
f2
fa
03
04
02
00
f5
03
01
f7
f8
00
f9
01
04
07
fe
fc
c4
00
09
09
fd
f7
03
02
04
e0
04
12
04
06
fb
ed
fc
07
fa
0b
fb
fd
fb
fd
0b
01
05
e9
01
02
08
10
0d
00
06
02
4c
fd
04
11
07
fe
f9
03
fb
2d
04
04
07
04
05
05
f3
03
bf
04
f3
f7
04
01
03
07
fa
ff
fe
f0
fe
00
f9
09
f2
03
d0
fd
ff
ed
01
04
08
08
04
0b
01
09
f8
fd
fd
f6
07
f6
ce
05
0a
f1
fa
08
f7
05
f8
91
10
05
fe
fa
fe
04
f9
05
31
0d
f6
ff
f7
09
fe
fd
f9
e7
fc
01
08
03
04
02
10
f9
2a
f9
04
fb
08
03
04
fa
02
42
fb
fd
02
06
fd
f5
fb
f7
c1
07
04
03
fe
f8
0a
07
f1
08
fd
04
f2
00
fd
fe
0b
fc
42
00
f5
0d
f7
ff
0a
0d
fc
0e
fe
0d
fe
ef
04
0c
09
01
e6
f7
fd
02
ff
fb
06
fc
f5
06
01
0c
f4
f5
03
fb
08
0b
5d
01
01
00
02
0b
0a
07
fb
c8
fb
04
0a
00
fb
00
07
f6
a9
f9
09
04
04
eb
04
07
f1
0a
02
04
04
ff
00
0d
09
fa
18
fe
07
f7
04
00
07
07
fd
82
fb
09
00
02
fc
00
fb
14
d6
fc
f7
00
ff
00
08
0d
f2
be
04
0f
01
00
02
06
0a
f1
91
05
f5
05
14
fe
fd
01
ff
32
fa
01
04
03
03
03
f0
ff
2e
fb
02
0d
08
00
fb
0a
03
64
02
f2
04
f8
f6
03
01
02
c8
07
ff
fe
11
00
07
0e
06
f5
02
f7
fe
06
06
02
ff
f4
30
f6
fc
03
03
04
fb
fc
04
08
08
03
fd
04
fc
ff
ff
f6
91
fc
fc
fd
f6
06
07
03
fc
a6
fd
00
f7
02
fe
00
ff
fe
34
04
fc
fc
ff
fa
fd
05
ff
ce
0f
04
f7
f7
08
f6
03
f3
36
fc
fe
02
f1
07
00
04
0e
69
fe
08
03
fe
04
0c
03
08
fb
fc
02
f2
02
fe
01
06
0a
33
f9
f9
fe
00
fc
fc
f6
ff
4f
fb
0b
06
fa
07
fc
ff
0a
6d
f9
f3
f6
02
04
fb
0c
ff
4f
fd
03
ff
fe
07
00
08
fd
0e
05
fa
03
f1
f3
fa
fa
06
b8
04
01
fe
fd
fa
05
f8
03
d8
04
fe
02
ff
fa
ff
fc
00
b2
02
fa
01
00
05
03
00
fd
37
07
ef
04
05
f7
fc
07
fe
1b
05
fb
fd
01
fc
06
f6
fd
04
ff
05
08
08
05
fb
05
fc
38
fd
00
fb
f5
fa
02
fd
0b
cb
fd
f6
01
fb
02
07
03
f7
4f
02
fa
fb
fe
0a
f4
fb
f7
c9
00
03
01
f8
00
05
06
01
3e
03
02
06
03
04
f8
01
fe
ef
fb
03
00
fd
03
04
f9
fd
2f
f7
01
fb
0d
f9
fe
06
04
df
06
ff
02
fe
ff
05
0a
f4
0a
0d
fd
f1
03
03
08
02
03
46
fa
f7
01
03
f5
ff
0c
fc
2b
00
0a
ff
fa
04
08
f1
01
93
f7
fe
01
05
06
fd
f3
f9
3a
f8
03
ff
13
ff
06
ff
00
af
ff
0d
03
0c
06
04
07
13
4c
f9
f9
0e
f7
f9
ff
04
02
66
fa
0f
08
fd
fd
04
05
02
0d
00
fd
fe
fc
fd
f8
07
06
cb
ff
01
f9
06
fe
01
f6
fe
0b
02
f7
0c
f6
fe
ff
08
fd
8c
f8
ff
f2
f2
f9
fe
fe
fc
69
03
09
fd
00
01
ff
06
01
56
ff
fd
f4
00
01
f9
0b
03
e1
07
fd
fe
06
0c
fe
f7
03
ce
fb
fc
0a
07
07
07
fa
09
bc
08
fc
05
08
05
01
fa
02
24
f3
ff
fd
fa
ec
04
08
01
ca
ff
09
fa
00
fd
fb
00
fd
b5
ff
04
06
03
f4
fc
f9
03
10
02
fb
00
ff
00
f4
00
0a
1d
04
03
f8
fb
05
ff
fb
08
1c
f7
03
ff
0c
f5
01
06
fb
f2
05
0b
f0
04
04
fd
f6
07
00
fc
f8
10
04
02
12
f7
fb
8b
fb
fb
06
fc
04
fc
04
0d
e1
05
0c
0a
f2
fb
fb
fa
fc
b3
fa
fe
04
ff
f8
08
f9
f8
52
fc
fc
fc
f9
03
fb
fe
09
d4
ff
fe
fe
01
01
00
08
fa
bf
07
0f
02
09
f8
f8
fa
00
b3
02
03
06
f3
f6
f8
06
ee
42
f7
fd
fe
ff
0b
0c
0d
09
50
0a
0b
f4
fa
04
fb
06
07
d8
fd
ff
fe
01
05
00
f5
00
6b
02
fb
06
0f
f7
ff
f4
f1
d9
07
ff
0b
02
07
fd
f8
04
3f
f4
ff
11
09
01
09
0d
01
33
02
fe
f7
f7
08
fe
fd
0b
1e
fa
08
f3
02
08
f5
05
08
b1
f6
ef
05
06
0a
01
00
05
43
fa
04
01
fb
08
f3
e9
04
bf
ff
08
03
fb
f6
f9
02
f9
34
0b
07
fa
f9
03
02
f8
03
c6
f9
04
fe
09
03
fb
fc
01
f3
02
03
f8
fe
ff
ef
fd
f6
9c
f9
f1
08
05
05
05
fe
02
8a
fa
fd
f5
13
02
fc
f5
10
d3
fb
0a
ff
09
0b
04
f9
03
85
00
0f
f2
06
f2
f9
f7
f9
85
fa
07
02
fc
f5
0c
02
f7
d0
04
f4
08
fd
fa
fb
fe
00
48
01
0c
07
f5
09
13
09
fd
9e
fd
11
e5
f4
02
07
00
06
4b
00
fd
06
08
ef
f7
05
f4
54
fe
0d
f8
f4
07
10
ff
ef
4f
f0
fd
07
fe
ff
05
f8
02
0a
00
0b
ff
11
ff
0d
01
03
fb
00
07
fb
ec
00
f9
02
fb
bd
f4
04
09
f2
fc
fe
fc
fa
05
f8
ff
fb
08
0c
07
fb
f4
10
f8
09
07
f8
ff
f3
04
0a
ed
02
fb
10
06
ff
09
f6
f6
f3
fc
04
fb
fc
0c
0e
fd
09
da
fc
ef
fa
fa
fc
06
04
fe
d2
08
00
08
03
f6
0b
f5
ff
8f
fb
0b
04
f7
02
00
02
06
69
fe
0d
0a
f6
10
ff
fd
05
e7
0a
0c
f5
04
08
01
04
fc
d3
f5
0a
01
f3
00
fc
07
10
e5
05
06
03
0d
ed
f6
f4
fd
5c
f8
f9
17
fb
fa
08
ff
ff
e3
00
0f
ee
fa
03
0a
fa
f7
dd
fa
ff
03
00
01
0e
10
11
fc
02
fa
eb
f6
f9
ff
0c
07
dd
06
fe
09
ff
f0
fd
fd
0e
f9
03
01
06
00
05
0b
01
fb
c6
fc
fa
01
04
08
12
06
f7
3d
08
02
ef
fe
fe
01
fd
f9
50
04
0e
02
01
0a
01
0b
06
d1
fa
04
0c
f9
fe
fd
0e
fe
90
ff
03
10
fc
05
0a
f6
05
bb
05
0c
fa
fb
05
03
f2
07
69
fd
06
fe
00
08
09
fd
fc
b5
fd
f8
f7
06
fd
00
fc
ff
28
06
f9
07
f8
05
00
fc
fd
af
ef
0a
03
00
05
fe
f8
fc
c8
07
fc
05
02
fd
02
f8
14
c8
09
04
f9
00
fd
fe
06
04
f6
0a
08
08
f3
f2
fa
05
01
b4
0b
fa
01
0a
14
0b
00
0b
e0
07
f8
ff
07
fa
ff
04
1f
e9
00
f6
f1
00
ff
04
fc
12
c9
05
01
fb
02
0d
fe
05
f8
b8
07
07
fe
05
02
ff
06
f6
3a
f8
01
00
fb
00
10
12
f6
63
03
05
03
f7
fb
02
f0
fc
39
0b
f4
f4
02
f0
fa
f2
fe
30
fb
f7
fb
ee
fc
fc
00
f7
93
f5
fa
0c
08
0d
02
fb
fe
01
f8
0c
01
09
f1
f4
05
00
be
ff
13
0a
07
0c
fd
fb
0d
95
00
03
fc
01
ff
f8
f4
fd
a6
fc
0e
0d
01
06
ff
06
06
9e
fb
03
f1
0c
f4
f4
ee
05
63
07
fd
f5
fe
0a
02
fb
fb
08
ff
ee
00
04
f6
00
fb
02
5c
f7
f7
fc
f6
0e
05
f6
ff
6a
f6
0d
02
05
fd
0b
06
04
0b
f6
fe
f9
06
f3
ea
05
f2
3c
0d
f6
fb
03
fe
f7
fb
ff
3c
02
05
01
02
f7
0a
05
0a
f0
04
f8
0d
fa
fb
f8
01
e9
ab
fc
00
fb
07
f2
ff
fb
ef
38
f2
ff
ed
0f
05
f4
fd
fc
0b
ff
04
f6
03
04
ee
fa
ed
c6
0b
00
f9
fe
10
0b
01
fc
59
07
00
f6
fc
fa
fd
ff
03
ab
fc
f6
fb
02
0b
04
04
f7
ff
01
0c
01
03
09
f6
ff
04
16
06
f9
fc
f7
fa
0d
01
f0
21
f2
fa
ff
06
12
0b
fb
08
90
02
0c
fc
fd
f6
f8
04
0b
74
0a
f8
01
fe
04
0b
02
04
92
fc
fd
09
f8
f7
f2
01
0e
8d
03
fc
fb
0d
fc
fe
0b
ff
be
ff
15
01
00
03
fc
07
05
c4
03
fd
0a
fd
fa
01
02
02
f4
06
06
fa
01
fc
fd
fe
01
c0
f6
08
f4
fb
f5
ff
04
f5
4e
06
03
fa
ff
fd
06
f7
0e
3c
ed
00
0e
05
0d
02
fe
02
45
ff
00
11
fc
f8
fe
ff
0d
54
06
06
0a
09
f8
ef
f1
02
18
fb
f8
09
02
ff
fd
06
ff
fb
06
07
ff
ff
fe
08
f9
f4
ef
02
f0
fd
f2
fc
0f
07
f9
18
05
06
f0
0b
fc
0c
f8
f3
f0
07
04
04
0d
fd
03
0c
06
c4
03
06
f7
fd
ff
00
fe
fa
c7
0a
09
00
f4
fe
02
fb
ff
bc
05
01
fc
08
04
02
f8
07
c5
05
fe
00
10
fd
fd
fa
fc
51
0a
09
02
f5
f4
05
f9
05
ee
f2
fd
fb
07
fb
fa
00
08
de
fd
fe
fa
06
10
00
01
f4
29
0e
f3
06
0e
ff
06
13
fd
a4
0f
02
f4
02
02
fe
03
07
b8
04
fa
0a
0f
fc
04
fd
fa
40
f7
09
ef
ff
01
f3
ff
f4
0f
01
03
07
00
12
04
f6
05
38
0c
fc
f3
03
fc
06
09
02
dd
f6
fe
fc
ea
fd
05
05
f8
64
fb
fc
05
02
fe
fa
ff
f1
99
f7
03
fe
fc
0a
01
09
03
68
08
04
fa
01
f7
fd
09
00
20
f3
fb
05
f5
01
fb
f3
06
cc
ff
fb
01
0f
07
01
02
02
eb
fe
fd
0e
15
f3
04
00
04
e1
fe
fc
00
ff
f1
00
ea
ff
78
01
fe
fa
07
0d
ec
0c
fd
29
02
f7
fb
f5
fe
01
00
02
2f
00
fe
01
0d
02
01
05
00
b4
fd
01
07
00
fe
fb
0f
fe
e9
fd
fc
0f
fc
09
07
02
0a
3d
05
fa
02
07
01
fc
07
fb
5c
fe
10
01
f2
07
fa
0c
00
b9
f7
02
eb
fc
f6
03
08
03
26
00
fb
00
f6
02
f7
07
fe
0e
08
f4
fc
fe
ee
ff
01
01
2f
fa
03
05
0b
04
f8
fb
00
cc
03
fc
03
0a
01
08
08
0e
c9
f1
01
f3
0a
01
f9
01
07
d3
03
ff
04
0b
f8
06
fa
fd
0a
01
01
04
fd
09
fc
03
0b
a9
f2
06
ff
f9
06
fb
01
fa
a3
03
0d
f7
00
0a
05
04
03
66
0b
f9
04
f6
ed
f7
05
0d
99
00
fb
04
00
f8
fd
f6
0c
3d
f5
fc
0d
03
ff
fe
02
0d
95
08
fe
12
0a
f9
ff
04
ff
f3
0c
fb
00
04
fb
06
fb
02
d2
07
fd
01
00
f5
fe
fc
fa
03
04
00
ff
fa
f6
ff
05
ff
a0
f9
01
03
f9
07
f9
05
07
21
fa
f9
00
f9
f7
0a
08
fb
af
01
fe
f7
f6
fe
fd
fb
02
20
01
06
fe
fc
ff
01
fc
f9
9c
ff
00
f2
fd
0b
fe
09
f6
a6
fc
02
08
f7
0d
f6
07
0f
b7
08
ff
07
ff
f9
fd
05
05
d3
fa
ff
0a
f9
fe
0d
fa
07
f3
02
ff
fa
09
0c
ee
00
02
e1
06
02
f8
fc
ec
03
01
03
a3
ff
0a
ff
03
01
01
ff
02
2b
ec
03
01
f5
07
fc
00
fc
33
f4
09
fc
07
fd
fa
09
09
01
ee
03
00
0b
ff
fd
fd
02
12
00
06
fb
09
f9
fb
01
07
15
f9
04
fc
00
01
0e
0f
0b
fe
07
09
04
fa
fb
f9
08
01
9c
01
fc
02
f5
fa
f5
01
06
a0
f9
ff
f4
f3
f9
fd
f9
f8
df
0d
fa
fc
06
ff
03
f9
03
3b
03
02
00
08
03
08
fb
00
6e
03
fd
01
02
ed
f5
fe
01
14
fd
f1
f8
01
0d
fd
f3
f8
a3
fc
00
05
07
01
0c
fb
fa
32
f8
00
fd
03
f8
fc
fa
02
61
04
06
ff
fd
f6
04
04
08
60
ff
02
00
f4
06
f7
02
00
d7
0a
02
09
02
f3
f2
0a
f9
a9
03
fe
05
fe
fd
fd
fd
06
4f
12
0b
08
02
0a
fc
00
0b
e0
fc
fe
fe
ed
e9
08
06
f5
f1
f6
03
03
fa
04
fe
ff
01
00
03
09
0d
f8
07
04
fc
0a
53
00
01
fd
00
08
01
01
0b
ef
fa
0e
fd
f6
04
09
fe
05
64
ff
05
00
f4
06
0a
f9
fb
f1
0c
0b
ff
06
f9
f6
fd
0b
26
f7
05
ff
f7
06
07
08
03
52
fb
0c
05
10
08
06
fe
fe
b1
ff
ff
fe
0b
ff
02
12
11
70
02
fb
04
fb
08
fe
fd
f5
1a
fa
ff
03
00
03
05
06
fb
ec
10
03
03
ff
07
03
fe
03
d2
09
13
02
05
0e
fe
0c
0d
db
fe
06
f8
04
f8
11
07
f7
cd
04
fd
f8
00
02
fa
f1
fd
c9
03
00
0d
fd
fc
06
f8
fd
33
ff
04
05
01
fb
01
fc
f4
d2
07
0c
08
fd
08
f7
05
f8
60
04
fb
fb
fe
fc
f4
ff
09
dc
01
05
fa
01
f6
09
06
02
55
fe
ef
f7
f8
f6
fa
05
03
c8
01
01
fe
f5
f7
fe
0c
f9
20
00
fe
02
07
02
f9
03
fc
34
fb
02
09
fe
08
05
08
09
96
fb
f1
0b
09
fc
fa
00
fc
94
0b
09
fb
04
fa
0e
00
03
56
fc
fc
fd
06
02
fd
0a
0c
f1
02
fe
f8
fc
00
f4
0a
07
cf
f8
fe
00
fd
05
fe
f7
04
06
09
05
07
07
03
fa
fe
06
e1
08
04
05
00
0f
f4
fc
05
02
01
03
fb
07
06
fe
03
fd
45
0b
01
f7
fa
05
f2
fa
fc
2c
fc
01
09
08
fd
03
01
06
69
02
0b
f8
07
0e
f6
04
02
ac
02
fc
fd
ff
03
fa
fd
ff
23
01
f6
08
04
02
fe
fe
0b
f0
fa
ff
02
fe
fc
ff
fe
f4
d4
08
04
fa
fe
fb
02
04
ef
c6
04
0b
02
05
f7
f4
fc
04
ba
fd
fc
ff
07
fe
fd
08
fd
3c
07
04
fa
02
fd
fb
f8
f7
7f
ff
00
04
01
ff
03
f8
04
d5
fa
03
01
08
0b
f9
08
07
63
0c
03
fa
07
00
ff
04
04
7b
04
ff
00
fd
fa
01
09
f4
a2
00
0c
f8
05
04
03
fc
fc
6f
07
ff
fc
00
fb
ff
fb
fd
16
fa
ff
01
ff
f2
ec
08
04
9e
fd
13
09
fc
f7
fb
fd
00
da
ef
fd
00
fc
fd
f3
f3
0a
42
f0
ff
0a
fe
fb
0b
f6
fd
df
0b
f8
f4
fa
ff
f7
05
06
33
03
0b
07
05
f7
fe
0e
01
a9
09
f3
05
fd
01
01
05
fe
29
e5
f6
f1
ff
fd
04
01
fd
13
05
fc
0b
07
04
06
05
03
a9
07
04
f8
0b
f9
fb
fc
f9
bf
00
0a
fb
f8
eb
fe
fc
10
6c
ff
f9
fa
fc
f5
f7
ff
02
1b
02
02
ff
ff
f6
f9
ef
05
37
00
07
00
fe
fb
fd
04
0f
d8
04
0e
05
05
0c
fb
00
0e
0d
f7
ff
fc
fc
04
08
ff
08
e5
fb
03
ff
f7
fb
fa
ff
0a
6c
02
fe
ff
f8
f3
f6
fc
08
19
00
01
fd
f1
06
02
f8
08
3e
04
0a
11
fa
fb
02
f4
01
4c
f8
01
f7
fa
fa
fb
f8
f6
68
0e
05
09
05
f1
fa
0d
fd
5a
04
fe
f5
f4
fe
ff
08
fc
0b
03
07
fa
ff
