ffffffffffff30d8
000000000000ae73
ffffffffffff80cc
ffffffffffff8bb4
000000000000e154
0000000000017d9b
ffffffffffffd463
000000000001a595
ffffffffffff92f8
00000000000015ce
ffffffffffff9a3d
000000000000da0f
0000000000009502
ffffffffffffb750
ffffffffffff7d2a
000000000000e899
0000000000006d08
0000000000014375
ffffffffffff9de0
ffffffffffffbe95
ffffffffffffbe95
0000000000000000
ffffffffffff46a6
ffffffffffff846f
fffffffffffe6552
000000000001b07c
000000000001cd8f
000000000000e4f6
0000000000012a04
00000000000155a1
fffffffffffef6b2
000000000001388d
