fffffffffffe53fe
fffffffffffe6a85
00000000000b2ce3
000000000003df2c
fffffffffff55a46
fffffffffff8df57
0000000000046655
fffffffffff7d105
000000000007a7d2
000000000001c288
00000000000070a2
fffffffffff8b24a
00000000000720a9
fffffffffffa5e4b
000000000000e144
fffffffffffd9fc8
ffffffffffff3543
fffffffffffde35c
fffffffffffd8941
fffffffffff5e16f
ffffffffffff8f5e
ffffffffffff8f5e
000000000003417c
00000000000276bf
fffffffffff71ccf
fffffffffffe3d78
000000000001686d
000000000006dd14
fffffffffff86eb5
0000000000046655
0000000000004394
fffffffffff7d105
