000000000002b746
0000000000008c76
0000000000007e6a
ffffffffffff4261
000000000000705e
0000000000009a81
fffffffffffe1464
0000000000008c76
00000000000262ff
00000000000327a4
fffffffffffebcf2
fffffffffffced6e
0000000000034ac1
0000000000037beb
ffffffffffffa4b4
fffffffffffe6fb1
0000000000006958
0000000000013c09
fffffffffffd41b4
0000000000012dfd
fffffffffffe7dbd
000000000000382f
000000000000a187
fffffffffffc9927
fffffffffffced6e
0000000000015820
0000000000005b4c
fffffffffffdb212
fffffffffffeaee6
000000000001dd90
fffffffffffe2270
ffffffffffffa4b4
