ffffffffffffac83
ffffffffffff8a39
0000000000002545
00000000000032b0
ffffffffffffe9a3
0000000000003a25
0000000000000d6b
0000000000004317
ffffffffffffef9a
0000000000007d3b
00000000000005f7
0000000000001dd1
0000000000004317
0000000000001066
ffffffffffff873e
ffffffffffff9922
ffffffffffff42aa
ffffffffffffd4c4
fffffffffffffd05
0000000000003d20
ffffffffffffdc38
ffffffffffffc5db
0000000000002545
ffffffffffffd04b
00000000000066de
0000000000000774
0000000000009398
ffffffffffffd1c9
000000000000401b
00000000000002fb
ffffffffffffae01
00000000000008f2
