ffffffffffff875e
fffffffffffefbb1
000000000001507f
ffffffffffffad77
fffffffffffe569e
0000000000032652
ffffffffffff5494
ffffffffffff9411
0000000000000cb3
00000000000169e5
0000000000007248
0000000000011db4
000000000000d184
fffffffffffea2ce
fffffffffffea2ce
ffffffffffffcd35
fffffffffffe765d
0000000000002618
000000000000be78
fffffffffffec8e6
0000000000002c71
000000000000f79c
000000000000ab6c
ffffffffffff2822
fffffffffffe3d39
000000000001703e
ffffffffffff8105
fffffffffffecf40
ffffffffffff8db8
0000000000007efb
ffffffffffffc083
000000000001175b
