000000000000363a
ffffffffffff9d1d
ffffffffffff7a07
fffffffffffef40d
ffffffffffff56f0
ffffffffffff6d44
00000000000108c2
000000000000d8e9
00000000000092bc
0000000000012f09
0000000000000000
000000000000d288
0000000000002ca8
000000000000dc1a
fffffffffffe6ae3
ffffffffffff1724
0000000000000661
ffffffffffffb9d3
ffffffffffffb041
ffffffffffff99ed
ffffffffffffdce9
fffffffffffebaa2
0000000000009c4e
0000000000009f7e
ffffffffffffd9b9
0000000000001fe6
ffffffffffff0400
ffffffffffffecdc
fffffffffffea11e
000000000000363a
ffffffffffff53bf
0000000000011254
