000000000001fa1d
0000000000047e42
0000000000092a87
fffffffffffd4dd8
fffffffffffe05e3
fffffffffff7bb86
fffffffffff39949
fffffffffff3f54f
0000000000128311
fffffffffff8cf96
00000000000d7ac7
000000000008a07f
0000000000000000
00000000000e04cf
000000000016d350
0000000000081677
00000000001112fc
fffffffffffaf7b6
fffffffffff59366
0000000000008a08
0000000000039835
fffffffffffbafc0
fffffffffffd4dd8
0000000000019e18
fffffffffffb81be
fffffffffff36b47
fffffffffff67974
000000000009588a
000000000004da48
fffffffffffe05e3
fffffffffff56564
fffffffffff7037c
