00000000000acf90
000000000006dc57
fffffffffff84ec6
000000000003a364
fffffffffff70f70
00000000000d339f
fffffffffffd4c1c
000000000005ecd6
fffffffffff4c5fe
fffffffffffc0cc6
0000000000009fab
00000000000a4a82
fffffffffff68a62
fffffffffffab2d4
00000000000b1f66
00000000000517f3
00000000000159f2
0000000000010a1d
0000000000029948
fffffffffff5b57e
ffffffffffffcac7
00000000000d1902
fffffffffff84ec6
0000000000013f56
0000000000004fd5
fffffffffff4ab61
fffffffffff9737f
fffffffffff490c5
fffffffffffa9838
00000000000925c9
fffffffffff54b0c
00000000000cae91
