0000000000003468
0000000000001a72
ffffffffffffe8ec
ffffffffffffc2f0
000000000000178f
0000000000003090
ffffffffffffe0bf
ffffffffffffc3e6
0000000000003937
0000000000002037
0000000000003aa8
ffffffffffffcb1d
ffffffffffffe684
0000000000000454
ffffffffffffc6c9
ffffffffffffcaa1
fffffffffffff758
ffffffffffffedbb
fffffffffffff09d
0000000000001059
ffffffffffffee36
00000000000038bc
000000000000007b
0000000000001714
0000000000002dad
ffffffffffffc4dc
00000000000037c6
0000000000001dcf
0000000000002d32
ffffffffffffcf70
0000000000003c1a
ffffffffffffed40
