11
00
f3
02
aa
01
ff
02
02
f2
fc
f5
f7
2c
f6
18
f3
f8
09
fb
01
f8
ad
08
ff
06
06
f7
00
10
f9
bb
04
f7
f3
ff
00
01
f9
0a
44
fb
07
03
ff
fe
02
f9
f8
17
0d
fa
fb
06
02
fb
f0
03
ec
00
04
ff
10
04
00
0b
f6
b0
06
f9
fc
03
f9
fe
fb
f5
22
fe
fd
04
fb
00
01
01
04
44
f8
02
02
01
f6
03
13
07
f1
0b
f4
f9
00
f9
f3
fb
07
2b
f9
06
01
01
ff
00
f9
00
5f
01
01
f7
02
03
ff
ed
fe
0c
fa
08
01
fd
fa
f6
ff
10
0d
01
0d
fe
09
fd
f8
07
11
16
06
fd
fc
e9
f4
fd
ff
0b
30
f4
10
eb
01
fc
fb
fb
f8
63
fa
09
fa
0b
0e
01
01
ff
37
fc
f0
04
fe
f0
03
0c
02
72
fe
ff
fa
00
f3
fd
02
05
d2
ff
fe
f7
02
f8
00
00
f1
1c
fc
06
f4
ff
fe
f8
07
08
9e
f4
f9
0a
f4
f4
01
fe
fe
69
fb
07
05
08
05
00
06
00
47
0d
fc
f9
06
f3
01
06
fc
0a
f2
01
f7
f7
f2
f9
10
06
b7
03
06
05
f7
01
0f
f6
02
33
fc
0e
fa
fa
03
fd
fe
f5
9b
f7
f1
02
fc
04
05
00
04
e7
06
f3
03
01
00
01
ff
fc
42
f9
05
f8
ff
00
ff
fc
01
5d
0b
f7
01
07
02
fe
f8
f6
b9
f9
fc
04
f5
f5
02
00
03
1b
08
03
fb
00
16
f5
06
fd
30
fc
01
fd
01
f9
f6
f8
02
c8
0b
08
0c
00
0a
f8
f4
00
3f
fe
fd
04
00
0b
fe
02
01
4e
f6
ff
fe
f9
fb
fa
08
0e
99
02
04
08
02
01
00
fd
f6
a5
ff
f8
fc
05
fb
00
02
0f
3a
11
01
fe
f9
04
01
03
ff
5e
f9
01
f2
f2
fb
09
f8
f7
46
06
04
f5
01
f7
02
ff
03
9d
03
fb
ff
ff
01
f0
10
04
ec
fc
04
fb
0f
05
fe
07
06
ef
fa
fd
0a
ff
fa
09
0a
04
d6
0a
fb
09
06
fc
04
07
ff
ef
fd
04
04
0b
e6
05
00
ff
34
03
ff
0b
08
fa
03
00
02
e4
00
ff
01
03
fc
f8
03
02
06
fb
fb
f3
00
f9
fc
05
03
4d
03
04
08
fc
f0
0b
05
04
a2
02
0f
fb
fd
ff
f8
ff
0b
ee
02
05
ff
03
fc
00
01
06
03
fa
0b
01
08
01
00
fd
fb
ec
07
06
fd
08
fc
fc
03
fb
b3
02
01
06
f9
f6
02
f9
fa
97
02
fe
00
fb
03
f6
00
f4
4d
04
fa
fa
01
fd
f9
ff
f5
ee
0e
f9
f6
00
fc
fd
02
00
c8
fe
0c
ff
02
0e
03
f9
f3
fa
fa
01
fa
fb
05
f7
fd
f4
eb
ff
f9
ff
02
04
f9
01
01
f1
f4
01
02
05
00
f8
ff
f5
3a
07
07
fd
fe
04
fc
06
0c
be
f7
07
07
fe
ef
06
05
09
1b
f4
fa
05
fe
0d
00
f9
0c
d2
01
ff
fe
fd
09
04
fc
0e
58
fd
f9
f6
f5
06
00
06
ff
53
fb
04
ff
08
f9
ff
0e
ec
2a
f7
04
fa
f6
fb
fe
ff
00
5b
fb
f8
ff
07
ff
05
f7
fc
94
00
fe
0a
00
f4
07
04
fd
be
f9
02
f9
06
ff
05
f7
01
9b
04
f8
00
12
fd
09
03
f7
c5
00
00
ff
ff
0d
08
07
05
60
00
f5
ff
02
01
fb
ff
04
28
f7
01
ff
fb
02
01
08
00
56
ef
fd
00
f6
fa
fc
06
01
b4
fa
02
0b
04
05
f8
fc
ff
3a
03
fe
ff
ff
ff
01
08
03
64
fa
00
fb
fc
06
ff
05
fc
b5
0a
08
07
00
fc
fa
fe
fe
13
f4
f4
05
06
06
f7
00
f9
3d
00
03
f8
08
02
ff
07
03
35
f9
f6
fc
01
fa
02
04
04
d9
03
04
fc
ff
f9
07
04
04
2c
02
f6
02
fa
00
0b
fe
08
98
fc
00
f4
00
05
fb
07
05
e7
fb
05
04
08
04
07
07
f7
51
04
07
fe
12
02
00
04
fe
9d
06
f7
fa
03
03
f7
f8
00
c5
03
08
02
01
fb
fe
f0
01
d3
00
fd
fd
07
08
01
fc
06
b6
01
fd
0c
04
01
00
09
f3
d9
00
fd
f6
fb
00
07
01
f7
37
fd
00
0c
01
05
fc
0a
ff
7f
04
06
ff
fa
0d
03
08
fe
61
fe
09
fa
00
fc
f2
f7
0a
4e
01
03
06
05
f9
00
05
fb
e8
f6
fe
03
f6
00
f9
05
0a
f2
00
02
f7
02
04
f3
04
0a
a9
00
fb
0e
07
04
01
f9
00
23
08
07
fa
f8
f4
f4
fd
02
9d
05
fd
f8
04
02
04
00
fe
90
04
00
f3
fb
f7
0a
fb
03
05
00
02
07
f1
00
fb
00
f3
4a
00
fa
00
fe
03
02
02
07
07
fa
01
fe
09
02
f3
07
ff
5c
fa
01
ff
09
f9
fc
06
fb
a0
01
f8
02
02
f1
13
01
06
10
fb
fd
06
02
04
fe
fd
ee
d6
f8
ff
04
0a
04
f5
08
f6
7a
ff
03
fa
03
f1
06
03
0a
d9
07
fe
01
10
05
f8
fe
f8
9e
06
00
02
fe
02
08
06
09
6e
f9
0b
01
06
07
f8
06
08
29
02
08
ff
03
02
fd
fc
00
ba
f7
07
fc
fd
0e
fc
03
00
af
f3
03
f6
00
01
02
0d
0a
29
03
fe
01
fb
01
fc
ff
fa
ed
f8
ff
fe
0b
ff
03
03
f3
a9
03
fb
fe
fe
fd
f8
fe
f6
60
06
02
fc
01
00
02
f5
0b
23
f6
07
fa
0d
05
03
f7
ff
b2
f2
03
fe
fe
fe
fc
03
f8
e5
ff
fc
fe
0b
0b
02
fd
04
31
f8
fb
0d
00
02
00
0a
0a
b0
ff
fc
fb
09
fe
fc
04
fb
60
00
fd
fe
00
06
f6
f7
01
b2
09
02
04
fc
fb
fc
13
ff
b5
fc
fe
f2
ff
ff
09
00
fd
46
fd
f2
06
fb
08
ff
fa
09
66
08
ed
f9
05
f8
00
09
01
de
00
01
f7
08
0b
00
f7
07
c5
02
fa
fc
fd
fb
fb
05
fc
2c
f3
02
06
05
00
09
fd
0f
1c
fc
fb
0b
ff
fe
01
01
fb
4e
06
f4
f6
f8
07
f8
01
fe
fc
01
06
00
01
fe
04
fe
03
e8
fb
01
09
08
01
08
01
09
3a
ff
fe
03
03
00
fb
f8
ff
01
fd
0a
f8
05
06
ff
f8
0d
6c
ff
f5
fe
f5
f4
07
04
05
58
00
13
00
01
01
02
02
f7
94
08
04
00
00
07
fa
01
09
b2
fc
fd
09
06
02
09
f8
02
1a
0b
08
01
fc
f5
05
09
fb
54
05
05
00
fd
f6
02
03
fe
38
02
02
f7
fa
02
07
ff
ff
32
fe
f5
04
ec
f4
fb
fb
f7
03
fc
01
fd
fc
02
f3
0d
02
4d
08
f7
f8
0d
fc
0a
03
01
50
f4
04
03
fc
04
fe
06
fd
fe
fa
ff
02
f2
fd
0c
07
06
0a
07
f9
0b
01
fd
f4
00
09
ea
f5
fe
0c
fd
fe
08
fd
07
f4
00
f9
02
fe
03
01
fb
04
56
f6
0c
0a
01
fa
f9
ff
fb
32
08
fe
01
03
03
ff
f6
04
12
04
06
03
fa
06
06
f6
00
2f
05
03
0e
09
04
00
08
f9
20
f5
fb
f8
03
f8
02
fd
01
33
0d
fd
fa
14
03
f2
04
03
44
08
fa
fd
07
06
fd
fb
fd
52
00
fb
03
09
ff
fa
f4
03
f1
00
03
f3
00
06
04
0f
02
e4
ec
00
00
fd
f6
f7
fb
03
3e
fd
f7
f8
f9
0e
f8
0f
08
17
f8
fd
ff
f2
fa
ff
fd
04
a0
0f
00
ff
03
fd
fa
04
fd
03
f9
08
0c
f9
0d
07
07
fb
ab
08
01
02
08
03
fc
fc
ff
6c
f8
0a
06
08
fb
fe
f9
fd
2d
02
04
05
02
fd
06
fa
fc
9f
06
fe
14
00
01
08
fe
fa
d6
f4
fa
0a
f9
fe
03
01
fd
48
fd
fe
ff
00
04
fd
f9
f8
2a
03
f2
03
fd
fe
08
10
f5
5f
f1
ff
04
04
03
04
fb
01
60
06
f9
fe
06
03
05
09
02
ee
06
02
02
00
f9
fe
fd
01
ae
00
f8
fd
fe
04
ff
f8
ff
6a
fe
f8
02
06
0d
fc
f8
07
62
0a
02
ff
08
00
00
07
00
b1
fd
00
fd
06
03
f7
07
0c
f4
04
fd
f8
fd
01
02
f4
02
3c
01
fa
fd
08
02
03
04
02
1a
f5
0a
00
fc
07
f6
01
04
12
fb
fe
f4
05
f9
08
0d
04
4f
f5
17
f2
03
02
ff
f9
f6
9e
0a
f9
0a
fa
f8
fd
09
fe
6c
06
06
06
0e
0a
09
04
02
a8
fd
04
fe
f9
f3
ff
fe
07
93
05
fa
0a
f3
06
fa
f0
fc
a9
fb
0a
fc
03
09
05
04
03
03
02
02
fb
00
fd
fd
02
03
a1
f9
04
01
03
0e
f8
06
ee
42
fd
06
03
06
fa
fc
fc
01
f4
0b
ff
03
f7
01
01
03
00
08
f5
fb
f8
05
fd
f8
03
01
47
fa
02
f5
f8
03
06
f4
02
a2
f8
04
04
0a
00
02
fc
ff
ee
03
f4
00
f6
05
07
f8
f9
42
02
fc
fe
02
fe
f7
fa
f7
1a
00
fd
f8
fe
02
fa
fd
04
3a
fe
f7
03
02
f1
03
ff
fd
70
fc
02
07
01
09
fc
01
f2
1a
fd
fd
f9
03
02
f9
02
fe
bb
00
f8
fc
f9
fc
07
00
02
fa
01
02
07
f9
0b
fb
f1
09
1a
02
00
09
fc
06
00
00
00
22
05
09
f9
03
0a
fb
fb
00
5d
01
02
f1
06
ff
fc
fd
f8
35
03
fa
f4
ff
0b
01
02
0d
d3
fb
04
00
f5
01
01
f8
fd
ba
fc
00
04
fd
fd
fd
02
f8
ce
01
08
fb
08
08
fa
01
f9
51
0c
02
00
0c
05
02
f9
f4
d2
04
05
fb
01
f5
ff
06
06
cc
f5
02
f3
00
fe
f9
03
fd
6c
01
0b
08
03
f9
00
ff
fe
04
05
01
01
01
07
09
07
fa
f4
fb
fc
01
02
ff
fa
07
14
32
01
07
fd
02
f1
fe
11
fc
9d
00
08
fe
02
01
fa
fc
ff
39
02
f5
09
fa
f8
06
0f
fa
95
06
02
fc
fa
08
04
08
f6
62
01
fb
fb
fa
05
05
01
fb
03
fb
ff
f9
fa
ff
03
06
01
67
02
00
f3
13
fd
ef
f7
03
41
00
01
05
fc
fe
01
ff
f1
cc
f6
f3
13
01
06
f7
fc
02
be
01
00
03
00
fd
fb
03
03
be
fe
08
03
fc
fe
08
fe
f5
f4
f8
fe
02
00
fa
04
fd
fa
a4
f8
ff
f8
fa
02
02
0a
00
99
fc
fc
fb
fa
03
fd
06
fb
4b
06
0e
fb
05
04
00
04
06
5b
fb
0e
07
f6
03
0a
f6
fc
34
fd
06
06
0a
f8
0b
05
f5
52
00
fc
fc
01
fc
04
fe
f8
1f
f8
01
0d
06
0f
03
f4
f5
37
fa
fe
06
f0
f2
05
07
fa
9f
15
08
00
03
f8
fe
02
07
04
04
04
fd
f6
ff
04
03
fa
be
fe
f6
ff
f9
fe
fc
00
f5
68
00
ff
0a
01
01
f4
07
f6
ff
0e
08
fc
16
08
07
06
fb
30
ff
02
fe
fe
fc
f8
0c
fd
c6
f5
fe
05
02
f5
01
0a
f9
bc
0d
08
fd
05
03
01
fa
03
bc
fa
f5
07
02
04
04
fa
fe
c8
05
f5
09
00
03
08
08
03
d1
04
f8
fb
fe
fd
0c
fe
ff
2f
f5
03
00
ff
fd
06
00
fb
67
07
02
06
03
04
fe
02
09
53
06
05
03
08
f2
05
01
0a
ba
f9
f2
fb
f1
04
fd
03
0a
de
fd
05
04
0b
ff
ff
ff
08
5c
ff
f7
01
fe
09
02
04
0a
5c
04
02
09
04
05
06
09
fa
13
09
fa
00
f9
04
12
08
fe
61
04
04
fd
03
01
00
fe
fc
e8
01
04
fe
06
06
fe
0f
f7
05
02
fb
01
fb
02
05
fd
0d
08
05
fd
0b
09
0a
05
fc
09
b9
01
03
fb
fc
07
fe
f7
01
f7
fe
fc
05
fb
00
fc
04
00
ce
04
0b
fb
fe
04
02
fb
fd
26
09
04
fe
f9
fa
05
00
fb
e7
06
0a
02
01
0c
f5
fd
ff
37
ee
fc
ff
fa
01
03
03
0a
68
fb
f9
01
f6
fe
01
07
ff
f6
02
05
03
07
10
04
fa
08
d1
fa
02
fb
00
08
f8
04
05
39
fd
f9
f7
07
05
fb
05
03
e8
fa
fc
03
ff
02
05
08
01
da
11
ff
00
04
08
f8
04
fe
d1
00
f9
ff
f3
02
0a
0a
12
0e
f8
ff
02
01
ff
fd
09
0b
02
03
02
05
01
05
14
02
05
c2
11
04
fa
07
02
fa
0a
0a
f0
ff
fd
fb
0a
ef
f3
01
07
97
f9
00
fd
ff
06
fe
03
fa
29
02
fb
ff
fe
f6
ff
f4
07
4c
f5
fe
0d
ff
0a
04
fe
fd
1d
f9
fb
fe
f9
01
02
02
fa
27
fe
01
fb
fe
f6
f7
04
1a
cb
07
02
06
03
0a
04
06
f9
93
f4
0c
f1
08
03
06
f4
fa
6a
fd
fd
03
fe
0a
06
01
02
e0
02
fa
02
02
ff
01
02
07
0f
fc
05
0a
00
f6
01
09
ed
36
fe
ff
fa
f7
07
0b
05
09
30
f4
03
f8
09
f7
06
03
00
98
02
05
f9
fd
f9
09
f9
0b
35
05
ff
fd
fe
07
05
f6
ff
52
f8
05
05
08
f6
03
02
07
b2
06
ff
05
01
0c
fd
07
01
4e
03
fd
02
06
00
0a
04
ff
9b
07
fb
02
fe
fb
04
f9
fc
51
fc
01
fc
00
fe
ed
06
06
5b
fb
09
08
08
fa
06
02
0b
ae
08
ff
02
07
04
05
09
04
24
ff
fe
f9
01
fd
f3
0b
07
09
ff
0b
01
01
fe
05
06
03
93
fc
fb
f9
02
06
fa
04
fb
c9
fe
02
fa
00
0a
ff
fc
07
b3
00
00
02
0a
03
06
0a
ff
0f
fc
02
02
ff
fd
fc
fd
fa
e0
02
03
00
07
0a
07
fa
ff
12
fc
0b
f3
02
fd
03
03
09
e6
08
ff
fe
fd
fa
07
00
fd
6f
01
05
f8
fe
ff
09
07
0a
12
16
fc
f4
fb
02
fb
03
fb
0b
fe
07
00
fd
00
0b
ff
f9
ce
00
03
f7
fe
04
05
01
fd
a3
00
f3
fc
f8
fd
fb
08
fc
95
fd
05
fc
05
08
ff
01
05
94
02
06
fc
fd
f8
fb
09
04
1c
06
07
11
03
0f
01
f9
02
d2
f6
ff
00
f0
fb
02
fc
fc
0f
0a
ff
0a
f8
f8
09
fa
fb
47
04
fc
01
00
05
fa
01
02
ce
fd
f1
03
01
01
07
08
fb
cc
f6
ee
0a
fb
0d
f2
f6
0a
1c
fc
01
00
0a
ff
fd
ff
fa
f5
04
fb
0b
00
03
00
07
14
fc
fe
f1
08
02
01
02
03
f2
08
f4
fe
02
03
fe
f8
02
fc
5f
fd
02
02
05
f6
fc
08
05
28
01
f9
f5
00
0a
08
fe
01
5b
04
f9
04
fe
fb
01
09
f5
b4
f4
08
fd
f6
f1
03
0a
0a
36
05
03
08
f9
fa
05
fd
fa
a5
01
07
01
0a
03
04
00
f7
5e
fb
06
01
04
fd
f8
00
05
fa
04
02
fe
0d
09
fb
09
fc
01
f5
01
fe
f8
f8
0c
02
fc
95
0d
ff
04
fe
f6
fd
07
0b
33
0a
f5
08
f9
04
00
06
03
ba
fa
f5
0c
fe
01
fd
ff
01
d6
f2
f4
00
07
0d
05
02
f2
cf
03
0a
04
0a
02
08
00
fe
58
06
fa
08
f6
fe
fb
03
f9
f9
f2
fe
01
fe
0f
02
01
fe
64
0a
0d
07
08
ff
05
01
06
2a
06
fb
00
00
0d
0a
f1
00
26
f5
f4
04
03
f8
03
fe
fa
b1
fe
00
f4
f6
04
03
03
01
a8
fe
f5
02
ff
04
01
02
ff
b7
0b
fb
f9
0d
f2
fd
ff
07
5f
02
09
00
01
02
04
02
f8
12
05
ee
fe
01
ff
0b
00
05
aa
f9
03
07
ff
08
00
05
02
dc
ff
fb
02
03
01
10
01
fa
56
01
07
09
ff
06
fe
fb
fa
fa
ff
f9
fc
0f
f9
fb
0d
fe
9d
05
fd
f9
fc
00
02
0a
fb
65
fe
ef
02
00
0c
02
04
fd
cd
fe
fa
fa
f5
fa
07
08
0d
2a
03
04
01
01
fc
03
f6
08
41
04
ff
fe
f9
02
02
fc
fa
27
02
ff
f9
fc
03
fa
00
f6
2a
02
fe
09
04
01
f4
f6
00
38
ff
03
fd
01
03
f1
07
f8
b9
06
09
02
f7
fc
04
fd
02
50
fa
fe
fa
01
f8
0e
02
04
d7
01
03
03
fc
fd
f9
07
fd
bd
f3
01
01
fe
02
02
03
05
0d
fc
fa
01
f8
fe
03
04
0e
bc
00
01
03
fc
02
07
f8
01
39
02
02
08
00
03
00
06
f6
c2
03
fa
05
ff
fe
fa
fb
fe
64
fd
fd
fc
ff
04
05
04
fd
38
0a
10
fa
00
fc
0b
08
fd
29
f4
03
04
fc
f8
06
08
03
ca
03
ff
f8
fc
f8
09
06
01
fd
02
06
f9
05
04
04
07
fb
37
f8
fd
01
fb
05
09
07
fb
5c
05
f3
fb
fe
fa
0c
ff
03
37
f6
fb
01
ff
fa
01
f9
f7
f8
fe
04
fc
04
0c
02
fd
00
31
0b
f8
07
07
ff
fb
fa
fd
3d
0c
ff
f8
fa
f4
0d
00
f6
15
05
f8
f6
fe
fe
fb
02
1a
4f
f9
07
03
03
03
ff
fe
0a
5f
06
04
06
f9
0e
fd
01
01
d8
00
04
04
f7
f9
fc
fe
08
04
05
00
07
fd
fd
09
fb
f4
e2
08
f6
01
09
fa
fe
02
02
3d
08
ff
fa
05
ff
09
06
fb
c8
01
00
04
ff
04
fe
04
09
56
0b
07
fc
03
fe
08
ff
f9
c2
02
00
04
fc
fb
ff
00
fd
41
fd
0c
f7
ff
00
f8
fc
0f
b6
05
fd
06
07
fa
ff
05
04
e8
ff
f7
04
00
06
04
02
09
b9
fe
fc
fe
01
fb
01
fb
08
f1
00
fe
08
08
02
03
ff
f7
b6
08
02
fe
ff
00
06
09
02
cd
ff
04
f9
f9
fc
03
ff
f7
18
01
03
01
fc
0e
01
00
0e
e2
f8
0a
f9
fc
0d
fe
f7
04
a0
01
00
fd
00
09
fb
fc
01
9a
05
06
fc
ff
fd
04
05
fc
f2
00
01
f2
f4
fc
0b
07
0d
53
04
07
eb
f3
0a
03
fb
06
d6
05
01
03
03
fa
ff
f5
0c
15
fd
fd
07
0a
fe
f2
ff
06
60
fe
01
fc
fb
fd
01
ff
07
37
ff
0a
f5
07
fd
09
04
f6
ca
ff
fb
f8
09
fd
fe
fa
f9
3c
08
f9
0a
12
04
02
05
fc
9e
03
05
fc
fd
ff
fd
01
02
ce
fa
05
05
fc
fe
06
fe
f4
f0
04
01
0a
f6
07
f3
fd
06
9e
f2
02
00
0e
03
fe
0d
fc
03
02
fb
f7
ff
fc
f8
06
ed
73
f6
ff
ff
f8
ff
06
fe
0a
40
f9
fd
f5
04
07
03
06
02
1c
fd
07
fc
ff
fc
01
03
02
57
ff
ff
0a
ff
07
04
09
07
93
fc
05
01
ff
f8
ff
06
fd
a6
ff
07
03
13
ef
05
0d
f5
c0
09
08
f7
f5
08
08
05
03
93
04
01
05
fb
01
fb
fc
04
a7
f3
f4
08
05
ff
f7
fa
04
4d
f7
fd
02
06
02
05
06
04
06
05
fb
f6
06
f7
00
f4
0a
02
eb
fb
0d
f9
0f
01
fc
fd
4d
10
08
15
03
ff
00
03
01
f9
05
fb
06
04
fc
03
05
0d
0c
f9
fd
0f
0b
08
fc
f9
fc
c8
09
ff
fa
06
ff
fb
fe
fb
cb
02
fd
07
fa
fb
fd
0b
f7
fb
fd
06
fe
03
f6
03
fb
04
c8
02
fb
03
f8
09
f8
f7
fa
6b
f9
06
fc
00
f9
ef
09
00
d0
05
02
06
08
09
fe
fc
f6
b2
0a
02
fc
09
01
ff
03
00
da
08
01
03
f7
fe
fd
fa
fe
56
fb
01
07
07
01
00
f7
fd
51
ff
ff
04
0a
fb
f6
f6
fd
e0
fa
02
fe
06
08
fe
0d
f2
c8
0f
04
00
09
09
03
f7
0a
66
f5
f9
01
04
fc
05
06
02
35
03
fe
0a
02
fc
ff
f2
fe
fe
05
05
02
fc
fe
03
06
fc
92
08
f7
f8
02
00
02
fe
04
14
fa
00
f6
0f
ff
f8
fc
0e
e1
04
04
f7
04
f7
04
fc
fe
2b
00
fe
fa
04
fa
00
f7
fc
d1
05
0d
f4
02
07
01
03
01
1e
00
fb
05
02
f8
fb
fc
f2
b0
05
fa
00
07
04
fa
0a
06
e1
01
fe
01
00
02
fd
02
07
19
04
fe
fe
08
00
fd
03
f4
5a
fc
f8
00
01
01
0c
f3
00
7a
09
09
05
fe
ff
f8
fa
07
db
00
fc
fd
06
02
f9
fd
04
b7
ff
04
09
02
05
fe
fb
09
50
08
f6
12
04
05
fa
ff
ff
de
fb
04
09
09
02
f6
01
f5
12
00
f7
f4
ff
01
0b
01
fb
cf
0a
fa
08
f7
01
07
fe
fc
4d
00
09
fb
03
f8
fc
fa
00
9f
05
06
05
00
01
fc
ff
fb
53
07
03
f5
fd
02
f5
f9
f8
55
06
f7
ee
01
f6
f8
fe
06
a6
08
00
f7
03
00
00
04
08
24
fe
fc
ff
f7
00
fb
00
ff
4e
f8
04
fb
0f
f6
fd
fe
06
57
01
06
08
11
ff
01
f4
fc
94
fd
01
02
fb
ff
02
0e
00
33
fc
02
fc
03
fd
fc
0c
fd
35
06
fe
00
0b
0e
fc
08
06
3c
fe
02
fc
05
02
0c
fa
fc
11
0a
fe
fe
fe
fe
05
fe
f8
e2
fc
fc
fb
fa
f9
0a
f9
03
08
08
f0
fa
fa
0a
f0
f9
05
8f
f8
0a
02
18
06
f9
f5
02
d2
fd
ff
fb
03
f9
f8
f8
01
25
00
06
00
06
fe
03
03
fa
50
f3
ff
fb
01
f4
00
fa
04
24
fa
03
04
00
fe
00
06
fc
a0
07
00
04
0d
f8
0a
07
0f
3f
0e
02
02
f7
fc
05
09
fb
32
09
02
fc
07
fb
02
03
fb
c0
03
01
f3
ff
f4
0a
0a
0e
14
07
00
09
02
08
02
00
05
d6
f4
f9
00
07
f8
f7
00
fd
f5
00
00
fe
05
f8
03
00
00
b0
01
f8
0e
08
f9
fa
06
fe
e2
01
f9
ff
fe
f4
09
10
07
9d
15
ff
0e
fc
fe
07
f4
03
5d
fe
01
03
08
0a
02
08
04
a0
ff
f5
fa
f9
00
fc
07
02
03
fd
fe
00
0a
ff
fe
04
03
ec
f7
0b
08
f4
01
fe
08
06
94
f9
00
fb
07
f7
f6
fd
fb
e3
fe
0b
fb
07
fd
fd
00
07
ea
04
08
00
10
fa
01
f5
ff
3c
00
07
03
fa
00
fa
ff
f7
fa
0b
04
f9
00
fa
ff
05
04
1c
05
00
03
f3
02
02
00
fc
d3
05
f7
04
04
0b
07
0d
fe
be
07
0a
fd
fe
01
fc
06
f9
8e
00
03
ff
06
05
fc
00
fa
1f
0b
05
fb
01
02
fc
ff
02
30
f6
fe
f6
09
03
f7
00
0d
41
01
04
f6
fe
07
fd
fb
00
36
0a
0c
0d
ff
05
06
05
fc
c1
fe
03
01
01
06
05
0b
f6
b8
fd
f3
ff
07
01
fd
ff
ef
4a
0b
0a
f7
fc
00
0f
fc
00
5c
02
05
04
09
04
ff
fd
02
26
f9
f7
f4
0a
f8
ff
0e
f6
4b
fd
05
0a
01
f1
f9
03
fc
aa
f3
ec
01
01
f7
fc
fa
fe
fb
0e
fc
fa
09
f8
ff
0e
f6
ce
00
01
f8
fc
fc
01
fb
02
bf
fa
04
0e
fe
f5
03
00
fc
a5
01
fa
f3
f8
03
fa
02
fc
df
00
05
05
05
05
fd
fb
f2
9a
fe
08
fd
fd
fb
0e
06
00
6f
ff
fc
04
f1
00
fd
f9
ec
54
f9
fb
01
00
00
01
fd
00
e4
fc
08
0c
fe
f8
05
fe
0b
cd
f7
f9
02
fe
f5
f7
06
f5
d5
ef
01
fd
ff
fc
fc
05
fc
f1
ff
fb
06
00
fd
04
04
03
8e
09
0e
fd
01
fd
00
04
fd
b0
fb
fd
08
01
0a
ff
f2
f2
5a
fc
f9
02
06
0a
f4
05
fe
da
02
06
07
0c
09
fe
fd
fc
fd
03
00
02
04
f6
03
02
ff
4b
fd
04
f7
02
fc
f7
00
03
57
01
0e
f9
0b
fe
15
fd
01
9d
f7
f0
01
04
00
02
ff
f4
97
f8
e8
ff
07
fd
04
0f
01
a6
ff
01
eb
fb
03
06
f1
02
16
fc
fd
05
fe
06
f4
00
03
fc
09
03
07
f6
ff
00
fc
01
08
0c
06
07
fe
10
02
08
f9
2d
f2
06
f8
ff
f2
06
04
ff
39
03
f7
01
04
f8
01
fe
fd
c7
07
0b
02
01
fc
f9
07
ff
4d
07
05
04
0c
0d
f6
fa
fc
dc
f7
f8
0b
04
0e
fb
05
f3
9d
00
0a
f7
fb
ec
f8
02
fe
07
fe
fb
02
08
f8
ff
01
06
cf
03
01
f6
fd
f7
06
fd
01
6c
0b
04
fe
f6
00
f7
fd
02
b4
fd
fe
0a
fa
fa
04
00
fe
b3
ff
fc
ff
07
ff
02
04
f8
b7
00
07
05
08
02
08
f7
f5
b4
02
ff
ff
0b
f3
03
fb
01
a1
0e
08
ff
ff
f2
07
fc
f9
38
fd
03
ff
01
01
04
01
fc
27
f7
09
fd
01
fa
f7
03
0d
35
07
ff
05
fc
f7
03
ff
fe
fb
ef
fc
04
fd
f4
06
07
fe
e6
0c
07
02
00
fc
07
01
f9
5a
01
06
fc
f9
06
00
f9
01
05
f4
fe
09
fd
04
ff
fa
fa
26
fa
fc
0f
0b
fd
f3
03
01
e2
0b
0e
f9
ff
f3
07
00
05
49
ff
01
f9
0e
fb
f8
fd
05
9b
ff
f8
ff
f8
f8
03
f8
f5
07
08
0a
06
fa
f7
00
03
12
4a
fb
fe
03
03
ff
fd
05
02
4a
fb
fa
01
0c
fa
0e
01
fb
2d
f9
00
ed
fd
0d
fb
03
02
1d
01
00
0e
01
fa
fc
00
0c
5e
06
ff
f4
fd
f0
03
07
fd
3a
05
06
01
f8
0d
fa
00
08
bb
fb
fa
09
0b
f9
05
0c
02
d2
03
fe
05
0b
02
fb
fd
f7
dd
03
0d
04
02
fc
08
fc
f4
e3
fc
01
ff
fd
f2
f8
07
f5
55
f8
00
fd
03
0a
04
fd
06
b6
0b
fa
01
fe
f3
0c
04
f9
17
03
f3
02
05
08
08
fd
ff
10
fd
06
07
f8
f7
0e
f7
fb
c6
08
01
02
ff
fb
05
05
03
02
f7
02
03
f6
03
10
01
fa
9c
fa
f8
fe
07
fe
00
10
03
b5
fc
02
03
fa
fe
f4
02
f6
05
f7
03
fe
04
03
ff
07
03
25
08
04
05
eb
fa
10
0a
fe
58
02
0b
07
03
ff
02
05
fb
95
f6
0b
02
00
03
00
fd
01
70
07
f0
06
fc
fe
04
00
ff
3c
01
f3
07
07
f4
0c
04
fd
67
fe
0b
03
0a
f2
03
05
ff
f2
fb
03
03
fc
ff
fa
01
f6
e2
f9
f9
04
f4
f8
03
fc
f6
68
ff
fa
05
10
f9
04
fe
05
41
02
0e
02
08
04
00
0c
02
43
05
04
08
ff
fc
01
00
fd
a0
00
fb
0a
ff
eb
fe
fc
fa
6a
06
02
06
fc
02
0c
04
0e
b7
07
fe
02
02
06
0d
ff
fc
55
06
02
00
09
05
fd
09
0a
a9
06
02
03
00
01
02
04
f8
4a
00
fe
f7
f7
09
04
fa
0c
ce
fa
fd
04
ff
04
01
fe
05
da
04
00
08
02
fb
fe
02
0b
b1
05
0a
fb
f7
00
f9
07
fc
6b
fc
01
00
f9
fa
03
02
07
6d
fa
f5
05
02
05
fc
07
ff
b4
02
fc
fb
fe
fe
0b
00
04
e4
04
fe
0c
fd
f8
fe
fc
f8
48
09
08
f3
0a
01
f5
f8
f1
5e
05
04
0a
fa
fa
fc
00
f5
c7
06
fc
fc
01
05
fc
09
f3
3b
fa
fa
fd
02
07
00
fd
fb
e4
03
05
fc
08
f5
fc
f6
02
c4
04
fb
01
ff
00
09
f6
ff
f9
01
fd
fb
07
fe
09
06
fe
9b
06
01
02
fd
09
ff
01
01
28
02
ff
f8
fe
fb
ff
f4
f4
92
fb
00
00
01
fb
08
f8
ff
da
0a
ff
fe
07
02
fd
fb
01
a8
02
05
00
fc
f8
02
05
fb
19
f5
0e
f8
fe
f9
fc
00
f8
b4
02
ff
02
00
f5
07
fd
ff
a0
07
03
ff
fc
00
00
00
ff
45
07
03
f9
02
03
fb
05
03
17
09
01
05
05
03
00
06
ff
d8
01
fe
fc
08
f8
01
fe
fa
a2
fa
05
02
f2
fc
ff
05
f3
e1
f2
02
fe
f8
0a
00
fc
04
56
ff
04
06
00
fa
f9
fd
05
98
00
fe
fe
f5
08
f5
fc
fe
08
02
f5
0a
f8
f4
05
f6
00
ac
f2
ff
ff
f5
0a
03
fb
0e
02
06
fe
08
02
fb
f7
01
01
bf
f9
03
0c
f8
fb
09
14
f9
bd
08
0d
0b
02
04
fb
ff
01
60
ff
fc
0f
04
f5
0c
0a
01
d1
13
00
06
05
01
00
01
07
bd
06
09
05
ff
fb
00
09
02
2c
ff
f9
01
02
09
0f
0f
f2
d3
fa
05
00
01
0e
f5
f0
05
d3
f9
f2
02
08
f1
0d
fc
f8
02
ff
f9
00
09
ff
fa
03
0a
5b
f5
07
06
f6
07
07
01
05
a4
fb
f5
04
08
f9
00
08
fa
ce
fb
fc
fd
f8
ff
00
07
f9
5b
05
00
f5
05
06
07
05
00
12
08
02
07
01
fc
ff
fb
f7
4a
fb
0f
00
fd
0a
f9
f8
0a
e6
ff
07
fb
0a
fd
03
ff
11
23
fd
14
ee
ff
06
04
10
06
9a
00
fb
f5
fa
fa
00
f5
fd
61
04
ef
f4
fe
03
fe
03
fd
28
fb
f4
03
f7
f0
0b
07
0c
de
fc
0c
f7
fd
02
06
11
03
b9
04
fb
0e
fe
10
04
05
06
9c
fa
f7
fb
07
f8
00
10
f7
dc
fc
07
00
0c
ff
ff
f5
0a
db
03
fa
0a
0a
02
06
05
15
37
fe
02
fc
fe
f3
f6
fa
fe
25
ef
00
00
01
06
fb
ff
fc
a4
09
07
fd
ff
f9
04
06
02
d5
04
00
06
ff
0c
03
ff
fd
1f
01
04
f6
0c
0a
fe
01
0b
bb
06
f5
05
ef
0f
07
10
f5
99
02
f9
ec
0d
fe
08
f5
f5
9f
04
02
03
05
07
0c
fb
05
96
fe
fc
f5
04
f3
fa
07
00
a1
01
f9
04
19
fb
fe
04
07
4e
fc
f8
fc
03
f5
fc
fd
13
06
fc
04
01
0c
f4
f8
08
fe
47
00
fc
02
09
06
fe
f5
08
9b
f8
02
07
0d
fe
f0
06
ff
aa
04
fa
02
fd
06
f4
fa
06
9a
fb
08
04
fe
0a
ef
fd
05
30
ff
03
05
fd
fa
f6
0f
0c
b9
09
fc
f7
ef
04
fa
00
03
c3
fb
fa
04
11
fb
fe
fb
f8
20
02
01
01
fc
fa
fb
f6
00
a5
ff
fe
00
0a
fc
ff
04
00
af
f9
02
00
0b
fd
fd
f4
f8
9a
00
ff
f5
01
0a
f7
fd
fb
cd
ff
08
05
06
fc
00
ff
05
65
05
f4
07
07
f6
0a
03
ff
da
05
06
02
fb
f3
04
0c
fe
25
f8
06
06
0d
f6
07
fa
fe
52
fe
04
0d
fb
04
07
f9
00
2d
fe
f9
0b
02
fb
fa
fe
06
b0
fa
f8
05
ff
f9
ff
0f
10
93
f7
08
06
0b
f7
ff
fc
03
9e
06
fd
f7
fa
07
f9
04
fe
0d
fa
00
01
0a
f7
ed
07
05
ff
f7
00
05
fd
06
0b
02
ed
0f
fb
fc
07
06
06
05
fd
00
2a
02
01
04
f9
00
ee
0e
08
17
0a
03
fa
00
06
fc
05
fe
99
09
fa
f9
0c
ff
04
05
04
c6
02
fe
01
0b
05
fa
09
0b
59
fa
06
fb
00
00
fe
fb
f9
1b
00
f6
05
fb
00
e8
fc
0b
cc
f7
0a
03
06
fa
06
ff
ff
f4
0a
fc
02
03
ff
fc
f5
f8
d1
02
0e
0b
fe
01
00
05
fc
07
fb
01
03
06
fd
0c
fa
03
50
f4
07
fc
fe
0f
fc
04
02
dd
04
fe
07
fb
f4
12
fd
fa
00
04
06
09
fc
05
07
05
06
01
04
f5
10
05
fb
03
04
ff
15
00
fc
09
fd
fa
03
08
00
5d
fe
02
0a
02
02
07
03
04
ca
fa
fa
ff
fc
02
fd
04
f4
63
02
07
07
ff
ff
00
f5
f7
9d
03
08
04
07
03
ff
02
01
c0
04
fd
fd
f5
fb
12
05
fe
ee
0a
00
02
f8
00
04
fc
fb
08
fe
01
03
00
00
06
06
08
29
03
eb
f5
fc
fe
09
05
ff
54
04
04
06
07
fb
02
fc
f9
fc
fe
fb
09
f7
06
fe
0e
00
cb
fd
f9
06
f8
05
05
01
f7
bc
fa
03
07
fc
f1
00
fc
03
2c
02
02
fb
03
f5
f3
f7
09
a5
01
02
02
05
02
02
02
f8
b0
03
03
02
06
03
07
02
fd
15
f6
06
12
f8
02
fc
07
f8
b5
02
03
0e
02
f7
02
08
03
ba
09
f9
f3
f8
fe
02
08
00
18
fd
0b
ff
05
04
02
fc
fa
d8
04
00
fd
ff
07
fe
03
03
f6
f9
fe
f9
ff
fe
fd
0c
fc
34
ff
fd
02
ff
f8
f8
10
01
5b
f2
f5
04
04
fd
01
f8
02
a5
04
0b
fe
f2
02
0d
fb
03
c6
03
06
01
f2
01
09
05
f5
01
f8
f1
04
f9
04
fb
06
fd
41
03
02
fb
00
ff
0c
0b
f8
08
11
05
f7
f8
02
f6
f3
07
30
01
09
f8
fc
15
0c
06
07
f3
01
11
fd
fd
02
07
fc
f9
55
04
fd
00
fd
0b
fc
f3
03
da
f4
08
06
08
0b
08
f7
fb
70
02
f6
f4
02
fb
fa
05
ff
eb
00
ff
0c
f8
0b
05
08
01
dd
fe
f9
f9
f2
06
0a
f6
03
ca
04
01
f9
00
0b
f4
0c
fe
38
01
0d
06
0b
06
04
01
07
cb
03
f1
02
01
fc
02
ff
ff
41
ff
ff
f8
00
03
fd
00
f7
bc
fe
14
0c
09
0d
01
e3
08
99
08
fb
fe
fa
01
fb
fe
f2
6a
0e
fa
01
00
fb
fb
fe
fc
51
ff
fa
f9
fb
05
03
ff
05
26
08
07
f9
fa
fc
00
fe
ff
b3
01
fe
02
f6
ff
09
01
f1
fd
fc
07
fe
fd
00
05
ff
04
69
08
fa
04
02
0a
05
f7
f5
5e
ff
f9
05
05
fc
05
0f
fe
0f
07
02
09
fb
06
f6
07
01
ea
08
05
02
01
00
02
fc
06
bb
02
0c
07
f7
03
05
f3
06
d0
ff
f5
05
00
ff
fd
0a
05
59
fc
05
04
fe
05
fa
0c
0e
53
fa
03
00
03
f8
ff
05
00
f2
fa
05
05
f6
ff
03
01
fb
1f
00
fb
fa
01
fd
06
03
f8
fa
fe
fd
fb
00
fb
05
0d
fe
4e
00
ff
ff
fd
01
04
fd
ff
94
04
04
fa
f6
04
f8
fc
00
da
fa
fe
02
0b
fb
04
06
fe
65
0c
01
03
f6
02
f4
fe
f3
aa
fc
fd
07
04
03
fc
ee
f6
39
06
fc
00
13
fa
fc
fc
03
a2
fd
01
fd
f2
fe
07
f8
f6
b6
03
08
f7
f7
fb
fc
f0
00
6b
fb
13
09
ff
fb
08
07
04
ce
03
05
07
fe
06
fc
fe
fe
64
02
00
04
06
04
fb
fa
05
db
03
02
fc
f6
0b
fd
f5
fc
24
08
02
fe
fd
03
03
f9
fb
d7
02
ff
f8
fa
f5
fb
fd
f7
ea
f9
04
fc
fe
04
02
ef
f7
be
01
ff
f5
fc
02
fa
f5
00
a1
fc
fc
ff
00
05
ff
f3
07
12
f7
fe
fe
ff
05
0b
ff
fb
e0
00
f6
fd
f6
fe
03
01
f5
af
fa
fe
01
f5
f6
f0
fb
fb
e0
07
02
f9
fe
08
09
fb
01
f3
00
f6
00
fa
06
03
fb
05
fa
01
ff
05
fd
f9
fe
fa
0c
27
f4
0e
00
fa
fd
09
fe
f9
b4
03
f3
09
fa
00
ff
04
02
fb
fe
04
00
ff
02
08
09
0a
f8
02
fb
09
01
fb
03
fe
ff
09
fe
16
f3
02
fa
06
fa
fc
38
fb
05
03
03
04
09
13
03
5c
05
04
0e
f7
fd
f6
00
01
34
fd
0c
fa
07
ff
0c
fe
10
e1
ff
f2
06
05
fa
f8
fb
06
ed
04
f0
08
ff
01
02
0b
01
d0
00
f8
05
03
08
10
0b
fe
5f
f5
f6
f6
fa
08
f8
ff
00
f0
0a
fd
ff
0b
fb
f8
fa
f9
9e
03
f8
03
fe
02
f8
06
f9
0d
00
fc
06
05
f8
05
07
04
b4
fc
f7
f4
01
05
01
fe
fc
03
01
01
f3
01
04
f0
0a
04
f4
07
01
08
fa
03
01
08
01
43
fc
f8
0a
0c
04
05
fb
01
4c
ea
00
f4
01
ed
f0
0b
fe
f0
09
08
fe
08
06
fb
f7
fe
1a
07
fd
05
08
0b
01
09
03
0f
04
fc
fd
04
f9
f4
02
05
52
03
fe
fb
00
03
f8
09
05
a4
fb
06
fd
09
06
fd
f8
06
e2
03
04
03
f3
05
fd
11
09
dc
02
f7
0b
fc
02
ff
0b
ff
f7
04
fa
fb
ff
ff
f4
0a
fd
68
fd
06
f5
fa
06
0d
f9
04
90
04
fd
f2
05
03
08
0a
08
5c
ff
fe
0f
fc
f5
08
fd
fa
9b
ff
02
fd
f1
0e
0a
0a
0c
9c
08
02
00
01
f5
00
06
fc
c0
04
06
07
fd
02
f7
fd
fa
a5
07
fe
0b
00
0d
07
fb
0e
96
f7
f9
16
f8
00
ff
08
f8
18
0a
fa
f7
0c
02
ff
06
fd
3a
02
f8
f9
fa
fd
f8
ef
04
a3
03
01
fb
f9
03
04
01
f8
59
00
f2
02
fc
06
f6
08
01
b9
f9
03
02
fe
00
04
fa
fd
3d
f8
fa
f3
f4
0a
01
07
08
f5
f8
f6
fa
fc
ff
fc
04
ff
ac
fa
f4
05
fb
01
06
00
fe
09
fa
04
ff
fb
03
f1
06
fc
0a
02
00
fa
03
02
02
02
02
63
f9
fd
f4
01
f7
02
02
02
ae
03
00
03
06
01
f6
01
04
df
ff
fe
04
03
02
03
00
01
b0
fa
fc
03
03
fc
f3
04
00
50
f9
fb
fe
f7
04
08
09
03
44
04
f1
02
04
fc
fc
00
04
31
f2
f7
04
02
f8
f5
09
02
d2
00
04
03
fd
f5
ff
ff
fd
5f
fc
fc
03
fe
04
ee
0d
07
94
02
05
05
f9
04
06
fe
07
89
05
07
04
00
f9
03
06
fb
5b
f8
fb
04
fa
fc
fe
fb
f8
2c
f5
f5
f9
f8
f1
03
f9
ff
cb
f8
04
05
00
fc
04
fd
fa
23
01
f7
fc
fe
fc
f8
0c
03
f5
01
fd
02
fa
fa
05
01
fa
65
03
fd
04
01
07
fb
02
ff
49
00
05
04
07
fa
f8
fd
fe
75
ff
fe
fd
fa
fe
f5
fa
05
40
09
03
08
04
ff
04
00
fd
0c
01
04
f6
04
06
fb
ff
f2
ed
0b
03
06
08
00
06
03
08
17
fd
00
04
fd
00
fb
fa
f3
aa
fe
f7
ff
fd
09
04
0b
fc
e5
f4
ef
ff
05
fd
04
fa
f7
b6
06
0e
0e
f7
03
fc
fb
0b
16
01
03
f9
01
08
02
00
01
62
07
00
03
fb
09
fb
f7
fa
56
ff
01
fa
02
06
04
0e
f6
db
00
01
02
05
03
f1
f0
f6
cf
fd
ff
fa
ff
05
00
ff
14
5c
fe
0a
f6
f4
05
f9
fc
f6
ff
06
08
f8
f7
08
fd
f9
03
ff
fa
02
fb
02
fd
0a
04
04
e8
03
ff
02
02
f4
03
16
08
24
f6
ff
00
0a
09
02
fc
f8
17
fa
01
f5
fe
03
07
05
09
43
ff
fc
0a
00
01
f6
fb
fd
de
0d
05
f9
fd
f0
00
03
0a
bd
0c
f3
f8
05
05
07
03
0a
2c
fd
00
00
05
fc
fd
fc
02
3c
0c
06
fb
f8
f2
11
f8
fe
e6
fe
02
03
f0
04
fc
07
fc
e3
f8
04
f7
ff
fc
03
09
fc
a4
f5
f5
fb
04
04
f5
0b
03
e3
00
06
ff
ff
fe
06
0b
ff
f4
05
04
0c
fe
02
0d
f3
f6
ff
ff
03
fb
0a
f9
f7
fc
ff
db
03
fa
f3
f9
05
f5
04
f7
ca
f7
fb
fe
fa
fb
06
07
f9
d5
f6
f6
f9
08
ff
fc
ff
fe
97
05
08
fe
f9
01
f0
f8
04
94
02
07
00
ff
fa
03
f4
00
ae
fb
fd
01
fd
fb
00
07
fe
15
06
fd
fd
0d
fc
01
01
ff
1b
07
0a
02
04
08
fd
04
f9
2b
0a
f3
03
06
04
fd
fe
fc
9b
fb
05
02
05
01
03
f9
00
b8
e9
f7
f2
06
ff
0b
00
f4
49
07
fc
fa
fa
05
0b
fb
05
fa
01
01
01
0a
07
02
02
f6
54
f4
03
f6
00
01
f6
fc
06
46
f9
fc
07
04
fa
07
06
0f
62
00
f2
fa
0a
fe
08
07
09
ad
02
02
05
06
f7
03
02
02
3c
05
02
f4
f9
fa
fb
09
0d
fb
05
00
0a
fe
0e
09
fd
03
39
fe
f5
05
09
03
fa
f7
fe
a4
05
f7
fd
0d
fc
f7
fc
00
43
f1
ff
02
05
f5
f5
f0
06
20
05
f8
02
00
00
06
00
17
3e
0f
fe
09
ff
0a
ff
0a
08
23
05
00
06
ff
ff
00
04
05
e5
fc
fb
ff
07
04
02
ff
02
5a
ff
fa
00
05
15
03
03
05
bb
fc
fc
04
f9
07
0b
0d
03
01
fe
f7
00
02
03
fc
fc
f7
71
0a
fb
ff
f9
08
fe
01
02
cf
fa
06
f9
03
02
00
f9
fe
e9
00
0b
fc
f8
04
07
06
04
e0
04
fb
f8
0d
fc
05
01
09
bc
07
00
05
fe
06
0a
f7
fa
cb
07
f8
0a
0b
03
02
09
02
47
f8
06
fa
03
ff
04
fa
03
23
01
02
f3
11
fb
03
04
ff
58
fe
05
fe
02
ff
fc
00
f9
d3
0a
fb
fc
06
fd
0b
05
fc
e2
fb
03
fe
f7
0c
fa
16
fc
03
0b
fc
fc
00
00
fd
00
fd
f1
05
f8
ff
0d
00
07
04
07
13
f7
04
f8
05
ff
03
0b
f7
a3
0d
fa
fc
fd
02
08
0c
0a
69
04
0c
03
fe
fe
fe
fb
0c
4e
0b
02
e5
f9
0c
0d
fc
fc
e6
f6
f8
08
f9
fc
08
07
04
43
10
f7
03
09
f1
0d
03
07
ce
0f
02
02
00
fe
05
f7
ff
4e
ff
0a
fd
f4
f5
fd
03
02
0b
07
01
02
00
07
f8
04
07
5d
f2
fa
02
09
09
09
13
f9
f6
03
f3
fc
05
fe
fb
f5
fb
63
05
01
f8
02
08
01
f9
f3
08
fe
f5
ff
02
05
01
ff
0a
c3
00
04
0a
fa
09
fb
04
06
15
ff
04
fb
ff
f5
04
05
06
3c
f5
06
fe
0a
00
f1
f8
04
2c
fb
f9
07
0f
0a
fc
03
0d
a9
f2
02
01
01
0b
fd
0b
05
97
f3
fe
fe
fc
03
03
fb
fe
2a
fd
f6
fc
00
ff
f2
04
fb
8a
ff
01
01
00
ff
01
f9
0a
f0
02
0a
f4
fb
0a
0a
04
09
49
02
04
ff
0b
00
03
fa
0f
60
09
f5
0b
f5
fc
02
07
0e
bf
ff
03
04
01
00
0c
05
04
f9
fa
08
0b
0a
01
0e
01
f8
b9
01
01
fe
01
03
06
02
08
f1
05
fe
02
fe
02
f8
04
f6
99
f8
06
f6
05
08
fe
0b
07
52
01
03
03
f5
f8
f7
0a
04
52
06
05
07
fd
01
fe
00
f9
35
f5
fe
08
04
03
04
fa
02
67
fa
fe
00
fe
fd
fe
0e
04
6d
fe
05
fc
fd
01
f6
08
04
ee
fe
01
02
fb
fd
fe
04
02
41
fe
f6
00
f7
ff
01
fe
04
c9
fd
06
01
06
02
f8
03
fe
3d
00
ff
01
02
ff
fc
05
0c
db
00
02
05
00
05
00
ff
04
ed
f7
01
09
06
00
00
fc
f6
17
03
05
fd
01
02
f7
06
06
53
ff
05
05
f7
fe
03
0d
fa
74
ff
00
02
fc
fd
02
00
fa
35
fe
f9
f4
fc
f4
f7
04
01
26
00
08
0c
02
fb
02
04
fa
d7
02
02
00
f8
fc
03
00
f4
11
fb
fe
f7
09
00
f3
03
06
b7
02
00
08
06
05
fd
fe
02
4b
ff
04
fe
fc
01
05
02
f9
2f
06
ff
03
00
ff
f6
00
03
ba
00
fb
06
f5
f7
08
02
01
b7
f8
04
01
0b
f6
02
09
01
fc
fd
ff
04
ff
0c
fa
fe
fe
44
03
f8
05
0b
00
0e
05
05
ce
fe
03
06
ff
09
00
f7
07
f3
fc
05
f9
ff
07
f6
08
09
30
f6
03
fd
fa
03
06
f6
02
f8
0a
fc
10
02
f8
07
02
05
5b
f9
08
06
01
08
05
fa
ff
70
fe
f6
fd
fa
fe
07
0a
05
fb
02
08
04
f8
06
fe
fc
04
27
02
f3
05
01
fc
ff
fa
f9
49
f8
02
fe
f8
fd
00
06
fe
4e
02
fe
fa
05
00
fc
11
02
bf
fd
fb
f5
06
01
fe
0b
04
41
00
0d
fd
ff
fe
fe
00
fd
9e
02
06
f6
0a
02
f7
fc
fc
22
01
09
00
09
07
01
0a
fc
24
09
fa
ff
f7
08
f9
02
07
3b
f5
00
03
fc
fd
f8
00
00
c1
01
09
f2
00
04
fc
01
09
53
0f
fe
03
02
04
01
fa
ff
03
fc
09
fe
fa
01
00
f9
fa
bd
fd
0b
ff
fd
ff
03
fe
fa
9f
fb
03
fb
02
09
fc
ff
0a
33
0a
00
fc
00
0a
fb
f5
fd
9e
fc
02
fe
f8
01
01
f8
fe
01
f9
10
ff
f6
fb
0a
fc
00
a9
01
08
f9
05
ff
ff
07
08
fd
fe
03
0b
f3
fc
0a
f5
03
19
fd
05
ff
f6
f9
f5
03
01
9c
0b
15
05
05
fe
01
f4
f4
59
fd
0f
f5
02
02
05
ff
06
af
fd
fe
04
fe
fa
06
05
fe
3f
07
0a
11
f3
01
f0
02
01
41
08
ff
f7
06
f7
04
02
02
25
f4
0e
f7
09
0b
f1
08
11
b4
02
00
fe
04
f6
03
05
fd
2d
f5
00
03
f8
fd
ff
fa
07
15
ec
fa
05
05
f5
fc
0e
06
74
08
fb
04
ff
f8
02
fa
0a
37
f6
f9
f8
06
00
09
ff
fa
04
02
0b
06
01
