05
f9
fd
ff
3d
f7
fa
fd
f8
f2
ff
fb
06
78
02
fc
04
f4
04
08
05
03
15
13
fa
fb
f9
07
05
ff
0a
a1
04
f5
fb
0a
08
fc
ff
05
aa
fc
ff
06
06
fe
00
f8
03
53
f9
f7
f5
03
05
fc
fe
00
45
fb
fe
0b
f9
03
fd
0e
06
89
f0
fe
ff
0d
ff
fe
f9
04
7f
ff
f6
f0
02
f2
02
01
00
49
fd
06
00
01
0c
06
f8
ff
09
fe
01
0e
03
fe
ff
03
02
23
f3
f6
05
03
00
fc
fc
00
d5
f7
00
ff
03
ff
05
0a
03
64
00
06
fe
0d
ff
f0
fe
fd
39
01
fe
00
f8
03
fe
03
f6
10
04
04
04
fb
03
f8
ef
fd
be
ff
f6
fe
fb
11
05
f7
02
08
f9
08
09
00
fd
03
05
09
df
fd
06
fa
00
06
f9
0d
fd
ac
f0
f9
05
fb
00
05
ff
04
de
03
02
04
f8
fe
01
05
f3
32
07
08
f1
0a
04
03
ff
fd
9d
f8
fc
fb
08
03
14
03
f9
a1
02
0b
03
08
ff
ff
f3
fd
aa
07
09
fb
05
0a
ff
04
01
c1
f8
00
07
fd
07
06
fb
01
b7
f8
f4
ff
03
03
01
f9
13
cd
06
02
fc
08
0a
0c
03
06
f9
02
fb
05
00
08
03
fc
06
99
0b
ff
fe
08
01
06
fb
05
60
05
f5
05
ff
04
0e
08
ff
d5
05
fb
04
03
fc
04
fe
ff
5d
f8
02
00
f3
0c
01
01
fa
b6
03
f7
fd
fc
fb
ff
ff
05
9d
fe
00
01
05
ff
fd
f7
f9
b2
fc
fc
fd
00
f7
f4
f7
fc
98
fe
fb
fc
f8
0a
04
f6
0a
4d
f8
fd
02
01
fc
ff
11
f7
ea
09
05
00
00
fd
fe
03
ff
d4
fe
fc
01
03
09
f8
00
f6
34
00
fe
f8
fd
f5
00
ff
05
25
f8
05
ff
09
04
03
f9
04
9e
06
fd
0a
fb
ff
fa
ff
fa
16
f9
ff
f6
ff
06
03
fe
f7
4a
fe
fd
fc
0a
00
08
fe
06
30
f4
fd
f9
05
06
ff
fb
f4
eb
fe
fa
f8
fe
03
f8
02
04
4e
ff
04
01
03
01
00
fc
fb
cb
01
fa
02
fd
10
05
02
f2
a3
08
01
fe
f7
fc
07
00
06
aa
01
ff
f6
f9
09
f9
05
fa
ea
fd
05
01
fd
08
fe
05
f9
bc
00
03
09
07
f8
ff
02
fd
3e
fc
02
fd
00
06
0a
00
fa
f1
fd
02
f7
ff
fd
10
04
04
a7
f8
08
07
f3
f6
07
fc
f8
e4
04
f4
f5
ff
fc
ff
01
fb
fe
00
09
fe
fe
02
04
fe
fc
9b
0a
f6
f8
03
04
f3
f7
05
44
01
fc
fb
0b
0f
04
02
fb
0d
fc
02
fb
fa
f9
06
fc
01
67
01
05
fd
04
05
09
fa
fd
df
0a
02
05
fd
fb
0c
fb
02
64
02
08
04
ff
03
03
fb
07
d7
f9
fe
fa
0d
0c
fc
fd
04
f8
03
01
fc
00
03
05
fe
0b
1b
f1
00
f3
02
06
f9
0c
04
4a
fd
01
f0
f8
14
ff
02
ff
d0
f5
01
02
04
02
fe
00
02
dd
05
05
0c
fe
fc
07
0a
02
ef
00
04
01
0d
fc
01
05
07
0c
00
09
fe
ff
f9
fa
fe
f4
9a
02
f9
13
00
09
fe
00
fe
d4
fa
09
f7
0b
07
ff
0b
02
e9
09
fc
01
f8
05
04
f7
fd
e7
00
ff
fd
01
07
00
05
09
00
0c
fe
09
fc
05
fc
03
f9
0a
f0
02
05
fb
06
02
f9
fe
0d
f8
07
00
02
fc
ff
f4
0a
47
fc
09
fe
fe
07
fb
03
fb
a0
f3
fc
00
fe
01
f4
fc
06
9e
06
fb
01
fa
f8
fb
08
02
db
09
05
f7
fa
fa
06
f5
fe
c2
f8
06
fa
11
0b
01
fe
fb
f6
f9
00
f6
07
f8
fa
05
03
10
02
04
0b
04
01
03
04
fb
bb
fa
fe
03
07
fd
f3
f5
07
d1
03
04
01
ff
05
fc
0e
f7
3e
fb
fe
08
02
06
05
09
ff
96
02
f6
04
01
0b
fa
0b
03
a8
09
fb
02
f5
fd
f7
02
fd
ab
01
01
05
fa
06
06
05
01
4f
03
01
0a
f0
f9
fc
03
02
9e
fe
fc
f7
ff
f9
ff
13
fc
bb
fd
fb
00
01
f8
f6
07
fd
14
fc
f1
fa
08
07
f9
fc
01
06
08
0e
01
ff
00
02
0d
02
eb
06
02
05
fc
fc
f4
f5
05
37
04
07
00
f5
06
03
f7
0a
17
04
f4
f2
fc
0c
06
05
fd
cd
00
0f
fc
06
01
01
04
02
e4
fc
05
00
01
f8
03
01
09
40
05
fc
01
fe
0d
fc
f9
08
6d
13
f9
0a
f5
ff
ff
03
00
d5
fc
03
00
fb
fc
f9
02
0a
33
0a
0b
fd
00
02
08
0d
f6
30
f9
07
02
00
00
fb
ff
fe
ac
ff
08
08
05
00
ff
fd
00
0e
f7
fb
ff
08
07
08
f1
07
e5
fe
ff
fd
fc
ff
0b
fa
08
18
f9
f5
f2
fe
f5
01
f9
0f
df
f9
f5
04
f7
fe
01
fc
0b
e9
02
fe
01
f9
fd
fe
07
fc
29
fd
ff
07
fc
00
08
fd
11
61
0a
01
02
ee
08
f4
07
fa
14
0d
06
09
00
fc
fb
04
ff
ec
fc
0a
01
07
03
01
f3
06
fa
f7
04
03
05
fe
ff
fa
00
55
fe
f4
04
08
fa
02
04
02
22
fe
ff
fb
fe
04
13
04
03
3c
07
12
fc
00
fc
06
01
fe
96
ff
0d
08
00
03
04
f9
16
f4
07
f8
06
f3
fa
02
fc
02
dc
f1
09
fa
fa
fb
06
fe
00
5e
ed
ff
05
ff
f9
ff
fe
fe
6d
08
f6
03
fc
f4
f9
10
02
dc
02
fc
07
fd
06
fe
fe
f0
09
0a
fd
02
03
03
05
00
05
08
fa
03
f4
fe
0d
f4
13
fc
f4
ef
fe
fb
fd
fa
01
04
06
09
02
f8
fd
05
f3
fc
01
fa
c6
f6
01
fe
fa
f8
fa
fa
f4
51
f8
00
f9
fa
fe
0b
09
05
9d
03
0a
04
0d
fb
f4
fb
02
53
05
fb
f7
05
f9
fe
fe
fa
d8
06
05
ff
00
fd
f9
09
00
50
03
06
fc
02
05
05
03
fc
dd
fd
01
03
fb
f9
00
f4
01
44
fe
fd
f7
08
fc
fe
06
01
27
ff
06
00
f7
fd
03
10
06
99
f6
05
ff
04
06
fe
02
fe
9f
06
04
f8
fb
ff
f8
05
fd
af
01
02
00
fa
fb
02
f3
07
a7
05
08
f7
fc
fe
08
fb
fd
b2
0f
fe
f7
01
f2
fb
00
fa
0e
ed
fc
f8
fb
00
fe
f5
f5
b0
04
03
f2
fe
f7
07
01
fe
b9
fd
0f
00
f9
0f
00
09
fe
f3
fb
f1
ff
f5
02
00
f2
04
d3
12
ff
04
03
f5
03
fb
03
3f
fb
03
05
02
fa
f5
fa
14
ca
00
07
f7
f9
fa
f2
fd
f8
36
ff
f2
06
f3
03
07
f7
01
bc
07
01
fb
04
f6
08
f4
f0
67
ff
00
f4
ff
fc
07
03
ff
b1
07
0a
f8
02
f9
fb
04
02
41
f8
fd
f6
0a
fe
02
fa
01
f7
03
03
ff
f4
06
01
07
fb
55
fb
fe
fd
f5
01
01
f9
01
2b
05
06
08
f3
fa
ff
fb
fa
d9
0b
05
03
06
f4
f3
fe
f5
f7
f7
06
fa
fc
fb
02
f8
fe
c9
0b
0b
06
f8
06
0a
f7
f8
d1
02
04
14
05
f3
09
0e
0e
5c
08
07
f7
05
fd
f4
05
fe
a7
06
fb
ff
03
03
01
fe
fe
b2
fd
03
f9
f7
0a
fe
f9
0c
b7
ff
04
0b
04
f8
00
05
fe
54
05
00
f8
fb
f8
f9
fa
01
ff
fb
fb
06
f8
07
fc
03
02
27
fa
00
fb
06
f4
ff
04
0b
ec
fa
0b
f0
0c
09
0c
f1
ff
c6
fd
fd
0a
07
f6
fb
04
00
e3
09
06
02
11
09
f8
02
fe
6f
fd
01
05
fd
04
f6
ff
fe
9e
05
fd
05
fd
fb
f8
02
fb
08
09
00
03
06
f7
10
04
00
40
03
06
ed
02
01
fe
fc
00
a3
f7
ff
0f
fc
13
fb
08
05
1e
0a
fb
02
fb
ee
03
fa
fc
fd
00
06
ec
ff
f2
02
04
06
16
09
0a
fb
fd
00
09
f7
08
c9
06
00
ff
01
ed
03
0a
06
17
08
08
f7
fd
f6
05
06
00
1d
fa
06
f7
02
06
09
f9
f8
3a
f7
fe
f9
01
02
08
f5
06
0b
f6
fd
03
04
fc
01
fc
0c
b4
fa
05
ef
00
fa
08
f6
02
a6
00
03
fa
ff
01
fe
07
f9
e9
ff
01
ff
03
ff
01
fa
01
06
fe
00
02
fc
03
08
03
01
d8
02
08
fa
fa
fa
f2
00
07
13
04
ef
f7
ff
09
f8
fe
03
c2
00
fc
ff
f0
04
05
07
02
22
01
0a
01
f8
03
ff
00
03
bc
03
0d
03
00
02
08
fa
00
b5
ff
ff
fe
09
f9
fd
fa
0b
f1
fe
fc
f1
fc
fd
ff
fb
fb
e1
01
04
fd
10
05
01
f4
00
3e
02
fc
09
04
02
fa
03
00
f8
00
04
f9
fe
f8
08
04
06
cd
06
0b
07
fa
fc
01
03
0c
c5
05
fa
f5
07
0d
04
f2
fa
ea
02
05
03
fb
fd
f7
fa
fe
9d
06
00
04
00
f1
fb
05
02
08
fa
01
fd
fe
08
f4
fd
02
27
03
fe
05
f5
ff
f7
fb
fa
4c
05
05
fb
f7
f7
f2
01
04
b0
05
fe
f9
03
f7
f9
f5
09
03
04
0d
fb
02
00
fe
f3
07
a9
ff
ff
f9
06
04
07
f2
04
fb
07
f7
03
01
06
03
07
fd
4a
00
04
05
fb
04
02
02
ff
c7
fe
fb
ef
03
fb
f8
05
f8
d8
ff
00
ff
08
f2
f8
01
0a
b6
0d
02
f8
01
01
f9
03
02
e1
03
06
ff
06
fd
fe
fd
02
b0
fc
00
fb
0a
04
fb
03
04
01
05
fe
fd
05
06
01
00
06
1e
fb
12
03
03
01
07
09
08
93
fb
08
fd
05
f4
ff
fa
ff
00
01
10
03
fa
05
03
0a
02
e8
fe
fe
fd
ff
06
06
fb
fa
d9
fe
09
04
04
fc
07
05
06
98
05
02
00
09
ff
04
ff
ff
c9
0f
fe
fd
05
07
05
fe
04
c2
f8
01
f7
04
fe
ff
05
03
ef
07
0c
00
02
02
0d
07
f9
3a
00
01
10
f8
fd
fd
02
f9
65
fc
fa
fd
ef
09
05
fa
ff
c4
00
f7
fd
0b
f6
fc
08
fd
16
f0
fe
f4
05
fd
fc
f8
f6
72
f4
f4
fe
f8
06
01
fc
05
0b
fe
00
fc
fb
fe
08
08
08
fe
0c
03
06
02
0a
fd
00
ff
07
01
f7
01
01
01
f8
fc
03
be
0b
07
fb
f7
f8
fe
0a
f5
3c
04
06
03
fe
02
ff
fc
07
3a
05
08
00
f8
07
0f
09
fe
c4
04
06
03
07
05
04
06
f7
e8
fd
06
fc
02
fb
00
fe
07
6b
0a
06
05
08
fa
fe
02
fd
3a
fa
f9
ff
0b
fe
06
fc
07
3b
f8
f8
f9
05
02
03
06
01
a3
09
02
03
06
0a
05
02
f5
1c
f1
f2
00
ff
01
f9
07
fe
13
04
02
02
ff
06
fc
02
02
be
05
09
05
04
0a
f9
fc
ff
46
02
ff
ff
08
00
fc
0d
0b
2a
09
f7
00
07
fc
03
13
fa
64
fb
0b
09
00
f8
f9
04
fd
01
fc
ef
0a
f7
fe
ff
03
fd
07
0e
0a
0a
08
03
f7
02
fb
d8
fc
fb
04
0a
fb
fe
06
00
d6
fd
0e
01
0f
00
f1
0b
09
00
f9
01
fa
05
fd
fa
03
f9
48
06
03
08
f8
fc
04
01
01
ef
00
f8
fe
f9
04
03
06
00
09
01
ff
00
05
f4
04
f6
07
63
ff
04
f3
f6
07
f7
f8
fb
34
04
f7
08
f2
05
01
0a
fd
63
f2
0c
fe
f3
03
fe
02
f9
48
05
f9
00
08
fb
00
0b
04
09
fa
f7
fb
ff
02
fd
fd
04
d3
f6
01
f2
01
03
05
03
01
ac
06
01
03
fc
01
06
f2
02
3f
04
0e
fc
f7
03
fa
07
ef
aa
f5
fd
00
08
f6
fb
08
0a
23
f8
06
00
f6
01
fc
00
fe
f0
f7
01
ff
ed
ee
03
f9
00
43
01
fc
fb
f9
ff
02
02
fb
aa
ff
08
ff
03
ff
fd
f4
f2
22
ff
03
fc
f0
ff
00
fb
f7
1f
fd
fa
04
ef
05
0a
fd
00
b2
0c
02
fa
05
fe
00
06
03
32
ff
fa
0a
f3
01
f1
07
f6
e7
ff
f8
0e
fb
09
02
01
f7
aa
f7
fd
03
0d
f6
fc
04
02
dc
fc
ff
ff
00
05
03
ff
06
53
fc
07
02
f4
fd
ff
f0
fb
08
00
03
01
fb
fe
fc
01
fa
52
04
00
04
ff
00
01
fd
fb
3a
00
02
f6
f9
03
fc
f7
f6
e0
ff
fe
f5
ff
fd
03
07
00
11
fa
fa
00
f7
03
0b
f2
ef
f7
ff
f6
f9
01
00
06
07
06
3d
fd
f1
fe
fc
06
fe
fb
01
c2
f5
02
fd
06
07
ff
03
0c
3c
08
0c
fa
fe
05
02
fc
f8
14
00
01
01
fc
01
fa
ff
01
43
fb
0e
f8
f6
f9
04
05
f7
65
08
06
09
fe
ff
0e
f7
fa
03
06
00
f5
05
fd
f9
02
05
14
fb
04
08
06
ff
f7
fa
03
f6
fc
05
fb
00
0c
fe
fc
08
91
f4
10
04
06
fa
ff
05
fd
e6
fd
fe
04
fe
05
ff
fc
fe
ba
fa
fa
0b
fe
05
fd
07
03
39
08
ff
f4
f9
0c
01
fc
04
0f
fd
ff
06
05
04
fc
fe
00
f3
00
fa
fb
f9
fc
fd
fc
fb
31
08
09
01
02
05
02
09
0c
04
0f
fb
ff
02
f4
07
01
fe
b7
fd
ff
08
f6
f9
fe
06
f6
49
0b
09
04
f3
f9
07
fd
07
0c
fd
08
f9
05
09
f4
f6
04
57
f5
0a
fc
fe
0b
fe
05
0a
fb
fb
fa
05
04
ff
05
ff
f4
fe
04
fa
fa
04
00
fb
f7
0a
45
03
09
f8
04
fd
ff
fb
02
41
04
fe
0a
04
fe
f5
fc
0e
b6
02
0b
fa
fc
0c
f6
07
01
da
05
fd
01
fc
03
fb
fa
01
c8
0a
01
f5
02
fc
ff
00
fb
a4
ff
07
05
fc
fe
0a
03
f6
51
fd
f7
00
02
fe
fd
fd
08
0d
06
fd
f9
12
f7
f8
fb
01
f4
ff
01
07
f1
ec
fa
03
04
fe
03
02
03
ff
fd
f6
03
02
61
04
fc
fe
f8
00
07
00
07
3f
05
fc
02
09
f5
f7
03
08
00
05
fb
fa
00
07
0d
06
01
e8
00
04
02
05
fe
00
ff
f8
d0
ff
01
06
01
fd
04
03
03
99
07
0a
ff
f5
02
f3
0a
02
5d
01
01
02
fb
07
fc
f7
fa
f2
f5
0e
fe
04
09
fa
f5
09
3e
f9
05
fc
05
09
ff
04
07
a0
fe
05
f9
00
04
00
fc
01
49
05
05
02
fb
f9
ff
fd
01
cd
fd
fc
ff
04
05
fa
04
fe
d1
00
f9
fd
fe
05
06
01
f7
02
f4
00
fc
f5
fc
f3
06
01
53
00
06
08
fa
05
fa
08
f7
52
0d
fb
04
00
f7
06
04
f8
6a
00
fc
02
03
00
f9
07
f6
a8
02
05
02
01
f6
0b
f7
06
df
04
0a
ff
ff
00
fc
f6
00
e1
fb
04
fc
0c
09
04
00
07
4c
09
f3
04
fc
f1
05
06
fd
6c
ff
06
fe
f8
00
01
fe
0c
46
fc
08
fa
03
fd
fd
ff
00
5f
03
01
04
01
f8
fa
fe
fd
69
08
09
00
02
0a
f7
fc
fd
98
05
07
02
03
01
08
ff
02
67
fe
fe
ff
07
fe
ff
fa
fb
13
fb
ff
00
07
02
04
ff
03
4d
00
03
fa
fa
fa
08
06
00
fd
02
ff
00
04
fd
ff
01
fc
d7
fa
fb
06
ff
f3
fc
fa
02
47
00
02
01
fa
fa
f9
03
ff
05
02
fe
05
fe
f5
03
fd
08
8f
08
06
07
f4
0d
fc
ff
fa
68
04
00
f7
fa
f0
fe
fb
fd
64
fe
09
10
02
00
02
fd
fd
f7
fe
14
05
f7
ef
00
fc
04
04
0c
01
ff
f5
0c
00
fc
fc
36
03
f9
fe
f5
02
06
0b
fa
37
06
fe
fc
0d
0a
00
08
08
2f
fe
0d
01
fe
08
fd
09
f9
b8
fd
00
fd
fa
05
07
fc
04
fc
04
0e
07
00
f6
06
f5
fe
d5
0c
00
02
ee
fc
f0
07
02
ca
fb
fc
ff
0b
0d
fd
fd
00
b7
fe
06
f8
fd
0d
fa
00
f9
ce
08
0e
06
f5
0a
0f
fa
fa
d0
ff
fc
f8
02
01
fc
0d
05
1c
ff
ff
fa
0d
fd
08
09
fa
b8
02
07
02
00
02
08
f8
fe
0e
06
fb
fa
fc
05
07
08
01
21
00
fa
05
07
0c
fa
ff
03
2e
03
ff
01
04
fc
ef
fa
f5
2b
07
00
10
0d
f8
fe
09
03
0c
f5
f7
f7
04
0c
fc
06
03
d8
fd
05
f9
02
05
0c
01
03
d3
00
04
fc
ed
00
06
f5
09
3a
ff
03
f5
fc
f7
fa
fd
02
11
05
f3
fc
08
f8
04
0e
fd
34
0b
05
01
04
f9
fc
0a
fe
3a
f9
fb
07
fc
03
fe
f9
f5
23
05
fe
00
ff
f9
ff
00
f9
dc
f4
09
04
ff
fc
0c
fd
f8
07
f9
12
ef
07
03
f7
fa
03
b6
f7
0e
fd
08
04
fc
04
fa
47
f8
03
03
05
0f
f7
03
03
4e
ed
14
fb
ff
01
fe
0a
fb
2a
03
fd
02
00
fa
fc
09
02
31
01
02
ff
f3
08
fb
f4
fc
ff
fa
0f
00
03
01
02
f6
07
ab
04
09
06
0d
f4
fd
f4
08
2d
03
01
fc
f9
fb
05
fb
01
a8
0e
02
ff
03
01
f7
08
f6
10
fb
09
fe
07
fe
05
02
03
02
03
08
ff
10
02
fc
f4
f9
5d
ff
0d
fa
05
02
00
ff
01
0a
03
03
07
f9
01
0d
f8
fd
48
01
f8
f7
f7
04
f5
07
fb
05
fe
01
ff
ff
fc
07
12
02
5f
f9
fc
0b
fe
fb
03
fa
05
d6
fc
09
fe
fa
fd
f5
0b
f9
62
f8
0a
05
01
0e
f2
f7
00
0d
00
06
fa
03
02
0a
f7
07
62
0e
07
01
01
f7
10
f9
f4
22
f9
06
01
00
06
f2
fc
fc
d8
ef
fd
ff
fa
f5
fc
ff
04
55
16
fc
05
08
f1
ff
01
fd
df
fc
f5
ff
01
f9
ed
f6
ff
c0
12
05
02
0a
ff
f2
02
05
24
01
fa
09
fe
0c
07
f6
ff
b8
00
f4
00
03
fe
00
ef
fc
f6
0a
fd
fb
fb
0a
00
04
fc
b6
0a
12
f7
07
05
02
fa
02
d4
06
fa
f0
00
05
02
03
01
9a
03
05
00
fc
00
05
01
fe
5d
07
fa
ee
f8
ef
00
ff
f2
b9
0a
f5
08
fd
f9
fe
03
04
5e
fd
f9
06
fb
07
fb
fd
ff
c4
0f
f5
fd
fb
00
fb
0a
04
1f
fe
04
07
0e
05
fb
f8
fc
01
05
08
fe
0e
f7
f3
00
0d
9c
0a
f3
f6
06
06
fe
f4
ff
db
05
01
fc
eb
fb
06
11
fc
f9
04
06
0b
ff
04
06
05
fb
9f
00
01
00
fc
08
fc
02
04
52
11
0a
04
00
07
fa
f3
fc
d7
fd
03
fe
02
f6
05
fb
0d
06
01
f3
05
ee
01
02
04
f6
bb
0c
f7
f6
07
01
fd
f9
ff
49
15
06
03
09
fe
fc
f3
fe
c5
f6
00
11
01
fe
fd
fa
00
f4
00
ff
fc
02
0b
fe
01
06
f4
f8
04
fb
03
fb
f7
00
08
99
05
08
0d
00
07
fc
05
0b
5c
09
0b
f6
fb
00
0b
04
fd
cd
f8
0a
02
f9
04
07
08
08
b0
fc
f4
02
01
f6
f8
04
ef
a6
04
fb
ff
10
05
f4
0c
04
43
fd
0d
fb
fc
0f
fe
04
f9
ed
fe
06
f4
0d
05
03
ff
0a
ee
00
01
f7
f0
fe
09
fb
07
54
0a
0a
fd
0b
fb
04
00
fe
04
f4
f8
0d
ff
ff
07
06
05
c6
ff
09
04
fc
07
f9
f7
00
c8
08
01
08
0a
fb
02
05
f2
48
f4
08
0c
01
03
06
f9
08
a0
fc
0a
f6
06
0f
fa
02
02
9c
f4
fe
fa
fd
00
f8
07
08
fc
01
fc
05
ff
08
04
08
fe
e9
09
0b
fd
06
f5
f9
08
05
53
01
07
f5
0c
06
fb
00
06
5c
0a
0a
f3
09
07
fb
fd
0c
1b
f8
fa
fe
ff
00
00
fd
fb
66
fb
fc
08
ff
fd
08
ff
fa
20
04
08
06
f4
ff
fc
f5
f3
56
02
fd
fc
01
f6
02
06
fb
d5
0d
ed
f8
05
f9
01
f6
ff
56
f6
04
02
03
fe
fd
0a
04
fb
0f
00
ff
fc
ff
0c
fe
fd
e0
f7
05
0d
03
ff
08
03
fc
38
00
05
f1
fb
fc
02
02
04
df
f8
09
04
fc
03
ff
fb
0a
c7
f6
fa
01
f8
fa
12
fa
0d
e8
f7
ff
fc
f5
01
01
ff
f9
f2
05
fe
02
03
02
f8
ef
07
49
f2
00
03
01
07
fb
fe
f4
47
05
01
02
fe
f5
0b
ff
fb
20
0b
01
fa
0c
fb
0d
04
06
ef
06
fe
f8
f3
f8
f4
03
07
54
fb
0c
fe
fc
02
fc
00
ee
20
03
03
07
09
00
01
00
fe
cd
04
00
02
fc
0d
02
ff
f6
f7
05
00
05
06
04
f3
01
08
a9
04
01
09
01
fe
08
00
05
e7
05
04
08
00
f3
01
f7
04
f1
02
07
03
02
fc
01
fc
f8
e9
fe
fc
0b
ff
f6
0b
fe
00
b0
04
13
ff
f4
02
fc
f4
fd
25
ff
ef
fa
05
04
fe
f0
05
e6
03
f9
09
f8
00
06
fe
01
63
0c
f1
06
0a
01
f8
07
06
f2
fe
00
02
f9
f7
f0
fb
fc
21
0e
fa
f7
ff
01
ff
0d
0e
32
f5
01
f8
01
fd
00
f5
03
e2
02
12
f5
04
fe
f9
04
08
b9
fe
ff
08
f7
06
f5
fb
ff
b5
f9
03
0b
05
01
03
ff
f5
58
02
04
02
fe
fc
00
f4
ff
ff
03
00
fd
fc
0d
00
f1
05
0a
05
06
f6
07
04
0b
01
00
1d
02
02
04
f9
fc
fa
ff
06
d3
f4
fd
0a
f6
01
f6
fc
f5
0e
03
fb
f5
02
01
03
fb
fa
c7
f2
03
f9
ff
0f
04
02
0c
9c
00
09
fd
04
06
f7
07
f8
de
10
04
fb
01
01
f5
00
01
41
f8
f6
ff
06
0b
f4
ff
f6
cb
09
0e
fb
fe
f1
09
f5
07
c4
05
03
04
fe
00
04
f3
02
3a
f7
01
07
fb
0c
fc
ff
f7
27
08
f5
0b
fa
fd
fd
0a
f3
03
11
fa
f6
04
01
fb
f9
0a
4b
f3
fe
ff
07
fd
01
fd
03
b9
08
07
fd
09
f6
00
ff
0d
57
f0
04
01
fa
ff
05
f0
fc
e3
07
07
00
ff
ff
09
06
f9
d7
00
00
03
fe
f9
ff
f5
ff
d7
f5
00
04
ff
0a
07
f1
0b
a5
00
00
f2
08
fa
08
fa
04
63
f8
03
fa
0c
04
08
f7
fe
17
00
02
fc
00
f8
ff
02
fb
5e
03
0f
05
07
03
ff
08
f8
39
fc
05
09
f6
fe
fa
fd
04
16
f7
05
f9
01
f5
05
f2
fd
cf
06
ff
fe
fe
07
f4
f9
08
0a
00
fc
fb
04
fd
01
fb
05
e9
0d
fd
06
07
f4
fe
fd
fc
5c
fe
f6
0b
04
04
02
f5
fa
8d
ed
05
00
0c
f9
01
05
fd
a3
08
00
f7
fe
00
07
01
0d
41
06
07
03
00
f5
04
fa
f6
c0
01
07
fc
01
00
07
f7
06
b4
fe
04
00
01
01
f9
08
05
51
fe
f5
0c
02
fc
fd
fe
f2
05
04
02
ff
ff
fe
08
f9
fa
d4
00
04
fe
08
04
04
fa
00
41
f8
08
07
02
06
f7
00
fd
5d
f9
04
ff
fb
ff
ff
01
ff
b5
fe
f8
00
08
f8
f7
00
fb
65
fb
fe
03
09
01
ff
fc
fe
c5
00
fd
04
01
fe
09
05
07
66
05
01
07
f0
00
fd
f9
ff
e1
fc
0b
09
0a
01
f8
fd
f7
aa
04
f9
fc
01
fd
01
01
fa
9c
ff
09
fc
05
04
04
fe
fb
5e
01
05
03
04
02
09
fe
fa
40
fc
03
03
06
fd
f9
06
fd
27
fe
09
07
f7
03
f7
01
fc
1d
fe
fe
fe
fc
fd
fd
0a
06
55
02
f7
12
01
02
fc
f9
04
6b
04
f6
f8
03
0d
05
fd
fe
ae
04
fd
08
fc
f8
03
f8
f9
27
05
f8
fc
fb
fb
0c
fe
04
2e
10
fd
0c
0a
fc
06
06
01
cf
fd
f7
fb
05
fc
04
03
08
b6
03
fc
03
03
f6
fb
01
f7
2b
f1
f4
fe
fc
f3
fd
03
fb
ae
00
fe
0b
08
fb
fc
fb
fa
11
ff
02
07
f3
f5
f2
00
fc
67
07
f7
fb
fd
08
04
02
ff
b1
07
fd
ff
f9
0a
fd
f6
fe
0a
00
02
fd
fc
01
02
07
01
4c
fa
00
fd
00
07
fa
ff
f9
de
05
03
fe
e8
00
fb
01
ff
14
03
fe
01
fc
fe
ff
f9
08
a9
0c
05
fc
05
00
ff
08
f6
1c
fd
fb
fd
02
03
00
ff
05
e2
00
00
fb
f9
f7
f2
fa
fa
b6
05
07
02
f5
f6
fb
08
f7
b9
08
ff
fb
f5
f8
fe
05
04
1b
08
05
f9
0e
01
fe
f5
fb
d6
10
06
01
f9
fe
02
01
f6
cc
01
01
f5
00
fc
03
fd
fa
57
fd
01
ff
08
fb
03
07
0b
13
00
04
f9
fa
f8
fc
01
fc
e0
fa
f3
0c
fe
05
01
fc
fa
10
01
fa
0b
08
ff
06
fe
01
d1
fe
04
fd
f8
02
01
ff
06
0d
03
08
f9
04
06
fc
02
f8
93
fd
f7
05
f5
07
01
fd
fe
cb
04
fc
f9
fd
f8
05
fb
fe
fd
05
05
fb
fd
fa
ed
02
f1
4f
15
f9
02
fe
fd
f9
fd
fa
be
01
04
02
ef
fc
0a
f9
fa
4a
fa
0c
fc
07
09
07
f8
05
0b
fa
00
fd
fc
07
06
03
fc
c5
fe
0b
f9
01
f9
07
05
f4
61
02
07
fd
fc
18
02
03
f4
44
f6
03
fd
fd
f8
fc
fa
ff
35
08
03
0a
f7
fe
0a
03
f8
cf
05
fc
f9
02
00
04
ff
0a
43
ff
0f
fa
fb
0b
fe
01
04
00
fb
fb
fd
07
fe
ff
fa
fe
3c
00
fe
08
07
05
01
04
03
b3
02
fd
ff
fd
09
fb
07
00
06
07
fe
00
01
fe
fc
06
02
1d
f2
03
04
05
09
02
02
f9
cf
06
fe
f8
f1
fd
ed
f7
08
60
f0
06
05
03
04
fc
08
00
32
fd
fb
fc
ff
ff
02
f4
0a
4f
04
fe
f8
05
05
12
07
07
f6
fb
fc
f6
0d
fb
07
01
0f
ef
fb
fd
0b
02
03
05
04
fd
47
04
fe
04
09
ff
fd
08
f6
12
fd
fb
00
f2
06
05
04
02
d5
fd
fd
f7
fe
08
f6
07
ff
69
fc
ff
0b
fe
fe
f0
f2
f9
af
f7
0a
08
08
f8
03
fd
13
36
04
03
04
00
f9
fd
01
fe
25
fe
f6
fe
05
ff
09
07
09
fc
fd
05
f6
f6
01
0b
0a
00
75
01
fb
ef
fe
fa
f8
ff
f3
f5
00
07
03
01
08
08
05
fb
24
05
03
fc
f9
fb
00
02
fe
c5
f3
05
fd
f9
02
ee
fd
01
49
01
f6
01
ed
fc
06
f2
ff
1a
05
fb
02
fb
f9
00
07
fb
0b
fe
02
02
01
02
fc
ec
f8
10
fb
07
04
02
01
08
fd
f5
bd
06
fe
0a
07
ef
05
f6
f9
2a
05
0c
09
01
fd
01
fe
f3
00
07
fa
05
01
07
05
f2
03
37
0a
06
04
02
00
08
01
07
2c
0d
fd
05
f8
09
06
0b
f6
16
01
f8
f5
f2
09
00
fd
03
c0
06
08
fa
f2
05
04
08
fa
25
f1
f6
f9
fc
fd
f9
f4
f8
e1
fa
fd
f0
fb
01
0c
06
fc
a5
0c
f9
fb
f7
00
fa
f7
11
40
0a
05
05
04
fd
fb
14
0b
2b
01
fb
f8
f9
0c
01
05
02
42
fb
08
f7
fc
03
05
fd
02
09
05
fe
07
f2
f2
03
f8
0a
fb
fe
00
f9
02
00
0a
05
02
e3
02
f6
05
05
fe
ff
fd
ff
14
09
05
07
ff
fb
fc
fa
02
23
fd
00
08
04
ff
05
00
fe
46
f8
00
0a
fd
10
00
07
01
2f
09
fc
f9
01
f6
fc
fe
fb
36
07
03
0a
f5
fb
04
03
f0
57
f2
fa
f7
00
03
fd
07
02
d7
fe
03
f9
fc
00
08
fa
06
ca
01
f2
08
01
f7
fd
f1
fa
9d
fd
0a
02
fc
04
fb
01
fe
c5
03
fc
f9
01
02
fc
04
02
e1
fb
fa
ff
01
f9
fc
02
fd
b1
02
ed
01
f4
07
f5
f8
06
13
05
03
f8
f8
07
fe
fa
ff
df
f8
fe
09
08
ff
05
f7
f8
a6
01
fa
02
0f
00
fe
01
f9
0d
f8
f8
fd
05
0e
ff
09
04
0c
f8
01
fe
0d
fa
ff
f8
00
dd
09
02
02
f8
0a
03
0a
00
1a
fd
02
04
0b
03
03
fa
05
07
00
f9
f4
fe
05
fc
fe
ff
ba
ed
fa
f9
0b
02
ff
fd
0f
ca
fc
02
ff
0b
03
ff
07
02
29
08
fb
0a
fd
fe
04
04
00
1e
f5
02
fc
fc
07
fe
ec
00
bf
07
02
03
00
f9
fe
13
09
01
f9
01
fe
02
0e
03
fe
fe
c2
fb
fb
05
02
fd
fe
ff
f6
ad
03
04
05
fa
03
f8
05
00
f6
f7
fe
07
09
fb
03
fb
0b
d1
ea
fd
fc
09
05
f0
f7
01
38
03
06
f9
05
00
fc
fc
fe
c3
fc
fa
00
02
fd
ff
f3
01
22
ff
01
07
0d
05
01
04
01
2d
03
0a
fa
08
01
ff
08
0c
1b
06
0c
f3
f6
fe
06
09
fc
fe
ea
fa
04
0d
02
ff
01
ff
51
05
06
02
03
fb
01
fb
00
18
0a
06
f9
fa
ff
ff
f9
ff
3f
03
02
fe
00
0d
fd
03
08
04
ff
f9
f1
05
ff
ff
01
07
a7
05
0d
f7
f5
09
04
05
00
64
00
07
0b
06
08
01
02
08
06
f8
02
01
00
ff
00
fa
09
10
08
04
f8
04
08
fe
ff
08
db
fc
ff
f9
fe
fe
09
ff
ff
0a
09
f7
fb
02
fb
04
05
02
bc
05
f5
f9
f9
08
0b
0a
f7
df
fb
f4
fc
05
f2
06
0a
f4
92
f4
f9
03
01
f9
00
05
00
41
fd
f2
01
08
01
09
fe
fd
a5
fa
ff
04
04
0c
fa
f7
f3
3a
f7
f5
fe
00
00
f9
00
04
69
fc
0d
07
f6
fe
03
ff
f9
49
f9
ff
00
f8
06
0a
0c
f0
08
fd
fe
f8
fe
07
03
03
fe
31
fe
f5
f9
fc
06
00
01
00
51
fa
fb
0a
fc
fc
fe
fa
fe
b5
fa
03
fb
06
ff
03
f5
03
e1
ff
f8
0c
f6
07
ff
0b
f3
e7
0a
03
f3
03
0c
07
04
f6
16
09
09
fe
04
f4
ff
ff
00
00
f5
ff
00
f8
fa
f6
02
f1
da
01
00
ff
0b
07
06
fd
06
42
05
05
04
14
ff
07
05
fa
a5
f4
fb
02
03
00
0c
0e
f6
e0
0d
04
fb
f7
fd
01
00
ff
1e
06
fb
f8
fa
0a
fa
fe
fa
50
fc
fc
ff
f9
f2
fa
09
fb
fc
02
00
08
07
03
03
04
02
d2
01
03
0a
ff
09
00
07
f9
c1
ff
02
f4
fa
f6
14
05
00
e4
fc
0e
04
f2
01
f9
06
fc
b4
f6
f8
02
ff
f9
fa
0d
f8
61
fc
fb
fc
fd
0e
fd
fc
fa
bd
fe
f8
fb
fc
00
ef
fc
ff
d3
04
f7
09
04
06
f5
f6
ee
e4
01
01
01
f4
09
0b
03
03
1b
02
f9
fd
08
08
04
fe
01
2e
fa
fa
07
02
fd
06
0c
0c
48
fb
fa
04
f6
fc
f6
fd
fa
97
fb
fa
fe
fb
02
09
f8
09
ce
04
06
fd
fe
02
fd
fd
f7
e8
fa
ff
fa
fa
fa
01
0b
04
d6
06
04
fd
fd
09
fc
fc
06
a4
01
ec
07
13
f9
01
fc
08
b8
fe
06
07
01
fc
02
06
04
d5
05
f9
fe
02
01
fe
01
fe
e7
04
00
ff
02
fb
fa
ff
fe
16
01
0b
03
0e
0c
07
f7
00
1d
02
fc
05
02
f4
f8
04
02
e7
fd
f9
fe
00
0d
0a
f7
04
d5
fd
f5
01
f8
fc
fa
00
08
d4
03
06
fb
03
ff
fb
fe
f5
4a
fe
02
09
f7
01
04
fa
04
1e
f7
fc
fc
fc
02
02
00
fe
4c
f8
00
fe
fa
f8
fe
02
fc
ec
fe
07
03
f8
03
f8
fa
fc
d9
fa
f4
01
0f
fe
00
09
09
39
07
f9
0f
fe
f3
0c
f6
f6
44
f9
f3
fd
07
0c
06
f6
fd
0e
00
f6
f6
fc
ff
f9
06
03
38
01
05
04
fb
f7
fc
09
00
ce
03
07
01
05
05
ef
fa
f8
c9
fd
fd
07
12
f7
f9
05
fe
00
03
00
05
05
04
fd
fa
fa
25
fe
f1
fd
fc
f5
fa
0a
03
06
08
00
08
03
0e
05
01
f6
f2
fd
f5
0b
fe
02
00
00
f9
35
06
fc
01
07
01
f8
02
fa
20
01
01
00
f1
ff
fe
08
02
10
0b
03
01
00
f7
f5
02
04
5b
03
f8
ff
03
0f
01
02
f9
1d
13
01
06
0b
0c
f9
f8
f5
a6
fa
ff
08
02
0b
04
05
03
5e
ff
0a
fc
fc
01
fc
10
fc
56
09
ff
f2
f6
0e
ff
07
f8
68
02
ff
09
ff
f0
f7
fb
03
4c
f6
fe
07
f8
f7
f5
00
f6
cb
05
08
08
05
08
04
fc
06
d9
f9
07
fa
04
05
f8
02
f5
ae
fb
f9
04
05
04
fc
ff
04
01
f9
03
fe
08
fd
05
0c
02
ae
10
00
fe
ed
07
f3
f8
fe
2f
f7
01
04
0a
f8
03
fb
fc
0d
0c
f8
00
fc
11
ff
fe
04
d8
f6
f9
fb
fc
0c
04
06
0f
9d
00
f9
05
09
f7
f8
04
03
ed
f4
06
0c
f5
0b
f0
0c
fc
c2
fb
02
06
01
0c
fd
03
fd
ed
04
02
06
0a
02
05
05
0b
b5
04
04
ff
fc
03
04
fc
fa
08
fe
f3
00
0e
0b
f3
fe
f1
52
fe
0b
03
12
f7
f5
0a
08
b2
fe
09
06
fb
fc
fa
03
ff
e4
fb
fe
f9
01
0b
f5
01
06
d3
07
03
0b
e9
0e
ff
0b
06
c4
08
02
0a
0c
ff
01
01
00
59
07
fc
01
09
f8
ff
06
05
d8
ff
fd
02
fe
12
fd
01
fc
de
f4
fc
01
0b
00
01
01
fa
a9
06
fe
ff
fb
0b
ff
07
ff
48
fb
05
f1
08
f8
f8
0f
f6
e7
ff
0a
e9
07
f4
fa
05
00
ca
fa
f8
f5
00
06
ff
11
08
d4
ff
01
f8
0b
02
fe
fd
07
97
05
02
03
0d
04
f9
f7
00
51
fa
09
f8
ff
07
fb
09
f8
14
f9
fc
08
03
f8
09
04
fb
1f
0b
ff
fb
0b
fb
ff
fc
fa
29
03
f9
00
04
ff
f8
04
fb
93
fd
0c
f3
06
03
02
ff
f5
b9
ff
06
02
06
02
02
fd
f8
be
ff
06
09
05
07
fe
fd
0a
56
04
fc
01
fd
fa
08
14
08
fd
04
f8
fd
05
00
fb
f2
00
33
04
02
fe
fa
05
f9
02
f9
a8
03
f9
fe
02
00
01
fb
09
67
ff
fe
04
05
09
0a
01
0b
d8
fb
f8
05
03
ff
04
10
02
61
fc
00
05
fd
02
02
12
0c
c9
fb
03
02
0b
00
04
07
02
ce
05
02
f6
0b
fc
fe
fe
06
dc
fc
05
fb
07
04
0b
02
fc
62
ff
fa
ff
0b
f7
f9
02
06
55
08
0a
02
04
01
fb
fb
05
f9
fe
07
f6
f5
08
fd
fb
f9
d6
fd
fd
07
f9
0e
fb
06
02
db
08
fc
fb
ff
09
01
0b
0a
dd
0a
05
01
09
f7
02
01
0b
58
04
03
00
07
fb
06
13
05
ca
ff
10
07
0c
fd
02
fa
05
64
fd
f8
08
02
fa
fc
f8
01
55
fd
07
fd
0b
01
05
f5
06
0c
fa
03
fd
f5
08
fe
ff
03
20
00
0e
fd
0b
fc
fe
fb
00
49
02
07
fe
fa
0d
05
0a
fe
59
01
09
06
05
0a
fb
fb
f5
09
fc
0a
fc
02
04
00
09
09
14
f8
02
0d
0a
fe
08
ff
08
0d
f7
f2
fb
f7
18
ff
fb
fe
07
f7
05
f8
fb
00
f9
ff
08
63
05
05
01
09
f1
01
fe
ff
0a
06
05
08
f9
fd
0c
04
07
1b
0a
ff
05
fa
02
fb
05
fa
c1
fd
f4
ff
02
00
00
05
04
4a
ff
f9
00
01
0a
f9
fa
f7
6a
0b
0c
f6
fb
f9
f4
fc
01
2a
04
06
f9
fd
fa
05
0d
00
65
f9
fd
fe
fa
0f
03
fc
13
2a
f6
fa
f2
ff
00
0b
06
ff
07
f8
f8
f6
0f
fc
fd
05
fe
69
f8
fc
0f
01
06
fc
00
00
95
f2
04
0b
05
0c
f1
00
f5
ed
fe
fb
03
fd
05
02
00
01
c1
04
0f
f9
fc
03
f9
03
05
e0
01
00
09
08
06
f3
f2
fb
0d
f7
0c
0a
05
f7
fe
07
06
9f
01
08
08
01
f0
fc
01
00
df
ff
f9
fc
fb
0d
fd
fe
07
6e
f9
f6
02
f5
fd
ff
01
03
04
fd
fb
f8
f9
02
fe
fc
f7
1f
02
0f
03
fe
09
f8
fe
fd
29
ff
09
fd
00
0e
f6
ff
fd
a4
01
f8
f1
fc
07
f4
ff
f8
a8
04
f7
ed
fb
fe
03
f8
05
4c
02
f4
ff
fe
f4
08
f2
fc
c4
01
ee
fc
fe
fb
07
f4
03
9a
fb
06
00
01
f7
fe
00
08
9b
ff
03
fb
03
0a
00
fb
fd
f9
01
fd
03
f5
09
fc
00
09
57
05
03
f6
09
fa
f9
01
02
07
00
03
f8
03
f2
fb
07
04
3d
fb
f9
fc
06
fc
0d
f7
01
0b
f4
05
09
fd
f5
f8
04
07
3e
05
ff
00
04
09
02
05
ff
bc
01
0a
02
02
fe
00
00
fd
e9
fe
08
0d
02
07
06
00
fe
0c
ff
03
03
05
f8
04
00
0a
0e
03
f5
fb
f9
04
04
06
fb
fe
01
00
03
ff
f9
fc
00
fb
64
04
fa
fe
ff
03
ff
fa
f3
1f
f8
fc
0b
02
00
00
00
06
6c
03
01
ff
fe
fc
fb
f7
0e
11
f5
03
04
f4
f1
f5
fb
05
27
04
00
0c
03
02
f1
ff
05
dd
fd
0a
02
03
fa
05
02
0a
57
01
10
f6
fa
fd
0b
03
08
48
f2
01
06
07
08
f9
02
ee
45
03
f8
03
04
02
f9
02
06
ae
05
0e
03
06
02
f8
ff
f4
1a
f7
01
ff
09
fe
fa
f7
09
e6
fa
0a
00
f7
f7
fa
03
07
06
0a
03
07
04
00
fb
02
fb
d5
07
fd
ff
06
f1
f9
fa
06
ab
fd
06
01
f6
06
07
fb
fc
e6
01
03
02
0d
fe
f9
ff
f6
07
00
ff
06
09
01
02
f6
00
b5
04
ff
f9
04
01
fc
06
00
ff
01
02
01
fc
00
04
05
fe
0e
06
f9
07
ff
fe
05
fc
fc
30
03
ff
f9
0a
11
f8
04
00
6e
fe
ff
f3
02
07
0c
04
01
53
07
ff
03
06
fc
07
fe
f9
51
00
fb
fe
04
09
01
f6
08
d9
f1
01
f7
fc
02
fa
01
fe
ad
01
fc
03
f8
02
08
f8
06
0c
fd
f7
03
0b
f9
05
07
f6
32
02
fe
06
09
02
fd
fb
06
c1
fd
ff
02
fb
f5
02
03
f5
5b
fa
fe
07
fa
03
f8
f7
04
fb
f8
0a
f2
02
07
0b
ff
04
bb
f4
f7
fe
03
fa
02
ff
fe
04
03
0a
0c
f6
03
fc
05
fd
50
06
fd
f8
09
00
04
fe
04
1f
02
f7
f4
fc
0a
fc
00
fa
64
09
05
0a
f9
0a
f6
f9
01
ad
fb
fb
f2
01
08
fc
f9
fb
61
fe
ff
00
fd
08
fb
01
f9
36
00
f7
f2
0c
f9
fa
f7
02
53
f5
fb
ff
01
07
08
05
04
6a
f5
ff
fb
03
07
fb
09
05
eb
0a
ff
05
fb
f6
08
03
fc
a1
09
fd
02
fe
05
ff
f8
fe
45
ff
01
05
f4
f6
f2
fc
fc
f4
fe
f6
eb
06
fa
03
fe
03
41
ff
fb
fc
05
fa
0d
f6
f6
b8
fc
04
fc
05
04
fe
fb
05
bf
f7
05
08
fb
08
0f
fa
01
08
f5
09
02
03
01
f5
05
00
c4
00
07
f9
09
fe
00
f7
f5
c7
fa
04
10
f5
fe
fe
f7
fb
8b
00
0b
fe
fb
fa
04
f7
ff
11
fe
f2
08
fa
06
11
fa
04
e7
08
00
14
fb
02
f6
fc
01
69
fd
fd
00
05
05
f5
04
07
d9
00
06
01
04
fd
06
07
f9
88
08
f5
fe
fd
fe
05
f9
07
f9
fe
fd
f7
f3
f9
fb
06
fb
25
0f
09
08
02
03
fd
fa
04
42
fa
fa
00
f9
fe
fe
07
03
34
f6
f8
08
f7
04
02
01
ff
d3
ff
00
f2
0d
fe
05
00
0c
42
0d
f6
0a
fc
0d
fd
01
fd
d2
0d
08
0a
fd
02
f7
fe
01
3e
09
01
00
09
f9
0f
fd
fd
9b
f6
f8
ff
f3
07
06
ff
08
9f
fe
08
fa
03
fd
f8
fe
06
e0
fb
fc
fc
06
f6
02
fe
02
0a
02
f5
0f
fc
05
fb
08
ff
5e
01
0d
0a
ff
fa
00
fb
ff
c5
ff
0a
0a
fa
07
ff
fd
0b
9a
03
fb
fc
0a
0a
07
04
f0
01
04
04
0c
0d
fa
fe
02
f6
4c
f5
f9
fd
fc
04
f6
0c
f9
34
f4
08
f6
00
fc
fb
02
05
e2
fa
fd
0a
02
05
0c
00
fa
bf
05
02
0f
03
f9
fc
ff
f7
01
05
fe
fc
fd
08
ee
02
05
3c
09
f8
07
fd
00
fa
08
f9
e7
01
f6
08
03
09
f7
08
fe
22
03
04
fd
05
fa
f9
05
08
25
04
00
09
01
ff
04
04
08
c7
01
f8
f4
08
fe
fa
ff
0c
dc
05
f7
06
00
03
06
fb
06
ac
05
f9
fd
04
01
03
f0
f6
c9
fc
f3
06
fb
f8
0a
ff
fd
dd
01
02
fc
ff
fe
fe
03
02
10
04
fd
f8
00
f9
00
03
f3
ad
ff
f4
06
06
fb
05
02
06
f9
08
04
fa
0b
fa
f4
02
08
42
03
06
06
fa
01
04
ff
02
9c
f8
01
f4
03
fc
01
ff
f3
bb
0c
fb
fa
fb
fb
f6
03
f9
b6
00
ff
02
08
06
03
09
0d
ca
07
ee
08
01
f9
00
03
06
ab
fe
05
fe
00
f8
03
02
09
cb
03
f9
00
03
02
05
f9
06
cc
03
fc
ff
06
fd
f9
fc
07
56
05
01
03
f6
f8
fb
fb
02
08
fc
08
fe
fd
fb
ff
f8
09
f0
10
f4
04
03
05
f7
f8
08
ca
f4
02
04
05
fa
ff
04
06
0f
fc
02
f9
f4
f7
ff
05
05
cd
00
0e
ff
03
08
04
02
fa
43
04
03
0c
fe
03
fc
04
ee
a1
03
09
f8
03
06
03
fc
00
b4
f7
00
f7
04
ff
fb
fd
07
07
f6
fe
00
03
01
05
fe
fc
c1
ff
f0
03
fa
07
01
fd
0a
a8
04
09
ff
fc
ff
02
09
05
1b
04
fa
fd
ff
f7
00
01
ff
b2
0b
04
03
0d
01
f6
0a
0f
3c
fc
05
0d
ff
fe
fc
f1
0f
29
ff
07
ff
09
04
fd
fa
fc
46
ff
fa
04
07
09
06
01
fb
17
ff
fd
f7
02
06
f9
06
01
9f
fd
fd
03
05
02
f5
07
ff
52
0e
ff
ec
fa
ff
0c
07
08
3e
f7
08
01
05
00
07
f9
01
4f
f5
00
06
f5
04
fb
00
fa
b7
fe
0e
fd
00
02
fa
fe
07
25
03
03
03
09
fe
01
fe
07
3f
02
09
03
04
ff
01
ff
05
c5
f9
03
02
0b
00
f6
02
f7
e8
02
07
f3
f8
02
fe
04
07
5f
fe
03
00
06
02
02
fa
fb
e7
07
03
fd
05
02
f8
05
fe
58
fe
fd
fc
00
08
fe
f9
fd
f6
f6
f6
fb
f9
f9
f9
09
02
b0
00
01
03
11
09
fb
00
f2
36
07
f4
06
f8
fb
03
01
fe
d2
f9
09
04
f5
fd
fb
01
fb
70
0a
06
06
ff
05
00
f5
05
dd
09
06
fd
fe
fc
fe
f0
0b
46
01
02
f8
ff
0a
08
05
fc
c5
fe
03
05
06
02
fe
0a
fa
3b
09
01
01
fe
fa
02
fb
05
51
fe
06
fe
02
fc
03
fe
fb
ff
f6
f3
04
02
f5
fa
fe
0c
53
07
10
fe
02
fe
fd
f8
ff
e8
06
f8
fd
04
14
08
00
fe
9e
02
03
04
08
fe
01
fd
f8
b3
ff
02
f9
fd
ff
f6
00
09
29
06
0d
ed
00
04
04
fe
fc
92
01
fc
fb
06
f9
01
fc
04
c9
02
09
04
05
05
03
fa
00
2e
ff
02
fd
fe
fd
05
03
f7
db
06
13
0d
0b
f9
07
fd
ee
e7
f6
fb
09
fd
09
07
fe
ff
b5
fe
05
0f
03
fd
04
05
f3
c8
02
f3
0a
04
ff
05
ff
fd
bb
fd
fc
f6
02
06
f7
f3
00
cc
fb
ff
01
f6
04
03
05
06
ec
09
02
fb
fc
04
fe
08
fd
05
08
f8
02
f7
fe
05
04
fb
c7
f8
f4
f9
fd
0d
ff
ff
09
60
05
f8
04
0a
fc
02
08
00
30
fc
fc
fc
05
fe
00
ec
fe
9a
01
03
07
fc
06
fb
08
05
0c
fe
fa
02
fd
09
02
0b
02
a3
00
ff
fa
00
fc
09
04
02
ee
f6
02
fa
f2
fc
fd
fe
fd
ca
fb
06
fc
0e
04
fa
03
00
59
02
00
f7
07
fd
0b
fb
f6
f9
01
ff
05
ff
09
08
00
f4
0b
fd
01
ff
ff
07
05
04
ff
a3
07
04
01
02
02
f7
02
f9
1a
f9
f3
f9
fc
04
fd
fe
fc
b0
fc
fb
0c
fd
f9
00
02
fa
1c
05
00
fe
fb
01
02
06
04
04
fe
05
eb
fc
00
0a
03
08
ba
f6
fc
05
fb
fa
09
ea
f8
da
fd
00
fc
00
fd
fb
ff
fb
c6
fd
fb
01
fc
08
05
fa
f8
1e
ff
f7
f5
03
02
03
ff
06
ed
0b
f6
0a
05
02
fc
07
05
ef
fd
f8
f5
f9
0c
09
04
01
14
fe
fe
05
04
00
09
ff
03
bd
00
f7
fc
04
01
01
f9
0a
33
fd
f9
02
fd
