f6
f1
fb
f9
3d
fd
fb
0d
f9
fa
fe
0f
fb
e0
06
fb
f9
13
09
ff
f4
03
aa
fe
02
f3
01
fb
f6
08
e5
e7
fb
08
fb
f3
ee
01
0a
fd
76
02
04
f6
04
f3
fc
f8
fa
34
06
fb
f6
f5
0d
01
06
08
9f
fb
05
07
0b
06
00
02
08
4e
fe
fd
00
00
0a
fd
01
00
56
fe
06
08
03
05
04
f6
13
4f
00
f1
00
07
0b
01
0e
00
29
fd
0e
fd
ff
12
02
09
05
e4
fb
fe
fe
01
09
0e
fd
fe
ec
02
f7
fe
f6
fa
05
01
04
e7
fd
f7
03
01
fd
0b
16
02
dc
ff
fb
05
fd
fe
10
fb
05
9b
03
07
03
fb
ef
fe
fd
fa
35
08
fb
05
05
05
fe
fc
06
13
fb
09
f7
fd
fd
f0
15
09
30
02
03
00
fc
f8
fa
fa
f7
ae
03
07
fd
fe
ff
06
0d
0b
ee
f4
fe
0a
fd
eb
fa
f8
0b
46
06
f4
ff
f6
05
fd
00
10
0a
f9
02
0c
09
ec
fb
fc
05
a1
f4
03
01
f6
03
04
0f
fc
fa
f9
08
03
fc
08
02
06
08
03
01
02
06
0a
04
0b
f7
02
b5
fa
fb
06
ff
09
fe
0b
f5
61
fc
fd
f9
fd
05
e9
03
05
ee
0c
fb
fb
fd
f0
f5
fd
ff
40
fd
f9
fd
fa
05
04
fa
fb
3a
0b
01
04
12
07
f9
ff
fe
6b
fc
fd
fa
f1
03
ff
03
fc
fa
02
04
03
f9
07
fd
01
09
0b
07
01
f9
0b
07
f6
f3
03
d9
04
08
10
fd
fd
0c
07
09
11
ff
06
09
ff
12
f7
f8
f3
c4
fa
fc
fc
03
11
fa
fd
03
43
03
05
03
04
fd
02
00
ff
cc
02
fa
00
02
fd
f7
fa
f3
26
fc
f5
f7
06
fc
f7
0a
08
51
fb
03
06
f8
02
09
06
04
81
07
f2
fc
03
01
f2
fd
fb
b7
00
08
fa
0f
ff
01
fa
07
0a
fb
0a
fb
02
02
04
fd
0d
f8
f4
04
05
f0
f5
f3
fd
07
41
06
fe
02
03
f8
00
03
0e
06
fc
fa
08
f7
03
04
0c
05
f3
03
03
f2
f7
fc
09
fe
f7
01
f8
08
fe
fe
01
f2
0b
05
fe
02
ff
fe
06
ff
06
00
03
ec
f9
f7
05
05
f2
fe
0f
09
35
01
08
04
fc
f5
f9
06
08
41
02
fa
fb
07
01
f6
05
f8
14
03
fc
05
fe
f7
f4
ff
fb
c8
ff
01
15
08
fe
fd
fe
f7
c5
fd
ff
f0
02
ff
03
00
01
6f
fb
f8
00
07
0f
07
ff
04
67
05
fe
fa
06
f8
fd
f3
05
9c
f9
01
04
fd
f7
09
0f
02
65
fb
f2
fb
fe
ff
14
ff
0a
94
02
fa
01
ff
02
ff
09
f4
04
05
00
ff
fb
ff
03
01
fc
cf
03
0e
fc
fb
fa
fc
ef
f4
ec
fc
fb
fe
04
04
04
09
fb
db
06
f9
ff
fd
00
00
fa
08
25
f9
03
05
fa
f8
fe
03
fc
a4
03
0c
0c
01
01
06
00
0b
c5
f2
04
02
05
08
fd
01
f1
c5
00
f6
fe
fa
02
05
fb
fd
c2
f0
fb
f4
f8
ff
fc
02
04
04
fa
fb
01
05
01
00
09
fa
a2
fd
f4
f5
ff
f9
ff
fe
0b
1c
04
01
08
00
03
06
f2
fa
5a
0a
00
0f
05
fd
f7
0f
f9
e0
11
fa
03
00
00
fa
07
03
b4
07
01
02
fc
fe
06
f8
0b
0d
05
ff
04
f8
05
fc
f6
ff
98
0c
fe
03
01
02
f5
f4
0a
42
f6
08
ee
ff
f8
08
05
08
04
f7
08
fc
00
02
05
fc
fd
6b
06
fe
02
03
00
f6
fd
fe
0b
f8
07
ff
ff
ff
09
fb
f4
a6
f9
02
f7
fd
fe
08
02
01
da
ff
09
0b
03
fa
f8
fc
01
32
02
0c
fb
09
08
03
fe
f8
2a
00
fe
fb
fe
f1
05
08
f4
4b
10
08
05
04
02
fc
0a
fe
a7
09
fe
f6
08
f8
f4
02
fc
da
0f
01
02
fb
fd
04
f9
fa
da
0a
fd
08
f8
02
fa
ff
13
d0
03
02
04
06
00
fa
fa
02
27
01
06
f3
fb
04
03
f6
08
13
fc
03
0c
fc
05
f7
fc
fa
4c
01
f9
f8
ff
01
06
01
0b
b7
05
fd
0c
03
02
ff
0d
fd
2e
02
fb
f6
fc
05
f9
06
05
60
06
04
02
07
04
0c
fc
0c
f6
fb
f3
ff
fa
05
16
03
fe
ba
fc
fa
09
0f
02
02
fc
02
1c
01
0d
06
fa
06
10
ee
f9
0e
fe
06
00
fb
ff
03
0d
07
59
05
05
05
f9
fe
f6
fd
06
67
09
00
f3
f7
06
04
fa
fe
0e
03
06
fa
fe
fc
fe
0b
05
41
02
fd
02
0e
fa
07
fe
00
ba
f3
f0
fd
04
09
00
f5
fe
4c
00
00
06
05
03
04
fe
fb
a8
fc
07
ff
f5
05
00
0f
f9
e8
04
03
08
09
01
f9
08
04
eb
fc
ef
ff
04
04
f4
06
01
44
06
05
08
07
02
01
07
f8
b5
fb
00
00
05
04
06
f3
fc
00
00
f8
ff
fd
02
05
09
09
e4
fa
06
00
12
ff
07
ff
0a
b4
fb
02
03
ff
ff
03
06
02
53
04
f8
fa
ff
ff
f8
0b
fa
66
05
fd
fe
0d
07
0a
05
fe
98
05
f8
fc
08
03
00
fc
07
18
05
f0
fb
08
0c
04
f8
e8
df
02
00
fe
0e
0a
f4
ef
0a
53
07
fc
02
03
01
13
06
fa
a4
f8
f0
fe
02
00
f4
01
f8
ec
04
f4
f2
fe
fb
f7
ff
0e
31
f9
0f
00
03
fd
02
00
15
c3
04
fe
fd
fe
05
09
00
09
6e
05
09
00
10
02
fe
fa
02
da
fa
04
fe
fa
01
05
fc
f7
cf
fe
00
01
fa
fe
f8
f5
fe
ba
0a
06
ee
fa
0e
08
09
09
99
0c
fe
f6
04
0a
04
0d
fc
1c
01
08
0d
ff
ff
02
fd
03
68
0c
05
fc
ff
03
ff
f8
f4
ee
fe
fd
01
f1
f8
f0
fb
01
0c
f3
fb
f0
06
ff
0c
01
0d
f1
fd
08
f5
02
01
02
06
02
5d
02
08
fd
03
01
f8
01
02
f2
0c
f9
12
f9
05
11
fd
01
f3
02
02
fc
ff
0a
00
10
02
f4
fe
06
18
f2
ff
01
0a
0b
c8
06
fd
07
04
f0
05
04
fb
5c
f9
00
08
03
0b
06
ff
03
55
fd
fa
07
00
f2
fa
f9
f9
6a
fe
f8
05
00
ff
09
0b
fc
1c
ef
06
09
f7
04
fe
f9
04
26
ff
ff
f5
fe
05
03
12
04
69
12
05
10
fe
05
f7
fe
fa
40
fc
07
fd
05
03
04
f8
f8
d1
0e
fc
0b
fe
01
fd
05
04
ab
06
01
fb
02
0a
fa
fb
f4
49
00
02
f3
01
ff
02
06
f2
56
02
03
f5
05
01
02
fd
fc
e3
fb
05
fa
fc
fe
ff
00
04
b7
fb
09
ff
00
0d
03
03
fe
67
ff
00
0c
f7
f7
08
02
0c
bb
f9
01
05
0c
fb
04
00
ff
14
f4
ff
0d
03
0d
f4
00
09
c2
04
f2
02
f9
fe
f1
ff
f5
28
ff
fe
0f
ee
02
03
f7
03
17
f6
fd
07
fe
f5
f8
05
00
c0
fb
09
f4
05
03
04
01
02
66
00
f9
f9
f2
f1
fe
fb
fb
1e
fd
06
fa
04
f6
f3
05
08
63
02
11
f9
01
fa
fe
06
09
9e
01
fd
04
02
0b
fc
00
03
29
01
03
03
0d
0b
fd
00
f2
3b
f8
f9
0a
04
f8
fe
06
03
2b
0b
ff
00
05
f5
ff
02
fe
d3
fa
0a
fc
fd
00
0f
fa
0e
40
ff
fe
05
03
00
05
06
fa
60
fd
02
fe
fa
02
fb
f9
04
b8
0a
fe
fe
fd
f9
f3
f3
0d
1c
05
fc
f9
fc
fd
03
f8
07
5c
00
02
fe
02
fb
f8
f6
02
62
fb
fd
0b
01
fb
05
fd
06
27
ff
0b
03
05
05
ed
f6
f3
a6
01
01
fe
0e
09
fb
02
f9
b5
09
f5
02
00
fb
02
01
09
14
02
04
f8
01
07
f8
01
f0
f7
fe
fd
f7
fc
06
04
02
fb
f4
fc
f5
ff
ff
fd
00
fd
06
1f
03
02
fc
fa
fe
fe
fd
f8
c9
f9
f6
02
ff
06
00
0c
fc
ca
06
fe
00
04
08
fe
02
0e
6c
0b
fa
06
01
10
f9
fe
00
39
0a
05
fe
01
00
fa
fc
02
65
f8
03
fe
00
fb
00
ee
04
3d
01
fb
08
f6
fb
02
04
00
13
09
03
fd
05
02
03
02
f6
37
fb
00
08
00
0c
fd
09
00
06
f9
05
0a
09
fe
f8
07
f0
e5
01
02
0f
05
01
f4
fc
ff
53
02
01
fe
f4
f6
fb
f9
f8
d5
09
07
03
fe
fa
05
ff
0a
bd
fb
06
0b
01
05
fa
08
f6
de
fc
fb
04
fe
fc
08
04
f8
40
ff
04
fc
ff
f8
fd
ff
00
a0
f3
fb
08
f6
04
fa
ff
fc
2d
0b
07
0b
05
f4
01
fb
13
e1
f9
fd
fd
ef
02
01
fb
14
a8
fc
fd
0b
00
ff
fb
0a
fe
6f
03
fd
f8
f6
03
00
02
f2
36
00
02
f4
05
01
03
06
fa
48
fd
ff
05
08
fa
01
f6
f3
36
0e
f6
03
fa
ff
fe
08
f8
64
0a
03
f8
05
03
0c
02
f9
bc
08
fe
04
0d
f4
00
f6
0b
e8
03
f3
ff
f8
f7
f8
07
04
55
fb
f7
fa
00
fa
fa
fa
f5
a1
05
0f
fe
03
fb
fd
06
f3
d4
fb
05
04
10
f4
fb
f7
04
11
fa
04
03
fc
03
02
f9
0a
30
ff
05
01
fb
fb
06
ff
04
24
ff
fb
ff
0a
04
f9
fe
fb
6a
06
06
0c
08
01
ff
08
04
42
f0
02
f2
06
06
03
fd
f3
15
0b
f3
01
08
f8
ff
fd
fc
27
fa
f8
fe
04
f6
f8
05
f6
33
fe
f8
09
fa
01
02
03
01
57
0b
fd
03
09
f5
05
fa
07
5b
f7
fd
05
02
04
06
01
06
07
02
03
f7
fc
04
09
06
f1
09
01
f9
fa
fb
05
06
04
05
9f
fd
07
00
f7
04
fc
f7
f6
12
02
fa
07
05
fb
13
02
06
f1
f2
01
f7
ff
03
f8
00
ff
78
f4
fa
01
fa
ee
00
f9
09
c2
f1
05
f1
07
fd
01
01
f8
4d
f6
04
f5
05
08
08
05
04
3c
fd
00
fd
fb
f2
05
04
ff
3c
fa
05
fc
fb
0e
f3
fd
ff
fe
08
01
fb
06
0a
f9
f7
f1
08
0c
fe
00
0a
f9
00
07
06
df
fe
00
09
08
03
f5
07
05
09
fa
0a
08
fb
02
0d
ff
ff
12
06
f6
fa
03
08
01
ff
f8
07
01
ff
fd
fb
f7
0b
10
02
ea
01
09
00
05
00
f9
f9
fe
18
ef
f5
0a
ff
fb
01
f6
f9
62
05
06
fa
0f
05
03
06
03
c6
05
fc
f4
12
04
0b
0d
0d
ed
f8
f4
04
fa
fa
08
02
04
f9
f7
fc
f5
06
f2
03
f8
06
4c
f8
05
ff
0e
10
14
13
f6
14
ff
f9
fd
01
00
f9
fc
fb
4a
ff
03
00
09
f1
f6
03
fd
f8
f2
fb
04
fb
01
02
00
06
9d
f1
f4
ff
06
11
ff
09
fa
c9
03
fb
fe
f6
06
15
fc
00
ed
03
02
04
08
ff
fe
ee
04
21
f9
00
fd
03
01
fd
05
f6
c3
01
f8
ff
fc
02
fe
fd
02
4a
0c
fc
05
f8
ee
03
05
fa
bd
fb
07
ff
0a
00
09
ff
00
47
f5
04
f7
0f
02
05
f9
fa
02
fb
f6
01
05
f8
fb
fb
f9
5c
0b
ff
f9
f3
fb
04
fd
05
e8
ff
0b
02
06
ed
f1
f7
06
06
ed
07
04
fc
f8
fd
05
f9
56
f7
03
f6
fa
ff
f9
02
03
b4
eb
04
fc
05
f7
fc
f3
08
f8
03
05
03
fc
01
f3
f8
f6
15
00
ff
00
06
fb
02
04
fc
62
f6
fc
fc
06
03
08
01
fd
42
f1
fd
f8
fc
fd
f8
f5
fd
97
f8
01
f7
13
ea
00
06
07
c5
09
fc
06
fd
fa
f8
f9
02
b2
02
06
06
fe
09
fa
02
fb
55
0a
fe
0a
04
fe
06
01
f8
98
07
04
fd
08
ff
00
04
fa
39
fc
f9
02
ff
07
03
10
05
cf
fc
07
01
f9
01
fb
ee
f8
6e
0a
05
04
0c
f6
fe
fb
fb
e0
09
04
02
0e
fc
02
f3
0b
b0
f8
0e
f9
02
05
f6
00
f8
34
01
01
04
02
ff
06
ee
ff
3d
fd
04
fc
00
05
05
fb
07
29
01
12
06
fc
f5
fe
fb
f5
e8
f4
0b
fe
00
ff
01
02
f9
5e
00
11
f6
02
08
00
03
06
de
10
06
ff
07
13
00
00
fb
16
09
07
fe
0d
fb
03
02
fe
c7
fc
f7
06
04
fc
ff
03
fc
24
04
fb
04
06
0c
fb
fd
06
3d
01
05
04
f9
08
f6
f3
01
00
fc
fa
fd
03
05
fe
10
0d
2e
fe
fd
f9
fd
fe
06
ff
ff
cb
fe
f4
07
04
08
f5
02
f7
af
09
0a
0b
f8
fe
04
f8
0e
e6
01
14
09
0b
09
f0
02
07
1f
fb
0b
0c
ff
ff
f2
fc
00
55
fd
fe
fc
ff
fb
01
05
04
42
f7
00
fe
07
02
f9
03
03
b2
04
f3
06
f9
03
03
fb
fb
27
05
fd
09
02
f4
0b
00
00
64
fa
fd
05
07
ff
01
fd
00
3f
02
fa
f6
02
02
05
00
05
3b
fc
0b
fc
0d
03
01
03
01
d4
00
f7
08
f8
10
fa
02
f9
35
fd
fe
f7
06
05
f7
03
fb
63
00
fc
02
07
01
09
fa
07
40
00
02
fb
fb
ff
fe
02
fe
95
03
fb
01
fe
fd
03
06
fb
69
f7
fe
fe
f8
fb
00
fd
01
59
00
ff
fb
f7
f6
ff
00
05
87
09
07
04
fe
05
f8
fd
0c
a5
02
ff
ff
07
f6
fa
0c
f2
4a
01
fc
0b
02
fa
fd
02
fe
b6
00
05
04
fb
f8
0b
03
02
2c
02
0d
fa
f7
04
05
0c
f3
f5
03
0b
06
fb
00
02
ff
01
46
08
15
ff
03
fe
ff
f6
09
25
04
fd
f5
fb
06
00
fc
fb
6b
03
0b
00
03
06
03
04
03
bf
f8
f5
05
03
f9
08
06
fa
0a
00
02
fc
fb
0a
f6
07
fa
6e
ff
fd
00
fe
07
01
fc
ff
f8
02
fb
fd
00
07
fe
f8
0a
f0
fe
f1
f7
07
01
fe
fe
03
1e
00
ff
ff
09
01
fc
07
ec
d8
01
09
f9
f9
fa
f7
fd
fd
68
00
09
f8
06
0b
fe
00
00
57
fe
02
01
f2
f9
0d
00
f8
11
01
09
01
00
fd
05
07
04
a5
ec
fb
fd
0b
07
00
05
00
c8
fc
fc
02
f0
00
03
03
fd
97
f7
06
f7
fd
fb
00
fc
00
07
f9
fc
f8
07
06
00
fe
f7
be
fb
f9
fc
00
f7
fd
fe
04
5d
08
03
00
fd
f3
09
00
fd
06
14
fd
01
07
fc
ff
fe
03
4b
06
fc
ff
fd
06
01
fd
fb
23
03
03
02
fa
f1
0c
01
05
70
ff
0d
03
fb
0d
fd
f6
fc
8e
08
fb
fe
02
01
04
fe
fd
48
ff
f9
fe
f8
ff
15
09
0a
01
fe
04
08
ff
01
fc
07
08
e1
f8
03
ff
fe
00
04
06
04
bd
f8
0a
f4
fc
00
fe
fd
f6
12
f6
fc
fe
ff
fd
f7
01
06
de
03
fa
06
fe
05
fa
f7
06
3f
02
03
fe
fe
03
fb
fd
f2
6e
01
01
f7
fe
f2
00
fd
fc
8b
fd
06
fb
06
02
ff
02
05
30
f7
07
02
07
f8
03
00
02
af
f9
00
07
0b
0c
0d
02
fe
30
09
ff
07
02
04
01
09
06
42
09
03
04
0a
fe
fa
f3
fa
63
f5
fa
fc
ed
05
f8
01
f9
68
ff
07
fb
fe
fb
04
08
ff
3d
f3
01
f3
09
01
0c
05
00
ae
fb
00
05
fb
f3
f6
fd
f1
70
05
04
03
00
01
fc
02
04
3d
01
07
0d
05
f2
04
f9
fe
62
0b
ff
07
03
04
00
f8
02
60
09
fc
fc
02
03
fa
f8
03
d5
0f
fb
06
04
ff
07
05
00
d0
04
00
07
03
07
06
fd
04
4d
02
f9
01
00
04
07
fc
fa
be
fe
f6
f6
0a
00
02
fd
08
c6
01
00
fd
fd
03
ff
01
f4
10
fa
06
f6
07
02
fb
01
f7
fb
fa
00
fd
02
f9
fc
02
fe
04
ff
07
ff
f6
00
04
01
fc
bc
fa
09
f9
f6
08
fb
02
03
60
00
01
00
01
fc
ff
fe
00
22
05
0d
fc
06
07
06
fc
07
eb
07
02
05
05
02
fb
00
ff
d5
06
fd
03
05
00
01
fe
fb
f5
01
f9
09
02
02
f7
ec
03
2e
09
fb
00
09
08
09
0b
ff
04
fd
00
fb
07
02
ff
0b
05
d5
fa
05
06
08
fe
06
fe
01
a4
ff
0b
fd
04
fd
0d
fc
08
14
05
fb
00
04
07
fe
03
fd
63
03
f9
04
05
f5
03
f2
ff
1f
08
00
00
f6
04
fd
07
fb
49
04
00
00
f9
03
08
05
ff
e4
00
0b
fb
0d
fc
08
f9
ff
4d
fe
06
fd
f7
01
ff
06
fa
fd
03
01
fb
05
ff
05
03
00
a9
00
01
f9
06
01
02
f9
05
21
06
f8
01
03
01
02
04
f3
16
0e
fc
03
04
fe
07
04
fb
c3
fe
fe
ff
f1
f1
0b
f8
00
12
fe
0b
f5
03
ff
f6
f4
02
bd
f3
03
fd
f6
09
fe
0a
f6
cf
01
05
fd
fa
05
fb
f8
00
36
05
ff
f5
02
04
08
01
fd
53
f4
06
f9
01
0a
fa
03
00
0d
02
f8
fc
01
ff
05
0e
f5
0d
ed
f4
fc
ff
01
11
08
01
ac
ea
04
fe
02
f7
f0
06
fe
ae
07
f9
00
fe
f9
00
fe
f3
27
0a
03
04
05
05
ed
f9
fa
4d
02
fd
05
fa
03
f2
fb
f8
2b
06
fc
0a
03
02
f8
fc
fa
e7
08
07
f7
0c
0b
00
0a
ff
df
f9
0a
fe
f4
01
fd
03
09
b9
fd
01
fd
fc
03
f6
f2
fa
64
14
fe
fc
07
fe
fe
f8
fc
2f
01
06
f4
08
0e
fc
ff
fb
11
0a
fb
05
f8
0a
f6
fb
fd
fe
fe
ff
f8
06
fc
fd
f2
0d
98
f8
fd
f7
04
00
f4
f6
01
4c
05
fb
fc
f5
05
08
f7
fe
93
fb
0f
f2
ff
02
00
0f
f9
2b
fd
02
f5
00
fe
08
ff
fa
11
13
05
08
fa
03
fc
02
fe
23
08
03
fa
01
fb
00
00
fa
b4
f7
05
fc
03
ff
f8
08
fe
a1
0d
05
01
00
07
fa
fe
05
b5
04
ff
14
fd
01
08
fa
fd
ff
f6
fa
fd
05
07
12
0a
fc
af
03
ff
04
f5
f8
fc
fd
09
65
01
fa
f7
00
05
03
fe
fb
a7
07
15
00
02
f7
02
f2
fe
2b
02
0d
fe
08
0a
01
f9
f6
e5
05
01
0b
00
00
f2
09
03
a9
04
05
ec
fd
0a
fe
f8
f5
c5
0a
f6
ff
09
01
08
08
f8
df
08
f6
fa
14
01
04
01
f0
41
05
f5
ff
fc
f8
fe
0d
f8
ba
f8
f8
08
f8
06
0f
fd
f5
c2
f1
f6
09
f7
f6
00
f4
02
89
ff
14
ff
f8
ff
00
04
04
13
00
f2
0f
01
f7
01
ff
01
0f
01
02
00
f8
02
fa
08
06
be
ff
03
06
07
09
f1
f4
08
c5
fd
12
f4
08
05
fd
07
08
24
f8
04
00
07
04
fc
f6
00
1c
ff
07
f5
08
fe
0b
fb
f7
14
0b
fc
f9
fe
f5
fa
f8
f6
df
0f
06
ff
0c
01
09
fb
fd
98
01
05
04
f1
03
01
ff
f8
53
08
f9
fd
06
01
14
07
00
ce
eb
09
03
04
f9
fc
ef
04
de
05
04
f9
f2
09
05
fd
f7
a0
fd
fe
f8
05
00
00
04
0a
5d
0a
09
04
00
01
09
ff
01
ce
09
f7
f7
01
02
fe
00
fb
d5
0c
fe
01
00
fd
f8
fc
14
1a
f9
06
02
0c
08
fb
03
02
d7
ff
0d
f9
fa
02
08
07
f5
66
0d
06
00
ff
ff
fa
fe
fb
29
04
f5
09
04
fb
08
00
0c
52
00
02
00
07
f9
fc
05
06
e1
0b
fb
01
08
14
02
04
fe
07
0c
f8
fc
f4
05
fd
02
f2
5f
f6
ff
fb
fc
01
fb
f5
01
c8
fe
0a
07
01
08
fa
00
03
63
02
f9
05
f1
fb
fe
f2
fa
fb
02
fa
02
ff
04
0c
14
05
6a
fd
08
ff
ff
fa
ff
0a
08
65
06
04
fe
01
ff
03
fd
fe
5a
fb
04
09
08
03
f7
05
fe
e9
fc
05
0c
fb
05
09
f0
02
07
fd
00
03
eb
0d
02
ff
fb
06
02
02
07
ff
00
fe
fe
fb
dd
fc
02
06
06
fc
f7
f9
05
57
03
f1
00
06
07
04
f3
10
cb
ff
f7
f5
f6
fe
06
00
0b
f2
f4
02
ff
fa
fd
fe
04
06
2e
ef
fd
f5
f5
f4
f8
f7
0a
52
09
fe
ff
02
02
04
f7
f6
ae
0a
0d
00
07
fb
f3
f5
f9
47
f3
f9
03
fa
f7
04
05
05
9d
03
0b
01
05
fd
fd
f7
04
3e
f9
ff
03
0f
ff
f6
fc
fe
6a
f5
f6
ff
00
02
01
06
03
eb
07
04
04
ff
09
02
05
fc
07
08
05
05
03
09
0a
07
01
c3
fa
f5
01
f9
02
06
fe
f9
4d
02
ff
fd
05
ff
f1
fd
06
ff
06
0a
05
f7
05
fb
f8
02
2b
07
fb
fc
fd
f8
13
fc
0b
ec
fb
f7
fe
06
05
ff
00
f8
9a
f5
08
08
fa
fb
fe
00
f5
c4
f2
fa
03
f1
01
03
ff
03
51
ff
0a
fe
f6
03
14
0b
00
bf
10
f7
00
03
fe
0b
0e
fd
64
f9
f6
08
f4
02
f8
07
f0
12
09
fe
f5
ff
08
f9
03
06
f4
01
08
05
fa
fa
0b
02
fb
d7
10
08
12
fe
08
ff
02
02
d5
02
02
f3
f6
f6
0e
f9
fe
5f
fa
e4
fb
f7
f8
fa
fb
fa
3a
1d
09
fe
01
f5
f6
f7
00
35
09
0f
f9
0a
0b
07
fb
00
2f
f6
f8
05
12
00
f8
10
03
49
f5
ff
09
f9
09
fd
fd
08
a7
fa
0b
07
08
06
ff
f7
0e
cd
fc
09
f8
0b
ff
08
f9
01
04
fa
f2
09
04
01
f8
f6
02
0c
fc
07
fb
ff
05
fb
f9
00
b0
ff
f7
fa
0d
07
f3
fa
00
23
01
01
0c
0c
04
06
07
fc
6c
03
00
0e
ec
fe
fd
0d
03
a3
08
f6
04
fa
02
05
ff
fc
a0
ff
fc
f2
ff
0d
ff
0c
f8
02
03
f1
02
02
02
fa
04
f5
6a
fa
fd
fd
0c
fa
03
07
03
e1
fa
f5
f9
f7
02
f5
05
ff
cc
f5
f4
0e
f9
ff
01
f9
08
4f
ff
03
0c
01
06
06
f8
02
2a
02
02
fb
ff
ff
fc
02
07
bf
fd
0e
f2
00
fb
f9
f3
fe
53
f9
04
01
f9
01
fb
f5
0c
3d
17
fa
fa
11
fe
09
03
f3
fa
fc
ff
04
02
f3
fe
fd
07
4e
03
fb
13
fc
0d
f8
fa
ff
5b
05
04
05
fe
08
05
fb
09
ea
fc
08
f7
fb
00
f3
fe
04
ca
04
06
02
02
04
f9
09
ff
c0
03
ff
03
0d
06
04
fb
0a
1f
f8
f9
ee
ff
04
f4
fa
fc
cf
08
f6
fa
f8
f6
00
fc
f4
da
06
00
01
04
f2
fb
fb
02
08
fe
f9
fa
00
04
02
0a
04
be
fe
fe
0c
01
00
01
02
00
99
06
fc
07
f7
02
01
fb
07
29
00
0c
08
fc
06
0a
ff
07
dc
f5
f8
03
fd
02
01
02
07
46
fc
0b
ff
ff
07
08
06
09
1b
f6
09
fe
05
08
07
fb
01
2f
02
fd
04
02
05
02
07
02
e2
00
ff
02
fc
05
f9
03
fa
ce
06
05
06
0c
f9
0e
00
02
60
01
09
0a
f8
f4
00
fa
00
f7
04
04
01
04
fe
02
04
14
dc
f8
f5
08
fb
f8
fe
06
04
ea
fe
0a
07
00
ff
08
01
f0
a0
03
08
0f
00
fc
fc
0b
0b
53
f6
0a
05
fa
fc
fa
01
07
13
04
fd
fa
01
00
04
fd
0b
16
0a
03
07
fd
f7
fd
08
f8
4d
f4
03
f3
f7
ff
08
fe
00
2e
03
02
06
fb
01
0e
03
06
0c
ff
05
08
05
05
01
01
02
09
00
fe
fe
fd
0a
01
07
fc
5e
f8
01
08
03
ff
f0
fd
07
0f
06
f9
00
02
fa
fa
fd
02
e1
07
fb
f7
fc
06
00
f5
fb
c4
0d
04
05
06
04
04
fe
00
eb
00
fc
f7
fa
00
0b
05
fc
0e
ff
0d
05
ff
fe
fc
fe
f5
4d
00
04
09
f8
00
01
f7
04
5a
07
ff
fb
fc
f8
07
03
f3
22
f7
f5
ff
05
07
00
0c
05
4d
0d
ee
0c
f9
01
18
02
f7
93
02
00
03
fc
fa
01
f3
f8
4e
fa
07
04
fe
f8
f8
ff
f8
db
fa
fd
12
f7
fa
f9
ef
f9
f3
f6
0d
e8
03
09
02
ff
03
48
04
01
08
f1
f8
f6
03
05
d3
09
01
fc
fc
fb
ff
0a
ff
ad
0e
fe
f0
04
07
ff
04
0c
b0
fa
03
ee
00
04
04
fc
0a
47
01
08
00
09
01
fd
fc
07
df
03
fd
f9
fc
06
0f
04
03
f6
01
f7
fd
f8
fb
07
fc
f9
02
fe
01
f9
02
fc
01
fd
f7
cc
fd
f8
fa
fc
fa
0d
01
f1
4e
0f
f1
f5
fd
03
fb
12
03
64
f7
11
fb
08
01
07
f6
fa
23
f8
03
ff
f9
02
fb
07
f9
27
f0
f9
08
08
fd
fe
f5
fe
09
ff
0b
12
fe
fc
03
06
08
92
f7
08
00
0b
ee
04
07
fe
a4
04
00
07
fa
0c
fd
ff
03
a2
1f
01
02
fe
05
f3
fb
09
cd
ed
07
fd
0b
f8
fd
05
00
bc
0a
f5
ea
ff
fa
02
f5
f9
b8
fb
08
f1
fa
fc
0c
06
0c
bb
09
fb
04
fc
f7
07
fd
0e
a4
08
00
fc
f7
fe
f4
0c
fe
35
02
f9
02
02
f9
04
00
03
c6
f6
0e
f0
02
ff
04
11
fd
db
00
fd
fc
01
0c
fa
07
01
1c
04
fa
fc
fa
02
02
03
ff
d8
00
0f
fc
f8
f7
ef
ff
f6
a6
08
0a
02
fb
fb
02
03
05
ad
ff
01
fb
01
fd
0f
f9
fb
f0
04
f5
f8
fa
09
fe
04
02
f8
01
ff
f6
f4
0d
f9
f9
0d
65
fa
ef
ff
13
01
0f
07
f5
92
0a
ff
01
fe
04
fd
fb
05
cc
f8
f7
03
01
fd
fe
f8
fa
f8
fd
f3
0b
0e
f7
06
00
ff
ee
ff
ff
fc
08
00
0b
fd
fe
df
06
f7
09
f9
02
00
ff
fe
d7
0a
ff
08
fd
05
03
08
08
e3
00
fe
fd
03
f3
fe
05
fe
8c
01
15
fc
f9
0d
fd
0f
02
4c
0b
f2
ff
02
00
00
00
ed
2c
fe
0c
01
f6
f3
f6
09
06
f1
fd
fc
04
05
0d
04
0b
02
66
06
06
fc
fc
f6
00
0d
05
b1
01
11
fa
fe
02
f3
07
04
4c
0c
0a
fc
ff
fe
fe
07
fb
a5
f9
09
08
07
fa
fa
00
ff
dc
fb
15
01
fd
04
07
03
00
c3
08
f9
08
f9
fc
fc
ff
0b
ae
ff
fc
03
08
ff
01
fb
fd
a0
f5
f3
10
10
04
00
08
fc
3c
eb
fb
f7
fc
03
02
07
fd
92
02
07
fb
f6
fc
fd
f6
0d
43
fe
ff
05
fb
fb
fb
f8
f4
3e
f9
08
06
05
f4
05
03
f6
4f
f5
08
fc
f7
f6
fa
fb
f8
f7
fa
fc
01
f3
fe
01
09
fa
e2
02
08
00
00
fe
fe
01
e3
e0
f6
05
fd
03
05
f5
fc
01
65
ff
f6
fa
fa
f5
0a
07
f3
a6
03
f5
f8
ef
07
f4
fd
07
ff
00
02
fc
05
04
00
f9
f4
ab
01
ff
fd
0a
f9
02
0a
0b
0b
fd
fb
fc
11
fb
0c
f9
0c
2e
05
fe
04
fb
00
00
08
00
e1
00
04
f7
ff
04
ff
04
03
18
01
08
03
04
fe
12
0d
fe
d6
05
fb
ff
fc
02
08
01
03
38
ff
f1
05
05
06
f9
f8
06
13
04
fc
ff
05
0e
13
fe
04
16
0a
fd
04
fe
f5
0a
01
fa
39
f7
01
f8
fe
f7
06
07
f4
4f
01
08
fc
f6
06
fd
f5
ef
26
01
fc
f1
f5
05
08
07
06
aa
f8
fc
fb
06
06
f6
ff
fc
af
ff
01
04
ff
f3
fa
01
fe
53
fa
f8
fb
fb
f9
f9
fe
04
d9
fe
ff
fe
00
01
00
16
01
57
fe
0b
03
12
fd
05
fc
04
ef
04
0c
06
fa
fe
04
f7
fd
df
05
f9
0c
fa
01
ec
07
0f
cd
ff
f9
06
0d
06
fd
fb
05
e7
01
00
fd
fc
f6
fc
ff
fe
0c
f6
0e
f0
fd
f6
0b
11
04
13
ff
0b
f7
00
05
08
f4
12
a0
ff
fe
fa
03
07
ed
fd
ff
51
08
04
fe
fb
f9
f9
07
f9
66
03
f6
fe
03
fd
f9
fd
0a
a0
f5
fe
06
fb
02
00
00
00
1a
f5
fc
03
fa
07
f9
ff
08
5e
fc
0a
fc
fb
f2
06
fe
fc
cb
fb
05
f6
fa
eb
f6
f2
08
04
fd
fb
f1
fd
05
fa
fe
07
c0
fe
fb
07
ff
07
08
07
f9
de
09
fe
fd
fc
01
fd
03
05
05
05
f5
11
f8
fc
fe
fb
fd
e9
06
0c
fd
0d
01
06
01
fd
8b
03
fc
06
fd
0d
fb
01
02
2a
fe
f9
04
fb
01
06
f8
f4
4f
09
fa
07
0d
03
04
00
f8
d7
06
fc
09
fa
fe
fb
01
02
d6
ed
fe
00
fe
f4
00
fe
0b
6d
00
05
04
09
fb
fa
04
07
2a
06
02
02
fd
fb
f9
f6
0a
32
f5
02
02
fa
fe
f1
03
12
ef
f8
0c
fc
00
fe
0c
fb
f9
05
01
08
01
03
fa
f1
04
06
15
f8
ff
00
fb
f5
04
f7
03
47
04
08
fb
f8
0b
01
05
02
d2
f7
ff
fa
01
06
09
08
fe
0f
03
fd
00
f7
04
f8
07
01
43
fa
f9
fa
03
fc
09
03
f5
2c
fd
01
07
fe
07
02
03
fe
cf
10
ff
0c
01
04
fa
fc
0a
27
ff
f9
04
02
fa
eb
03
09
62
00
05
05
01
00
fe
fc
fb
48
f9
f7
f4
01
03
00
04
ff
a1
03
00
03
05
08
03
fd
fd
f1
ff
fd
f8
04
f9
03
01
f8
69
fe
f0
fa
00
fd
fd
f9
02
c6
fc
02
0d
fc
f5
09
05
fe
50
05
04
02
05
04
fe
fa
fa
f5
ff
fe
04
05
fe
08
07
04
57
f9
fc
0b
f7
06
02
04
f7
f1
f7
f6
00
00
0b
fc
f8
02
e6
eb
02
f5
fb
0b
fe
03
f1
d4
ff
0a
fe
03
fb
06
0e
08
10
11
f9
f4
09
f0
fb
fe
04
7b
fe
18
06
05
04
03
06
f2
e9
0f
f8
fa
04
fc
f4
fd
0d
a7
ff
0a
01
f8
f5
0a
07
10
48
10
fd
01
07
fa
0b
09
fb
c1
01
fc
f5
fb
07
02
f5
0a
cc
01
03
fa
f9
08
01
f8
fd
b1
00
f9
0a
03
fc
09
ff
fd
3f
00
ef
ff
04
fd
01
f8
f4
c5
06
07
ff
04
0b
fe
f2
f7
37
ff
fb
fe
f5
02
07
fb
04
bf
0b
ff
00
00
01
ed
fc
f3
e5
03
fa
f4
05
03
0e
fb
fb
9d
02
f5
01
04
f6
fe
00
ef
04
00
fb
ed
ff
fd
02
0b
fb
b4
fd
02
fe
01
fc
ee
ff
00
54
06
fc
05
fe
f7
09
fe
ff
38
02
ff
03
f6
fa
fb
09
0c
ac
08
f9
06
05
0a
f6
f7
08
43
fc
05
05
f4
01
fc
08
04
e1
f8
14
02
00
00
10
05
fc
ae
fb
03
ff
fb
fb
09
05
00
23
f7
0f
09
f7
ff
f5
01
fd
aa
fc
06
09
03
fd
fe
08
fd
38
fc
01
0e
fb
00
fd
07
ff
27
fd
fd
02
02
fd
f9
03
fb
3b
03
02
06
09
ff
05
09
ff
5a
f8
06
03
fb
0a
f1
fc
06
ac
09
f2
02
14
0d
0c
fd
f9
f5
0b
03
0e
fb
fb
01
fd
f5
c0
02
fb
02
fe
f0
0c
ff
0c
43
ee
fd
ff
03
fb
06
fc
fa
18
fc
02
f9
fe
0c
f6
fe
05
a3
05
f6
02
01
fb
fe
fc
03
dd
01
f5
01
05
01
09
f6
f7
b5
fa
fc
fc
00
07
fa
fb
00
3c
04
03
f8
f8
02
ef
f7
07
09
1a
09
ff
00
04
fc
01
03
ff
09
05
f7
00
00
f8
fd
fd
bb
fe
ff
f1
f7
0c
f2
03
f9
ff
03
00
fd
04
0b
07
ff
fc
df
f0
f9
00
ff
05
fd
0d
f3
ef
fb
fb
f6
fd
fc
f0
fb
0b
be
f0
02
fc
f4
f6
02
f3
02
2f
01
ff
01
fb
02
fa
05
00
2c
05
06
05
fe
00
fc
fc
02
51
02
04
10
f8
02
f9
eb
08
59
0b
fc
03
fd
04
00
ff
04
0d
fe
fd
f9
fd
ff
f8
03
00
f3
08
f6
fd
0d
01
05
f5
ff
2b
03
00
fa
f9
04
ff
03
fd
d1
04
02
e7
00
05
0c
fc
f9
cf
fe
0c
08
02
08
08
fc
08
14
04
01
06
09
ff
fa
07
fa
85
fc
00
02
07
05
06
03
00
e9
f7
ff
fe
fc
0a
02
02
00
26
00
0b
fd
fb
06
03
0e
09
d5
0d
02
ff
fe
0b
01
fb
fe
c8
00
fe
12
f7
ff
0c
09
f7
69
05
01
0d
02
12
05
ff
ff
49
fd
08
fc
00
08
f4
0e
0a
53
06
09
f9
09
fc
f9
02
03
f0
06
03
f9
06
04
09
04
01
d6
ff
04
fb
00
09
fd
fd
f7
ca
f5
f7
0b
03
f8
06
f9
0c
ad
05
fd
f6
00
06
ff
00
00
54
f9
0d
00
0a
fd
07
02
f7
23
00
06
ff
f5
07
f6
fb
f2
43
f3
0c
05
f6
01
f7
04
01
5d
fb
fa
05
fd
00
ff
01
f7
01
ff
f5
0e
fb
00
00
fe
fc
51
02
08
07
f9
ff
03
04
fb
6e
f5
03
fe
f9
12
03
09
02
fa
06
13
00
11
03
06
01
0c
36
fa
fb
01
08
0d
fd
00
05
44
01
ff
03
0c
07
08
07
06
f0
06
01
02
02
08
fb
04
01
a5
01
f9
f9
00
fe
01
ff
12
f6
f0
f0
f7
07
fe
0a
f8
ff
d8
01
fb
f6
ff
08
04
03
07
a0
ff
05
fa
07
fc
00
04
fd
4f
ff
ff
02
fc
01
fc
f9
f9
49
00
02
04
ff
fe
f7
fa
fc
fc
f5
fa
fb
04
00
0d
07
0a
ae
05
fc
02
02
fe
03
02
fe
54
f9
fb
00
09
ef
f9
01
fd
10
f9
fb
08
01
07
04
fc
fa
55
03
06
fc
fe
fe
f4
fd
f8
58
fb
ff
00
f2
f7
ff
02
07
9a
05
03
04
09
06
fe
f5
00
6f
f9
fb
09
f3
07
f9
fc
f7
3e
01
06
04
f9
0b
ff
06
0a
ee
08
0a
09
02
fd
fc
04
07
5a
03
0a
06
0d
08
04
ef
05
53
00
01
f9
fb
02
fc
03
03
53
0a
fc
02
fa
09
06
09
f7
01
f7
f8
00
00
08
01
fb
ff
e2
fc
07
f7
fe
f4
02
07
f7
c8
01
02
f8
05
ff
06
00
03
3c
fe
fc
f6
f9
00
02
03
00
da
fa
fd
0a
f9
fa
0a
fc
01
37
02
fa
fe
01
02
06
04
0b
f4
00
f9
0a
fd
f7
00
08
10
21
ff
02
04
f9
fd
f9
00
02
0f
f5
08
03
04
f3
fb
fd
fb
bc
fc
02
03
04
03
04
09
10
f6
f6
07
fe
07
04
f9
0b
06
e0
05
02
0e
07
00
00
0a
01
6c
f8
fd
fb
01
f6
f5
03
06
2e
07
02
08
06
09
f7
05
ff
c0
f4
f6
ff
07
02
08
00
ff
5a
f7
f7
f5
f5
00
01
0e
fd
af
fa
01
fd
fe
04
05
01
f8
e1
03
fc
ff
f7
fd
fd
f9
07
6d
03
f9
04
06
fb
09
0c
09
e1
fe
f7
fe
10
00
07
03
f9
61
f7
04
01
05
ff
07
fb
ed
4e
f5
f8
fb
f8
01
fe
fc
f5
ee
03
03
01
04
fc
fc
02
fe
73
ff
ff
fc
04
ff
ff
fd
03
70
01
01
f9
0a
00
ff
f9
03
3f
0a
f7
04
19
fc
00
fd
09
ae
fa
f6
fd
00
04
05
07
0a
2b
f9
fd
0a
06
02
ff
0c
0a
0d
06
09
01
00
04
f0
fc
0c
0c
01
0c
07
07
02
fc
03
f7
d0
0c
00
00
fb
04
fe
04
ff
17
0e
00
fe
fc
01
fb
fa
f6
fc
04
09
fb
04
fd
02
0b
fe
dc
01
f7
ef
fc
f8
01
fa
ff
a6
06
06
f5
04
f7
04
f7
ff
16
f8
fb
01
fe
fb
f6
fc
0f
fc
f3
ff
fa
ff
01
07
f7
fd
9f
fe
f1
fc
fb
06
0c
09
f9
da
fc
fd
08
f1
f4
ed
07
0c
e5
fb
02
00
0b
fc
f7
10
09
9e
ff
fb
10
0b
f4
f9
f8
08
ed
0a
00
f3
ff
fd
01
fc
06
cb
06
ff
07
03
01
fe
05
01
43
f3
06
06
fa
08
00
04
02
da
fc
f3
fe
00
fd
00
06
07
72
09
f8
09
fd
03
07
06
f9
d5
02
fa
f7
04
00
fa
07
01
e3
fa
03
0c
01
f9
ff
07
02
15
f4
0d
02
03
04
08
f5
07
db
02
f9
fb
fc
f8
01
f9
05
ef
03
f5
03
00
fd
00
01
f4
9a
0b
07
02
fb
0c
fd
06
fd
d3
ff
fc
04
04
05
01
05
00
37
f9
05
fe
f5
01
03
05
f7
a6
05
04
fd
07
fb
f6
09
06
03
06
02
11
07
f5
02
f9
11
f7
fc
f9
09
01
ec
fa
f9
f9
13
f4
09
03
fc
fd
01
fa
fc
03
f2
04
f9
fd
fd
f5
01
f7
f0
fd
04
f1
08
f4
01
fb
06
53
fd
02
f6
01
fb
fd
fe
01
41
03
f0
03
fb
05
f7
0e
f8
22
f8
f8
09
f6
f6
fc
fb
02
13
f7
03
04
0d
fb
f3
0c
f0
34
03
04
03
02
fe
fb
f6
f5
21
04
07
01
05
f2
fd
fe
01
94
01
02
fd
02
fd
ff
07
f2
a2
09
02
04
0a
0b
00
03
f3
63
02
f6
02
08
fc
0e
ff
01
52
f9
07
05
f0
07
08
0f
05
42
0b
ff
f7
fb
04
ff
fb
f4
ba
0d
02
02
0a
fc
0a
07
06
ef
fc
06
01
0a
ef
f5
f7
f4
ed
0a
f6
03
ea
fd
fa
04
ff
33
08
f5
f7
05
fe
f7
ef
0a
de
05
10
fc
f8
fc
08
fe
00
2e
06
f7
07
fe
f6
03
f3
0a
5f
00
04
01
01
f9
03
04
05
c9
f8
06
ff
fb
fc
03
fd
08
39
09
06
03
01
ef
fe
08
fa
9f
fd
02
f9
08
f6
fb
fe
f4
e9
fa
02
00
03
fb
05
03
f4
de
10
00
09
07
10
00
0a
f2
2e
0c
fb
0b
f4
fa
fc
f5
fe
ce
02
01
ee
fd
f8
fd
fb
07
cc
0f
06
f5
ea
08
ff
fb
08
a9
05
fc
f0
fb
08
01
00
02
38
00
ff
01
14
05
04
fc
03
9d
00
f5
01
07
fe
00
f8
0b
6a
06
10
00
04
06
f7
0c
fb
de
fa
fa
07
01
06
07
03
04
ca
f5
03
0d
0c
fc
fe
fa
05
35
00
03
f6
f9
06
f3
fd
07
a6
07
04
ff
07
fe
f7
00
fb
ab
02
04
0c
01
f9
03
fb
f7
b5
02
00
f7
02
08
02
07
fc
40
f3
04
08
07
fa
fb
ff
02
3f
fc
fb
fb
fc
ff
01
0a
ef
d4
fe
0f
fd
07
05
05
08
fe
68
00
07
0d
04
0a
01
fd
06
97
f4
f2
fa
f8
f8
04
01
fd
fa
01
fd
00
ff
09
09
04
01
90
f9
02
fa
f9
06
f4
fc
06
a3
fb
07
01
07
05
00
02
02
09
07
04
0b
02
07
f9
fa
fd
b9
f8
0c
fe
0a
02
00
fe
08
14
07
02
08
01
fc
06
f6
06
2f
f7
05
fe
07
0a
02
0a
00
b3
09
0a
01
0a
00
01
fd
07
2c
fc
01
00
f6
01
f9
00
fb
5f
01
ff
fd
00
02
03
00
00
c7
0b
f9
fe
04
04
00
f9
f8
fb
05
08
01
08
f8
00
fd
04
c6
f7
fa
02
01
ff
fd
01
fe
51
05
00
fe
ff
08
00
f7
ff
b4
04
0a
05
fc
04
0e
01
fd
ba
06
08
04
fd
fa
fa
fa
f8
ba
f8
f5
fb
fe
01
08
05
ff
58
05
ff
fe
0b
09
08
07
fc
16
0b
04
06
f3
05
04
fa
ff
98
ff
00
02
05
04
fe
ff
ff
25
f7
04
f6
fd
06
06
0a
02
e3
f5
f7
ff
03
02
05
fd
05
eb
f8
f2
04
11
07
00
fc
fe
ea
07
f9
09
f3
fe
fb
fd
07
30
fc
08
02
08
f9
00
fa
fb
25
00
02
02
05
f2
08
fc
f5
2f
01
fb
fd
03
ff
00
fe
ff
18
ee
11
f7
05
fd
fd
fc
01
e4
02
05
00
f3
01
f7
fd
00
d6
f6
02
f6
02
0b
12
04
fe
c5
04
06
fa
fc
09
00
01
0e
09
f8
02
02
fb
0d
04
05
07
14
04
01
f6
fd
0b
fe
fd
04
e1
07
03
f8
05
01
00
fe
0a
c4
05
08
05
f8
02
ff
00
02
3a
f7
01
0d
fb
03
01
02
01
aa
f2
01
fb
fd
f5
fd
fc
03
2e
04
06
0d
06
ff
05
00
fa
e4
01
07
0d
04
fc
03
fc
fe
2e
f9
0a
f9
03
02
fc
05
01
2d
f7
08
01
ff
fe
05
f3
fc
f5
f8
05
07
fb
06
09
fd
fd
94
ff
06
fa
fd
fa
0c
f6
00
9c
00
00
0c
01
fa
04
06
ff
28
0b
f4
f6
ff
0a
05
08
02
35
fa
02
f9
04
ff
f3
f6
09
b0
03
06
03
fc
fc
0a
fc
fc
58
fa
0b
fc
06
06
00
f9
05
c0
05
f8
f9
ff
0f
08
f4
0b
20
06
fa
f2
06
03
0a
0a
05
65
0b
0c
0e
fd
0f
fa
02
f9
9e
05
06
fb
fb
0d
f6
02
fa
18
05
07
f7
01
fb
00
f8
0f
2f
06
01
08
fb
ff
fb
fe
09
5f
fd
f7
05
04
05
00
11
fa
c3
06
f4
06
00
fa
fe
ff
f9
d4
ed
fc
fa
00
fe
01
fe
05
fc
02
05
07
0f
02
f9
0a
01
a8
fe
fc
fe
fe
02
06
f1
09
3e
05
04
01
fa
ff
05
fc
f3
a0
06
04
0e
01
04
fb
06
05
f0
01
fd
fc
f7
00
fb
fc
15
ac
02
00
f3
01
fc
09
ea
0d
08
ff
02
05
fd
01
fd
fb
06
f7
09
ff
f6
fd
fa
fb
00
07
05
f4
fd
fd
07
ef
02
f8
02
b1
fb
04
0c
f0
00
fc
fe
fb
98
05
05
fd
fc
fb
f6
fb
10
23
08
02
03
fb
ff
01
ff
02
99
f7
06
fe
01
03
07
02
ef
90
08
ff
0d
01
ef
fc
f9
05
39
f5
03
f4
ff
0a
08
0d
f0
be
ff
ff
f7
03
fe
0c
04
f2
78
0b
12
03
fc
fd
04
06
07
64
01
fb
f9
f9
fb
fe
fc
04
17
fc
03
fc
f5
04
f8
fa
08
a5
06
02
01
f5
fc
07
fe
04
ea
fa
00
01
fc
ff
ff
02
07
b3
00
03
f7
03
11
f9
fb
fe
df
fb
f9
09
05
06
f1
fd
04
3a
02
f7
11
f9
07
fb
00
fa
2b
01
ff
09
f7
ff
08
0b
0a
4c
f8
03
f5
00
06
08
12
09
d7
f9
f7
08
08
f5
05
04
fe
92
fd
02
f4
ef
ff
04
07
fc
cb
fe
00
00
0b
fa
08
09
02
d4
f5
01
f8
01
fd
f7
f2
f6
e2
05
fd
f6
05
fd
11
05
04
8a
03
fd
ff
f2
fe
01
01
ff
1d
10
09
07
01
f3
f5
fe
05
27
05
08
f5
07
05
02
fb
02
e9
f2
f5
fd
fc
0c
f5
fc
fd
21
09
05
00
fa
fa
f9
f8
01
d8
fc
f1
05
fd
f9
0a
07
f9
5a
02
f6
fa
01
0a
fe
00
fb
b5
fa
ed
ff
ff
fd
fb
f5
02
f8
0e
08
0c
03
08
fe
f7
fd
39
01
0d
fb
04
0f
fa
03
fc
c7
f6
04
fe
05
00
00
06
f9
2a
01
00
00
fc
07
f9
04
f6
9e
f6
f6
f7
00
ff
05
03
f0
8f
0d
01
f7
fd
f8
f0
fe
02
ae
fa
fa
f7
05
09
0d
fe
fb
38
05
0d
03
02
fe
fc
08
0d
ec
f8
fe
ff
f6
06
fc
ff
05
ae
04
fe
18
fc
02
fb
04
06
d2
ff
02
0b
12
fe
fb
fa
fd
d7
03
fc
07
00
01
f5
00
f4
a9
0d
ff
05
fc
09
f8
f6
01
f0
01
02
fd
01
fb
03
f3
f9
11
08
f7
f2
fe
f5
09
ff
07
19
0b
07
f6
fb
00
f2
f6
09
ea
0c
04
04
11
f2
f5
fa
07
09
05
fa
fc
03
03
07
0c
01
d8
02
f4
f6
02
00
02
08
0d
fd
f6
ff
11
08
ff
f6
07
f7
c3
f8
f6
f8
00
0a
06
f4
f8
21
fe
f7
00
fe
00
02
0c
02
ad
f6
0a
06
fc
08
07
fb
0b
53
0c
01
f8
ff
fe
07
fb
fb
b4
fb
06
fc
fe
f7
fe
fb
fb
45
08
05
03
02
f5
05
04
fc
1a
00
f9
ff
04
00
01
fd
fd
a4
02
02
fc
06
f3
fe
fb
0b
3b
fe
f2
ff
f9
f9
fb
03
0a
5b
02
fb
01
03
09
fc
ff
f9
29
00
fd
04
01
07
fe
02
f4
d1
f8
fa
02
00
02
fc
f7
fa
94
fd
ff
ff
03
07
05
08
f9
6a
f9
06
fd
fa
fd
0a
01
04
d3
06
01
f8
fc
05
01
04
0f
f1
fa
fd
07
fe
ff
04
01
0e
bc
f7
fd
fa
03
02
fb
08
12
f5
f6
ff
03
01
06
03
f8
04
46
08
07
ff
fc
fc
05
04
05
bd
f7
f6
05
00
fd
fb
fc
fc
5c
f6
00
02
00
09
01
f4
06
d2
eb
fe
01
ff
00
00
ee
0b
fd
05
09
07
fa
02
06
06
0b
04
f1
ff
f1
02
0c
04
03
03
ea
fc
f7
f5
0a
fa
0b
05
f1
94
00
fd
f7
03
01
fb
04
ff
f1
0b
0a
f7
f5
f9
f2
f6
fe
a7
07
01
04
03
05
fd
fd
0e
d7
03
03
04
fd
04
ff
05
fd
c6
03
fe
f8
ff
f8
f9
02
fd
b2
fa
01
02
05
