f9
08
00
01
16
ff
06
fd
03
07
fa
ff
05
07
f6
fe
05
fc
01
f7
09
fc
b1
07
05
0b
fa
10
04
07
09
26
0c
f8
ff
04
fa
fb
03
02
db
04
0e
02
fc
fe
01
00
f9
46
ff
0e
f5
07
fb
04
fa
03
e7
00
04
03
f9
00
06
07
fe
21
0c
f3
f8
06
f2
01
fa
02
3e
f7
08
f9
f7
fa
ff
f3
06
04
fb
ef
04
fb
04
f2
f9
fb
53
06
fa
05
f9
06
fa
f1
07
2c
02
ff
03
fe
0b
fc
fc
fc
b6
02
0c
0b
0c
06
fe
06
ff
97
fd
06
06
02
f7
fd
04
f2
57
fd
f6
f6
f8
06
02
04
04
c4
09
07
02
fa
02
f4
ff
04
c6
04
0a
ff
09
04
ff
01
f8
3a
fd
fb
f9
fa
07
f3
f3
02
21
f4
fd
00
f8
05
02
fa
04
ee
04
0d
0b
03
05
06
05
06
47
03
04
0b
00
f7
04
f5
0d
ef
02
05
0d
ff
fe
03
02
f8
65
05
ff
00
05
f5
fd
0f
03
16
f2
01
fe
fc
f9
fb
0c
fe
f7
f7
08
02
fa
f9
07
0c
0b
49
fd
ff
f5
04
0b
fe
00
f8
64
f8
04
fe
07
0a
00
06
0d
a0
01
12
05
0d
02
02
0e
ff
44
fa
04
05
ff
03
f7
fa
0c
61
05
07
ff
04
01
fe
f0
09
b7
04
ff
05
fe
03
ff
ff
02
bd
fa
fc
00
fc
fe
06
08
08
08
0a
05
fe
0c
00
07
fa
03
46
f9
fa
f9
fc
05
f4
13
fd
ab
01
ff
02
02
07
ff
05
fc
78
0f
fe
04
04
03
04
ff
05
bd
02
04
f3
f8
08
04
f7
03
57
fe
00
05
ff
08
f7
02
fd
b1
f9
07
06
02
01
ff
07
fc
99
0a
03
00
05
fb
0c
06
f8
6d
fc
fa
05
06
fc
0f
00
ff
54
ff
fc
02
f9
04
fc
f9
05
04
0b
fc
f8
f8
fc
00
fe
f9
a5
f8
04
05
f9
fd
f1
f2
fd
15
f7
00
02
01
fd
07
fb
f9
d0
f7
03
07
00
01
04
f9
f1
5c
0a
fc
fc
03
06
00
01
04
f7
01
07
0c
f5
09
f1
05
10
95
00
01
10
09
fa
fc
08
fc
65
04
00
06
f9
00
f8
f1
ef
5d
fe
01
f5
03
fc
01
03
0d
98
09
03
0b
ff
fa
14
0a
05
f1
fe
01
0c
01
04
f8
fe
13
43
f7
00
03
ff
fe
fc
fd
fd
fa
fc
04
0d
ff
f6
01
ff
02
07
fa
fd
01
01
12
01
fe
f8
af
08
01
f7
0c
03
06
0a
0f
27
04
07
f8
ff
0d
00
f8
f6
54
fe
00
fb
04
07
02
fc
0b
b9
02
04
01
04
fe
fc
fd
00
3a
ff
fe
02
fb
03
fe
f9
fb
a2
f9
f7
00
fc
fd
f7
fd
05
50
fe
05
04
f7
01
fe
00
00
12
04
00
fb
08
e9
10
f8
10
e5
02
fe
02
00
08
02
05
fb
aa
f3
0d
fc
ff
f5
06
08
0f
b7
07
06
06
09
fd
09
fd
f1
4e
00
eb
01
fe
0c
f8
06
fe
d0
fc
f4
f7
fa
0d
f0
e8
04
54
01
05
fc
f0
f0
f7
09
02
aa
ff
fc
f8
06
f5
fb
02
fc
aa
00
ff
06
00
f2
00
04
02
2e
fe
f3
06
04
01
07
f2
fd
14
0d
05
0f
fc
1c
fc
f4
f2
e2
ff
0c
eb
f8
05
fd
f0
f9
05
02
f7
0c
f6
f1
02
f9
0c
dd
04
fa
ff
09
00
f9
ff
02
f1
02
06
01
04
05
06
fe
e9
2c
09
07
02
f7
10
ed
f2
f8
4c
ff
f4
f3
01
06
f7
f4
f9
1f
f4
04
03
0e
ff
fd
ff
fc
01
02
02
02
04
11
f6
ff
01
e1
04
07
fe
ff
f6
01
f5
06
24
ff
ff
06
ff
00
03
fd
f9
e8
f2
01
07
fc
0a
f9
f1
0a
61
f8
fb
f1
0e
f7
03
fe
09
44
02
fe
00
00
01
fe
0d
fe
8d
05
07
01
02
07
fc
02
fa
e1
fa
09
f2
02
f9
0a
07
fa
f0
f6
f6
fe
03
04
ef
16
07
2c
ed
09
06
f6
ff
02
0f
0a
12
04
07
ff
00
ff
02
fd
03
f5
00
08
09
09
02
f9
0f
02
47
fe
fb
fb
03
00
ff
ea
0d
04
fb
00
f5
0a
0a
07
0c
0c
a8
09
f8
fe
0a
fe
0d
f9
02
95
02
02
f6
01
ff
f6
ff
04
5b
01
05
ff
f6
fb
02
05
f7
12
fd
f8
fd
09
0d
fa
08
0b
66
0e
fd
0d
03
fc
fa
04
fa
0a
0a
0b
05
fc
ff
09
f8
fc
5a
04
03
fd
02
f8
0d
f7
10
4c
05
fd
fa
f0
06
10
0c
fd
cb
06
f6
08
f8
06
ff
f2
02
a6
ff
06
fe
fc
fb
fc
fc
fe
8e
ee
f7
fa
fd
f5
fb
f9
02
bf
08
03
05
fd
01
fa
01
fc
1a
00
f6
ff
f7
06
fe
04
02
da
05
08
03
0a
0e
01
fc
04
30
01
06
f9
f9
fb
00
fa
ff
2f
f7
f3
f9
fd
fe
fd
05
fc
a9
07
02
0a
fb
0a
fb
05
09
3b
09
08
07
07
00
02
fb
f8
10
fc
00
02
fe
fb
fc
ff
f9
19
ff
fe
ff
fd
15
04
01
06
5b
01
09
fb
07
0d
fe
03
02
b3
f8
fc
03
f4
fe
0c
0c
05
0d
03
ff
0a
f0
04
08
07
fe
66
f7
00
04
0c
fb
f9
06
04
c4
f9
06
f2
fe
fb
00
08
02
d0
fb
00
02
02
03
02
05
0b
a8
04
06
fc
fd
10
f9
fd
f1
29
fc
02
01
04
0d
01
01
06
43
06
0e
fc
07
fd
0a
f9
04
d8
fa
fb
fb
01
fb
f2
fc
fa
02
07
00
02
05
fe
06
fe
ff
18
03
f8
02
f6
02
fe
02
fd
6a
00
00
0b
fc
ff
f3
ff
02
b3
fc
01
02
f9
fd
ff
06
f4
f0
01
0e
07
01
f5
0f
f8
fd
61
00
ff
0c
f8
05
f6
fc
0d
8d
10
fe
fb
01
01
fb
ff
fa
ad
0c
fd
04
ff
00
04
ff
07
fa
05
fc
fc
0b
f3
07
ff
00
19
f8
05
07
fe
ee
09
fe
03
dd
0c
00
06
f9
00
ed
01
ff
12
f8
0d
06
f9
08
03
01
02
4d
13
06
f9
fe
f9
07
0d
fb
27
03
f1
fd
01
07
ff
fa
08
ff
0d
f6
fd
fa
f3
0e
f0
0b
13
12
fc
fb
00
fa
ff
00
f8
fa
14
01
02
02
f3
fb
fd
04
c0
fa
04
0a
05
01
f1
04
fd
c5
fc
06
fe
05
01
0b
02
fb
04
09
fd
03
00
f7
fe
fe
fb
35
ef
f3
ff
fd
fc
02
09
00
03
06
0a
ff
ff
0b
ff
06
ff
eb
fc
fd
fd
01
11
fe
f8
05
cc
f5
f5
f8
f5
fd
03
fc
f4
b2
07
01
f7
fb
ff
fd
fd
0b
02
00
f6
02
08
fc
05
00
f4
62
09
fe
07
fd
02
f8
02
fa
cc
fb
ff
ff
01
06
04
f5
ff
bc
01
04
06
fa
fe
00
03
09
04
ff
0d
06
12
fd
0a
07
f3
2b
0c
fe
05
00
f7
0b
ec
f6
b9
06
00
07
02
02
05
fd
01
65
f8
04
01
0c
fd
06
fe
02
fa
01
f7
fa
f5
01
03
04
ff
0b
01
ff
ff
fe
f2
fd
ff
09
52
fc
09
fb
01
03
fd
02
f9
c0
0a
ed
fd
05
09
0d
f9
06
4d
fd
0b
09
07
fd
02
0b
f3
6d
02
07
02
01
f6
07
02
0a
fe
fd
03
01
0b
f6
03
fd
fe
50
ff
07
f8
00
08
fd
08
00
cf
ff
00
00
01
08
fd
fc
06
c4
f4
13
06
05
0b
06
06
fa
93
04
17
03
05
f0
03
09
0e
18
f9
fc
05
fa
f5
fa
01
02
df
f2
ec
06
06
fc
06
07
fe
f4
fd
00
06
07
f4
03
f5
00
32
05
08
fc
f9
fe
03
f5
06
ff
ff
07
ef
fa
fc
00
f7
fd
a0
f4
fa
03
fc
ff
07
0f
fc
2b
04
01
fb
fe
01
07
ff
08
0d
07
fe
09
0a
0d
fb
04
f8
fd
ff
03
fa
fc
01
03
f4
f8
50
ef
f1
04
0a
04
00
06
01
d8
04
fe
f3
07
00
05
02
06
28
00
07
f0
fe
f5
ff
0f
07
e7
02
08
fc
05
0d
05
f1
fa
cf
fd
0d
fe
f6
07
03
04
03
a5
fc
ff
fb
03
01
13
03
02
4a
0a
0a
03
09
f1
ff
09
f8
a7
f7
0f
03
ff
0a
0b
f7
fa
68
02
07
02
fe
fe
02
fd
01
b6
00
00
00
f6
f1
fb
f1
08
62
07
09
fb
f1
09
fb
02
f6
45
06
03
00
08
f5
01
ff
fd
e4
08
ff
05
f8
02
ff
02
f2
66
08
fa
04
05
f4
03
0b
01
dd
04
fe
fa
03
02
fd
fe
06
ce
ef
04
fd
02
ff
fd
01
08
16
f6
01
0e
fa
0a
0b
f0
0b
b5
02
fd
0b
03
f9
11
f2
01
9c
06
03
05
fd
fa
f9
0b
f9
23
07
02
00
06
f9
f6
07
06
35
03
05
ff
fe
f7
08
fc
06
9a
0b
f2
06
f8
fa
ff
02
f8
21
02
fe
00
03
01
09
fe
0d
9d
ff
f7
f9
fd
f0
01
fc
02
1d
08
f2
02
fb
02
00
04
0a
f2
04
0a
00
f2
04
01
03
07
ab
fd
fc
06
02
fe
09
f5
fc
ab
f2
02
04
f7
fb
04
fd
fb
b3
f6
fa
00
fa
01
0a
f5
ff
4a
00
0d
11
f7
04
06
0a
07
27
09
ff
08
03
01
f8
06
fb
5f
fb
02
04
05
03
fd
01
fd
f9
f5
07
fb
f7
05
07
fb
00
10
ff
01
07
0c
01
fd
0e
03
0e
ff
03
ff
f0
fa
fe
fe
09
92
02
fb
02
f7
fe
f0
04
fe
96
fe
fd
0a
ff
fb
01
07
fc
a7
fb
fe
04
06
03
00
04
fa
e3
fd
ff
ff
01
fc
05
04
0b
e5
09
f6
fe
00
0d
03
fc
fd
c9
00
03
fe
02
ff
12
04
fc
09
f7
ff
08
0c
ff
05
fa
07
a4
f5
00
fe
f3
05
ef
f6
02
63
fa
09
02
01
fd
fb
fd
08
ab
06
ff
0a
f1
06
09
f8
01
10
f3
02
05
08
e7
01
02
01
4a
06
01
0a
1b
07
0c
0c
0b
45
f4
fa
06
fc
f8
fb
fb
0e
8f
0a
05
03
13
fb
00
fd
fc
4b
09
fe
fa
fd
fe
fa
f5
ff
1f
03
06
fd
06
07
11
05
fd
4c
f6
fd
0b
fb
07
04
fc
06
3f
e7
fb
fc
01
f8
f6
fb
fd
ab
01
01
fb
15
08
fc
fd
f2
bb
fe
f7
ff
09
fb
01
00
08
3b
00
f5
0b
01
ff
14
fe
03
47
fd
0b
09
f6
06
0a
f8
00
2b
f6
ff
10
00
0d
ff
00
fe
c8
f0
fd
00
00
08
f8
0c
0e
6c
02
0b
ff
08
ef
02
00
01
09
0e
fb
00
01
01
0a
00
07
37
fb
13
fa
f9
08
ef
f7
fb
55
f6
f2
fa
09
f6
02
fe
f9
e6
07
03
f9
f9
07
10
06
02
f6
f7
0a
fe
00
f2
fc
fc
f8
48
08
fe
fd
f4
00
02
fc
03
15
f9
fc
11
0d
01
ff
fa
00
eb
f3
07
fc
04
03
fc
03
ff
a7
03
09
00
0a
06
01
fa
05
46
00
f8
02
06
f6
08
fb
02
5b
0f
ff
06
0d
fc
fe
f6
f4
db
05
f3
07
0f
03
fe
fb
02
e2
09
fd
fe
fe
0a
fc
fa
fd
b1
fd
02
fe
03
00
f2
09
08
e4
0b
03
04
0b
11
07
fe
fd
65
f9
f9
00
f6
03
f8
0a
02
1c
00
0d
06
00
f9
fb
04
fe
31
f7
08
fd
f9
10
f6
fc
02
96
f8
fb
f5
02
ef
0d
01
ff
40
03
01
06
ff
00
00
00
06
b2
fe
fa
f3
04
07
f9
0c
11
26
06
06
07
f6
fa
00
01
fe
1d
0b
0d
09
02
fc
fc
fe
02
06
03
09
fc
fe
0e
0c
f6
04
9c
fc
ff
fd
fd
02
04
fc
03
4c
0e
fe
01
04
02
f7
fe
09
25
eb
fe
0d
08
02
06
fd
05
53
fb
00
0a
ff
f1
05
00
00
2b
0a
ff
04
f1
04
05
0a
0b
1e
03
fe
06
e6
fe
ff
00
01
59
06
06
0a
01
fd
f8
03
ff
07
fb
06
f9
01
f8
fc
f8
fb
ee
08
e7
03
03
fe
03
10
0a
65
fc
02
fe
fb
01
07
09
0e
e6
05
0d
07
01
fd
fe
ff
00
be
f9
f9
02
f8
f7
03
02
f7
54
08
02
08
04
10
ff
07
fa
b8
f7
f7
ff
00
0b
ff
09
10
b2
f8
04
fc
f5
02
06
0a
ff
41
0c
08
09
fc
09
fc
05
04
a9
ff
ff
f2
08
f7
fe
fa
f7
d6
01
07
04
01
f9
fb
01
04
4f
07
0c
f0
0f
06
fe
01
06
47
04
05
15
07
05
fa
fa
fd
c0
07
06
f6
0f
f7
fa
03
ef
73
fd
fb
fe
00
fa
fd
02
f7
d0
ff
02
ff
04
f5
00
04
02
b2
fc
04
01
fc
0d
08
03
fc
1a
04
03
fb
fa
ff
02
07
fb
d3
05
04
ff
02
ff
04
05
f7
db
fe
f7
02
02
03
07
ff
09
b7
fc
0a
04
fa
fc
00
03
fc
3f
fa
03
0c
02
09
01
f8
01
da
fb
04
05
f4
0d
0e
06
f8
23
03
fc
fe
fa
04
fc
fd
fb
c4
00
f5
f0
fa
01
05
08
12
fb
05
fb
fb
07
06
04
fc
01
e3
01
05
0c
fc
f9
fe
fd
fa
5b
00
fa
fe
fc
03
01
fa
fe
22
0a
03
04
03
fa
09
fd
07
b8
0b
05
f8
00
07
f4
ff
ff
d7
02
09
fb
f6
1b
02
ef
f8
09
09
09
06
f6
08
06
03
fa
ae
05
f8
04
f6
f9
06
02
0e
59
fa
03
fd
07
fd
fb
06
07
5c
00
fc
fd
fa
ff
02
fd
ff
5e
05
08
ea
f5
ff
ee
03
09
b8
f6
fb
02
fb
03
0d
05
04
91
06
08
03
fc
fc
fa
03
02
00
f9
f9
09
ff
fc
ea
02
07
5b
fc
fe
ff
f4
01
f4
fd
06
23
02
fb
0f
f6
00
f3
ff
fa
00
00
03
02
0a
fb
fb
fe
04
49
03
ff
fc
fd
f3
ff
03
07
9f
01
f9
f5
09
06
02
fc
ff
e2
fc
fc
ff
fb
0c
0b
fc
f3
d6
ff
f7
f5
02
05
14
02
fb
ae
04
f8
f5
fb
02
03
01
fb
a5
01
f6
00
fb
0c
07
f8
f9
79
f8
08
f9
f7
03
03
fd
05
c7
f5
05
ff
03
02
0c
ff
03
35
fd
01
f6
03
fb
00
05
02
cd
f7
0e
ff
0d
09
fc
0d
0b
1a
fc
fd
04
01
f8
05
fc
09
a9
f3
fe
fa
ff
05
04
f0
02
3e
fc
05
0d
0c
fc
10
ff
f8
e0
fe
08
08
08
fe
fb
ff
f9
fc
09
fa
f6
08
fd
07
f9
06
47
12
02
f5
f1
fa
09
fc
fc
ab
09
03
f8
f7
ff
f9
0f
11
ad
06
12
0e
ff
01
fb
02
04
fa
f6
00
06
fa
04
ff
fc
fb
33
03
f6
02
ee
05
00
09
09
25
03
fd
fc
fd
01
02
f7
0c
6c
04
f2
fd
03
fb
06
01
fc
3f
09
ff
04
01
fa
03
fc
f3
dd
f8
01
fd
f2
f9
04
03
fb
8d
01
00
08
02
05
0a
0b
01
71
09
fe
05
fe
02
f5
07
fd
a9
fc
fe
02
fe
02
fd
fd
03
eb
0a
ef
08
f7
0b
01
fa
01
ad
03
03
ff
0f
f4
fa
0e
0d
2d
fd
06
fa
fc
fe
01
0b
04
16
0e
f7
f9
f5
f5
fe
fe
02
ec
fa
ff
fd
02
f6
f8
07
00
86
ff
fd
02
09
f8
fd
09
f9
d8
fc
01
00
f7
07
02
0a
fe
3b
f8
07
17
0a
fc
08
f7
01
02
06
06
04
03
fc
0a
01
fc
df
ff
06
07
10
f8
03
03
01
dd
04
fd
f9
04
fa
f5
f3
04
ef
03
05
fb
06
07
00
02
ff
67
03
f4
fc
f7
01
05
07
ff
3c
f5
f6
11
ff
fd
fa
02
0a
2e
f5
1a
f9
0d
05
08
0d
06
d2
00
00
fe
f9
fa
f4
08
0a
de
fe
14
ff
f6
fb
fc
00
fa
2c
fc
f0
01
01
04
fe
02
fa
67
fd
f0
ff
09
04
ff
ff
fd
9c
05
01
fd
fe
ff
fa
fa
fa
0b
08
0b
f8
05
f5
ef
fa
03
51
04
0a
01
00
f7
09
06
0c
5a
fc
09
07
00
00
fb
05
f3
3b
05
0a
ff
e5
09
f0
fc
f8
9b
00
ff
fd
ff
fb
00
02
fb
b8
07
f9
fd
01
05
fe
08
02
22
0a
ff
fc
fe
fb
fe
02
09
ac
07
f8
02
fb
02
fc
f9
06
1b
08
08
fe
fc
02
01
ff
09
ad
01
ec
09
03
f6
07
fd
fd
a7
06
01
0f
f3
00
01
03
0f
bc
00
08
06
02
0a
fc
fb
11
05
0b
fb
f7
05
fd
fd
ff
0f
00
f3
fd
ff
01
f3
08
04
01
a5
06
09
06
fe
0a
ee
08
fc
60
02
fb
fd
fe
fb
04
fd
05
b3
03
02
00
ff
00
05
01
fe
63
07
04
ff
f6
fc
01
ff
f2
db
04
fd
fa
05
04
02
00
f9
97
fc
f7
00
0a
f6
0b
fc
f8
12
06
fe
01
fb
fe
fa
f5
01
5a
fb
fa
fa
07
fe
fa
05
fc
cf
06
05
f5
fd
00
0c
0a
fb
af
04
fa
f8
04
fe
f9
06
05
b1
fd
0b
fa
f8
fb
fb
fd
02
72
f9
05
02
fc
f8
fe
01
07
8b
05
fd
01
f9
06
fa
fc
fb
53
06
fd
ff
0e
ff
04
00
fe
c3
fa
ed
fa
f9
06
fa
05
0c
28
00
ff
f7
01
fe
06
01
07
da
fd
fd
0d
fe
fe
03
0c
f7
f6
00
08
08
fb
01
f9
02
f9
ab
06
02
00
fc
fe
0a
06
fd
3e
04
fd
f6
f9
05
fe
f9
f4
06
ff
05
fb
00
0c
01
04
0e
05
fb
fc
f2
03
00
04
08
0b
f8
fd
fc
0b
07
0a
fc
0b
ff
c5
f4
07
f8
07
f9
fd
02
02
8d
f7
0a
f4
f9
fd
06
fd
0f
61
fa
0a
09
fa
0c
fe
03
05
5c
01
06
0a
fc
fc
03
07
fa
ff
f6
fc
11
02
14
03
07
f7
b1
01
f1
fd
fd
fd
06
ff
fe
c6
04
00
f8
01
00
fb
fb
fd
54
fa
ff
08
ff
f9
05
fb
fd
09
01
00
01
04
fc
04
00
ff
c6
03
01
f4
0a
f7
06
06
f8
e0
02
f7
03
ff
f7
0c
ff
fe
47
fc
07
ff
ff
ff
03
ff
06
fc
01
05
fe
ff
00
03
09
02
a5
f9
f6
11
fb
ff
03
04
ff
dd
0c
0d
ff
f4
0b
08
f8
fd
a9
f6
ff
04
02
f7
fc
02
0e
ce
fd
11
11
f9
00
01
04
0d
66
02
0a
05
fa
fc
fc
02
f4
01
0a
06
f8
01
01
00
04
07
62
ff
f3
04
ff
02
fb
01
06
6e
f7
fc
0a
01
07
fd
04
f7
1c
f9
01
ff
ef
09
fb
07
01
01
04
0f
fc
fe
02
13
01
f4
1b
ff
10
11
ff
01
fa
00
0a
06
02
f7
ff
00
11
fb
02
ff
27
fa
f6
fd
fe
ef
03
ec
00
de
00
fc
00
02
f5
0e
13
fb
01
fa
fe
fe
fc
00
0a
09
05
1c
fb
04
08
05
05
fd
07
fb
96
00
18
ff
02
05
fd
05
05
d6
03
05
ef
0b
03
02
fb
0f
20
f6
f1
fd
07
05
fd
ec
03
0d
01
ea
fd
05
f3
06
f2
03
0a
02
0f
fb
fb
06
fd
06
15
a3
01
0d
04
00
f9
04
01
ff
5d
fc
01
08
0d
f8
f5
fc
f9
60
fb
07
08
09
fd
09
f0
f1
fd
fc
11
02
03
fe
f9
f8
fd
49
fd
02
fe
03
fe
02
05
08
6a
f9
09
04
08
fa
f4
0a
fb
27
fb
fa
ff
02
01
f3
f3
fe
a5
02
fd
f8
fe
f8
ff
f9
03
a4
f8
03
03
0c
00
07
fa
00
d5
fe
03
07
f4
0c
fc
00
08
04
08
f7
fd
f6
03
f9
fb
01
ad
00
03
07
f9
01
fc
fe
ee
ed
fe
fc
f9
fd
02
06
11
04
a5
ee
07
06
fd
01
fe
fd
00
aa
fc
05
04
fa
04
fa
ee
01
22
01
0b
05
00
00
07
01
03
32
05
08
fc
fd
ef
0a
ed
02
9d
06
fd
02
09
08
ff
00
fd
f3
03
08
02
06
f7
00
00
07
a1
fc
f5
fc
f4
03
08
04
fc
49
03
00
fb
01
00
ff
0c
f4
6f
02
f5
fe
ed
ff
fe
08
f4
d9
0b
05
02
fe
0b
fd
ff
04
44
fa
f9
06
fc
00
07
fd
0a
eb
00
f3
fa
0a
fb
fe
0f
ee
d0
01
f5
0c
0b
fd
fa
fe
f5
9b
f8
01
09
fd
0a
03
fb
fe
df
ff
05
f0
13
fa
07
02
fa
c1
04
fd
fa
f5
06
fc
0b
01
da
fc
f1
05
06
09
fe
01
f6
55
fe
fd
02
0d
f9
ff
fd
fb
39
07
fc
fa
f8
f6
08
f5
ff
cf
0c
03
fd
f4
03
07
fe
fd
0b
fd
01
07
0b
0b
fa
01
07
9f
04
ff
03
11
0b
fa
f9
eb
45
02
fd
f1
03
ff
fd
03
02
46
02
fe
fe
03
05
fe
02
fc
c5
02
00
fd
0a
fa
01
f0
fe
cc
05
fa
08
05
04
06
f9
fb
c1
fd
07
f0
04
00
06
02
f2
fe
fa
f6
01
05
f9
02
fb
fe
bf
0a
00
06
f3
03
08
ff
01
49
ff
ff
fc
01
0d
fb
04
02
e9
fd
0f
02
fe
fb
fd
01
fd
8c
f8
fa
f7
08
08
00
04
fc
43
f8
07
0d
05
f6
08
fb
09
27
07
ff
ff
fc
fb
01
f5
09
ce
02
07
fc
fd
07
fd
06
04
a0
04
fe
fb
06
f9
08
06
f3
43
f9
f9
f7
fd
00
fc
05
fb
c3
f9
05
02
f6
f9
fc
02
03
33
fb
0a
02
01
fd
01
fc
fe
d5
01
01
03
09
f4
ff
00
0b
e3
01
01
fe
0f
ff
fb
ff
fd
55
05
01
00
ff
fb
fc
04
02
66
03
fc
02
f5
04
02
ff
f7
96
ff
05
fa
f3
fd
00
f6
fc
e6
08
03
fc
07
f5
06
01
fc
03
04
fc
09
07
fe
04
f5
05
02
f4
fb
fd
fd
fc
0a
ee
fe
9e
fa
00
05
03
09
02
01
f4
9b
09
05
fe
fe
02
ff
fb
f8
5e
06
f8
06
05
00
f9
fc
04
53
03
05
f5
02
03
fa
05
08
6b
03
ff
fe
ff
fc
0b
04
fe
a4
01
00
fe
fc
09
f6
fa
fb
c5
06
f9
fd
fd
fd
fd
f4
fc
f8
f3
fc
f9
00
03
fb
0e
f9
31
00
fe
0a
03
00
fe
07
fe
16
04
01
fc
fe
07
fd
00
04
41
fa
0a
01
fd
08
00
fb
fe
b0
f9
fe
03
0b
05
fb
f2
f5
94
fd
01
fc
09
02
f9
0d
05
95
01
f9
08
fe
02
05
08
02
35
00
01
00
fa
03
f4
0b
fa
94
f9
07
f9
f7
04
03
01
0b
2f
fc
08
fb
f9
05
fd
fa
08
fc
09
fb
f9
00
0a
06
05
0a
d3
0a
04
f9
fa
00
0a
0a
00
00
fa
01
ff
ff
ff
09
03
fe
ac
07
01
ff
09
06
f8
f8
01
55
fd
02
f5
04
02
03
fe
04
38
0a
fd
02
01
07
ee
05
01
91
02
01
0c
02
f7
05
fc
fb
fa
fe
fe
ff
fc
fd
07
fa
fa
49
fb
01
f3
f4
f5
f9
fd
02
f4
f5
ff
f7
f8
01
05
05
04
15
f3
02
fd
00
01
f9
0d
03
ce
01
03
0a
fb
08
fa
00
07
f4
05
04
0e
07
08
04
f9
04
37
f8
08
f9
fc
01
f8
fe
ff
91
f3
f8
ff
02
01
f8
fc
f6
db
f1
02
f4
01
f4
01
08
fd
90
f5
fd
09
0b
00
fa
0a
03
36
f4
14
f7
06
01
0b
01
f4
c8
03
0b
01
f4
f9
01
fc
00
c5
05
00
fd
fc
fb
fe
05
00
a9
f8
00
fd
01
ff
ff
0f
0a
f3
f8
fb
f7
02
fc
04
f2
f9
3e
f0
fb
f5
f4
fc
06
0a
08
f7
01
f9
08
fc
f0
0b
01
fd
d2
03
01
06
05
01
fe
04
07
6c
02
f6
f8
05
fc
f8
fc
06
a7
f4
02
fb
fe
fb
04
07
f4
ad
f6
0c
01
02
04
00
fb
fb
fe
07
01
01
f8
01
01
f5
04
d0
07
00
01
00
f0
03
06
06
e2
fd
02
0b
07
06
fa
04
00
c6
f4
04
06
04
06
0b
f0
09
61
06
fa
f3
f9
07
f8
01
fb
b1
03
fa
00
00
04
03
02
fa
52
09
01
01
f7
07
0b
fd
fe
40
03
02
fe
f5
08
01
04
f3
5e
eb
06
0b
fd
f9
fd
fa
fa
f2
fa
09
f9
fa
ff
f9
f8
f4
3d
ed
01
09
f7
fa
07
00
04
5c
f9
07
00
fc
fb
fe
fb
00
34
fc
03
11
fe
0c
ff
0a
01
e8
fe
13
08
00
fb
fe
f8
fe
26
08
09
fe
05
f8
03
07
00
31
fc
fe
f4
0d
fe
0c
f0
08
c4
0a
02
00
f3
01
ff
fc
f7
21
02
0a
02
fb
02
03
fd
05
4f
f3
07
08
fc
fa
fe
f7
ff
48
ef
fb
02
fe
e9
03
01
fe
cf
02
f5
ff
07
06
01
fe
06
b6
03
04
f8
fb
0f
02
03
fa
ab
00
02
0d
07
01
07
fe
fe
4f
fd
f7
fd
ff
ef
fd
05
f8
33
02
f3
fa
fc
03
09
fe
0a
de
06
02
f4
fc
f4
09
06
0d
d3
fc
0a
f7
04
0b
fd
01
fb
4a
fc
fc
04
fc
f8
08
0a
06
b2
00
f5
02
fd
0c
ff
fb
ff
f6
04
ff
fc
04
09
f9
f7
04
6c
ef
fb
f9
f5
01
04
fe
04
91
fe
09
04
f7
07
fb
00
fd
40
06
fd
05
02
05
02
0b
01
04
01
fb
03
05
fc
ff
04
00
14
fb
02
fb
ff
08
fa
03
f4
11
f7
04
06
03
01
fe
fd
00
9e
08
02
f7
05
07
03
08
f9
98
0a
f5
fe
14
f9
06
fb
f2
d8
f7
f7
07
00
fc
fa
fb
fe
78
04
0f
0a
08
fd
06
00
00
99
f9
f9
01
01
04
01
fa
f9
33
fa
fd
08
02
fb
f9
06
f7
a5
07
fd
04
ff
06
f9
0b
02
3b
01
01
02
fb
00
f8
f4
fd
ba
09
03
f8
00
08
06
fa
0c
a1
fd
0b
fa
fa
f9
04
fd
07
1b
02
fe
fe
0c
f6
0b
01
01
38
fa
fe
fa
06
04
01
fe
fb
f0
fc
02
0a
f0
03
01
f2
fe
ab
08
0b
fc
fa
f8
00
0f
04
3b
ff
07
05
05
fa
f9
ff
0a
72
03
02
04
fb
f8
00
04
05
f5
fd
ff
03
fd
00
02
ff
04
f9
04
0a
00
f7
06
f8
ec
fc
f5
07
01
fd
05
fd
0d
01
f9
03
fc
f9
f9
f7
fc
fd
f9
04
1d
02
07
02
05
f8
0a
0d
08
2f
fe
00
07
f9
fe
02
07
13
36
03
12
04
0a
07
02
04
02
8f
f9
04
ff
f9
ff
01
03
03
51
f6
fb
00
02
05
04
07
04
01
01
fe
02
05
fc
fd
05
06
10
ff
01
04
f9
04
f8
fc
03
50
03
00
05
05
06
ff
f1
fc
0a
03
08
f8
05
01
05
00
01
27
fa
fc
0b
01
f6
08
07
f9
bb
01
f2
ff
00
01
00
fd
0a
25
04
09
05
03
03
02
f8
f1
a9
04
ff
f0
fd
00
06
fc
f5
ad
06
02
03
0a
fe
fc
fb
fb
17
05
02
fe
f4
fe
fb
f6
f9
14
fe
00
fd
03
fc
fe
00
fd
ba
ff
05
00
f4
02
fd
f9
04
e7
fe
04
fd
02
0a
f6
01
fc
13
06
15
f8
00
fc
fa
fd
fe
00
06
f8
00
00
0d
05
07
f8
cd
fb
0c
fd
ff
07
fc
ff
01
e4
04
fd
fb
0f
f0
04
fe
09
1c
09
04
0e
0c
fe
03
fb
fc
09
fe
09
fc
01
ff
fe
fa
05
9b
07
10
ff
fd
fb
04
02
fc
99
02
0b
f8
04
fa
fa
07
0a
46
fd
1d
0b
fe
00
fd
03
fe
90
f8
fd
00
fc
fc
fa
01
03
0e
fc
ea
0b
f9
00
02
07
0c
b7
09
fb
fc
00
fb
01
02
fe
4f
07
00
f7
03
fb
04
f4
01
8c
fe
fc
06
09
ff
fa
fd
fc
28
f6
f9
05
f7
ff
fa
02
01
51
fc
fd
09
0e
fb
0a
07
0f
f7
ff
05
11
02
03
06
08
f7
4c
f7
f6
ff
f5
f9
ef
f5
05
ed
ff
ec
0a
fb
0f
fd
0d
03
3b
04
03
f5
12
04
11
08
05
9c
ff
07
f5
01
05
02
0a
05
48
11
00
fd
09
fe
10
04
fe
1c
f9
ff
fa
fe
f1
05
07
fb
1e
fa
03
04
f8
03
05
fc
ff
ba
ff
02
0e
03
f0
07
09
02
e8
06
13
04
f1
fa
ff
fb
f9
20
00
09
fc
0e
f5
f9
04
00
15
ff
02
0f
fd
f8
09
f8
fa
2b
fe
fe
01
fa
fa
07
04
fb
20
03
09
f9
04
08
09
f9
03
a0
04
f6
01
f9
fc
f8
f8
fc
ab
01
ef
0d
02
f9
06
0b
0c
4e
0a
05
0c
07
07
fb
00
08
fe
fe
0a
fa
f8
02
08
04
f7
a1
03
0a
00
f7
fb
05
04
00
e0
fe
e9
04
03
05
0c
ff
00
18
00
f4
05
02
f8
02
ff
ff
d1
00
01
0b
f9
fa
fa
12
14
09
05
00
f4
01
fe
08
0d
06
4f
f7
f8
02
02
03
fa
f5
09
3c
07
fb
02
f7
00
f5
ff
f7
03
f7
fc
f8
fd
fc
03
fa
00
a6
f5
07
06
05
fb
04
0a
04
1c
f7
f8
fe
fe
fd
07
fd
ff
0e
fe
fc
fd
fb
03
02
ff
00
65
ff
08
f7
f7
f9
03
0a
fa
38
fd
fd
fe
03
fa
01
00
01
61
00
fe
05
03
07
06
f2
fe
17
f9
01
06
fc
fc
02
01
fd
ef
fc
01
02
04
f9
fd
ff
ff
1e
fb
01
06
00
fa
00
f9
01
21
fc
fe
f7
02
05
fb
0b
fd
53
f5
04
01
f8
fe
05
0c
06
35
f7
09
fc
f6
01
08
fc
f7
e9
00
03
fd
f7
02
fe
f8
03
a2
fa
03
ed
fd
ff
01
fe
05
b4
fa
fe
0b
0a
fc
05
02
01
e4
ff
ef
05
0e
04
f9
02
fa
4c
f5
f8
01
fb
f8
02
f2
03
29
f7
06
03
fe
01
03
fe
07
f7
fe
ff
fd
01
06
05
fb
ff
4c
0f
fa
f9
eb
00
09
fc
02
d7
f7
02
06
f4
05
fe
03
05
4c
fc
04
04
fc
01
f7
04
02
af
00
0c
f6
03
00
fa
00
08
03
f9
fe
08
fb
06
03
fe
fb
03
fd
05
fc
01
0b
00
fd
07
d6
06
fb
fb
08
f5
07
fd
02
3f
0e
0a
05
fa
fe
01
03
fa
d9
07
0b
02
05
01
03
fe
00
6c
02
0c
fb
fb
fe
04
fe
f5
e9
f6
02
fb
fe
f4
fe
f2
17
31
f2
f6
11
f3
03
03
02
f5
bc
fd
fe
07
f7
05
f8
fd
fc
39
07
01
f5
ee
f9
0a
0b
0c
4f
0d
0a
fe
fe
00
0e
0d
fa
f6
06
f9
0f
12
06
05
fa
fc
a3
fe
ff
ff
0e
03
02
f7
f8
32
fd
01
ff
f6
f8
0a
fb
0d
1b
fc
ff
0b
f8
f3
08
f0
0d
a2
f1
00
10
ff
fc
0a
08
f8
55
fe
fe
f9
f5
07
f1
fd
0a
a6
04
ff
01
f6
09
00
01
09
5f
03
fe
f8
09
f6
12
01
03
43
fd
04
06
00
fd
0d
09
02
a4
0d
07
01
fd
fc
0c
06
ff
f2
f3
fe
00
08
f8
01
00
f8
4d
03
fd
0b
05
fc
f6
00
00
dc
ff
06
06
f8
fd
f9
05
03
cc
05
00
0e
02
fc
fa
f4
fc
c4
f8
fb
08
09
0b
f7
fb
07
65
fe
fd
03
0c
fc
0c
08
f8
48
fd
02
03
06
fa
01
fd
07
d4
01
02
fe
05
07
04
06
09
c5
0c
04
fd
f8
02
03
f6
06
3b
fd
ff
04
fc
09
02
fc
00
96
01
f9
f8
0e
f0
00
01
06
35
f9
01
06
fc
13
f8
04
0b
51
05
0c
ee
fe
06
f6
06
ff
d7
05
f9
02
04
f7
fd
ff
03
64
05
0b
f8
fd
04
fb
f6
06
d0
fe
01
fc
00
05
ff
fa
04
06
02
06
ff
04
0d
00
fc
fa
00
01
06
fb
04
e6
f8
09
05
24
f5
f0
08
00
fb
f8
fc
02
45
01
ff
09
fd
ff
fa
f7
02
99
10
06
f8
fb
ed
f7
07
fe
e2
0a
0c
03
f6
11
f7
06
fa
5f
04
06
0e
07
fe
03
f5
fd
2f
fd
f5
01
04
08
00
fb
02
0c
05
f7
f4
ff
fe
05
05
0c
16
fa
f3
fb
f7
f9
f2
01
07
1a
ff
05
00
fc
07
05
08
04
5a
08
f8
0e
f9
01
03
f7
01
39
05
fb
03
ff
0c
f9
07
09
d0
01
f6
fd
01
f0
01
00
00
b6
03
00
0f
f9
0e
00
02
0b
33
fc
01
04
03
0b
05
09
fd
8a
f8
01
fe
04
f4
fb
00
fa
59
00
01
00
fb
f2
0f
fc
f8
15
0a
06
f4
03
06
fc
03
02
25
fc
05
01
03
f9
07
f6
f9
d9
03
fc
fa
fc
0a
f6
ff
f9
12
02
fa
ee
02
04
06
ff
f9
2d
fe
fd
ff
03
fd
f9
04
06
39
f5
07
05
00
0d
f8
fe
fe
c3
02
0f
04
02
ff
fe
01
04
96
09
04
fb
fd
16
09
0b
fa
c8
f8
f9
ed
ff
04
f4
fa
fc
59
0f
f9
04
03
0d
fe
fc
f6
08
fb
f1
fe
02
02
f4
fd
fe
fd
fb
fb
00
01
fb
fa
fb
fe
58
0d
03
fb
00
f3
07
0b
0b
08
0b
00
f8
0d
08
06
ff
f7
ee
fc
08
14
f8
02
03
ff
03
87
fc
f6
ff
04
04
07
05
08
34
06
01
f5
f2
01
f7
fe
05
26
f7
fb
f3
04
0a
ef
06
03
65
01
fc
07
fb
fc
fc
fc
f9
73
f6
fc
01
07
f6
07
fe
ff
ef
02
fc
12
08
06
04
0f
fa
39
ff
fd
f5
02
f9
f0
05
ff
2a
fc
02
01
01
f5
06
05
fd
9f
09
06
01
00
04
00
04
03
8e
14
07
01
f5
06
01
ff
12
b6
f9
ff
f7
fb
fe
fc
fa
fd
ba
fd
fb
07
00
fd
08
04
00
48
fd
0c
04
fe
02
08
0b
ff
a7
04
08
fd
fe
f6
0e
fd
0b
25
04
ff
07
fe
01
05
01
f8
af
f5
fc
07
00
fd
fc
03
03
56
fa
0d
f4
f8
06
00
06
fc
5a
04
00
f5
f5
fa
fd
ff
10
9d
01
04
f0
ff
04
fc
fb
f7
dd
fd
03
04
07
fd
02
0b
04
c2
03
ff
02
fb
00
ff
0d
01
1e
01
03
f7
00
f8
f5
ef
07
56
0f
05
0c
08
fa
09
fd
fc
7f
05
f8
04
f8
05
fa
0c
06
11
fd
fb
f8
f8
03
05
03
ed
c2
04
00
05
07
05
f8
fb
ee
f3
0a
01
07
04
f9
06
e9
f2
24
08
05
00
09
f9
03
e7
f5
50
f6
09
00
02
f7
f8
fa
f1
e7
fb
fb
f6
02
06
0d
09
08
3f
fc
f1
06
04
04
02
07
05
22
0e
f6
10
f2
fd
04
ff
00
22
01
fd
0e
fc
07
07
0d
0b
37
0f
f0
13
ef
ff
f2
fa
f6
c4
0b
fe
f3
05
f5
e9
0c
02
3d
08
04
f7
0c
fd
fc
fd
fb
9b
0d
00
0c
03
04
01
f3
f6
e0
0f
f7
07
ff
0c
0d
06
e1
23
fb
f8
fa
f7
f7
f7
04
0f
05
f9
13
fd
fe
fe
0b
ff
fb
51
f0
00
06
00
fd
05
fe
fe
c5
16
fc
02
09
00
fa
05
09
e5
f6
fe
04
08
ff
05
09
fc
05
fc
07
09
f7
00
0c
03
05
31
fd
0e
ff
f5
05
02
01
fa
ba
07
f8
fa
03
07
02
f8
fe
43
06
00
f5
f2
09
09
02
fc
c8
00
ff
00
0f
fb
fe
0b
03
4f
06
f7
05
f6
03
01
f7
fe
59
fb
ed
ee
f7
fe
00
f4
07
9b
01
06
04
02
06
0f
f5
fe
f0
f9
f7
fc
fa
f8
08
0c
f7
6d
01
fd
01
fd
03
06
fe
f7
3e
fa
ee
ff
f6
09
0a
fb
01
74
0b
f6
12
01
fb
fc
01
fe
5a
07
f6
02
01
fc
ff
f7
01
91
f8
01
f8
0e
0f
f6
09
00
91
f6
01
02
0b
fc
f9
f9
01
a7
0c
f9
fb
05
06
04
05
fa
45
f8
01
f1
f1
04
fb
07
fe
fb
02
03
fb
08
02
0c
01
0b
46
ff
f7
00
01
02
f9
02
04
fc
02
f4
0d
0d
02
fe
01
f3
2c
08
06
0b
0a
01
fe
0b
fe
36
fc
03
fa
f1
06
fc
fd
06
6f
06
06
06
08
05
ff
09
02
90
05
06
fa
fa
fd
04
06
04
6f
03
fc
fe
01
f9
0c
0f
fe
e0
07
07
ef
01
00
fe
fc
07
a3
03
fa
f9
fd
fc
04
fc
fc
3b
04
f9
fd
f9
0a
03
00
04
0c
fc
06
04
03
f4
0e
0f
fd
db
02
fd
08
00
03
03
08
ff
3b
0d
fb
0b
f3
03
04
05
0e
3c
fa
03
00
fe
fc
02
00
05
cd
05
fa
04
08
03
0a
02
f8
a4
01
f9
ff
fd
f8
10
0b
f9
6f
0a
02
f0
f6
f3
0d
14
fe
4b
09
fa
04
ee
09
03
f6
03
ce
f5
04
01
f4
01
ff
f5
06
96
08
f9
00
fb
03
fe
0a
ff
a9
01
ff
05
02
0b
00
ff
0c
f2
04
fb
09
03
f7
f9
06
f1
2b
ff
fd
0a
05
00
fd
f0
f8
a8
fe
00
fb
01
fd
02
03
02
3f
fa
fe
f3
fa
fe
fe
eb
ff
73
02
fb
fe
0a
fc
03
0a
f8
1a
fd
fe
fe
f6
00
fd
0a
06
ca
ff
fc
00
fc
ec
fb
07
05
af
ff
fc
09
03
0b
fa
fb
02
a5
f9
04
01
05
00
ec
ff
08
b7
f9
fc
02
01
ff
f6
04
f6
55
f8
05
03
02
f8
f9
03
05
c5
07
f9
ff
fc
fb
15
04
fb
c4
03
fb
fc
04
fe
01
ee
01
ae
0b
04
fc
01
f1
fe
04
fa
66
01
03
06
fb
ef
03
f8
04
cc
fd
fe
ff
f5
fe
05
02
fe
de
fc
05
03
03
fd
f9
07
f4
59
02
fd
01
08
02
f7
06
fb
a0
02
0a
fb
0c
0a
01
f6
fa
db
03
07
ff
06
06
0c
01
08
03
ff
fa
fc
f3
f4
ff
08
05
10
03
12
ff
f8
fc
fe
f6
00
cf
03
f8
f9
f2
fa
fb
05
04
04
f9
f6
ff
fd
06
f7
0c
fb
20
03
09
04
01
04
02
07
07
4a
fd
01
f7
f6
f9
0d
fb
0a
37
03
09
06
02
fc
fb
f7
ff
c2
fc
fd
01
01
ff
fc
ef
f5
e5
f9
02
f8
02
01
f9
02
ff
2c
01
02
0a
00
fc
02
05
08
3f
00
05
03
00
fc
fb
05
01
60
f8
f7
fe
f6
f3
fb
05
0a
ed
fb
13
01
fa
05
0b
f6
03
2e
07
f4
fd
f6
07
09
0a
15
dc
0c
fa
08
08
00
0d
00
02
d2
08
02
01
f6
06
fc
f5
fa
d8
0a
fe
07
09
0a
f3
01
f9
cf
fd
01
f4
0c
0d
f2
fb
0a
47
ff
f8
01
ff
fb
12
02
09
fb
0a
fe
06
03
f8
01
f2
f4
cc
f6
fe
f4
fa
f7
0d
0d
07
d8
09
f4
0e
fb
03
07
08
fc
9d
0e
f6
f8
f8
05
f5
0c
03
c7
f9
f3
f9
fd
10
f0
f6
fc
0b
02
0f
08
f8
f7
f3
0b
fb
3c
ef
07
0f
0b
f3
04
0c
07
c7
fc
02
04
02
08
02
02
e8
fe
06
fa
fb
11
07
02
f8
fe
4e
08
fd
fb
ef
0b
fc
fa
fe
01
f4
05
fd
fc
06
01
ea
00
22
f9
ff
0c
f4
f8
06
0a
0c
46
fa
ff
fb
00
03
f3
f5
fe
24
fc
0a
08
09
05
0b
03
ef
39
f9
fe
05
02
17
f6
fa
f4
9f
06
02
ff
09
0a
f1
fa
fc
6b
fc
fc
05
ff
05
07
ef
f0
d7
fa
07
ff
07
07
06
f4
f9
9d
f5
0f
f9
07
05
05
fb
fa
8d
01
02
05
05
10
ff
f5
f8
eb
00
09
0d
00
02
01
fd
07
d7
f5
ff
fd
0b
f8
01
03
09
68
04
fb
07
fe
0b
fb
f7
fc
9e
fd
12
01
03
02
fa
f8
fa
b3
02
04
06
0a
04
05
0a
00
ad
fa
f7
f4
f9
fe
f0
10
04
f5
ff
09
fb
ff
06
02
0c
01
b7
fc
0a
06
01
05
f6
fa
07
de
f7
06
06
ff
ff
fd
06
07
49
ff
fa
fb
01
06
02
fa
0d
5c
f9
00
03
f5
fe
0b
03
f7
44
03
fd
fd
ff
15
f8
06
00
56
fd
0a
ef
fd
fc
f6
09
02
fa
00
01
05
f9
0e
f9
02
fb
a9
ff
fc
fd
f8
fe
ec
ff
fe
6a
00
fe
01
04
ff
fc
0a
fc
ab
0a
fe
01
fa
f4
0e
f5
01
6a
0e
fd
fd
06
fd
fe
03
fb
bd
f9
07
03
06
05
ff
07
04
d1
fb
0e
01
03
fb
f7
03
15
3c
f6
06
fa
03
fd
fe
09
f5
32
fd
04
f6
fe
04
f2
02
00
53
05
fd
03
02
f4
f7
02
f8
26
08
fd
fb
0a
f8
07
f1
f9
f3
0d
fa
fb
ff
fd
05
f8
fe
70
0d
02
fd
fe
f6
fa
fb
0d
8e
ff
03
03
0a
f8
f6
00
06
a9
06
06
13
05
fd
05
f8
ff
19
02
07
10
f7
fb
04
04
06
85
fd
01
fb
fd
fd
ff
f4
01
ef
0f
fa
05
01
0c
fd
fe
0b
c1
f9
01
fa
08
fb
ff
fe
0b
03
fe
0c
04
fc
fa
07
fb
fd
c0
f8
06
03
03
fe
05
f8
f9
fc
f7
f9
00
ff
fa
06
04
fe
9c
00
07
ee
fa
fd
00
0a
01
c4
06
0d
08
f9
01
f6
07
01
35
fc
04
f3
02
09
03
f6
fc
94
04
05
09
02
0c
01
fe
fd
b0
01
f4
f6
ff
f7
04
f4
fb
8f
10
ff
f7
03
f8
f9
fb
04
53
06
ef
00
09
ff
07
fb
f9
0d
fb
ff
01
f7
03
fd
09
fe
e1
fd
07
01
f2
fd
10
01
0f
26
fe
01
fb
02
ee
07
fa
fc
9e
ff
0e
ff
f9
08
16
05
07
20
fe
0a
08
02
08
fa
02
03
30
07
f1
f5
03
fe
f8
00
fd
68
00
f9
00
04
08
f8
fd
09
03
fe
f7
01
04
fd
f9
09
fe
3d
fe
06
00
01
fd
01
03
fd
4d
f8
ff
06
02
05
f6
01
f3
32
0b
f9
06
fc
fa
02
04
00
62
07
fc
f3
ee
00
00
02
04
3f
01
f8
ff
01
01
0b
fb
fb
74
fd
f5
00
f8
fa
0e
09
0a
f9
01
f8
02
fd
00
fb
ff
ff
35
04
07
f9
05
01
07
08
ff
3c
ff
fa
09
fd
0d
f5
fb
fa
e8
f7
fd
fe
04
14
f5
00
f3
0c
00
f9
09
f2
ff
00
f7
fc
52
fc
fd
07
03
00
03
01
f9
e5
05
0f
fc
06
04
02
fd
fa
0c
fb
f8
ff
02
0e
08
fd
03
05
f6
06
09
f1
11
04
14
07
46
f2
f8
fc
fe
03
09
06
06
15
fc
05
02
02
fd
01
fc
ef
68
03
fd
03
ff
10
00
fd
01
12
02
fe
f7
0e
06
fb
fc
ff
a6
ff
ee
00
fa
07
fb
05
fa
a8
fc
03
04
02
f7
05
01
fa
d1
03
fb
01
fc
f7
fc
f4
03
07
fa
fc
fe
05
f4
fd
02
fe
75
01
06
02
ff
0b
05
0b
08
f2
fb
0d
ff
f3
00
01
0d
f9
93
06
04
00
01
f4
01
05
01
d9
0a
fe
ff
ef
03
fb
f6
fe
03
fc
09
00
fb
fd
16
01
e6
50
fe
f5
07
fa
02
fa
fd
0e
62
01
fb
fc
03
fd
fc
02
00
31
03
fa
09
f9
fe
0b
fe
0a
19
03
00
09
06
f7
03
06
0c
ca
f9
03
01
fc
fb
08
08
f7
09
f9
f9
01
f8
02
ea
ea
fd
00
0d
fc
fe
f8
fa
fd
08
ed
e6
06
fe
f6
09
00
02
02
00
33
fe
02
fd
fd
04
00
05
0f
53
fe
fd
01
fe
f0
1c
0a
fb
dc
01
fa
03
fe
08
07
00
fd
8c
02
0b
01
09
fa
fe
02
fb
e1
f1
05
05
09
06
f2
fd
07
55
f6
0b
00
06
08
00
f9
f3
2a
ff
fd
fd
02
fa
fa
fb
fe
2f
fc
fc
f6
ff
08
01
07
ff
cb
02
11
f4
fd
09
05
02
f8
a0
01
fe
00
02
0a
fb
fe
ff
4d
fc
00
0c
f7
f8
0d
0c
fa
02
fe
04
fe
f9
fa
0a
07
fe
03
fc
fc
01
00
fd
01
fa
f2
51
04
fe
fc
04
04
f2
fc
0f
53
fa
ff
0f
03
f5
f4
fb
0c
ca
02
f8
04
f6
09
fb
00
04
fe
f3
fe
08
02
fe
0c
00
09
91
09
f7
11
f7
fc
0d
f5
02
f7
fe
ff
0e
0a
02
00
f8
ff
41
ff
fa
0a
fb
02
0b
05
06
3b
02
fe
00
fa
01
00
01
02
20
04
f8
02
fa
f8
0d
fc
f4
92
04
0e
f8
fe
02
04
fe
ff
1c
fd
03
fd
fc
ff
04
0f
f9
bc
04
10
01
ff
0d
04
02
0c
e7
fa
02
10
fd
fd
01
00
09
f0
fc
fc
09
03
fe
03
f8
03
92
09
02
fb
fc
01
0a
02
01
0c
03
fe
f6
04
fd
0a
00
f6
fd
ef
0e
02
04
00
0f
f8
fe
14
fd
0d
ff
06
05
fe
fc
fe
2c
01
01
05
f4
0d
fa
f6
00
17
01
f3
fd
ef
08
0b
fb
10
59
05
fd
17
fd
fd
02
0f
05
48
fe
fe
0c
03
09
f5
fa
00
0f
fb
02
fc
06
07
04
fe
ea
97
00
ef
fa
fd
01
05
05
0b
ae
02
fb
fd
06
05
fd
ed
04
1f
f7
09
02
ff
08
fc
07
f2
c1
fb
03
03
fd
14
fc
00
04
00
fb
f4
03
f8
fd
ff
03
f8
99
fe
f9
07
0a
00
07
00
03
c9
fd
03
03
00
06
05
13
17
f9
02
f7
08
02
f5
02
09
fc
8a
05
08
03
0a
0a
03
ff
f8
72
fe
fd
fc
04
07
04
fe
ff
fd
02
03
fb
f8
f7
07
fb
fb
8b
f6
f9
08
08
03
f2
ff
fa
20
f4
02
03
fc
02
fb
fa
f1
ea
fd
fe
09
fa
f6
f3
0c
f7
3c
fa
01
fe
08
f1
07
08
05
df
00
0e
fe
0a
02
fb
08
16
c1
0e
f4
fe
f9
0d
fd
05
f2
47
ff
06
09
fd
