ae
89
fc
50
7a
16
ce
19
bb
10
14
30
da
16
f8
4c
f1
98
52
cb
07
90
35
95
52
b2
ae
cd
28
2d
da
a4
28
82
97
46
86
24
38
ca
d0
29
44
e6
af
7c
49
9e
5b
4b
18
a5
20
68
0d
75
38
75
da
19
cd
9b
ae
a5
89
e2
06
e0
cc
25
fe
ca
e9
fa
40
08
09
de
38
8e
f7
0c
95
62
e0
2d
6c
34
4c
51
c0
13
84
12
40
79
6e
9a
c1
68
5c
23
ea
83
2c
36
b6
6d
ea
48
58
8b
ba
57
b1
26
d8
5f
f9
dc
cc
64
a9
ef
f1
13
3a
5b
c0
e1
6e
92
9c
30
ff
e5
6b
95
ed
9a
3d
5f
4c
cf
e3
3e
c2
46
05
58
a3
0e
01
5f
5d
14
a8
bc
ad
82
bc
70
a3
3c
56
97
37
4d
03
14
c9
29
d8
82
ac
f4
7a
3d
50
3b
65
ec
60
76
d8
af
f1
f7
c4
fa
2d
ab
3f
64
e2
56
22
97
9f
1e
c8
ff
3f
74
1c
45
32
ff
ab
66
22
38
61
f7
b7
6b
e2
19
45
50
a6
49
c5
8f
c2
5f
d1
97
93
a0
d3
7d
2b
42
68
48
50
7a
8d
86
45
c5
a5
5c
26
02
70
cc
3a
c1
4b
c5
a6
f5
de
44
7c
ca
36
79
48
78
8f
61
c6
2a
02
67
ae
81
d2
05
b3
2c
b2
8a
93
c4
0b
6e
c6
af
13
25
4f
ed
a0
59
39
95
60
35
a2
77
58
8f
52
a9
53
03
1b
a8
d7
45
51
b8
98
5a
85
85
74
06
29
82
6f
23
b9
04
50
06
85
49
94
1c
29
9e
28
0d
2f
2a
66
a8
ff
4a
16
a8
f2
d8
f2
ce
b8
c1
a2
f1
b7
00
ca
f0
d3
b4
2c
0e
3b
97
f8
64
58
9f
e8
09
50
d5
6a
fc
ca
c4
98
32
0d
a6
bb
4a
21
4b
1a
b0
b1
fc
ac
6d
6f
cc
ca
4e
03
70
b9
e0
aa
a1
8a
2c
0f
b6
14
07
73
ee
6d
a2
9a
16
14
41
38
5a
a1
73
34
03
74
6f
57
40
a7
34
99
ea
f2
c9
e4
18
d9
91
5b
6b
66
1c
ed
8e
34
72
c9
ba
d3
81
81
e5
3e
d2
56
4f
93
45
93
e8
bd
69
b5
58
83
63
88
64
29
9d
81
13
f7
77
2c
e8
e0
e1
f2
1f
19
5c
6a
e6
57
24
a8
66
b5
3c
88
da
a6
6a
1a
a6
6e
cc
13
58
ca
e2
d6
bd
e2
73
45
d4
90
6b
ae
d2
19
8d
22
54
dd
8d
f0
86
5f
94
19
25
8d
3c
ad
b7
95
a8
b3
a8
b3
33
4a
af
0b
89
19
e8
8a
92
dd
13
36
a5
c2
83
73
cf
2f
c3
a7
48
88
79
d5
04
99
f0
d5
82
6e
17
0f
1c
99
70
dc
e1
b8
07
fb
f2
72
2c
01
30
73
c9
66
19
b2
9b
2c
ae
98
d7
f8
2a
87
ac
a7
4a
a9
64
88
ba
c5
6b
ef
79
ac
53
0d
ff
7c
71
a8
1e
94
b0
1a
e6
ac
66
f8
04
aa
b0
fa
d4
90
21
45
c7
bc
a7
cd
10
93
20
0f
dc
02
1c
fe
2f
9c
8d
97
93
db
ac
ee
e4
93
31
f4
86
70
39
70
da
fb
a3
01
d2
c0
42
45
00
8f
25
b7
6a
51
d9
06
9b
6f
12
67
fd
67
96
6b
16
66
e3
1e
08
94
41
59
4a
07
88
96
47
4e
fc
d0
5a
ae
27
c2
d1
a3
6e
7e
21
3f
30
68
e8
57
8d
fa
5d
1c
83
f0
fe
2a
ba
35
50
d9
d9
f7
7a
be
db
11
cb
f8
02
7d
3a
71
bb
0e
e0
02
11
99
f8
d1
48
42
98
76
18
0c
62
8d
08
0c
9a
68
a6
8d
62
9f
20
41
2f
cc
ba
c7
43
59
0a
e1
d8
8b
90
86
1d
18
4f
b0
12
7b
ba
42
e5
3c
08
21
d5
8a
86
ae
c0
86
e2
91
af
2f
86
72
58
41
6a
ff
11
63
27
70
26
92
44
a5
03
1c
67
5c
8f
93
ef
77
55
99
a6
25
d2
ae
18
ae
83
51
65
86
c4
bf
5e
5e
30
7c
c4
f4
22
87
7c
2d
3e
ff
49
9e
9c
77
94
bd
86
0c
11
95
33
23
d4
89
90
ba
8d
6f
01
6d
a1
23
5d
68
7d
27
1c
f9
68
d9
39
86
b4
4e
d6
5d
3a
e1
89
