ffffffffffff4969
0000000000004909
0000000000017cd5
fffffffffffdd702
ffffffffffff97aa
0000000000009213
fffffffffffe3f59
fffffffffffd6974
ffffffffffffbc2e
0000000000006856
000000000001cb16
00000000000072c6
00000000000191b3
0000000000005378
0000000000007d35
000000000000db1c
000000000000974a
0000000000002485
fffffffffffe63de
000000000000c106
0000000000000a6f
ffffffffffff637e
0000000000000a6f
fffffffffffff059
fffffffffffe1ad4
000000000001147f
00000000000014de
000000000000b160
fffffffffffff591
fffffffffffe6e4d
fffffffffffe78bc
ffffffffffffeb22
