00000000000009c4
000000000000d04d
ffffffffffff9157
fffffffffffe6c6b
0000000000014578
ffffffffffff6a49
0000000000013532
ffffffffffffc229
000000000000bcc6
ffffffffffffefba
00000000000061a4
00000000000095b7
fffffffffffe65e8
0000000000017309
0000000000000682
0000000000019d59
00000000000088b3
ffffffffffff3cb8
ffffffffffff22ae
00000000000057e1
fffffffffffecace
0000000000006827
ffffffffffff6a49
000000000000cd0c
fffffffffffff97e
0000000000009c3a
000000000000f41a
ffffffffffffe2b5
ffffffffffff433a
ffffffffffff49bd
000000000000b985
ffffffffffff5a03
