ff
ff
fb
f9
b3
fe
07
fe
06
fa
ed
07
f4
57
00
03
02
fe
01
03
fd
f3
73
fa
02
01
fa
f6
fc
04
f9
c5
02
12
04
f1
03
03
fd
0e
a7
08
01
ff
fe
fc
fe
f7
00
d1
fd
08
01
fe
fb
ff
00
fe
8e
f5
03
fd
fa
02
0a
0c
01
dd
14
00
ff
ed
f4
fc
07
14
b9
f6
07
fe
03
fd
04
00
01
4b
f5
fd
04
05
06
fa
01
fe
12
ff
07
06
ff
03
f8
f6
fe
3f
0a
eb
00
1e
f7
ef
14
f8
58
06
05
f5
ff
fd
0a
fe
08
2c
f7
07
05
01
03
fe
04
fe
05
08
06
f8
f3
f5
fc
f9
07
9e
02
f7
00
f9
fc
fd
07
08
1f
fe
fe
fb
fa
05
00
04
fb
72
e8
f7
07
13
f9
04
ff
04
00
04
0a
0e
05
05
02
fb
fc
60
0d
09
fb
f4
00
ef
05
06
2e
0f
08
01
02
ff
fd
0a
f3
34
f2
03
fe
f9
01
f9
06
f5
ee
00
04
fc
02
0e
05
0c
f4
50
fb
fb
00
fa
fd
f8
07
fe
03
13
00
fa
05
fd
03
fd
02
67
03
f2
fd
06
00
01
f7
08
69
f8
04
0b
03
ff
fd
f6
02
a7
0d
fc
fd
11
ea
fa
06
f3
1b
03
fb
01
09
01
fb
fb
05
38
ef
02
04
06
02
06
01
01
48
05
0a
f9
f9
f4
fa
fb
00
20
f6
fe
0d
fa
fd
fb
08
fd
a3
02
04
01
fa
ff
02
fa
03
d9
04
fb
07
f6
fa
00
f9
0d
97
09
07
f3
f5
f9
fa
00
04
5a
05
fa
fd
06
fe
09
f3
09
04
fc
fa
fb
fb
fa
fe
05
f6
e4
09
01
01
f3
05
05
fd
f5
4d
0d
05
fc
02
00
fe
00
02
34
05
05
f4
00
06
07
f9
01
3a
07
00
05
05
fb
f8
fb
01
45
05
01
01
00
fe
fc
06
00
06
06
ff
ff
fe
f3
06
fb
08
40
03
01
f4
f3
fa
fc
fc
04
02
fb
fd
ff
fd
03
08
06
03
ab
03
fe
0e
fd
fd
fc
f9
05
fc
f7
fa
f1
02
fb
00
04
fc
53
ff
00
03
01
03
09
fa
00
3b
f9
05
01
08
11
11
fa
07
09
0c
fe
10
fa
08
06
f5
0f
94
fe
fa
0c
04
fa
01
0c
fd
1b
e9
fb
fc
0a
f9
09
04
fe
d4
fd
f8
fc
02
09
f9
fe
07
ab
08
01
ff
07
00
ff
03
f4
11
07
f6
01
00
09
ff
0d
03
20
ff
fe
04
fb
fb
05
f6
fd
0c
fb
f5
05
06
fe
03
08
00
a0
00
fe
07
06
05
03
fd
04
40
0d
0a
06
fb
fc
f7
fb
f2
34
fe
02
02
f3
02
ff
fa
09
9a
00
ff
fb
f4
fd
fd
02
fe
49
fd
06
0a
04
05
ff
0b
fe
63
00
01
f9
03
06
fd
03
ff
24
fd
02
00
fd
f5
03
f6
f9
11
fb
fd
fb
f7
05
13
07
0c
e5
0e
02
fa
02
f1
fe
00
fb
45
06
02
fb
01
01
07
05
00
2c
fa
06
00
fd
07
00
0b
ff
b6
fd
07
fe
0e
ff
fe
f9
00
6a
f7
ff
06
01
05
fd
fd
fd
3f
03
01
08
ff
06
ff
fd
05
e7
04
fb
f4
01
f8
0c
fc
fd
1d
f0
f7
06
05
14
fb
08
fa
b7
03
f4
fe
ff
fc
f7
06
01
d3
0a
08
f7
00
f8
fc
08
08
66
fe
04
0e
f4
03
0c
0a
0b
b8
06
06
00
06
04
f4
ff
f6
f7
f9
fb
fa
04
07
02
fa
06
b2
f9
00
00
0e
08
00
fc
fd
2b
ff
06
f9
05
f8
07
01
0d
15
01
f8
0a
fc
fe
f9
08
f2
a6
fe
02
05
f8
08
e9
0a
fe
19
03
10
04
f3
f7
08
f4
0b
4d
08
02
f4
12
fb
02
06
05
fb
ee
07
f8
fe
fe
fa
07
f0
57
05
fe
06
fd
fe
06
05
fd
d9
04
fb
fe
f6
07
f6
08
fb
b9
fe
09
f0
02
02
13
05
08
44
09
04
f6
05
fe
ff
03
0b
5c
04
04
06
01
fb
04
08
fd
ee
05
fd
05
f6
06
04
fa
fa
92
fc
fa
f8
fb
ff
08
07
04
27
fd
ff
00
0a
03
0f
05
f4
18
02
fe
05
fe
06
01
01
02
5b
03
fc
ff
f9
02
fc
ff
f6
d6
00
fe
00
fd
f7
0d
0a
f7
1e
05
09
ff
f7
fe
f5
03
02
e4
fa
00
fe
f7
05
fe
0a
02
43
08
f4
f7
ff
fd
fb
0a
09
05
0a
05
06
fd
fb
06
fc
06
df
04
fb
02
fd
fa
00
05
f6
af
0c
ff
11
fc
00
fb
01
fd
dd
fe
fe
fd
03
10
05
fd
fc
57
fe
ff
f0
fa
f4
0a
f7
f9
42
06
00
09
fe
08
fa
01
fe
e6
f6
fa
07
08
06
06
0c
09
fd
01
0c
fc
05
f3
fe
f6
03
3b
05
f6
fd
02
fe
00
fe
12
8a
f5
0a
f8
fe
08
fe
0f
04
43
04
00
07
fb
04
fd
ff
05
f2
02
fe
f9
fd
11
fd
05
01
0d
04
f7
ff
00
fd
07
f8
fc
94
f6
03
ff
fc
04
09
08
00
fe
03
ff
09
ff
11
fb
00
0e
c2
06
fc
12
0d
ff
fc
fa
06
39
fc
06
02
01
f6
04
04
fb
1d
0f
04
01
fb
f7
00
fe
00
07
04
ff
f8
06
ff
ff
fd
02
2d
fe
ff
00
01
08
03
09
02
ff
f8
0b
fa
ff
f0
f5
04
00
d9
03
0a
ef
01
03
f8
03
08
35
0b
fd
04
fe
f5
03
04
fd
c4
0a
0b
03
07
fc
f8
01
f2
c9
05
fe
f9
f7
02
f7
00
f9
26
08
0c
01
04
f8
08
fd
02
b0
07
fb
fb
0a
fa
fc
f9
f6
09
fb
01
01
01
04
01
fe
fc
64
08
fa
02
04
04
f7
ff
08
c0
01
f9
f5
0a
f9
04
f5
fd
d6
02
03
00
00
fa
f8
ff
f9
56
01
02
f8
fe
01
fc
f1
02
aa
0b
05
f9
f8
f5
00
fd
02
e2
03
fd
f9
fa
f0
02
f7
11
ac
fa
fb
fd
f5
f5
03
f8
fd
9f
f3
fe
07
fb
f6
01
03
03
9f
05
02
0e
f9
03
fb
fe
09
32
03
fc
fb
01
f8
04
ff
f5
3a
00
05
06
11
ff
fb
00
f8
4e
01
f7
f6
f8
0c
f5
fe
05
cc
02
fd
f7
11
fb
fa
0d
f8
c1
00
02
f8
00
fb
f8
f1
05
6b
06
0c
fe
08
01
fd
00
08
47
02
f3
fe
fe
f4
fc
fc
02
a7
02
09
04
03
02
ff
06
fe
6b
fc
fb
fc
fc
f5
fd
02
fc
d9
09
08
01
f9
f2
f2
f5
fb
48
02
0c
f6
04
02
04
0b
fc
50
08
f6
fe
f5
0a
f2
f7
0a
14
f8
f7
00
06
01
08
05
ff
40
01
fd
f5
03
00
fc
fe
f6
55
09
02
fb
05
05
f9
fe
fd
f4
05
f8
06
07
01
06
f8
04
b4
0c
09
f9
01
f5
07
0c
fd
3a
fc
0d
f2
f6
ef
fc
f7
02
e4
f5
f4
fe
fe
fd
0d
fa
fd
4c
ff
ff
06
0d
f5
04
02
fd
c0
0a
fb
fc
01
fe
ff
06
02
4c
fd
00
fd
fb
01
fb
f6
01
a1
f7
f9
09
07
00
06
0b
f2
42
ff
fc
ff
05
ff
f7
0b
f4
9b
0d
05
01
01
0c
fe
ff
0f
72
fd
01
03
f7
03
f7
08
f4
ae
03
03
ea
09
0b
09
f8
fc
61
07
ff
f8
fe
02
fe
f6
08
f0
ee
fb
01
00
fa
fb
03
ff
d2
08
0b
fb
09
04
fc
06
02
65
0d
0d
f9
fe
fa
00
f6
ff
aa
07
03
07
fd
fb
0e
01
04
16
fb
05
03
01
fd
f5
05
12
bc
02
f8
f9
fa
f7
f6
05
01
d3
0a
fb
00
f7
05
00
f8
f5
f4
06
08
f5
06
06
05
fe
fb
c0
00
fa
06
f6
ff
04
14
fe
c0
fd
fc
f8
09
05
1a
02
fe
0b
fc
fe
fb
fe
fb
ee
0f
fa
a0
00
00
03
02
05
05
02
fe
df
01
00
fa
f2
fd
08
fe
01
b0
ff
05
04
ff
f7
f6
04
06
2e
0b
f6
fc
f5
f6
09
ff
f4
31
00
f6
01
fb
01
01
f9
01
44
0c
f6
fc
00
04
06
f5
04
a4
02
f7
ff
fa
ff
f9
fd
07
08
11
fd
f9
fa
f5
01
06
08
cd
06
f7
0d
fc
13
02
11
04
ec
f9
f4
fa
04
04
01
05
fe
59
01
06
04
08
f8
fa
f7
fb
10
07
13
fa
05
ff
ec
10
06
f0
f7
ff
fd
03
00
f6
05
fe
d3
00
08
00
02
01
07
04
f4
5b
fd
f5
03
fc
f7
01
fa
08
df
03
fc
03
fd
f2
00
09
04
63
ff
04
04
fd
03
ff
06
fc
33
fd
05
fb
08
0a
02
03
02
5a
f8
f9
fb
07
01
ff
fb
fe
b5
06
07
fa
ff
09
f8
fb
0e
c0
04
08
f4
01
02
ff
f8
ff
35
fa
f8
01
ff
fa
f5
fd
01
75
fb
01
f9
fe
01
fd
01
03
19
06
09
03
01
ff
fc
02
09
93
fa
04
08
02
00
fa
03
07
ca
fc
fd
0b
ff
05
fa
01
09
de
0d
fb
fd
f7
f9
fe
fd
07
d4
07
fd
fe
f9
01
ff
ff
f3
37
ff
06
f7
fa
00
fa
12
fe
93
05
fd
06
f7
fa
fc
fa
02
e3
08
08
04
fd
00
05
04
fe
d4
07
07
fd
07
06
08
01
fb
52
09
03
f8
07
08
fd
fe
fb
6a
fa
01
04
04
f9
04
0d
f9
3d
08
04
0f
02
fd
f8
f8
0b
cb
0b
01
fb
fb
fd
07
03
f6
db
03
fb
fd
01
0a
fa
00
06
0d
fd
f7
fb
fd
00
fa
fe
08
75
0a
03
06
fe
fb
fd
05
01
40
0c
ff
00
f9
01
fe
01
0c
1a
07
fe
0b
09
fe
fa
06
05
3a
fa
fc
03
04
f2
fe
0e
fb
db
ff
02
03
f7
f5
ff
00
fc
1a
04
05
fd
03
01
fd
08
fa
a3
fa
fa
00
fa
05
01
02
04
d8
09
05
00
02
00
fc
06
f6
42
0a
01
02
fd
fe
00
fe
00
fc
00
fe
01
07
04
01
0a
10
08
09
fd
fb
fb
ff
00
f9
09
3e
03
f9
06
fe
fb
02
03
fa
5f
fa
f9
00
0c
07
f4
03
fb
25
05
fa
04
ff
fe
fa
07
09
44
ff
ff
ff
0a
0b
02
09
0a
6a
08
fe
03
02
08
08
fa
f8
d8
fc
05
0a
f5
02
fe
f2
00
a3
fb
fa
00
01
ff
07
03
fd
2c
fb
f9
0d
05
01
fc
f7
02
93
00
07
fd
f6
0c
ff
f2
fc
3b
04
fb
fb
0b
07
f8
ff
fe
e5
08
fc
fe
00
ff
01
ff
06
2d
12
f5
f9
0e
04
01
16
f7
d4
fb
fb
f4
00
05
fe
fa
03
3c
00
04
03
f1
fe
fb
04
fa
71
f5
06
00
f7
08
0e
fc
fd
e3
f1
f4
0b
fc
00
03
fd
00
f1
04
02
fa
06
f6
ec
fe
08
e1
09
00
04
03
14
0f
f3
fa
54
fa
ef
fa
0b
05
00
0b
fb
a0
fb
fa
0e
f7
07
fa
0a
fc
bc
06
0b
fe
00
f7
f9
fc
00
da
0e
08
f0
fe
05
ee
06
0b
30
07
ec
fa
01
0f
07
ff
fc
45
03
00
0a
fc
0f
05
0e
fc
51
0b
f5
f4
05
fa
fa
01
02
b5
02
ed
01
0b
fa
fa
fa
fc
41
14
f6
fd
04
06
10
00
02
25
02
ff
04
0a
fd
08
04
fb
dc
fe
f8
00
0c
f9
f6
06
04
20
12
fe
fe
00
fe
0a
fa
f8
f5
00
07
05
f5
f9
00
f1
05
1f
06
eb
0a
0a
f6
03
f7
00
f1
02
00
ff
05
00
fb
fb
02
c4
fe
f8
03
08
f4
fb
03
fd
6b
0a
08
02
0c
f4
00
fa
f8
55
fa
fa
fa
fe
04
fb
f6
08
3c
00
ff
fd
09
08
f8
fb
f6
c9
f7
f7
fb
08
fb
03
04
ee
05
fb
03
09
fb
f4
f9
07
f7
d0
0f
fc
05
04
05
f6
04
01
8c
ee
fb
05
0e
11
02
fe
02
c9
0b
f8
fd
f6
ff
ff
fc
05
53
09
08
0e
f3
0e
fe
08
0b
f5
fe
fc
fd
00
f6
fa
0b
04
31
06
0d
01
fc
fb
f7
f7
02
fd
f9
03
00
0a
03
f3
07
f6
2c
0b
fa
02
06
00
00
f8
f7
73
03
0e
07
08
ff
06
fd
10
23
05
00
0f
05
ff
fd
f6
02
c3
f9
03
02
01
f7
f3
f0
0c
17
fa
0e
06
f7
f9
07
00
02
0d
09
02
fb
f6
05
01
f9
0e
b8
fd
01
f9
04
ef
f8
03
ff
e5
f9
fd
08
03
fe
fc
01
f6
68
05
00
08
f0
fd
01
fe
02
2c
0b
00
f8
01
f9
fe
fc
0c
90
02
f5
fd
f6
fa
fa
03
fd
41
08
04
fd
fb
04
f6
00
fb
2d
01
01
fe
0a
04
05
fc
fc
47
00
f4
f6
f3
fe
fe
06
01
68
05
fb
f7
05
fc
f4
ff
00
fa
f3
01
0a
09
02
ff
0d
f9
e6
00
fc
04
fa
f9
fb
fe
fd
b7
fe
00
07
00
04
06
04
06
9a
f4
fa
fd
02
fb
fc
fb
0c
f1
04
fd
09
f7
0d
01
fe
03
ed
ff
09
02
f7
05
04
f5
ff
ba
08
03
f8
fd
f0
fa
f4
fe
de
fb
01
f5
f8
f8
00
fb
03
5a
05
f7
01
f7
f4
09
fd
07
05
02
04
09
fa
fb
f7
0a
fa
57
09
04
02
fb
02
fd
fd
04
46
0e
fc
ff
07
f2
02
01
fb
08
06
0e
f8
fa
00
fb
03
f2
43
fd
fc
f9
f6
04
fe
fd
00
5e
f6
01
f7
14
0f
f4
00
02
7f
02
f9
0d
00
fe
01
fd
fd
61
02
08
06
03
f9
04
fa
07
4a
09
03
fa
08
fa
fb
f7
03
39
03
02
0e
fa
f5
06
07
07
4e
fe
03
f5
03
0c
19
ef
12
3a
f5
fa
07
06
02
fb
00
fd
8e
0c
04
fa
0f
fb
01
09
02
19
ff
f9
fc
fc
fa
07
fb
0f
51
f8
fa
fd
0d
fd
01
03
06
e9
03
fd
08
00
fc
fb
01
00
e5
06
ff
01
fd
fa
f8
11
fc
0b
04
f9
fc
06
f1
ee
fa
fb
b7
0e
fa
ff
ff
0c
fa
01
03
39
07
fd
02
00
07
0e
02
0e
b7
f3
01
01
fc
fd
fa
f5
f9
fa
00
fa
00
07
03
f8
03
01
64
0c
03
07
f2
07
f9
f7
13
f8
fb
08
06
f8
fb
00
06
07
67
04
fd
ff
04
08
f6
07
05
e2
02
0c
02
00
00
fb
fd
04
55
ff
f9
02
04
f6
05
03
00
00
fa
fd
05
fe
fb
0d
fd
03
aa
f9
ff
f7
01
fa
05
fc
fd
04
09
f7
f4
09
f8
fd
fe
fb
42
fe
ff
01
f1
f2
fb
fb
05
1a
fe
f8
f8
f6
03
0b
00
01
fe
f6
fb
fc
ff
fc
06
05
fa
4f
03
ff
fe
03
04
f6
f4
03
45
ff
06
f7
00
08
ff
ff
11
b4
ff
01
fb
fc
05
08
fa
03
cd
02
f2
02
05
ff
06
fc
02
a2
00
01
06
ef
f9
05
fe
03
bf
03
fd
07
ff
05
f8
00
04
9d
fe
02
ff
07
f9
00
08
03
2d
f9
03
05
f9
f9
01
04
00
17
fc
09
00
10
05
fd
fd
fb
ec
f9
03
03
09
fc
fc
05
02
9b
0e
fe
fb
f4
03
02
00
0f
2e
f9
f7
f7
01
fb
00
0e
fa
1e
fa
fe
ff
0b
fd
0b
f5
fa
4f
fa
f8
0b
fc
07
ff
fa
03
9e
02
fd
fb
03
04
00
fc
04
59
06
fa
03
ff
00
f8
06
05
3d
05
f6
fd
08
fa
f8
fc
06
44
f8
05
0c
fd
fe
fc
f9
fe
eb
f9
09
f6
06
03
f9
fb
ff
11
02
fb
ef
f9
05
f3
ff
04
50
f5
01
06
f8
fb
fb
f7
01
50
01
03
fb
07
fe
fc
fd
ff
9d
f9
02
fc
fc
06
fa
01
01
e8
f7
ff
01
05
06
05
08
07
a8
f6
fc
ee
0d
00
01
11
00
f0
08
06
02
fa
01
f0
05
f3
30
f9
04
f4
01
ff
fc
06
01
c8
05
f8
04
f4
fd
f2
0c
04
5a
0b
ff
02
f3
0c
fa
01
0a
07
04
fa
00
00
fa
f8
fa
fe
5d
02
05
01
f5
fe
fd
f8
ff
07
fe
fe
f4
fe
fe
03
03
07
8f
09
07
fc
f5
f5
00
05
fd
20
02
04
03
04
fe
01
ef
04
1d
f6
03
09
02
02
05
06
0b
f1
fe
06
08
fd
fe
fd
fc
f3
4b
0c
f3
08
06
01
f8
12
fe
1b
f5
01
f0
07
fc
0c
fe
06
9a
fa
fc
11
04
01
f7
04
f3
fc
07
07
f1
f8
fb
02
fe
0f
c4
fd
f7
fa
06
08
00
02
fe
4b
05
08
02
09
05
fe
01
f8
cc
f9
f8
01
ff
09
0c
ed
08
d8
00
f7
0d
11
0f
fd
02
ff
04
fa
06
fd
f6
10
fa
0d
01
fa
16
06
fa
0a
0a
01
03
f0
cd
f6
01
ff
fb
f9
f9
ff
fa
9d
f6
02
f8
fc
08
05
00
fc
5b
f4
02
05
fe
01
01
09
fe
4d
fe
fd
00
09
f9
07
05
04
fd
ff
eb
fc
00
f8
ff
ff
09
0b
06
f9
05
ff
fd
08
f9
0a
5f
f8
00
01
0b
fe
00
05
fd
ec
04
fc
ff
fa
06
00
07
00
d9
04
f9
ff
0c
ff
01
fa
fb
b0
03
10
f9
03
03
08
fb
06
96
ff
f9
03
05
01
f8
fd
0c
2e
fb
02
07
04
04
00
00
fc
42
09
07
0b
fb
02
fa
03
0a
2b
f5
fa
f9
fc
00
16
07
01
51
f5
01
11
fd
00
f3
01
ff
ae
03
f7
fe
00
fe
06
fc
f0
55
06
f9
fc
07
04
ff
fc
09
28
09
15
09
02
06
f8
00
fd
45
08
09
ff
00
04
05
f9
f7
05
06
ff
fa
fc
04
04
fe
fa
d0
fd
09
fb
fb
06
06
00
0a
e0
f8
ff
ff
fd
fa
f5
01
06
be
01
fa
03
00
07
05
f8
00
95
0d
04
02
0c
06
fe
fe
02
e4
fc
f9
02
f4
03
04
f9
06
5c
0c
06
fa
f9
05
fe
f5
fe
68
05
00
01
02
07
fc
05
0b
63
04
06
07
01
07
fc
f5
fe
c6
f6
fa
f9
03
02
05
fd
ee
dd
04
03
02
fc
f3
f9
04
08
c8
03
04
f8
04
f8
fb
07
f9
28
07
00
07
00
f9
01
08
03
10
fa
08
fd
05
fd
fe
fd
08
4b
f8
08
05
ff
f7
ff
ff
02
e5
f9
03
01
fb
fc
ed
00
10
d8
09
f8
06
fa
0b
f7
fa
fd
31
fd
f4
fc
ff
06
f9
07
05
37
f1
fe
ff
fd
07
ee
ff
ff
e2
00
00
fc
ff
fa
00
fe
f5
ee
fd
ff
ff
06
fc
09
fc
08
01
0c
fa
fd
0a
f9
04
03
04
d7
04
18
02
ff
03
01
fa
f9
d6
04
09
03
01
ff
f9
f8
03
1f
fc
ff
02
10
fc
04
0a
fb
9a
0a
06
ff
f9
fd
f6
f8
f8
6c
f5
01
fc
fc
fd
01
fd
04
2b
0c
04
02
ff
ff
0a
0b
0d
14
06
f6
ff
fe
f4
0f
02
01
01
01
fa
fa
f8
fa
fd
00
00
11
f2
04
03
f9
02
02
f9
06
a1
03
05
00
f8
ff
08
03
fd
d5
11
04
02
fe
fa
00
0b
05
a8
f1
11
05
07
00
fe
03
fd
cb
f2
03
fb
09
fe
fb
fc
fd
dd
02
f6
f8
0b
f8
00
02
01
ab
f9
f6
f8
09
fb
03
ff
fe
ae
f3
02
04
fc
02
fe
ff
05
4e
0c
ff
00
f0
f6
fa
00
fb
12
f9
f1
f9
fd
0b
f8
05
fd
51
0a
09
04
01
f6
08
0e
08
ff
fe
fd
fb
03
f3
02
07
f0
e5
f6
16
fa
08
02
fa
ff
f9
03
fd
f3
05
f7
01
fc
fe
01
23
0f
ff
0a
03
f8
00
fb
02
b4
f3
15
fc
06
f6
f4
0b
0f
72
fe
09
05
06
f7
00
07
01
3d
05
f9
01
02
f8
f2
07
09
16
0f
fe
ff
07
00
06
00
f3
e2
fd
fe
fc
fe
ff
02
fc
03
ca
fb
fa
03
07
fc
fb
fa
0c
0b
f8
fc
fb
05
f7
fd
04
f2
a6
fc
fb
fb
02
fe
fd
f7
0b
af
fa
fd
f4
06
01
04
fa
00
e4
f8
0e
ff
ff
fc
03
fe
f8
b4
f6
08
03
00
02
06
0f
f4
99
02
ff
fb
02
fc
f1
ff
01
57
f9
f8
f5
fb
01
05
00
04
13
04
f8
f1
fd
03
f7
03
03
29
0a
fc
ed
f2
06
f5
f7
03
2f
f8
f4
08
f0
f8
f0
f1
0b
fc
06
05
f5
f0
fa
ff
fe
05
cf
ff
0a
f5
03
00
08
08
fd
97
07
ff
fa
f3
09
fc
02
0f
15
05
03
09
fb
0a
f6
fa
10
1a
fa
07
fb
f5
f6
0a
00
0f
09
00
fc
03
fa
06
04
f8
f3
90
05
06
02
08
fd
fc
1a
06
27
fb
04
05
fd
01
02
03
07
b1
06
fc
09
0f
02
fe
02
02
52
07
06
04
f5
04
f4
09
fd
8b
fd
fe
01
0a
fe
03
03
01
f9
00
f5
ff
0c
fa
fe
f6
fd
c8
ff
04
0b
00
08
f8
f5
13
38
05
f9
fc
08
f9
0d
06
f5
39
fd
04
06
fe
00
02
04
fa
49
08
01
00
06
00
06
fb
00
71
05
fb
f7
00
01
fd
fe
06
ab
02
04
02
f4
f7
ff
fb
07
3a
05
fe
05
06
02
f8
02
00
50
04
f7
02
02
03
f9
07
09
fe
ff
00
f7
fc
f1
04
f6
10
6c
02
03
f9
01
f7
f3
fc
fb
5f
04
02
10
0a
f8
f4
04
09
e9
ff
02
fe
ff
00
f7
00
f9
5a
ff
fe
fd
02
fb
01
fb
04
c4
03
04
fd
07
01
fd
09
06
24
f8
01
fb
08
f7
fe
f8
05
06
fe
ff
07
03
06
06
ff
07
07
ff
f9
01
fd
06
f1
02
08
60
ff
02
fa
fb
ed
fd
08
ff
d5
ff
f7
06
fe
0c
f7
ff
08
b8
02
fb
f4
05
02
06
fb
f6
ba
04
fd
07
fd
02
08
f4
f8
09
f7
fb
06
fb
02
fa
f3
03
99
04
f4
03
04
00
01
00
f4
22
06
ff
f7
01
09
f6
ff
fd
1b
fa
03
03
00
fd
f8
07
ff
c1
fc
07
fd
01
f9
0b
05
07
6f
fe
f9
f8
03
04
fe
f8
fb
be
01
f9
f2
07
ff
fb
00
fa
48
fa
fc
f7
fc
f1
03
f8
02
98
00
f6
08
fb
0b
05
ff
fc
b4
f3
fe
ff
fd
0a
07
f7
0e
ac
07
08
04
02
08
03
fb
06
3f
fd
fb
f3
fd
0b
04
02
fb
6f
f9
0c
f9
03
f4
07
03
04
11
f9
fc
0d
00
fb
0e
01
fb
a1
04
03
06
01
f5
f6
fa
03
00
08
ff
02
00
02
ff
03
f7
69
f8
f3
fd
03
f8
04
fc
fe
e5
03
02
fc
f9
fb
09
fd
f6
b7
02
f3
f9
fb
0b
fa
fe
04
f9
03
00
f9
09
0a
03
fe
01
e9
00
03
03
ff
04
0e
f9
fa
62
fc
fb
fb
02
07
ff
07
ff
f6
ff
f6
f0
fc
ef
ff
fc
09
fe
0c
fd
01
fa
fd
08
fc
01
d9
ff
01
0a
f8
00
fb
fe
05
47
07
06
00
03
06
fa
09
05
2a
ff
05
f9
04
fa
f6
f9
fa
70
09
06
08
f4
01
fc
05
04
3e
fa
0a
f5
04
0f
fd
00
07
4d
05
08
0e
fe
ef
fc
f9
ff
c1
00
f4
07
f7
fc
f8
0b
ff
f9
0a
fe
f9
08
f8
fa
03
04
c8
00
04
fa
04
05
05
07
00
39
04
0a
fe
fe
03
02
0a
07
49
09
f8
00
03
f8
06
fa
f2
e4
02
07
06
fd
00
fc
08
06
e4
fc
02
fa
ff
00
f4
00
fd
c3
06
ff
f3
09
00
ff
f8
05
0c
ff
01
fc
fd
fe
fc
ff
02
22
02
04
06
01
03
fc
01
06
39
ff
f3
f9
fe
f6
f3
ff
04
97
04
02
09
f9
fb
03
06
f6
db
fd
f3
fe
00
fe
fe
f6
00
6b
03
07
07
fc
f5
f1
00
fe
69
02
f7
06
fc
fc
04
03
02
2b
fd
f9
fc
f8
02
f6
ff
fd
10
04
f5
04
fe
0a
00
03
04
64
f6
03
00
07
06
fe
f8
05
e4
fd
07
ff
00
ff
01
02
ff
67
f2
09
01
fe
fa
fd
f8
06
8f
fe
10
00
fe
fe
06
01
fe
d8
00
07
fe
03
fa
f4
05
fd
a0
02
03
01
06
fc
f8
f6
f8
4c
07
02
fd
08
fc
f8
02
fd
d8
09
04
fb
02
ff
fa
fd
0c
07
ff
08
10
08
ff
f7
ff
01
68
07
f9
fd
06
f9
01
02
f9
20
fd
03
09
06
00
fc
01
00
d3
00
00
f0
02
06
09
09
04
d6
0c
07
05
fa
02
ff
f4
fc
6d
01
09
fd
fc
10
09
f1
04
3e
fb
03
00
01
fc
00
07
02
25
f3
05
ff
f2
06
ff
04
01
dd
0b
fe
f7
f9
07
fd
01
ff
b3
14
ff
fb
08
03
ff
0d
07
19
0a
01
00
fe
02
01
00
0c
0f
00
f7
02
04
f8
fd
01
02
6b
06
fd
07
02
fc
f8
f9
f6
99
0d
f9
f9
02
01
ed
fa
fd
3a
fe
10
f7
f9
ef
00
0a
01
fe
ff
fb
0d
03
00
01
fe
02
3a
fc
fb
0c
03
0f
04
f5
08
c8
f6
fb
fe
11
f1
fe
01
02
cb
fe
02
ff
ff
03
05
05
fe
a3
f9
00
0c
06
f7
f4
07
fe
2b
01
ff
01
fe
ff
f1
f9
fc
b0
02
ed
02
fd
fb
03
03
fb
e7
02
fe
f2
0b
00
03
ff
00
02
fb
f7
fe
03
0b
fb
01
fd
53
08
02
0b
03
fc
06
02
f8
e4
09
05
f6
02
fd
fd
07
04
04
05
f9
ff
0d
03
03
fd
08
0d
f5
05
02
04
03
03
04
00
5a
f5
08
02
fd
03
f2
06
fa
c0
08
fd
fe
f9
f6
fb
04
fa
d2
f8
09
f9
f9
fd
03
fc
05
f1
fc
07
02
02
08
fd
fd
ff
fb
f5
01
0c
00
05
fd
05
fe
d4
0d
f7
f6
0c
02
06
ff
00
22
fc
01
fe
ff
04
ef
fb
03
c1
f3
ff
0c
09
07
11
0b
fb
90
09
fc
04
fe
03
fa
f3
0b
cd
fd
01
0a
ff
07
00
fa
02
c4
ff
fd
f4
03
00
04
00
f9
5e
f0
03
02
fd
02
fa
f8
04
67
fe
ee
fd
f5
06
f6
fc
0b
c1
0b
f9
00
f6
00
fe
fa
08
96
0b
f4
02
02
03
03
05
f7
f8
01
fd
02
fe
f4
01
05
01
da
09
fa
06
05
fa
f3
f6
f8
39
fa
ff
fa
05
02
fa
01
f6
0d
f3
06
03
03
01
05
fd
fa
f1
ff
08
ff
07
f9
08
fd
fc
a9
02
0e
09
fb
0b
09
fa
02
34
05
fa
02
f4
fa
fd
fa
02
b9
08
02
0b
fd
0d
08
11
00
ff
00
01
02
f9
f1
0e
04
f9
f7
fc
05
fc
0a
fc
09
ff
f1
b5
04
03
f9
00
0a
f5
01
00
25
fb
fc
fc
fd
06
03
04
07
09
f7
01
f7
02
03
fc
fd
0d
0e
fd
ff
07
0a
f6
f6
01
00
f4
fe
fd
03
11
ed
08
05
01
f9
09
fc
fb
02
ff
05
00
ff
a9
fa
f8
0a
fb
15
04
fa
fa
08
fb
fa
07
03
08
04
05
03
a5
f8
01
01
ff
fc
f8
fa
02
18
fc
04
09
06
02
fe
00
f7
c5
fc
f7
05
fc
05
05
fc
0e
f4
00
f5
01
04
00
01
06
0c
28
08
fc
00
00
0b
fa
fd
ff
61
01
fb
02
09
fe
05
ef
06
1f
f4
08
fa
08
02
fe
06
fe
fd
01
f9
03
fc
03
07
ec
06
56
04
06
00
fb
0a
0c
01
0b
6e
0c
0a
06
0b
02
fd
0a
03
aa
0a
fe
01
fc
fc
01
fe
f8
3a
05
0a
06
f4
f2
fc
f8
f2
19
fe
fe
fb
fb
00
02
05
08
bc
0c
01
06
01
ff
fb
14
07
0a
03
f7
09
fd
02
06
07
ef
f0
07
03
ee
f1
f5
fe
f3
01
b8
04
00
fd
00
f6
02
fd
f6
b8
fd
fc
fa
19
0b
f3
17
02
3a
f9
f5
02
05
ff
0a
f7
0a
59
f8
06
01
f7
fb
06
07
00
15
fe
0c
02
f0
f5
01
e8
02
fd
fe
fa
ff
ec
fe
fa
05
fe
50
fa
f4
01
fd
01
00
f8
0c
cb
f2
f8
fb
0a
fc
01
f7
f8
aa
0c
fb
f3
0b
fc
fe
04
f4
38
fc
08
02
fa
10
fc
0b
02
ac
ff
05
fc
0b
fb
f9
03
fb
cf
10
f8
fa
11
f6
01
0b
01
f1
0d
01
f8
fd
05
0d
f9
f8
1f
01
09
08
06
fc
02
04
08
1a
00
05
02
01
01
f6
02
03
da
04
f1
00
12
03
08
fa
fc
d8
09
f9
f9
0c
02
fd
02
ff
d2
f1
07
fe
fc
06
08
f5
f2
33
05
f5
01
14
ff
f0
fb
10
57
01
fd
f1
13
01
04
03
f1
4e
0a
01
fa
00
f7
f5
ed
fe
89
0a
f6
03
14
07
f8
fe
06
d0
04
00
01
fe
f5
ff
01
f5
97
f7
06
02
f7
04
01
f6
01
12
06
00
ff
07
fc
07
fe
f9
16
08
01
07
03
fb
00
07
06
5e
01
ee
f9
02
fd
07
fc
00
4c
09
02
09
04
f1
03
fc
f9
0b
04
fd
00
01
fa
fa
03
f4
fc
01
f6
18
03
08
f7
ff
01
12
ff
0a
0a
05
02
0a
01
fc
98
01
0f
fb
01
07
00
f9
f6
ee
ff
f2
f9
f6
08
0b
06
04
14
01
02
f2
0a
f6
01
fa
ed
ea
06
fc
01
f8
01
fa
00
08
10
03
04
fa
04
fe
08
07
f9
9b
01
04
09
f4
ec
f8
06
ff
45
f9
04
09
ff
02
f7
0d
fd
10
ee
08
fb
f6
fc
f8
f2
07
99
00
0b
f1
ff
f0
00
07
f9
c9
0d
05
fc
fd
ff
fe
09
f8
9b
fb
f9
04
f6
03
ff
00
f7
55
0c
07
07
04
fb
02
f9
ff
43
09
f3
f9
06
01
fd
f3
fc
30
03
03
f8
00
03
fa
f8
fc
ce
06
f8
03
fe
03
00
05
06
40
fc
f8
05
fa
02
f3
fd
fe
f9
fb
07
08
fc
fd
ef
fa
fd
e5
f8
04
fe
07
09
07
fd
0c
f8
f7
fa
fc
05
02
fc
07
ea
32
ff
f7
f8
05
f7
04
f4
fb
2d
05
03
fc
fa
fe
fe
01
f8
d0
fb
f6
0c
04
fe
fe
fe
f0
27
00
f9
04
00
ff
0f
f5
fd
37
f2
03
f7
00
0d
fe
08
fe
a8
fd
01
02
0f
04
06
01
f2
fb
ff
04
0a
06
16
02
f1
08
bc
fe
05
02
0f
0b
fb
08
04
37
10
0b
05
0f
fd
05
13
05
9f
f2
06
07
13
fa
fa
0b
05
e3
eb
fc
04
fc
00
f6
00
03
bc
f3
01
08
fe
fa
fe
08
fc
4b
19
f2
05
05
fc
02
01
05
a9
fc
fb
ff
02
ff
fe
01
fb
02
fc
01
fe
fd
fe
fa
05
fc
0c
02
04
f7
02
03
04
fe
f8
eb
f9
f8
09
06
fc
09
f3
04
54
03
01
f5
fa
01
fd
02
07
cd
00
04
0e
11
fd
04
fe
fc
36
f2
07
05
f3
00
fd
fd
fa
63
0a
ff
fb
fe
03
07
0d
f3
a1
03
f8
08
06
03
00
01
ff
bf
f7
fe
02
06
03
f9
f3
02
45
fd
06
03
02
0f
f3
fd
0b
26
fb
03
fb
0a
03
08
f6
fe
a4
04
00
09
f9
fb
04
ff
04
c9
f5
fe
06
00
01
02
02
f4
1d
f9
09
06
fd
05
02
02
f4
d7
0e
0d
01
00
fc
02
01
fd
ce
04
ff
03
0d
07
fc
11
f1
86
02
03
00
09
fd
0c
09
fd
6f
fd
04
f2
f3
09
fd
10
ec
83
05
0e
06
0b
ff
12
f9
fc
d8
03
08
fc
05
f8
ff
05
01
d4
f4
ff
01
00
04
03
f7
04
a5
04
fe
09
04
02
04
fe
05
49
ff
05
05
08
02
fc
0a
f9
95
04
fa
0a
fb
0b
04
fc
ff
49
f8
fb
fc
fd
02
fd
00
08
01
fa
fe
0d
ff
f6
fd
07
fc
3b
fc
fb
02
fe
02
04
0c
fa
99
04
01
fc
03
09
fc
f9
05
4f
05
08
fb
02
0a
08
07
0c
59
fc
00
02
fc
ff
f7
04
fb
58
07
fa
ff
ff
fa
fa
0b
04
9e
fd
02
06
04
02
0b
02
ff
b2
fa
04
f9
05
fd
f2
01
fe
2d
f8
f9
fa
03
fb
f7
06
fc
97
fc
f7
03
ff
fc
00
03
02
6a
f4
f9
fd
f7
fe
fc
fe
fc
4d
fc
f7
00
02
04
0f
00
06
0b
fd
f8
ff
fc
03
ef
fb
f6
ed
fd
06
00
03
03
fc
04
f6
36
08
f9
ff
07
ff
09
fb
fe
e4
ff
fb
04
02
fd
05
f6
fa
92
08
08
03
01
f3
f9
fd
fa
e0
0d
02
06
01
01
00
fc
04
e4
f4
07
03
f6
09
03
03
05
46
00
00
fe
fd
02
0e
ff
02
12
fc
fd
fd
f7
f7
fa
02
fb
5e
f4
f8
fe
f7
fe
07
01
f1
21
02
01
01
08
05
f6
04
ee
9f
00
03
08
08
fb
fe
03
09
f6
f8
ff
f3
f8
05
fa
06
fd
03
ef
fa
03
04
f6
fe
fd
fe
44
ff
06
01
00
01
00
fd
03
89
03
05
00
fc
01
0b
f9
07
b0
03
0e
07
ff
ff
fd
01
fd
ed
00
07
06
0d
f9
f5
fc
02
f6
f9
f9
06
fa
03
ff
02
0b
42
f6
00
fd
03
fa
fe
06
03
55
05
fc
06
06
fd
f9
fa
ff
ac
00
fa
01
f5
fb
f6
fc
fb
9d
06
f9
08
fd
03
ff
f9
07
06
04
04
f3
03
0c
04
f6
0e
4a
02
04
fd
02
01
fb
fa
08
77
10
ff
fe
ff
ff
fa
02
fc
31
f7
f3
0e
01
fe
04
04
fe
1f
f9
fb
06
06
f8
fa
f7
ff
0b
00
f7
f8
0f
00
fa
fa
f9
93
fc
05
f8
fb
01
09
02
06
d8
04
03
0a
ff
fe
fd
f3
05
4d
fe
00
fe
f9
04
06
fc
02
b5
fc
03
03
ff
08
03
02
01
ba
05
02
fc
01
00
06
0b
fc
11
f3
f8
02
03
0c
0f
07
fe
4b
f5
f6
07
14
00
00
ff
ff
d8
fb
0b
fe
f7
02
ff
04
f9
ab
0f
fd
06
fd
03
00
01
06
a1
04
03
fa
03
06
06
03
fe
6d
f4
fd
01
04
02
0c
06
fd
07
f6
fd
03
ff
fa
fc
f8
04
2c
01
f6
03
fa
0d
06
08
05
54
f8
f0
00
fe
00
fe
09
07
cf
04
fc
0b
07
fc
00
ff
f4
4f
07
02
05
00
06
f8
f9
f8
55
03
f6
03
fd
f4
02
01
0c
95
02
ff
05
04
01
ff
ff
ff
25
08
0a
00
06
07
07
00
04
30
fd
fb
07
06
04
fd
fe
03
d2
fe
fc
02
fd
08
09
0e
06
0e
f9
ff
01
02
07
f9
01
01
d7
fd
fe
ff
f8
04
fd
01
07
a0
f7
02
f5
ff
06
01
08
f8
66
f8
fa
ff
fc
00
01
04
02
4e
f0
02
05
f5
02
05
f7
07
66
fe
06
0b
fa
08
f8
ff
fe
ce
00
fa
fd
06
03
02
fe
f5
8f
0a
fd
04
00
04
01
ff
04
43
fa
02
ff
05
02
f8
f8
f9
30
f6
fe
f9
ff
fe
07
01
fb
6a
fc
ff
fb
f4
0a
ff
fa
fc
43
09
fa
02
07
fd
f6
fc
04
b2
01
ff
fb
03
05
ff
fb
fd
c9
09
01
07
04
06
0b
00
fe
37
00
02
05
01
f8
fe
04
09
e2
03
03
fb
01
04
03
f5
0d
9d
03
02
fa
04
08
02
f9
fd
5e
f0
05
e5
09
04
fb
0b
00
1b
ff
fd
04
01
fb
03
ff
0c
12
f6
00
05
fb
00
01
f7
ff
b2
09
fc
fa
03
09
fd
fc
02
59
05
01
04
04
ff
fb
fd
03
3a
fe
fb
fd
06
fc
f3
02
02
f5
04
f9
00
fe
02
f8
05
02
98
05
08
ef
02
04
00
08
04
65
f9
fe
f8
f4
fe
04
fb
fb
33
05
ee
04
fe
00
06
09
fc
10
03
00
02
fc
02
03
fd
ff
df
09
fe
f7
f2
03
06
ff
02
cb
fb
07
0a
02
10
02
07
fc
30
07
fd
f3
04
f8
f4
f7
04
9d
f7
01
05
08
06
fe
f5
08
27
f8
00
06
02
0e
04
fb
fc
b0
fa
08
02
01
fe
0d
ff
f5
2f
02
fd
03
06
fd
01
f8
fe
ce
fc
04
f4
f5
01
ff
fa
fb
40
08
fe
fe
00
fb
0d
fe
08
93
05
f8
02
08
f3
fa
0c
fb
cf
05
02
07
06
07
f7
02
00
2b
fe
06
f0
0c
f4
09
09
00
fe
09
01
fb
f8
05
01
f8
ee
97
01
f5
03
fd
fd
0a
f6
04
ba
f4
04
f8
fe
fe
02
f6
02
d8
03
00
07
07
01
05
04
00
0b
f8
03
fb
00
f4
0d
04
02
af
fe
07
06
06
f7
01
f4
01
dc
02
06
04
ff
05
fd
fe
03
6b
f4
0e
fa
fd
06
0e
f7
08
e3
f4
f6
f1
06
f9
15
09
fb
df
10
f8
f5
fa
f3
fb
02
fe
d3
05
fc
02
fe
fd
01
f4
fd
ba
00
fc
06
01
01
05
10
06
13
0a
f2
fc
04
f9
02
ff
f4
e0
03
f8
f9
07
f9
fd
04
03
31
07
f3
ff
03
02
f7
f4
f9
b4
f9
fa
ff
01
0a
f8
f7
fa
3e
02
04
fc
06
0c
00
fc
00
59
f6
06
f9
fe
02
fa
f8
05
71
f3
02
ff
fc
0b
07
f7
fa
43
05
08
02
05
01
01
fd
07
bd
f7
00
00
f6
f7
01
05
06
18
00
fa
03
00
03
fe
06
03
ce
09
03
fa
02
f7
02
f9
08
1d
ff
fb
fb
05
fb
f7
f4
fc
fc
f2
f3
fe
04
02
05
04
fe
07
fa
06
f9
00
ef
05
f9
fb
c2
03
ff
03
06
fe
fc
fc
fc
49
fe
07
ff
f9
fc
fd
ff
f8
36
fa
00
f8
f4
07
05
ff
f6
2d
fc
01
fe
05
f9
0f
06
02
28
03
04
06
03
f4
ed
fd
09
e7
00
07
fc
f9
fd
eb
ff
02
58
02
f9
ff
fe
00
fe
05
04
a9
03
00
fc
04
ff
00
ff
08
da
00
ea
f5
0f
fd
f7
07
f9
ac
fd
f6
02
06
fc
0b
00
06
07
f3
04
fd
fb
eb
00
fd
fb
91
00
02
fd
fb
04
0f
fe
fc
6e
f4
fb
03
f8
03
fa
f8
06
07
11
fe
f9
fb
06
00
01
0a
ec
f6
f5
0a
06
04
15
03
04
46
f9
08
0a
16
00
07
00
f6
e5
08
01
fe
fd
fb
f5
f9
02
0f
03
fa
03
f9
fa
01
06
08
00
06
06
fd
fd
02
03
0c
03
56
fc
fa
fc
08
0b
17
09
ff
b0
08
f4
07
f2
ff
05
03
f4
94
03
fa
fa
f5
00
07
fc
fe
5d
fb
fc
fd
14
fe
00
ef
01
67
02
fc
0b
ff
01
09
03
f9
cc
fa
00
03
fb
f7
02
01
00
e2
08
f2
03
fb
f7
f8
03
0d
5f
fb
01
00
f9
03
0a
fe
f9
b4
03
01
fc
f6
f2
00
02
0d
43
01
03
0a
07
f8
ff
01
ff
36
07
f8
f9
fe
fa
fd
f0
f8
9d
04
09
01
00
08
08
fc
fa
ac
06
ef
03
01
02
04
fc
f8
e7
08
f8
12
06
f3
fa
04
fb
b2
fe
01
fd
fb
0b
fd
03
ff
48
06
04
01
05
fe
01
00
05
06
f9
f9
00
ff
00
07
01
05
eb
eb
01
f9
05
01
f5
f8
02
ec
fa
07
05
ff
01
fe
0a
04
9b
03
05
f5
0c
03
0a
06
fc
e2
04
f9
f6
fb
f7
fd
fc
f5
15
0d
0a
07
fd
06
fc
f4
09
29
fd
06
fa
f6
09
fd
03
ef
ab
06
00
07
05
ff
f7
01
f6
fe
f5
0a
fd
fa
05
fe
06
01
e9
00
01
02
05
02
fc
f5
fa
2a
01
f5
04
01
f9
fe
fc
03
35
0b
02
f5
f8
05
f9
0a
fa
f9
15
f9
0e
ff
0d
07
01
fd
b1
fb
fd
f4
fa
05
fc
fb
f4
da
05
08
07
02
fb
fd
03
03
9f
ff
f7
f4
f2
f6
09
fa
0d
62
f8
05
e6
03
04
09
fd
0b
e6
f7
01
f4
05
01
04
ff
f7
ed
f0
0b
09
02
02
0a
f8
f8
43
fe
f3
04
03
fd
f9
fd
fe
54
08
f5
fe
08
fb
01
04
08
68
f6
0e
0c
03
0f
f5
fb
f9
aa
04
fa
06
fd
00
f8
06
fe
cf
0a
02
fb
f4
fb
f7
00
05
e0
fd
03
ff
00
ff
06
fa
00
ed
00
f7
fd
03
fd
05
07
06
16
03
fb
06
fa
f7
fe
02
02
fb
01
f9
01
fa
00
fa
13
ff
37
fd
08
01
05
ff
fb
03
f9
65
07
02
06
f4
fc
eb
05
fb
41
fb
fa
04
07
fa
00
fc
ff
05
fe
fc
fd
06
f5
01
f6
fa
04
fb
ff
fc
01
03
03
03
f5
52
fb
00
03
04
ff
06
fc
fe
ed
fc
fd
f7
02
ff
04
f9
fc
16
01
04
05
fd
04
fb
06
06
1c
fe
0b
00
00
07
00
13
00
4c
fa
f7
05
01
0e
08
fb
00
bd
fe
fe
fc
06
03
f2
03
07
41
f8
03
f5
03
f1
07
0c
fe
2d
f9
f2
00
01
05
01
01
0a
d6
fd
0d
04
05
00
05
ff
ff
1c
fc
f5
fb
04
06
f4
00
fa
48
04
06
f8
f8
09
f4
02
04
fb
f0
03
03
00
fb
07
ff
08
ca
03
03
0a
02
fe
0a
f9
fd
9a
fb
fb
07
ff
06
00
fd
fa
eb
fe
ff
07
ff
07
04
f9
01
ea
fe
05
09
f7
03
fb
ff
f8
cf
f9
10
fe
ff
f7
02
06
fe
96
f7
01
fd
f4
03
f8
fb
02
68
06
0b
03
02
03
f2
03
f5
e5
fd
ff
fb
fe
fc
0b
fe
08
47
fc
f7
f9
04
0c
00
0e
0c
45
08
06
f6
09
fb
fd
03
fd
07
09
08
05
01
f9
04
f7
fb
be
04
fc
09
fd
02
fe
02
07
35
04
06
07
0d
f3
07
0a
0a
28
ff
fe
ff
f5
fc
fd
06
0a
da
0c
0b
05
01
08
0b
0c
fd
69
fa
f9
0b
00
02
fe
05
04
1f
fd
fa
02
fc
ff
f9
0b
fc
0a
06
11
fe
00
01
05
0b
01
1a
fb
03
01
05
06
fe
03
05
a7
fa
fe
02
fd
0b
02
0e
00
c8
09
fb
f7
f7
fd
ff
09
fc
e2
fd
00
06
02
08
06
0d
05
c5
f1
04
f3
07
09
02
fe
01
3c
fd
04
02
04
f4
fa
fb
03
b0
00
fa
09
fd
02
ff
f2
11
c2
03
00
0a
00
0a
04
02
01
b9
ff
01
06
03
02
ff
05
00
26
04
fe
08
01
0d
08
05
04
0f
03
00
03
f9
f5
fa
fe
fa
6d
00
f8
06
07
fd
f1
f9
00
27
fa
0a
fd
0e
18
fb
03
f5
20
f7
f7
06
0b
07
ff
01
f9
20
04
03
ff
f5
f4
ff
f7
03
17
05
05
fc
fb
00
fb
fc
05
eb
fa
04
00
02
08
f5
ff
13
f0
fb
10
02
fa
0a
fe
f7
02
03
f4
06
f5
06
f2
f6
00
01
49
fe
05
fd
fb
09
fe
02
05
17
ff
f7
02
ff
14
f0
0f
fd
fc
f9
fd
f7
10
f6
fc
04
03
aa
fc
09
fa
f4
08
fb
01
07
14
f8
01
0e
07
02
04
f2
fe
1a
fa
04
f4
07
03
fe
02
ff
15
02
09
fa
ff
10
07
04
06
ff
fc
fd
02
02
07
01
07
01
f6
01
02
ff
03
f8
fb
fd
fc
cd
0a
02
f6
06
f8
02
f6
02
2a
fb
00
05
fd
fb
01
fc
00
55
00
ff
f6
02
f8
f4
f9
fd
2b
05
00
f1
ff
fa
08
f8
04
9a
f7
f7
ff
01
f9
11
f7
fd
d3
fb
f9
04
ef
f5
01
01
fd
53
08
f7
00
f9
fe
f7
02
fb
3b
f5
09
fd
0b
f8
04
f4
02
22
ff
03
01
0c
0b
07
f7
ff
45
00
fc
09
f8
05
01
02
ff
60
0b
04
03
01
fd
f9
ff
f7
21
07
fe
f8
fd
01
03
f5
fe
0c
0b
0b
0e
08
01
fd
04
00
d8
03
fc
f1
f9
f2
02
f1
04
4e
0a
ff
ff
07
05
ff
09
fa
4c
00
02
ff
05
06
ff
00
0b
e8
03
ff
01
ff
fc
03
e7
03
dd
ff
01
02
0a
0e
fa
09
f9
01
fb
fb
f3
f1
0a
fe
05
08
9b
f6
02
f5
09
01
01
ff
01
4c
fa
fb
02
fc
fa
fe
f6
f5
a4
04
fa
fc
01
08
02
03
fc
65
fe
f5
02
f8
04
f6
fd
f9
e5
0d
03
f8
ff
00
08
00
fe
ab
03
fb
01
08
07
00
fc
04
d2
f7
f8
fb
fd
04
fc
fb
0a
07
02
09
00
05
f7
01
fc
ff
36
06
fb
f3
02
05
f8
f8
05
5a
ff
00
01
09
05
02
03
fd
98
fc
fc
fc
fb
03
fe
f9
02
b4
fb
fd
01
04
0e
03
02
ff
16
09
02
05
f6
ee
06
07
07
ee
05
06
04
ff
00
f8
f9
f2
df
0c
fc
01
05
07
fe
fe
03
01
fb
0c
08
f3
fc
f7
04
ff
e6
f7
f7
01
03
01
0a
fe
01
b4
05
01
ff
0a
03
fd
fd
fb
b8
0d
fb
fb
0c
03
fc
fa
f2
66
f4
fc
05
03
fb
0b
05
ff
22
f3
fe
07
fa
fe
ff
f8
f0
30
0d
03
0c
05
04
fc
f7
02
a5
02
0a
fb
ff
06
05
0f
fe
c7
03
0b
01
02
fc
05
03
f7
92
01
02
fd
00
0a
fc
07
ff
d7
05
03
f5
fd
00
0c
12
05
9a
fb
03
ff
0b
fd
00
03
07
fe
09
00
f8
08
f6
02
08
fc
0f
f7
00
05
00
04
f6
fe
01
0d
0f
07
fa
f7
fa
fc
fb
fd
ee
0d
09
ef
f8
fb
08
ff
13
fa
fb
05
01
08
f9
0b
07
fb
0a
f5
06
05
01
03
f2
f6
f7
b3
01
fc
0e
fd
02
fe
ec
fe
9f
01
f9
0a
01
00
01
f8
06
2b
00
09
00
00
fa
00
09
0c
ca
f4
09
06
f6
f1
f5
ff
fb
5d
06
10
02
f5
fc
fc
fd
eb
8b
05
0e
fe
fe
03
fb
fd
03
b8
fb
f8
f6
fe
fc
07
08
ff
54
05
0e
fa
0e
04
f9
04
fb
f7
0f
01
08
fc
fe
0a
fd
fc
3f
fc
fa
0b
08
fc
fc
f9
fe
05
0b
06
f7
fc
