0000000000000b1a
000000000000301b
ffffffffffffd235
00000000000004a0
fffffffffffffb60
fffffffffffff0bc
fffffffffffff046
0000000000002327
0000000000002061
ffffffffffffff8a
fffffffffffff133
0000000000000b90
ffffffffffffd925
0000000000002664
fffffffffffffe9d
ffffffffffffd8af
00000000000019e7
fffffffffffffae9
ffffffffffffcc32
0000000000002577
ffffffffffffd2ac
0000000000002e41
0000000000001030
ffffffffffffc542
fffffffffffff7ad
fffffffffffff5d3
00000000000001da
fffffffffffff30c
0000000000001c37
ffffffffffffce82
000000000000248b
00000000000010a7
