fffffffffffee20c
0000000000001a4b
0000000000005575
000000000000aaea
00000000000020de
ffffffffffff097d
0000000000005c08
fffffffffffefc57
ffffffffffff3781
ffffffffffffe26b
000000000001a16e
0000000000013840
fffffffffffed4e6
ffffffffffffa741
000000000000d5a5
ffffffffffffb7b1
000000000000e2cb
000000000000b810
000000000000f33a
0000000000003e73
00000000000041bd
000000000000d25c
0000000000005575
ffffffffffff3781
0000000000002e04
000000000000b810
00000000000058bf
ffffffffffffdbd8
00000000000009dc
ffffffffffff0cc6
00000000000058bf
ffffffffffff44a6
