000000000001427a
ffffffffffff5c1e
0000000000029f64
fffffffffffe5e5d
000000000000f32e
ffffffffffff66b1
000000000001e113
ffffffffffffcb22
0000000000025aaa
000000000001e113
00000000000059df
0000000000008973
000000000000a3e2
000000000000744e
0000000000006472
fffffffffffe0f11
ffffffffffffd06c
0000000000006472
000000000000842a
fffffffffffe78cc
000000000001c6a4
fffffffffffee7d0
000000000000b907
0000000000016cc5
000000000001d680
ffffffffffff21f7
000000000000ede5
ffffffffffff56d5
0000000000012d55
ffffffffffff2c8a
fffffffffffff56d
ffffffffffff3c66
