01
02
fd
fc
e7
01
00
fc
f9
01
ff
fa
fe
89
ff
f5
0e
06
0a
02
0e
00
1d
00
f6
03
03
fd
f2
02
04
28
07
07
ed
07
06
fe
04
05
de
fb
01
fd
09
fe
fe
fb
f5
9f
01
07
02
04
03
fe
02
fd
cf
10
00
f4
05
fa
06
08
05
e7
00
04
02
05
0a
06
f5
ff
cf
0b
fa
f2
05
02
f8
02
fb
cb
fa
f8
07
0a
f0
07
fc
04
b8
02
f8
00
04
00
01
fa
07
3c
01
f8
fe
f9
ff
f2
0a
03
62
f7
02
0b
04
fc
07
04
fb
c1
f4
10
06
fc
fd
fd
02
00
37
03
f4
f8
0b
fc
fd
ff
fd
c9
fe
0b
f5
ff
02
f9
00
0a
22
0a
04
f6
02
04
fa
fd
05
01
fd
fa
04
08
fe
fc
ff
fd
10
ff
09
fe
fa
01
0a
fc
07
c4
03
04
fc
0c
02
fc
02
f9
cd
00
fc
04
fb
f5
fc
06
0a
b5
03
00
fc
03
0d
fa
00
0a
24
02
f7
02
06
06
fe
09
ff
f2
fe
fc
00
04
04
fb
ed
fd
34
fd
f4
00
f4
fc
fb
f0
14
a1
fa
f8
fd
f9
f4
f9
0b
ff
00
fa
13
f8
05
f8
fe
05
f5
da
fc
f7
f9
01
02
fc
09
fe
41
0f
f7
06
07
02
08
fd
01
5c
fc
fd
fa
0c
02
f5
05
fc
db
e6
ef
fd
08
f6
04
00
fc
c8
07
02
f8
fe
f9
ff
ff
ff
9b
ff
fc
f5
ff
07
f7
03
09
35
ff
f6
fe
fc
01
06
09
09
5c
fe
01
f1
ff
03
02
f4
00
fb
fc
fb
0d
f9
fc
01
07
02
54
ff
04
09
fe
fa
05
f8
fc
02
f8
06
fa
fc
06
00
fa
fd
dd
fa
f9
01
06
f7
ee
02
04
11
05
09
07
fd
00
09
fb
fe
f2
f7
01
0f
00
02
fd
ff
04
0b
06
fd
fa
fe
03
00
fb
ff
2e
01
01
f8
ff
02
02
ff
05
b2
ff
02
fe
fe
fb
0c
fd
09
39
fb
02
02
04
01
02
00
f6
1b
ff
04
f7
05
fb
0d
fa
11
5e
fd
02
03
00
02
0b
fc
f6
11
fb
f9
02
fd
0a
0a
00
fc
34
fe
ff
f9
05
04
f9
03
00
e6
09
fc
fd
fa
05
02
03
fe
c8
f6
ff
04
02
fc
f4
fd
f9
3b
09
04
02
0a
ff
fd
00
ff
fc
05
fc
00
fd
00
f1
00
08
68
04
02
fd
fd
f8
05
08
04
48
02
00
f8
02
fb
fd
08
07
b9
0b
05
00
fc
ff
f5
0b
f3
f8
03
fd
0c
04
02
fa
fc
01
ff
fe
03
01
02
fb
01
04
09
e6
ff
03
f6
fb
fd
02
fa
ff
a1
0a
f9
f9
04
f7
00
00
06
c2
f5
10
fd
fb
00
ff
09
ff
3d
fb
01
f5
ff
07
04
f5
12
d1
00
ff
f1
fc
04
f2
fd
05
ca
fb
08
05
f9
07
0c
fe
fe
35
0a
fc
fb
fa
08
ff
07
fb
6f
0b
02
fe
fa
00
00
06
03
3d
03
09
fa
04
f0
0d
02
fe
d6
f6
03
02
f2
ff
f6
06
00
14
0c
fe
fd
05
11
05
07
fc
e3
00
f2
03
f5
00
09
07
f4
a2
f4
02
0e
f8
01
f8
f9
f3
51
06
00
0c
0f
fb
f2
f4
05
18
f7
04
f1
f3
f7
ff
f1
07
f1
02
06
03
0b
fa
fd
ff
06
c6
0a
fd
07
07
07
fd
09
fb
36
02
fd
04
05
02
fc
fc
fc
a7
f5
07
f0
fc
00
fb
00
03
9a
fe
fb
01
05
fe
f1
f9
09
2a
02
03
f3
f8
00
05
fe
05
e1
ff
ff
02
f8
0a
fc
06
02
bb
fe
f3
fa
fe
f9
fb
f3
00
05
0e
00
08
ff
f3
04
fe
02
bf
00
f6
00
fb
05
03
09
f6
93
f5
01
00
f8
00
01
fb
04
56
04
01
01
02
03
0c
00
03
39
0a
04
f9
f9
fc
f9
f9
fb
bd
03
04
fc
f2
00
01
fa
fc
2b
06
fc
fd
07
00
03
fd
05
04
05
fc
00
fd
06
fa
fe
05
25
fd
0a
0a
ee
05
fa
04
f9
61
fc
fc
f3
f9
03
03
05
03
43
0d
f4
fa
0c
05
f5
f7
fa
b7
09
05
f7
fc
f8
fc
03
01
f9
02
01
05
ff
01
01
03
fd
b3
01
f8
09
06
f0
0a
ff
08
31
09
fe
06
0f
fe
02
ff
04
92
fd
00
f7
03
fa
fd
f9
05
ba
ea
04
fc
02
01
02
f8
f6
0c
07
06
f7
ff
00
fc
05
ef
29
f6
f2
01
f3
f4
f6
fa
fc
94
fb
fc
ff
fa
fe
06
01
ff
23
fc
fa
f3
fe
0b
02
fd
fe
d9
f6
ff
0b
ff
01
03
f3
00
93
f5
08
f7
0b
f8
fc
04
f6
69
f7
05
02
03
fc
fa
12
03
2e
00
01
06
fb
04
00
04
03
56
0b
03
f8
fe
00
fa
02
f8
f0
f4
04
09
00
fe
02
05
f8
a1
ed
07
00
fc
fa
12
02
06
93
09
f6
f7
14
00
ff
fb
fb
17
fa
07
0b
fb
fb
0f
06
00
f5
00
f8
0b
fd
0b
0a
01
e9
b8
fe
fc
02
fd
f6
f8
0c
f6
0f
0b
f8
fe
f9
ff
0c
f8
05
e8
0a
ff
0b
f3
f6
fe
fd
f3
28
02
fd
fe
09
02
0c
0c
03
df
0b
0d
f5
01
0c
05
fc
fd
27
05
fa
09
00
f7
fc
04
f6
a3
fe
03
f3
02
fd
fe
f4
fb
cf
03
fc
11
09
fe
f3
09
0f
9e
fd
06
0b
07
00
08
f7
01
e8
f7
09
08
01
02
08
ef
fc
c2
f0
02
00
f2
ff
00
0e
04
36
04
0a
f9
07
f9
08
02
f6
44
fb
0a
f7
f1
03
f9
03
0c
fc
fe
f6
04
fd
f5
01
06
00
2b
f4
fc
0a
01
00
fa
f3
05
25
fb
f5
0a
02
02
fe
05
04
53
04
01
fe
fb
fd
fc
07
fe
f7
f3
ee
fe
f7
00
00
fa
02
d5
f9
f8
fc
01
0b
f7
06
07
bb
0b
07
06
05
f4
fa
03
13
e0
fc
ff
ff
02
0a
ff
03
fb
63
06
03
07
01
0a
f4
07
04
49
0d
12
ff
08
ef
fb
02
fd
dc
f3
07
01
fb
0a
03
fb
fa
a9
05
fa
fe
00
0d
03
0b
fc
a4
06
09
02
09
fc
01
fe
02
13
f7
01
f9
00
04
ff
fe
03
52
05
fb
f9
08
0b
01
0e
fc
98
03
fa
f6
02
03
07
06
fe
ae
f8
0b
07
fb
03
03
05
04
61
02
fa
02
f6
fd
f9
0a
0a
ae
04
08
04
f9
ff
07
fc
fa
ba
f9
08
0c
f8
02
03
fd
f9
51
02
f7
05
04
fd
04
00
03
a2
00
0a
fc
fe
f3
00
ff
f9
65
fe
f8
03
02
06
00
fc
f9
b3
f8
fa
0e
fe
04
03
06
08
b6
01
04
05
06
02
03
03
fc
2f
ff
f9
fb
fb
04
ff
fb
f7
98
fa
f5
fa
fd
01
04
02
fa
2b
10
eb
f8
ff
04
02
02
06
f3
06
09
f1
02
fb
05
fb
fc
1f
0a
0b
fb
fc
fc
06
eb
fd
4b
00
ef
06
ed
ff
06
07
07
69
02
02
01
00
f6
05
01
04
18
10
05
fe
09
01
0c
fc
03
3c
0b
00
03
06
f3
01
07
05
b0
00
02
0a
fb
05
fa
02
fd
aa
03
f9
06
01
07
fe
09
ff
b9
0a
06
01
f0
01
fb
fc
05
a2
f9
ff
f9
06
fc
08
06
06
ed
09
01
06
f9
00
fc
ff
09
04
fa
0e
fd
fa
01
04
ef
00
eb
ff
04
04
ef
00
04
08
f9
a4
07
0a
02
f9
03
fa
05
f3
14
f3
09
fd
01
fc
05
f2
fd
fe
00
02
09
f6
ff
0b
fd
fe
c5
f6
05
01
fa
04
07
06
01
35
f7
fb
fa
f3
0a
03
04
fe
bf
fe
02
03
fc
00
03
f9
fd
a3
07
fd
05
02
03
04
fb
fe
43
f7
fc
05
fe
fe
12
02
04
00
06
ff
ff
fb
fb
06
02
05
fc
11
f6
0b
02
fd
05
fa
ff
05
fd
04
09
01
01
f1
fe
0e
b4
f4
f7
fb
04
00
fe
fa
fe
0e
07
f9
fe
09
f9
ff
05
f8
b6
10
f4
04
0a
fe
06
09
09
ad
00
f6
01
fe
f4
07
11
fb
17
00
06
f8
04
ff
04
f3
f5
b9
f9
0a
f6
fe
03
fa
01
fb
4e
00
01
f3
0e
01
f8
05
f7
ba
08
ff
fb
fd
05
05
02
f5
ca
ff
fb
f7
19
01
00
08
f7
e5
fa
08
05
04
0c
f9
fe
fd
b7
f8
03
fc
fe
fc
0a
00
06
f0
ef
0d
05
f9
ff
f8
ff
fc
69
fe
00
01
f6
01
fc
01
02
02
01
01
06
f9
00
fe
0b
f9
41
05
ff
0a
f8
01
fd
f8
fe
d6
f0
fd
04
04
f9
04
fb
04
31
f5
09
ff
0a
05
f9
f9
f8
b7
00
fa
fb
01
fc
f8
04
03
a1
07
f7
04
04
11
f8
f7
f7
f8
fa
f6
ff
01
06
f9
fd
02
18
0e
08
03
fa
e5
f7
fc
fe
98
ff
ff
fb
fc
07
04
f9
f9
a7
fa
ec
fa
fa
fb
fe
fc
01
22
04
07
01
fa
fa
08
f8
ee
35
02
f1
f7
00
00
fe
04
f5
4d
f9
ff
0b
f9
f3
07
fa
01
1c
02
06
04
02
f6
12
fb
05
d4
0d
fa
01
f5
02
04
0d
0b
6c
01
0a
00
ee
03
fe
f4
f5
5b
01
ff
01
02
fd
f6
07
04
d4
f6
02
0e
02
f7
fc
01
0a
fb
08
06
fd
02
08
00
08
06
ef
fd
fb
01
0d
11
08
ff
05
b3
0c
ff
05
fb
fb
fa
12
0c
fc
ff
00
0b
05
06
04
0c
04
a2
14
0a
fe
07
ff
f5
05
fc
25
f3
f7
fd
03
fa
fe
f1
05
af
f9
fa
07
ff
04
0a
05
0d
51
04
fe
00
08
f3
fe
fa
0e
bf
fc
0c
01
0a
fd
05
0d
07
18
fb
fb
08
fa
fb
02
0b
f8
9b
fd
ff
05
f5
06
07
03
07
ec
fd
06
07
01
fb
fd
ef
f5
e4
03
fa
fa
ff
ff
05
fe
fd
04
ff
04
0a
fe
04
09
fc
01
0e
0f
0a
09
09
04
ff
00
f7
e2
fb
ff
00
0d
ef
fe
07
14
50
f5
00
f8
00
01
fd
03
01
d4
0d
08
01
ff
f7
02
fd
02
d1
06
02
07
fc
04
ff
12
06
b1
0a
02
00
fa
f8
02
0a
fe
e6
ff
16
f8
f1
fe
02
fd
02
1a
fe
06
04
f5
fb
fd
08
f9
2f
02
f8
fc
07
01
04
07
08
b8
06
ff
fd
fd
01
08
f5
f3
d6
f9
03
0b
05
0c
02
05
fd
e3
0b
07
0e
ff
01
08
07
0c
a7
fc
0a
01
f8
fe
08
08
fe
f2
fc
fd
f9
ff
07
fd
00
fc
81
07
04
05
f5
03
fd
f7
03
5c
08
02
0b
fc
ff
00
02
07
2b
00
fa
03
f9
fd
f9
0a
11
2e
02
01
fa
f8
05
01
02
f0
08
05
11
00
f5
04
fe
05
02
fd
06
13
09
f9
fe
09
f5
ff
e8
f5
fd
08
06
fb
f6
f9
f7
59
05
03
f1
fb
08
fb
07
06
49
ff
f5
00
0a
fe
fb
07
0d
b5
04
0b
f3
05
ff
f7
fe
00
ae
00
08
03
01
fd
f9
ff
fd
c9
06
fa
0a
02
00
fb
03
f7
17
f4
ff
f5
12
08
00
fd
09
a7
07
fb
03
09
0e
fb
f6
03
12
04
00
00
05
f5
f6
fb
0c
30
f7
04
01
03
09
09
05
03
60
08
0c
ff
f9
00
f7
04
fd
32
fd
fc
02
00
18
f7
00
f8
16
0c
05
08
00
fd
07
00
08
d4
02
02
00
fe
fd
f9
00
ff
cd
08
05
07
08
09
06
0b
02
e3
ff
fc
02
fd
fb
02
08
01
9c
03
06
05
ff
09
f9
fb
07
3f
08
08
05
0b
0c
07
0d
06
b1
fa
15
fc
ff
fd
03
f9
08
67
01
0d
00
fc
fb
06
f5
fe
d1
06
08
f7
05
ff
ff
f9
fc
f1
07
fe
00
f1
fd
f7
02
fc
32
03
01
07
fc
ff
fd
ff
f8
1e
0c
ff
00
f9
fd
03
08
00
d5
01
fa
03
f5
fa
fd
fe
05
f7
fa
00
fb
01
fa
fc
0b
0d
d0
fd
f4
09
02
06
0f
fb
0a
10
fd
06
fe
f9
04
03
0c
03
4d
08
f6
fe
00
02
fe
01
06
5c
00
0b
fb
12
fa
08
01
ff
ab
04
07
07
ff
05
f9
02
04
4c
f4
03
04
fd
02
06
f8
fb
e6
ff
0c
01
00
fd
fc
fd
03
97
07
fe
fe
07
04
fd
fb
f7
c2
fa
f4
02
fa
01
fe
05
06
59
fd
f8
04
06
f9
ff
fc
02
ff
0b
08
01
ff
03
fb
fb
02
b3
ff
fa
fc
06
fd
f6
fa
f4
2f
f7
f5
f6
11
01
01
03
02
d6
fa
f1
fd
08
04
08
f9
0d
34
fd
fb
fe
04
fc
01
02
fe
52
01
04
00
0a
fe
09
0a
02
64
06
06
03
01
06
fe
fb
f2
c1
03
fc
ff
fb
05
f7
f5
07
31
0b
05
fa
02
0b
02
00
03
30
06
fb
06
fa
0a
ff
f6
02
db
fa
04
05
f8
f5
07
f5
05
33
ff
0d
07
0a
05
f7
01
f8
ed
ff
01
03
f7
0d
0a
0c
0a
f3
f5
f4
fe
f7
07
fe
f7
fc
49
02
ee
07
01
fa
04
09
fa
24
0b
00
03
09
07
f6
10
05
a6
00
02
ff
f9
01
01
07
f6
06
f7
09
02
08
fd
0b
01
ff
ec
09
02
f4
06
06
18
15
10
aa
fc
ff
f8
06
fb
0c
fa
fe
5f
0a
0a
fe
09
07
f5
f7
04
5e
03
ff
00
06
05
fb
fb
f6
e7
0a
05
07
fe
fc
ff
01
ef
da
04
fc
0a
07
03
fc
02
fc
50
00
03
04
02
ff
0b
ee
fe
3a
00
f7
06
fc
f6
0c
00
05
3d
03
f9
f7
09
ff
0f
05
0e
50
f7
f7
fe
fc
03
fb
06
fe
db
07
f9
fd
fc
02
00
fb
f1
20
07
ff
03
00
ed
0e
10
01
62
01
fe
02
05
03
06
05
fe
ee
f5
02
05
fb
0a
03
09
f6
ed
f7
fd
02
fb
04
f7
09
02
ab
f4
fd
fe
0a
05
0b
f6
0f
1d
f6
08
03
00
ff
ff
fe
01
2b
f9
0d
07
00
fc
f8
fd
f8
f4
fb
03
00
f7
03
fd
fc
00
af
f7
03
fc
f9
fc
0e
0d
f9
da
fc
01
06
03
fc
ff
fb
0c
92
01
0a
04
fa
fb
02
07
02
0a
f0
00
02
03
fd
05
03
03
a2
f9
08
fa
00
13
05
ff
fb
36
02
01
fb
07
f8
f7
0b
06
63
04
f4
0f
fd
04
0d
05
07
3f
f9
fc
fe
03
f6
ff
fc
f6
17
04
03
f6
0a
02
00
0e
09
8e
04
fd
05
fd
02
fe
11
00
fc
f9
fb
fe
f7
03
fe
fc
fc
02
00
04
f6
07
ec
fe
04
08
66
11
02
08
fa
0c
05
fb
f6
f4
fa
ff
ec
fc
f4
01
ec
f7
0e
f9
fe
01
01
00
07
f9
03
27
f6
fc
02
f6
02
01
01
fe
bb
0a
f5
03
04
fe
f0
09
ff
5d
fc
01
f6
07
03
f5
0c
ff
e4
ee
fc
00
f5
08
f9
05
f1
a0
09
f1
f9
11
1a
fb
03
fd
4b
f9
ff
f6
0f
05
02
fa
03
12
00
f6
05
02
03
06
f4
03
9d
fe
02
0b
fb
04
fa
02
fc
18
06
0c
f3
07
02
00
f8
06
a0
fa
00
00
fc
09
f8
f4
ff
fa
fb
fa
08
fd
f9
f8
00
00
1c
10
02
03
f8
f9
0a
04
ff
ce
fd
f9
fc
04
f7
fb
fe
f5
2e
0b
06
04
fc
fd
fd
ff
fa
04
06
fe
05
ee
03
f2
01
00
9d
03
02
02
fd
01
fd
0a
f3
9d
0b
02
f4
18
0b
06
fc
fb
d3
08
fe
fe
02
01
fc
04
fc
b8
f6
f3
07
06
f7
00
03
02
f2
02
0c
f8
04
fc
ff
fd
f4
c8
01
07
00
0a
f5
09
f5
f8
cb
fd
02
fc
fe
0e
fe
01
fc
0a
0c
f9
14
00
fb
00
0f
07
5a
10
04
1e
03
03
ff
05
fb
db
05
fa
ff
03
00
04
fe
0d
14
03
05
03
06
0b
08
03
fa
f2
02
fb
0a
f4
02
08
00
04
39
02
0b
fd
f8
e9
f6
03
fb
ef
02
06
fa
0f
07
f3
07
fb
0b
0a
fe
19
04
fa
08
02
f5
8c
00
09
f8
fb
ef
01
f4
ff
54
01
04
f9
01
0c
03
ff
02
38
01
03
f7
fa
00
08
fd
f9
bd
02
f0
01
fe
01
fa
04
0a
ee
ff
fe
06
04
0b
f3
fc
04
da
00
03
f6
06
ff
04
03
f5
35
08
fb
ff
02
0a
09
fc
fb
ba
00
f7
07
09
f9
0f
f9
f6
44
07
ff
f7
00
fe
08
f7
0d
3a
f7
ff
fc
f6
05
03
f7
f3
1b
ff
01
f1
05
fb
03
fd
fe
b7
f6
fa
f4
f9
0e
f9
fa
01
6e
f2
01
f6
00
01
fd
06
ff
ca
09
05
08
f6
00
f6
0a
02
dc
06
05
10
01
f2
ff
f9
ff
c1
f7
fe
f8
04
f5
04
f9
02
27
01
00
0d
fc
08
05
06
01
06
0c
05
09
00
fc
f9
05
ff
a9
08
fc
05
0d
14
fa
fc
05
65
00
02
06
03
08
fa
07
f3
60
05
fa
0b
08
f7
f3
fb
0c
64
02
02
fb
f9
05
08
f4
07
a4
02
05
f4
08
fc
01
fc
fa
eb
fe
fe
02
ff
04
09
06
02
f9
04
fd
fd
01
fc
fa
04
fe
b1
0a
02
fc
ee
04
03
00
00
37
f4
00
04
0a
06
fe
0d
05
b2
0c
00
01
f2
03
fa
03
fc
f9
f0
05
f5
0b
0f
fa
01
f6
e6
08
05
fd
f0
fe
fd
01
00
b8
0b
05
05
f4
ff
f6
f6
f5
56
fd
01
eb
05
f2
f9
f7
f7
c3
05
ff
09
f7
00
ff
fb
fe
d0
05
00
04
08
fc
ff
02
06
f5
00
f4
fc
00
f9
fd
fa
07
d5
01
03
02
fb
f7
04
03
06
56
02
09
00
fe
09
02
0d
fe
dd
06
0a
02
fa
00
07
0b
00
8c
00
04
00
fe
03
fb
0c
01
ec
0d
f3
0a
02
0e
f3
fc
fe
e1
10
ff
0b
02
f8
fa
04
05
43
fa
fd
fd
07
04
01
00
f4
1d
fe
fe
f6
fd
00
09
0e
04
3a
fc
fe
03
07
fc
fe
fd
fc
e4
04
f9
08
fa
06
0d
06
00
9e
f8
04
07
03
09
00
05
f9
18
fa
05
f4
ff
fd
f9
f8
00
b3
f8
06
f9
01
f5
03
f7
fa
d9
fd
00
01
fa
f6
01
fe
fd
3d
f7
06
fb
fd
0d
01
0d
f3
ae
fe
0b
06
fe
06
fe
04
04
35
f7
ff
fc
09
05
fc
f7
04
1f
fb
fc
0d
f6
ff
fe
04
fb
39
f8
fc
f9
09
06
02
08
05
35
f8
fc
0d
02
03
01
04
f5
f7
01
fb
f7
f7
fc
01
f8
09
47
00
03
fc
01
05
0b
f7
fe
ce
fc
ff
06
06
fd
fe
09
f7
29
06
fb
06
f8
0a
04
fb
06
f0
08
0a
f1
00
fd
0e
05
03
4e
f8
ff
fd
07
fa
03
f7
f3
47
10
0d
02
05
00
f5
fd
05
53
0e
f8
fe
05
05
fd
0b
10
a7
05
fa
fe
05
08
0b
fa
f0
2f
07
f9
05
11
12
02
07
0b
d0
10
00
f2
02
0c
01
f9
03
1d
05
06
fb
0a
00
fe
f5
01
f0
ff
00
04
ff
f3
0b
fa
f8
31
ff
00
08
00
fe
03
05
f5
25
0c
02
03
03
03
07
fe
00
9c
05
0a
fd
04
01
09
f1
fe
61
08
fc
f6
fc
00
06
ff
07
cf
0c
03
f5
05
04
0d
ff
0d
b5
fe
01
f2
07
fd
f9
fe
fe
c2
fb
0a
06
03
f2
06
f9
f7
c4
fd
fb
03
12
ff
fe
fd
f8
c7
f4
fe
fc
fc
f3
fa
07
14
61
fa
07
fb
09
00
08
0e
08
b8
03
00
06
11
ff
f7
0b
09
4d
01
01
f5
f1
fb
00
f9
fc
23
f0
fc
00
00
04
05
f8
04
c2
fd
fd
02
02
f3
fc
fa
0f
4f
04
04
06
fd
fe
f7
01
0c
9d
f8
ff
f3
f6
06
0a
01
fa
cc
12
00
03
07
08
fe
fa
f9
5e
fc
ff
03
06
0a
fd
f6
f4
6d
fa
00
f9
f0
0e
fa
00
07
f3
01
07
fe
fe
03
f9
fd
02
05
f6
fb
f9
f7
08
0a
f7
02
f7
04
02
04
07
f8
fd
03
fd
18
02
04
03
f6
fe
05
06
03
cb
f9
f3
fc
e8
03
08
09
f3
db
08
06
04
f3
00
04
f9
f7
b6
02
ff
f0
fe
f9
f8
0f
00
d0
fe
fb
00
ff
fd
fe
0a
02
c4
02
03
0b
fc
06
07
05
fa
9d
fc
03
01
07
01
03
0a
0c
43
06
07
fb
f8
02
00
00
01
10
06
00
fe
fd
12
0c
10
fe
31
f4
00
02
03
03
09
f8
fa
2f
ff
07
01
ff
f6
fc
fa
fb
e8
00
02
08
00
fc
05
09
fb
a1
01
09
f4
04
f6
04
fa
00
4f
fa
f9
0b
f2
fc
fe
fd
03
4b
ff
fc
fd
0a
00
f7
fc
08
dc
07
0b
fc
f5
06
07
f8
f5
8f
05
01
06
04
04
fb
00
fe
03
06
fd
fa
04
fe
f9
01
0c
22
07
0b
02
0c
05
ef
f9
05
e2
ff
01
f5
01
fe
fd
10
fd
f0
f6
ff
f0
fc
fe
02
15
04
e6
f9
09
0c
03
09
09
01
00
4d
f2
0b
04
09
03
f9
03
fa
4c
ff
fe
0b
fe
fe
00
01
03
c4
04
06
00
fb
fd
fc
f8
0c
1f
f1
0b
02
f6
08
04
0c
fe
cc
01
0e
fe
f6
f6
04
f6
fd
c2
fb
03
f8
03
09
fd
04
02
a0
f6
06
f7
f0
04
fc
fe
02
cc
06
fc
03
fd
fb
f3
00
06
14
01
05
0c
05
fb
0a
07
01
df
08
06
07
fd
00
00
f8
08
4c
01
06
07
fb
07
03
09
01
a7
07
03
01
ff
f9
09
fd
02
04
01
0d
03
02
fe
02
14
06
2c
04
08
ff
f7
f7
ff
09
fe
d8
09
0f
fb
fa
05
fb
f1
fd
23
06
fa
08
0e
f8
f6
06
fc
41
fb
03
04
f4
fa
09
fc
09
f4
ff
03
05
f9
08
f6
0e
0c
5c
ff
01
01
04
04
09
0a
00
ef
f7
05
00
05
05
00
09
fb
5b
fc
04
05
f5
03
fd
fb
fe
e3
0b
02
09
ff
05
fd
0c
f8
0b
fb
0b
05
f3
05
fb
05
03
fe
00
0d
01
f9
f7
fd
04
f8
a4
01
04
08
fe
f6
00
f8
0c
f2
ff
00
02
fd
fe
06
fc
ff
ca
f6
07
f7
00
01
01
05
fc
19
fc
fd
fa
f2
08
f8
06
03
b3
00
fc
fa
f9
06
03
05
ff
37
0b
02
06
03
01
f8
f4
02
64
0c
05
06
fe
ff
02
f5
01
05
f3
fb
02
ff
f2
06
f5
02
2e
fa
f9
fc
fc
ff
00
0a
f6
d5
03
05
ff
02
02
0b
fd
fd
35
01
05
04
fd
fc
fc
f2
07
dc
02
ff
02
fc
06
fd
0f
0b
ed
06
11
0c
00
f9
0c
ff
02
55
ff
ff
ff
01
04
07
04
02
f2
06
04
fa
fd
fb
06
00
ff
2c
fb
f8
ff
0d
f6
f9
fb
09
b1
f7
fd
fa
02
f1
f9
01
03
0d
ff
ef
01
04
04
ff
0b
02
02
00
02
fd
06
fe
f3
01
fd
51
04
ff
fd
f9
fd
f8
fd
03
15
01
0a
fd
f7
02
01
f4
08
30
f9
ff
f9
fa
0a
f8
03
03
2a
0a
01
f1
ff
ea
f3
fa
06
a0
01
fb
04
fd
08
fd
fc
04
72
00
00
ff
07
06
00
fb
02
10
ff
f9
03
fb
f7
08
fa
00
fb
fb
fd
fc
0e
08
fc
05
09
ae
00
fd
fe
0f
06
f8
0e
ff
63
fe
09
ff
fd
fd
07
07
01
df
fb
ff
fe
f4
04
05
fb
09
5a
f2
f9
0b
fe
fe
f8
fb
0c
f2
fd
fc
03
f7
01
f9
f6
03
08
02
ff
00
f5
00
00
f6
fc
c9
07
f0
09
02
ff
04
f8
00
5a
00
01
0d
fa
00
fd
01
f5
3c
03
01
f9
fd
0e
0b
05
09
42
0b
00
0d
07
f7
02
f7
fb
f8
02
fe
04
f7
06
fe
0a
01
23
f9
fc
f3
03
fd
fd
04
02
05
01
04
0b
fd
03
09
00
f9
2f
04
fb
01
06
fc
00
fb
00
fd
03
00
f8
06
fe
ff
0b
f8
47
03
00
f9
fd
ff
09
fc
04
d1
fd
fc
fe
f8
fa
f4
04
06
af
fd
02
fe
0d
fb
07
06
04
fc
fb
03
f1
06
12
05
03
08
c4
f8
04
f7
06
f1
f9
fa
fb
31
fc
04
01
fe
11
03
07
02
06
07
02
f8
03
06
01
01
0b
c9
f6
f0
ff
fd
fd
04
f9
fe
df
01
03
00
00
07
0a
fe
fc
ec
09
fd
fd
04
09
ff
0a
00
22
07
0a
08
04
0e
ff
00
01
38
0e
f9
fd
ff
06
fd
fd
fc
a4
0b
fc
02
09
03
fc
fe
04
5f
01
02
f5
fe
02
ff
fa
fc
af
f8
fc
01
08
01
03
ff
f4
31
0c
fd
f5
fa
07
05
01
07
00
fe
01
fd
ec
03
01
06
06
cd
fc
fb
04
0a
fa
06
f6
f4
9c
06
ed
f9
04
fa
f7
0e
ff
fc
01
00
f3
f2
04
00
04
fa
3a
02
08
fb
fa
fe
fc
0c
ff
9c
07
fc
00
f3
f8
ff
01
fe
b3
ff
fd
04
02
02
f9
fc
02
d3
fe
0f
f7
01
08
fc
08
f9
2e
0e
03
07
07
f7
f1
01
f7
41
fa
01
08
02
f5
02
ef
f7
e3
f8
0d
01
fe
00
04
fd
fa
06
f6
05
01
07
06
03
fc
fa
7f
fe
fe
f8
0f
fa
fa
01
03
5a
f7
07
ff
06
ff
fc
fc
fe
56
f8
04
04
05
08
00
fe
fc
24
fe
fb
fb
ff
f7
05
04
fb
dd
08
05
07
08
0a
08
05
07
1d
f0
0e
fb
fe
05
00
f6
f8
21
03
00
fc
07
02
fe
07
0a
09
07
03
0b
00
05
0a
08
03
68
05
fa
00
01
0a
01
08
04
60
09
09
04
f0
f6
f9
fe
06
9f
04
06
00
05
ee
02
06
06
db
fe
05
fe
08
04
ee
03
fc
1b
0c
07
f8
09
f6
03
fa
01
d9
f8
04
05
12
f9
0b
f6
fa
1d
03
fc
fc
fc
ec
07
f5
07
56
0e
fd
fd
fb
ff
00
01
06
fc
02
ff
ff
ff
f6
f9
f6
08
b0
fc
ed
fa
f6
00
00
01
0a
08
04
02
06
00
06
05
f9
0d
e0
f4
f4
06
fa
f7
ef
fb
fc
3b
ff
08
01
fb
fa
05
f4
06
b0
11
ff
fe
01
f9
0a
fc
07
dd
05
f8
01
04
00
f9
f7
f6
43
03
f4
f4
f8
07
0c
06
0a
6b
ff
ff
09
05
06
05
f4
fe
5e
fa
07
ff
04
f7
0d
fb
01
c5
0c
06
ff
0b
05
05
01
fb
02
f5
00
ff
09
05
f8
01
fd
f7
fd
fa
fc
f2
02
03
08
fd
08
fd
00
04
04
19
00
ff
04
a2
fd
00
06
03
f1
08
04
f6
a0
02
fc
05
08
fa
06
fe
08
42
04
03
04
0b
0b
fc
fb
08
6d
04
fc
ee
ff
09
0a
fc
07
18
fd
06
01
00
f0
09
fc
f9
62
08
f9
f5
00
f5
08
0d
fd
9c
03
f7
00
ff
09
fe
02
ff
54
02
02
fa
08
01
05
fa
01
29
10
fb
05
05
01
fb
ff
04
3f
fb
03
08
fd
04
05
f8
08
a8
0e
f7
00
10
02
fe
0a
04
3f
f6
09
07
fa
09
08
f9
fd
36
08
08
ff
0a
04
ff
fe
01
e1
f3
ef
08
f9
02
0b
01
08
64
01
05
fd
07
ff
ff
03
fa
b8
00
08
03
06
08
06
02
01
e1
f7
f9
03
01
09
fb
0b
f5
6a
04
fb
01
fa
05
fd
ff
fc
98
00
02
05
00
fa
ff
f4
0a
3f
f9
06
f7
04
ff
f6
ff
fe
67
01
f4
00
fe
f9
f6
f9
fd
62
08
ff
07
06
f5
fe
f5
00
09
0c
02
f3
05
02
ff
ff
fa
69
01
f7
0c
fc
09
ff
0e
ff
a6
f0
f7
0c
fe
fc
fe
16
00
b0
fb
fc
fb
fe
0e
fe
fc
fa
af
09
f7
fc
f9
02
fe
0a
fa
51
07
fb
01
05
f9
fe
fd
00
ba
05
f0
03
fa
04
fd
fa
fd
d7
08
ff
fd
09
09
00
fc
fe
f2
06
07
01
00
f7
fa
fa
fa
45
01
f0
fc
0d
fd
fd
0c
01
e2
04
fe
fe
fd
fe
06
07
01
66
03
01
04
03
01
0d
fc
fe
04
f9
fc
f2
01
06
01
03
09
bb
00
f6
07
f9
00
fe
f7
fc
6f
00
f3
05
f6
fe
01
fb
fc
15
fe
09
03
ef
fb
08
fe
f4
02
01
04
f9
ff
fb
0d
fb
08
e1
06
02
f3
02
04
f4
02
fd
d4
01
f8
01
02
f8
fa
f3
03
36
02
06
f5
09
f8
fb
05
fa
d1
ff
fb
10
ff
fc
f9
f2
01
c5
06
08
f9
03
08
f8
07
00
99
fb
05
04
04
f1
f7
03
02
6c
00
07
f3
03
f8
fe
f4
fc
04
fc
06
00
08
f1
f7
04
f9
16
05
f7
06
01
00
f8
0c
08
e6
fc
ff
ff
fe
fc
f7
04
0b
53
fb
f0
f5
f9
fd
06
f9
03
23
f3
0d
fd
05
f1
07
05
ff
3d
ff
04
ff
fc
0e
f7
0b
fd
01
fd
04
f8
f4
fe
04
f9
f3
9d
00
01
fb
fe
fa
01
09
fa
4b
ff
fd
02
f5
08
f9
0a
01
28
fe
04
01
07
02
fc
05
04
6c
07
f3
f8
04
fe
0c
00
0c
fe
f1
fd
01
f6
02
ff
12
f0
be
0d
f8
f8
f9
fe
f0
0b
08
5a
fc
fc
0c
0a
00
f8
ff
fe
f6
f9
ff
12
fd
fb
fd
0a
f2
d1
00
05
05
07
0c
03
fb
fd
db
0a
03
06
fc
04
05
04
06
d5
f9
f8
09
05
fe
0a
f5
fc
a5
0a
f6
03
ff
03
08
00
fc
3a
06
f5
01
02
f1
03
fb
f1
5f
fc
fc
f5
f9
02
03
01
f8
c0
f8
f7
09
05
0b
fe
02
00
01
f9
ff
f5
00
fc
ff
0c
f6
07
01
00
f6
03
0d
0f
fe
fb
ef
03
fa
07
06
fe
07
fa
fd
d9
fb
03
0e
fa
02
06
03
02
13
fe
ee
fe
fc
f8
02
fa
f9
98
0a
06
fe
02
f8
fd
fe
fa
9d
0c
00
00
09
0a
04
07
f5
b3
02
02
07
01
f6
fd
08
fa
5e
f9
00
06
05
fc
06
05
0d
df
06
01
ff
09
00
fe
11
fc
e2
f8
fb
05
09
fc
07
f8
06
55
01
fd
07
fe
08
f5
06
f5
93
f6
fc
ee
02
f0
fd
f9
03
b5
0b
ff
fe
06
f3
03
f4
02
3b
f0
f6
0d
fe
12
00
fc
fc
ff
fd
fe
fb
01
04
02
ff
03
cc
07
09
06
00
fd
00
fd
fb
5c
05
f9
f7
fb
ff
fa
08
fa
ac
0d
03
f9
fc
01
0b
f7
03
e8
02
fb
fd
f9
08
14
fb
0c
20
fd
f0
ff
f9
01
01
0c
07
19
01
fd
f4
02
fc
04
ff
fa
1e
f8
00
08
fc
ef
f6
09
f9
d3
fd
02
02
01
fb
07
f7
f4
58
03
07
01
fb
0a
f7
0a
fa
34
01
03
fe
fe
f7
fa
f5
fe
b0
ff
f8
0a
fd
06
f4
02
00
d8
fa
02
05
f9
09
ff
01
05
00
0d
07
ff
06
02
05
fb
f9
e9
f6
00
fc
00
fe
f4
0a
fe
cd
f6
f5
05
ff
f9
0f
f7
03
4f
ed
00
06
08
02
fd
f6
09
ac
00
01
02
05
05
07
04
01
a3
fc
fa
08
f8
fd
00
07
f3
8f
fd
fb
02
f9
fd
ff
0d
00
e9
f7
0c
fd
06
f6
02
ff
f8
04
f9
f4
fe
00
05
01
fe
03
1f
01
05
01
04
f5
08
00
04
11
04
03
ff
07
f7
f0
06
f6
e0
ff
08
06
fe
00
05
f6
00
8e
fc
fa
04
fe
01
fa
05
04
15
fa
0b
0c
ff
03
02
f5
fd
ab
01
01
f7
0b
fe
fb
fa
f0
01
06
f8
08
01
f8
fe
f2
fc
59
fe
0c
fc
f2
05
fd
05
01
e7
f5
f6
ff
e6
ff
03
f8
ef
2e
f7
f7
fe
ff
fc
09
fa
04
1a
05
07
f9
fa
fc
01
fd
fa
2d
fc
0f
f7
01
01
00
fe
f4
d4
00
fa
04
0b
08
00
05
fe
da
ff
fd
fd
f9
00
09
04
07
59
03
0b
01
0b
fa
03
f3
04
02
05
04
07
0c
04
fa
0e
01
c4
fe
f3
ff
e6
ff
f8
fd
fd
5a
06
f2
04
07
0b
f4
f9
f7
1f
08
ef
09
01
02
00
08
fd
b6
ff
f7
fe
f9
03
fc
04
02
c0
0e
fe
f7
0b
fe
fd
fe
03
08
04
f0
ff
fb
00
f8
f7
01
3e
ff
fc
fb
f8
0f
f2
14
01
2d
07
fb
f9
11
f7
f0
f9
ef
ae
06
f7
03
f6
f9
10
f1
fc
ae
f9
ff
f7
01
fd
ff
fc
05
4e
05
00
0c
06
fe
01
ff
0d
b9
fb
08
04
04
f8
02
00
04
c7
04
fb
03
0f
f8
00
fd
ef
a0
00
f7
ff
06
05
0b
fa
01
2e
04
fd
05
ff
ff
fc
fb
f0
45
fb
fd
fc
01
fd
06
08
01
55
fe
04
ff
f9
0d
f9
fb
fc
13
07
0d
05
14
03
fe
fc
fa
24
fa
00
07
f8
fa
ff
fa
02
eb
fe
06
f5
fd
f2
02
fd
f6
5a
02
ff
e3
05
04
f2
ef
04
0a
07
ff
fd
01
f8
05
f5
f8
ff
f6
fd
06
fd
f5
fa
f7
fa
64
0d
00
01
03
fa
fc
00
02
6e
09
ee
04
04
09
fc
02
04
27
f3
f4
08
f8
05
02
0c
f8
18
05
fe
ff
ff
04
01
09
11
e5
f2
02
fc
0a
03
02
0a
fe
d2
f8
f7
01
fa
04
f6
05
f5
6c
00
00
09
05
f9
f9
03
f8
ff
04
fe
fa
04
f7
ff
f7
f8
2f
09
fc
f0
06
03
f9
0a
00
d3
01
f1
fc
fd
f8
ef
f2
00
ff
ff
09
f9
02
fa
fd
fd
fd
06
ef
0e
fc
f3
f7
08
03
01
e0
f3
fa
f4
02
00
0a
00
f0
27
00
06
fc
fe
f8
f2
01
0a
59
04
00
0c
fd
03
fe
0b
02
a7
fb
fc
0a
fe
06
09
02
0f
44
ff
0a
fb
08
f8
fd
f9
ed
37
00
03
f7
04
fd
02
02
0d
f1
07
fe
00
03
ff
02
fa
f9
19
01
0b
fc
f9
03
15
11
0f
02
01
10
ff
02
01
f7
07
fd
cc
06
ff
ff
fc
f5
fe
06
f2
6d
03
f9
fa
fb
ff
07
ff
08
4e
03
08
fd
ff
fb
fc
f6
fe
df
fe
fb
ee
fc
02
04
09
07
42
04
fe
13
03
fa
ff
0a
fe
5e
01
ff
fc
ff
ff
05
02
f9
b6
fc
0a
08
03
02
f8
05
fa
76
f9
f7
01
f8
fe
0b
f4
f5
2f
07
03
fa
0c
fd
fd
13
f3
9d
01
f9
02
f3
05
fe
01
02
3e
fe
f5
ff
ef
fe
00
05
f1
5c
f7
04
f7
01
fd
0b
f9
00
27
ff
04
f9
16
fc
05
0a
04
27
fe
f8
f6
f8
0f
fd
f7
f7
05
f8
03
00
fa
0a
f6
09
fb
25
08
03
f5
01
f9
f2
f9
fb
52
f7
f4
f9
ff
fe
f5
00
fe
14
08
00
0a
05
07
ff
f8
f6
df
fc
04
fb
03
01
04
fa
00
21
00
04
fa
fc
fd
02
f8
08
09
fc
02
00
0c
f3
fb
f7
ef
b4
f1
04
0a
08
f2
00
fe
0a
3c
f3
01
01
f8
06
fb
08
ff
fb
fe
06
fa
04
ff
fc
f9
f7
05
ff
fc
0f
01
f8
0d
07
0a
24
00
06
05
f4
08
0e
ff
0e
4a
f3
0b
07
ff
ff
08
f8
ff
c4
02
11
03
04
01
fe
f5
fe
e6
fd
fd
09
01
07
f5
07
ff
1d
f7
fd
04
02
f7
06
f4
fa
f5
ef
0d
0a
04
01
00
f3
06
9c
01
0a
00
06
fc
00
f6
07
12
04
02
0d
01
fd
ff
ff
11
26
03
fd
0a
f4
00
ff
0c
fc
f1
f3
07
03
00
ff
ff
fc
f7
36
01
01
ef
02
04
0c
0a
03
fa
05
f8
0b
09
f1
0e
02
05
44
f6
fd
f8
0d
f5
f4
02
08
2d
fd
f3
04
fe
04
f4
f9
03
c4
02
00
0c
00
f9
08
ff
0a
61
00
07
06
04
fc
03
fe
02
c3
01
04
04
fe
fc
fc
03
08
33
fa
01
03
0a
f9
fc
ff
0b
41
0a
01
f5
ff
00
09
05
0d
dc
0e
ff
fc
fe
fa
fe
06
04
ac
03
08
fd
05
fc
fc
fb
04
ab
fc
00
01
0f
01
fd
fc
f6
3e
04
07
00
f9
fa
03
fe
0d
53
f6
06
ef
04
07
04
01
01
e0
fe
0d
fa
06
02
09
08
fe
ae
f8
07
02
02
fc
0f
fd
fe
e0
f4
f7
05
f9
00
0a
fe
fe
f2
05
ff
01
00
03
02
05
ff
8b
fc
0a
04
f4
fc
fc
06
f9
18
03
03
01
03
fa
01
02
fb
63
01
09
08
01
f5
fa
01
07
42
f8
fe
f7
05
fd
fc
ff
04
28
06
fe
f8
fa
04
ff
06
ee
a6
fc
00
00
01
06
05
02
f9
0d
00
fd
f6
fe
01
fe
02
fe
ee
fe
f7
0f
00
fc
fc
f7
00
3a
0a
00
05
07
fe
02
00
ff
ca
f5
fc
00
fe
fb
f1
f9
04
61
00
f8
f9
f6
04
0a
04
f7
38
fb
fc
01
01
f9
03
0d
05
3f
f8
00
05
ff
07
fa
02
05
23
07
ff
03
f7
fc
0a
01
ff
d4
01
0a
03
10
00
02
fd
0a
6e
01
06
00
fe
fa
0b
06
03
05
f7
02
fe
09
02
fb
04
02
64
f9
03
02
0a
f6
07
00
fb
ef
f5
0a
ff
06
02
f8
04
f9
18
fd
03
ef
ff
01
08
fc
0a
1f
00
0d
f7
03
fa
01
16
fa
f9
fd
f8
03
fe
05
0e
06
f8
d1
fb
01
06
03
0a
04
ff
00
5f
f2
fd
02
fc
0b
09
fe
f5
28
fa
08
05
04
04
fe
f2
fc
f2
f2
02
f3
00
f6
ee
f6
07
c7
05
02
11
f4
fe
fa
00
fb
68
fd
fa
19
fa
02
f8
03
ff
ed
fe
09
02
00
03
00
06
ff
20
04
03
05
02
ff
fe
10
03
03
fb
f9
01
f7
f7
00
f7
05
da
fc
fd
00
f7
03
06
03
07
e9
fc
fc
01
f8
fd
02
0f
fe
a0
f6
f7
fd
fa
0e
02
00
ff
b9
05
fd
07
f6
05
01
06
f3
12
04
fe
1b
0b
05
0c
02
05
2d
07
05
07
07
04
fc
fd
fd
4d
00
f8
05
fc
fb
00
09
05
4c
fd
f4
f7
02
02
08
08
fd
0a
f8
f8
f2
04
fa
06
f7
f3
cb
f9
fe
07
fc
fa
02
0f
0a
cb
13
f9
09
fe
f8
f8
02
f3
b2
08
fe
01
04
02
fd
03
f7
e0
02
05
03
01
12
09
f8
04
b3
00
f6
04
fd
f9
01
fa
f9
de
04
03
fd
0b
0b
fc
fd
0c
d1
ea
f9
fc
fc
07
f6
fa
ee
1f
01
09
00
09
fe
f3
10
fe
08
06
f2
0b
f8
fb
fc
fc
0a
b5
07
00
fb
04
06
fa
f7
05
00
fb
08
02
f7
fe
05
ff
03
14
0a
08
00
06
fc
f8
fb
01
d0
0b
03
00
fc
fd
0b
0e
03
ea
f0
ff
00
f7
03
0a
0a
f1
ba
0c
07
12
f7
06
0a
0b
05
0c
06
05
fc
fe
03
02
16
fa
08
f5
06
ff
fb
02
04
f8
ff
27
05
fc
0b
05
00
fe
09
f9
48
07
08
f6
f8
00
08
0f
fa
d3
fc
00
00
fc
fe
01
fa
05
42
08
06
fe
03
06
01
0e
02
c0
06
fe
f9
02
fe
03
01
f8
8a
04
fe
fe
07
00
ff
f0
f8
33
02
f9
f9
07
fe
f1
10
fc
56
01
04
f7
00
01
02
fc
fc
1e
f6
02
f6
f3
ff
01
05
01
40
01
02
f0
04
fc
05
ff
fe
56
02
ff
12
01
fd
fe
07
f6
10
ff
fd
01
ff
01
06
f6
fd
ec
f9
fd
fd
ff
01
f7
09
02
9d
fe
00
fa
08
00
fa
01
04
d9
f5
fe
05
ff
04
05
00
fd
1d
07
06
06
07
f4
fc
08
01
a2
03
f2
09
07
06
04
fe
06
0a
fa
02
07
00
f9
fb
02
fb
9c
0d
fe
06
03
fb
06
fe
00
51
fb
ff
04
04
03
fb
f1
0b
43
fc
01
07
0c
0c
ff
0b
f2
b7
0c
0b
03
fd
fe
ff
fa
08
f5
f8
06
08
01
02
fe
0d
07
07
06
f5
f9
0e
fa
03
fb
10
f7
fc
03
00
fb
0d
f3
f9
fc
49
ff
0b
05
0e
05
0b
fd
07
28
ef
fd
0c
0f
fe
06
03
ff
62
10
09
0d
ff
f7
fb
08
02
60
f9
09
f3
0c
07
0e
fb
fd
f4
08
f4
f6
00
fe
f9
02
07
a9
05
fb
03
0b
01
f6
0b
0d
5f
01
fe
f7
03
fa
0e
fa
18
05
f8
fb
03
f3
fd
02
fd
0b
c0
04
fd
f7
02
f7
06
f4
04
22
fd
fe
f7
fd
f9
03
f5
fd
39
f4
07
06
fc
fa
08
fe
04
36
f8
fd
07
fb
f9
06
06
fd
3c
03
f4
03
f5
07
04
f9
ff
e2
02
f7
fe
f6
13
02
02
f7
ee
07
fd
ff
0d
0a
f6
00
fa
ff
00
11
f0
05
f3
01
f7
fc
51
00
04
fc
02
03
04
fa
fe
b0
f5
07
fd
00
06
f3
00
02
d8
0d
ff
ff
02
04
fa
02
f2
4a
03
fe
fb
02
09
fd
0b
00
92
05
07
f8
fd
f5
09
08
f8
bd
ff
f6
00
0c
01
07
fd
0d
c6
00
f9
09
0c
0b
0a
06
07
b2
ff
fe
fc
f7
06
fd
f6
fb
54
f8
fb
f5
04
07
00
fe
fc
5c
ff
f4
04
f6
f6
08
01
fe
df
06
03
fb
02
0c
fb
fa
fb
9f
fc
0f
fc
ff
fc
09
05
00
35
0b
fc
fb
04
02
fb
ef
02
f0
ff
0a
05
04
fa
fc
f8
f5
dc
03
0b
fd
fd
00
06
f3
03
66
f9
06
f9
07
fd
f9
f6
00
02
fc
fb
f2
fb
f8
12
fa
fd
b1
06
fc
fe
fb
fe
fb
f3
fb
10
f9
fa
fd
f2
fd
fa
fd
01
2e
fd
fe
f9
06
fd
0b
fc
fc
41
00
ff
fe
f9
0a
05
0a
fb
bd
04
fe
06
02
fe
f2
0c
02
2d
11
f9
01
00
f6
02
fa
0b
d8
07
fe
02
fa
04
01
07
ff
4f
fb
01
06
01
fe
05
fe
0a
d1
06
08
00
06
0a
03
f8
fa
30
ff
05
10
0c
04
01
13
fa
49
f8
04
04
01
f7
07
09
fe
e0
fc
ff
fc
fa
06
02
fd
fe
f8
03
fd
08
f7
09
fd
0a
fa
19
fb
0a
f6
02
f5
fe
fd
02
26
fd
fc
fd
02
01
fe
f9
09
ca
02
f6
fd
03
fe
01
f5
01
1e
fb
0f
f5
02
01
ff
fa
fc
2e
f8
0e
09
03
03
04
05
fc
c8
ff
f5
fd
00
07
f8
07
05
88
fd
03
02
03
00
fa
fd
fc
f2
06
01
f6
06
fd
ff
07
00
e3
fc
fd
f7
fe
fe
fa
0b
ff
5a
fc
0d
f9
f0
fe
05
0c
ff
4a
fd
0b
fb
00
02
fd
fe
fb
6a
06
08
fc
fc
f9
04
07
02
5a
04
0a
01
fa
fe
fb
f2
07
d2
f8
07
f5
f5
13
fa
03
03
bc
05
06
fd
f9
f9
05
f6
01
26
01
ff
00
05
03
00
0a
00
93
fb
0b
ee
01
04
05
f4
01
e8
09
02
00
01
05
04
ec
05
fb
02
fe
00
fd
fd
02
f7
03
4d
0e
00
0f
09
f5
f9
01
01
f4
0c
fd
08
fd
f9
07
f7
03
9d
f7
05
f7
0b
fe
04
fd
f9
58
14
04
15
03
02
02
fa
09
0f
01
f8
05
09
ff
04
06
0b
d0
01
f9
f5
08
f3
03
fe
0d
4c
07
f6
0d
02
01
fc
07
04
43
fd
00
ff
04
09
00
f5
05
5f
00
fa
f4
fa
0b
fd
f8
04
4e
ff
07
0c
f8
06
fd
0e
00
02
01
fa
06
03
fc
03
fb
f5
d0
fa
fc
01
0b
fc
01
f4
fb
ec
fc
f7
03
03
0d
fb
fd
00
f3
06
05
01
fd
07
06
ed
06
3e
f7
03
f5
fd
fe
f7
fa
0a
df
02
ff
fa
ff
0d
00
f6
ff
11
02
04
fc
03
fe
fd
07
fe
90
fe
09
03
05
ff
04
f8
ef
46
fc
02
fe
fc
06
ff
06
0a
d7
f9
04
f8
ff
02
fd
00
f9
f9
02
08
f6
f9
f9
02
f1
fe
e7
0a
00
0d
0b
fc
00
06
fd
a9
09
01
fb
f3
01
01
08
f8
bd
fe
0b
f7
fb
02
fa
01
f8
e6
05
04
05
00
fc
0b
f9
00
eb
fc
f7
02
03
05
01
ee
01
a6
08
02
06
f8
08
f7
fb
ff
cf
14
fb
06
0f
f9
00
f8
05
4e
fb
00
09
f9
0e
fa
fa
fc
1a
0a
f9
f5
07
07
04
fe
0a
55
03
01
00
f9
06
fc
f8
f5
b9
fd
f6
ff
ff
0b
03
04
fe
16
0a
01
02
00
fb
02
02
fc
dc
fc
f3
04
00
f9
fa
00
03
d9
fc
fc
f7
f6
01
09
09
08
09
fa
04
ff
f9
0a
fc
f7
0d
a4
00
04
01
05
f6
fc
fe
03
f0
00
fd
fc
fe
fc
11
06
fb
6b
01
ff
fe
ec
00
04
00
05
0f
01
00
0c
06
f9
03
02
fb
d4
fc
07
f1
01
08
01
05
fd
fe
f2
f5
0b
03
fe
01
03
06
fa
01
06
fb
04
f5
09
05
06
61
0d
08
f6
01
0e
05
f9
08
2c
05
06
fa
f6
00
0f
07
06
a2
03
fe
f8
09
0c
01
f9
05
e1
ff
f6
fd
fa
03
05
fe
0c
db
ff
0b
fc
fd
fd
04
f8
01
18
fb
01
fd
03
fc
fd
fc
fb
3e
03
fe
fd
0a
05
fa
00
01
17
05
04
ff
06
00
07
fd
fc
51
01
fc
00
fc
fc
f9
05
02
9f
f4
ff
ff
fb
06
fe
00
00
2b
fc
05
03
04
fa
05
05
01
db
0d
10
f1
f7
00
f4
07
ee
36
06
0a
fe
0c
fb
fd
0c
fe
1b
08
fa
ff
0a
fe
03
03
06
de
00
fb
06
07
0f
00
f7
fd
a0
f8
ff
05
fb
fa
0c
01
03
ac
f9
04
00
ff
02
f4
fd
fb
2b
f7
fa
07
00
05
06
fb
02
24
05
0b
fc
fa
02
f8
00
fb
99
01
fe
06
fa
