fffffffffffe5ed9
000000000009681d
000000000009681d
00000000000071c5
000000000003c70a
0000000000011c6c
0000000000014259
000000000004f66c
fffffffffff884e3
000000000004e376
000000000004d080
000000000000e38a
000000000000f680
fffffffffffd1c80
fffffffffffcbdb1
fffffffffff76876
ffffffffffff1c76
fffffffffffd1c80
fffffffffff9b445
fffffffffffd6859
fffffffffff7428a
fffffffffffee394
000000000004e376
000000000005c700
00000000000025ec
00000000000038e2
fffffffffffdb431
000000000005a114
000000000003ecf6
000000000000f680
000000000007423b
fffffffffffe5ed9
