0000000000017106
000000000000c7b5
0000000000008696
fffffffffffecbc2
ffffffffffffcbe7
0000000000014e4b
00000000000152a2
ffffffffffff70bb
0000000000012b8f
000000000000eec8
0000000000011183
fffffffffffe8efa
fffffffffffe7d9c
ffffffffffffa07d
fffffffffffebebc
0000000000004e25
ffffffffffff680d
000000000001bad4
000000000000fbce
00000000000056d4
000000000000b200
0000000000005f83
ffffffffffff7dc2
0000000000016caf
fffffffffffecbc2
000000000000527d
ffffffffffffcbe7
ffffffffffff33f4
000000000002275d
000000000000f776
0000000000008aed
fffffffffffe5232
