f7
f7
fb
fd
94
fd
f2
05
03
0b
fd
fc
05
43
f8
02
fd
01
fc
f4
fb
fb
dd
00
f9
0c
0b
f7
09
f1
02
17
fa
f4
fa
01
0e
00
03
02
c4
08
02
fe
06
02
00
fa
fc
e3
07
fa
07
00
ff
0b
fe
fe
38
03
04
f9
ff
f8
06
ff
02
17
fa
f3
06
fd
fa
f6
01
01
d0
04
f3
08
fc
f7
f7
01
0d
09
0b
fb
01
fc
03
03
f9
08
af
05
f9
f0
fd
f1
f0
fd
02
0f
09
fc
03
f3
03
fa
0d
09
47
0f
0c
09
04
04
f5
fd
02
73
fe
09
06
f0
04
0c
01
fb
6e
f8
ff
00
f5
00
04
10
f5
d0
fd
fb
fe
0f
03
05
14
02
f2
f9
ff
00
09
f6
fc
ee
ec
0f
0e
ee
f6
08
0d
09
09
05
93
f5
0a
01
02
0c
00
00
ff
4c
02
ff
08
09
fe
fa
f9
09
35
f5
05
fc
09
fd
06
0c
15
30
f8
03
f7
f9
03
fd
08
09
c0
02
f8
07
02
fd
fd
06
fd
19
fa
f8
01
15
fe
01
f0
f7
77
01
fa
fe
f6
09
01
03
00
74
f1
fd
f8
f8
02
ff
04
05
5b
ff
06
03
04
ff
04
0c
f8
30
fe
fd
08
00
f2
14
08
fa
8b
02
fd
fd
0b
f9
11
fa
09
ab
fd
09
f7
f2
08
f5
00
0c
ca
fd
0e
05
eb
f7
e9
01
fb
ae
fb
07
0d
04
ff
01
04
01
62
fe
0f
fa
02
07
06
fd
03
a4
fc
06
fa
fe
0a
04
fe
fe
96
fc
fd
fe
fa
09
fa
0e
03
ad
0b
f9
00
00
fb
f9
04
01
a6
f3
06
03
09
05
fb
fd
f4
04
ff
fe
fe
03
02
06
05
05
3c
07
ff
08
01
05
08
0d
01
00
f4
0f
04
0b
e9
01
08
fb
30
02
07
05
fa
07
0e
06
fa
1f
fc
f9
05
07
f8
02
11
ff
9f
fe
09
04
f6
05
0a
11
fc
b4
fd
fe
fb
08
fe
01
00
f3
29
00
f4
00
f8
f6
ff
05
02
b6
ff
f7
fd
01
fb
fb
fc
05
6a
fc
f9
04
fb
0a
05
fe
00
6d
06
fc
03
01
09
07
f8
00
d2
fc
10
fb
06
fa
06
01
fa
d2
fe
03
03
f7
ff
05
fd
0d
5f
fc
07
fe
12
0c
f4
fc
f3
48
05
fc
07
0a
fb
00
03
f8
a3
fc
fa
01
f8
07
fa
fc
f5
8e
ff
09
03
07
fc
02
06
fb
09
ff
06
fd
00
10
06
f3
f9
92
0d
f7
fd
0b
09
fe
01
fd
31
05
fd
fa
ef
0d
07
f3
0a
ff
ff
08
fe
ff
fb
fc
fe
08
0f
06
01
fb
01
03
01
fe
00
c0
fa
f9
00
05
09
ff
fa
09
31
12
f9
01
0d
fd
f4
0d
06
52
0d
05
07
05
f7
06
03
f7
4b
02
f3
0a
f6
00
fa
f9
01
2b
01
fb
fa
fd
fd
fa
fa
f6
95
fd
04
02
f7
f4
fd
09
09
a8
05
06
f6
f7
f8
f3
01
fe
1a
09
fe
fe
06
f7
fd
02
0a
e4
f9
07
0d
08
fb
ff
0c
fe
92
09
00
f0
0f
f7
fe
01
fe
10
fe
ff
04
f7
01
f6
08
01
6e
00
0b
fb
f7
00
f9
f3
00
a1
07
05
0a
fa
11
01
fc
f8
bf
fa
f5
0e
fe
00
02
f8
0a
5d
06
0c
ff
fd
05
06
f9
00
b8
04
03
00
f8
fc
fa
eb
01
f5
02
fc
06
11
08
02
f6
06
0a
04
02
0c
f4
03
0f
fe
02
75
fd
09
05
f3
05
03
fa
fd
9b
02
fa
04
00
02
01
fe
ff
64
05
f7
02
08
ff
ff
03
10
fb
06
f9
f5
f6
03
f1
fd
04
2f
fb
05
f8
fd
f7
fd
fb
f0
c6
0e
ff
ed
ff
fa
fe
01
fe
2a
0d
05
0a
fb
00
f1
03
ff
de
0b
04
f5
08
fc
07
05
03
69
05
f9
05
01
07
01
f6
fa
b1
05
07
08
f2
fc
f7
fa
f9
6e
06
01
05
00
fc
ec
11
09
1f
f2
04
ff
05
05
f4
f1
02
52
fc
f7
07
04
fe
02
0c
00
18
fc
fa
fc
fb
fd
fe
09
0d
cd
fd
06
ff
0b
ff
08
fc
f8
60
04
f7
fd
06
04
fb
f2
f7
55
f2
fd
0c
fa
0d
03
07
10
3b
fa
08
f8
f2
10
03
05
01
14
06
f8
0d
f3
00
fa
0f
00
c8
ff
0a
01
fc
03
09
05
fb
aa
01
f9
fd
03
04
03
0d
08
a2
fc
06
02
f7
09
02
05
0d
31
03
00
f6
fe
fe
fa
fd
02
f0
ed
08
01
fe
08
fd
0d
0a
25
06
f4
fd
03
06
01
fd
0a
f3
0a
f2
04
fd
f8
fb
0d
fc
fe
02
05
f8
ee
fd
04
f3
f9
dd
ff
04
fe
f9
0e
fd
0a
f8
fd
fa
fc
01
05
01
02
03
f7
e2
00
01
0b
fb
02
0a
09
01
14
fb
03
00
05
f4
11
f3
f9
0a
fc
f9
fd
f4
f7
0e
06
fe
93
01
fb
00
0d
0a
fa
06
fb
22
ff
fd
06
07
fb
fe
f7
08
1c
02
04
fd
f0
ef
0b
eb
f9
58
06
ff
06
04
02
f9
10
0a
b0
f8
0a
fb
fc
eb
01
f6
03
b0
09
04
0a
08
f2
f4
f9
09
60
ff
f4
05
f7
fb
09
ef
fa
be
08
f3
0e
f2
fe
f2
eb
e5
a0
03
f6
11
00
f0
04
fc
f1
26
f9
ff
fb
ff
f9
00
f9
0f
1b
06
00
05
fb
0d
09
0f
09
57
fd
00
fc
08
03
08
0a
fc
49
06
06
ff
fc
fb
fe
fd
01
4f
fd
f8
f8
0c
0b
05
fd
09
e8
fc
ff
f9
00
06
01
f5
fd
e4
08
fe
ff
fe
f4
00
01
f5
bd
11
f9
04
02
fd
00
02
f6
f4
0a
f7
07
01
fe
01
02
15
d5
02
f9
fb
fa
fd
05
f4
0c
fd
fa
02
f1
0a
f7
f1
02
f8
af
05
08
ff
05
fe
fd
fe
fa
bf
fc
0c
0b
fa
02
03
0a
07
f8
01
0c
f6
08
fb
13
04
f8
f1
0f
f7
0a
ec
f5
f7
fc
01
89
f8
07
f2
f4
05
fe
06
fb
e7
03
fc
08
08
ee
0a
05
f8
11
03
fa
03
02
fc
0f
08
f3
ed
fc
f5
f8
f9
05
fd
0a
04
ba
fc
02
0e
0c
01
03
ff
ff
1e
04
00
f4
07
0e
15
06
02
d8
ff
ff
08
ee
f8
fd
05
f6
54
05
f7
05
03
fa
fd
ee
0d
21
06
02
e8
0a
fa
f9
fb
12
d6
fc
01
f6
03
fb
09
ff
05
45
04
fc
04
03
03
fd
ff
f7
08
f2
fa
04
fd
02
06
05
05
d0
f9
f9
fe
fc
f7
07
ed
07
3b
06
f7
04
f9
02
fd
01
03
41
fe
03
fb
02
06
fd
01
01
e4
04
03
f9
07
08
01
fb
fc
5d
f1
00
ff
09
ef
fc
ea
fd
08
02
fd
fa
02
06
00
03
03
7c
f2
0b
08
04
06
07
fa
04
23
0b
0e
fc
f5
06
00
f6
fc
e1
01
0b
06
fa
ee
fc
f5
f8
6e
0d
03
fc
ff
f7
07
04
05
2c
fd
ee
02
ff
02
f8
04
07
b3
05
fe
01
f0
fb
07
f6
09
de
f7
05
f4
03
06
f5
00
02
ab
ea
f9
fb
13
f9
f9
fb
f9
c3
fd
0c
f6
ff
02
f1
03
0e
cb
01
f5
fc
fe
10
03
02
06
59
03
01
0a
0c
00
f5
04
01
48
05
06
07
06
00
00
f6
fa
ab
fa
03
f6
0d
fc
ff
ff
00
a0
02
f5
ff
fe
06
fa
fe
fb
52
f6
f7
fb
fb
01
f6
02
fa
16
ff
fc
f7
fb
fd
05
0e
08
eb
02
01
07
f2
f6
03
ff
fe
ec
02
f5
f8
f8
08
f9
ff
ff
45
00
0d
0b
fa
00
f7
01
02
03
f8
ff
f8
00
f8
fe
ef
fd
c7
f4
1a
0b
ff
06
04
0a
fb
44
fb
fd
ff
f7
03
fc
f2
04
b1
f8
04
01
f6
f8
0a
03
ff
bc
00
fe
fd
0c
0a
fd
09
02
f1
f4
f9
f1
07
08
05
09
ff
06
f3
fa
01
09
01
09
fa
f8
1b
01
fb
f7
05
fc
fc
08
01
61
f6
ff
01
fe
fc
f7
03
fd
ab
f8
03
f2
fd
ff
ff
12
07
e3
09
ef
e9
fc
03
fc
08
01
a9
f7
07
f8
00
06
06
fb
04
10
05
f8
fa
fa
03
ef
f3
f5
f4
ef
0b
f9
0e
05
03
f9
fa
30
fd
03
fe
0c
04
fb
fc
ff
bd
01
13
01
06
09
14
f0
f8
32
03
01
07
03
04
08
08
03
04
03
f4
fd
01
f3
fd
00
f8
35
f5
09
fc
06
fe
0c
fd
fe
99
f5
10
0b
fe
03
f2
0b
f9
55
03
02
02
f4
f5
00
f2
fe
e1
f6
09
05
05
01
fd
08
00
f5
03
02
f8
f5
03
09
0e
fd
6d
09
00
fe
00
f4
ff
fd
fc
c1
03
f5
f1
f6
09
fb
05
fd
9c
fc
00
11
03
fa
f3
08
f5
46
f9
fc
eb
f8
fb
f7
0e
06
f3
04
07
f5
0d
fe
0a
04
11
67
fa
fb
12
08
00
f6
ff
f6
d0
fa
f9
f8
04
fe
fd
01
08
26
f1
0a
fb
02
f8
01
f5
f9
08
00
f6
04
02
fe
05
0e
fd
62
fa
06
10
0c
05
fd
00
fd
25
04
f1
fc
fb
e6
01
f6
03
10
ff
fc
04
fe
f5
08
0e
fd
2c
fd
02
04
02
05
fc
f9
f4
1f
01
05
04
0a
01
00
00
fd
97
01
06
02
fb
00
f6
fe
03
d8
08
0b
fa
01
07
f2
03
06
c3
06
05
f9
f8
ff
fa
00
ff
93
fc
fe
f5
06
f8
05
fc
05
93
02
fb
01
f2
f6
08
08
fe
b5
06
fb
09
03
07
0f
f8
f6
96
0e
03
01
09
f9
f8
06
f9
44
f8
0f
fa
03
fc
05
fa
09
5a
09
08
fd
ef
02
fb
08
fa
f6
01
fe
04
04
02
f9
f9
00
05
00
fe
02
09
fa
09
0c
f5
21
fa
05
fc
fe
f9
f8
ff
fa
5a
06
f7
fc
f1
0e
fa
03
08
63
0c
02
f9
00
08
fe
0c
f4
33
05
fa
04
0c
ec
0d
f6
f9
b7
07
f6
05
02
ff
fa
03
00
07
03
fa
f7
01
01
0a
03
fc
25
f9
04
01
01
f9
fc
00
ff
ad
f3
05
fa
f8
ee
ff
fe
03
04
fa
07
fc
07
fd
fc
f8
00
a5
05
ff
00
0c
ff
fa
fb
08
5c
fe
09
0a
fb
f2
02
f3
f6
c4
f5
f6
03
fa
fb
06
02
03
c0
00
07
fb
04
04
04
02
0f
50
02
04
05
fd
0d
04
fb
09
59
00
fc
0f
fe
fc
0b
0d
04
3b
fe
05
f0
03
00
07
f6
f6
0b
ff
fe
02
00
fb
f2
fd
03
fc
fe
06
ff
03
00
fe
f9
08
bd
12
fe
01
01
0c
01
f7
02
49
02
04
03
f5
04
0b
00
02
bb
fe
09
01
06
fd
fa
fc
03
fe
00
01
02
0a
08
06
04
06
55
fd
01
01
fc
04
0a
09
f6
9a
ff
f9
fe
f8
fd
ff
f3
01
db
f7
02
0c
04
00
00
fb
fa
0f
03
ff
0a
0c
03
f8
09
fd
60
fa
04
03
12
fe
08
0a
0a
e3
f5
08
03
fb
09
06
ff
06
cb
f9
04
0b
f9
01
f9
06
0a
67
fc
02
04
01
f7
ff
09
fd
0f
ff
01
f3
f7
04
fd
f9
09
e6
fa
03
00
fb
fa
ed
02
0c
e4
ff
05
f5
ef
0d
04
06
0c
18
fb
05
f6
08
f6
fc
fc
02
4a
ff
f8
fe
02
07
05
fa
08
b3
01
00
fc
fe
fd
0e
fe
fb
e8
02
0c
fd
05
06
f8
00
05
f3
fc
01
06
ff
06
01
f5
06
62
ff
f7
ff
0d
fc
fb
f4
02
c6
11
00
f2
fe
ff
0b
01
fa
cd
fa
fd
f9
03
f4
f6
f4
02
d8
fa
05
09
01
03
17
fe
05
53
0b
06
ff
02
04
f3
09
f5
0a
e9
fd
07
fc
fa
f4
fa
fc
ac
03
05
02
fb
0a
fc
fc
09
6c
02
fd
fe
fa
fc
f2
08
fd
ae
02
08
00
fb
ff
f7
f5
fe
ac
fc
f6
fe
0c
02
f3
fe
fd
a0
05
05
fa
fd
fd
01
fc
fc
b6
fc
f0
f9
04
05
f9
0b
05
77
f7
00
ff
f3
f7
f4
f9
ff
ad
fe
f3
fd
08
02
fd
09
03
53
f5
03
f2
f5
0e
05
01
f8
da
05
fe
01
06
ff
f8
01
fe
0c
09
0c
fd
f5
02
fa
ff
03
b7
fe
03
05
f5
01
0c
fe
00
3d
03
fc
00
ff
f6
ff
06
f8
01
fa
02
0b
fe
05
05
03
06
58
01
01
f4
f6
0e
05
05
02
1c
02
07
f9
06
01
fd
04
13
33
fc
02
fb
ff
00
02
f5
00
66
03
03
fb
0e
ff
0a
fc
ff
b8
f9
04
fa
fe
fb
0a
ff
fd
2f
fd
00
05
09
01
fb
04
09
4d
01
fd
fa
06
05
fc
fe
fa
47
f5
fc
0b
fc
fe
fd
07
ff
59
08
06
07
00
04
02
f9
fe
9a
fa
fe
f7
0c
f5
02
03
fa
92
00
fc
fe
ff
ff
f4
fb
f6
4f
fb
00
ff
05
ef
ff
03
0b
8e
0d
f7
08
f6
02
06
02
f8
bc
08
01
0a
08
0e
01
04
01
5b
fc
fa
02
fc
06
03
02
00
1f
02
fc
fa
fd
14
05
fc
04
93
ff
08
0d
08
0d
fa
05
0e
c8
07
09
01
02
01
fe
01
f7
02
03
03
f9
ff
fa
06
fb
00
12
00
f6
02
f2
fb
f6
f7
fb
40
fb
01
04
fd
f4
fc
f7
09
3c
13
f7
fe
ff
0e
00
0f
0b
b9
01
07
05
f2
02
fb
0c
04
f3
f7
f5
ff
fd
05
f5
07
00
b6
fb
fc
fe
09
01
01
0c
01
41
05
05
0c
0b
08
0b
05
fa
4f
fb
0e
fd
f4
0b
01
05
08
5c
f9
fc
03
ff
f9
00
02
f2
61
06
00
02
17
f9
fb
fd
05
13
09
07
0a
0c
00
11
06
fa
17
07
07
0d
0c
02
f6
03
02
57
fc
fe
f6
13
fd
fb
ff
09
bb
02
f7
0d
ff
0b
f9
00
ff
55
00
04
f7
f4
02
fe
00
fd
60
fe
fb
05
00
01
fd
ff
f4
ed
f9
f6
00
0d
0c
06
0a
0c
e5
06
fe
f7
ff
08
08
0d
fd
af
03
fa
f1
fe
fe
ff
f9
f0
1e
f5
00
fc
05
f5
0c
fb
fc
c9
02
00
01
07
fc
01
01
f0
42
ed
f3
fa
02
f8
04
0a
ff
25
09
fe
fc
e6
fe
fa
f8
10
1f
0b
07
ff
01
f9
03
07
00
ae
09
fd
07
08
08
04
fb
fc
f5
03
ff
05
07
0e
f9
02
ff
c6
00
04
fb
04
ff
03
fc
0a
ac
01
09
05
08
04
02
ff
fb
b0
09
fc
01
ff
01
01
05
fc
dc
f9
fe
03
ff
06
0a
ff
fb
f5
fa
ea
0a
fe
fa
03
f7
f8
68
08
08
ff
fb
06
13
09
11
c9
ff
0d
06
0b
fb
00
08
0c
8c
05
00
04
01
03
ff
fb
fe
59
02
07
fb
ff
f9
0d
03
08
17
06
00
fd
01
f6
f2
ff
02
9f
06
02
0c
0a
05
fb
0d
0d
2e
f9
fb
f7
03
f2
fb
f7
f9
d6
04
f2
fe
f9
f4
08
ff
03
5c
fe
05
fe
f8
09
0d
07
03
27
fd
05
fb
00
0d
07
03
03
4d
ef
05
f6
fd
09
04
fa
fe
07
fc
fb
00
ff
00
02
04
fb
51
f0
02
fa
01
ff
06
04
f4
a2
f3
ef
06
01
fe
0d
01
02
e0
f2
ff
f2
fc
00
06
0a
00
65
f3
00
0d
fd
08
fd
13
08
f4
fc
f6
f8
05
0c
f8
fb
fd
20
01
00
f8
0a
fd
06
f8
f5
9a
07
02
fc
fd
fd
f9
04
07
99
03
fe
fb
10
0e
fa
02
04
4d
11
f8
0a
03
0b
0b
f9
04
37
00
0b
01
f6
f6
fd
f8
0a
5f
fa
06
01
03
f8
0c
fb
07
eb
04
0c
ff
0e
ee
09
fe
eb
b0
fd
04
fe
f9
f7
f5
f9
02
d1
fe
f9
f8
fc
08
04
fa
02
0b
fb
f3
fc
f9
00
fe
05
01
50
fe
01
04
04
fe
08
fd
05
05
fe
fa
fd
fe
04
f8
06
00
83
09
01
fe
03
f1
04
fe
02
9c
01
00
00
f5
f9
02
02
f1
c1
fc
05
ff
f0
03
01
06
fe
6a
f3
05
06
04
03
02
f6
04
39
f6
08
0d
ee
05
0b
03
f8
97
08
02
0d
05
09
08
02
f6
49
01
01
f3
fd
fa
0b
f3
01
e3
f7
ff
08
0b
f3
02
fc
fc
cd
06
fc
fa
f7
00
f9
fd
fa
f7
f7
04
fb
01
fe
03
fd
05
af
05
fa
f6
0d
fd
04
fe
06
f1
01
0a
04
06
01
fc
ff
06
ca
fa
00
ff
fd
03
f9
06
00
1e
f8
06
0a
0b
1a
fc
0c
00
ee
f4
05
06
f9
f6
01
01
04
f2
fd
00
07
09
f0
0a
09
00
dc
f3
07
03
03
03
fd
07
01
4e
f4
fd
07
07
f8
06
01
03
fe
f8
fc
fa
fc
f3
fc
fb
fc
3a
04
fa
09
02
0b
fe
06
08
97
04
fa
fa
05
05
02
ff
02
fb
01
02
f8
f4
f7
f7
fd
fa
b7
fd
00
04
f7
ff
02
fd
02
35
07
ec
f6
f9
04
fc
04
0b
9d
fc
05
f5
01
05
04
02
03
68
0b
07
04
fb
00
fd
eb
08
48
fc
fa
02
f8
08
04
f9
fb
f6
f1
fd
fd
07
10
00
fe
f6
64
0c
0b
fd
02
01
0d
fb
08
9a
01
01
f9
06
01
05
f6
ff
0a
f3
f8
f8
fb
05
1b
00
03
79
f7
ff
fb
02
f0
f4
fd
02
42
f8
fd
00
fa
03
f8
f5
05
1a
01
04
06
09
fa
f8
f5
03
4e
04
fe
fb
fa
04
fd
fc
0a
46
ea
ff
fb
08
0e
f6
ee
00
5d
02
f9
00
05
0b
fd
fd
fd
56
00
ff
fe
01
f9
fb
07
01
30
f4
ff
fc
06
04
f7
ff
02
92
f2
f6
f4
fe
02
0b
fd
f7
ac
02
f8
fb
f6
0c
01
f7
fc
27
05
00
08
04
00
fe
0a
01
d5
f9
01
f5
0c
08
fa
04
f6
e4
01
fc
ff
01
00
fc
f0
09
f6
05
fc
02
06
06
f4
00
ff
13
09
05
06
02
01
0b
ff
f5
13
02
f7
02
f7
02
01
fe
03
48
01
07
01
0a
fe
fe
07
05
eb
fc
04
03
00
05
f6
fe
fa
e1
fe
03
03
04
01
fd
05
fa
fd
0c
ff
f7
fb
0c
05
fa
02
d9
06
09
09
02
f6
14
04
04
cf
fd
03
f8
01
fa
06
ff
fd
da
fb
f7
f7
f2
04
0b
f6
ff
26
01
08
05
ff
f9
01
fb
00
99
fc
07
03
08
fa
e7
06
00
21
04
ff
07
07
04
f8
03
0b
ab
04
08
02
fc
fa
fe
f9
ff
ec
13
f5
fa
fa
fe
0c
fb
ff
61
02
f3
ff
08
04
02
fd
fc
95
ff
fe
f6
11
11
ff
01
02
24
fa
03
fc
01
fe
07
05
fe
bf
17
00
ff
06
fe
09
07
fc
15
fe
03
fd
0a
fe
f6
fa
04
c0
f7
04
05
ff
fc
06
02
fd
ca
03
fa
05
03
00
02
05
07
15
f4
0e
fb
0b
07
00
00
0b
4f
f2
00
ef
04
08
f2
03
05
e2
11
fa
f6
0b
fc
fc
f5
fc
9a
f8
fe
04
05
03
fe
fb
fd
9d
f2
01
fd
00
fb
03
04
fc
b7
f7
0f
03
03
f7
0a
02
f6
2c
fa
fd
0c
06
f4
ff
fa
05
35
0f
f6
05
09
f9
00
fc
f9
d6
f9
02
f8
fb
03
f6
f8
fc
54
f2
01
fe
f8
0e
00
02
07
d5
fa
04
fa
09
f6
00
01
f8
dc
13
01
0a
01
fd
01
f9
f7
7e
01
fb
f9
fd
fe
01
08
04
e6
05
0a
05
02
04
fd
05
f9
67
fd
f8
09
06
09
0d
04
05
57
08
f4
00
f2
07
0c
ff
f5
1b
05
0a
18
04
fc
04
05
fd
ff
09
0d
06
00
ff
06
03
06
60
fb
15
00
06
fb
08
ff
f8
77
ef
00
ea
01
02
0e
02
f1
fe
08
0c
00
0c
f4
fe
03
06
f9
0a
07
fc
fc
0c
f3
ed
fc
ae
fe
f4
fc
f4
fb
02
fe
13
32
f9
f4
06
fc
07
f5
0d
03
bb
00
0d
f3
fd
f7
fd
05
f8
f8
05
fd
f6
04
fb
f0
05
0b
44
fc
04
f3
03
0a
f5
ff
03
4a
f8
fe
fd
fb
02
05
0e
02
b5
08
00
0e
00
0b
fe
00
fb
a5
08
03
07
02
0c
05
11
ff
98
01
09
fd
fc
f8
fe
08
f2
d8
01
f3
fb
f8
ed
03
0f
fa
6e
f5
0c
00
05
05
01
fc
fc
3a
03
03
fc
04
f7
f9
03
f8
fd
ff
ff
f8
0d
ef
02
fd
f9
12
00
fe
f6
01
0b
01
fa
0f
c5
07
fd
fd
f5
f6
03
06
fb
63
02
01
0f
0f
09
02
02
09
2c
0a
12
06
f8
e6
02
fd
f6
06
06
01
f9
0a
fd
05
fe
00
32
08
02
fe
01
f6
fb
00
03
64
fd
0d
07
fd
f8
f8
fe
00
96
fa
05
07
f7
f9
02
05
03
0f
ff
f4
03
0c
fe
f8
08
02
d7
07
06
03
f7
00
02
07
f8
14
f9
fa
fc
05
f7
07
fa
fd
16
ef
fe
f7
07
05
02
fe
fa
dc
fd
f7
08
08
07
f8
eb
06
18
fc
01
0c
09
f4
03
06
fb
9b
ff
00
f2
0d
0f
00
fb
0c
25
fd
01
0e
f3
06
07
ff
fc
d7
06
0c
0d
f8
04
00
ff
fe
49
09
07
06
f5
ff
03
06
04
e7
00
01
fc
f4
05
01
f7
fc
5d
03
f7
f5
01
0d
01
ff
02
57
04
05
03
fd
06
fe
06
00
f0
ef
07
06
fc
fd
f4
fa
ff
5a
f9
f7
fb
04
fb
fd
07
fc
e8
00
01
fe
f9
0f
ff
f1
0d
31
00
07
fc
00
f0
03
ff
f7
65
0f
08
fc
fb
f7
fa
ff
02
c5
05
09
f0
fb
01
00
03
06
38
fb
0d
0a
03
f5
05
09
f2
5e
00
f9
fb
00
f9
07
06
0a
6e
f8
fd
02
f7
0a
f3
fe
0d
34
f6
f5
f5
f9
06
11
f7
0c
b2
07
03
00
04
0e
02
f6
0b
ea
fb
fa
f8
fb
02
fb
fb
0f
ea
f4
fd
fc
06
09
15
04
0c
ca
f9
06
ff
fd
f4
0b
f6
fe
65
fb
f4
00
0f
09
02
ff
00
21
fe
f6
f9
f3
02
ff
fc
f3
1f
02
fb
08
03
05
01
fe
f9
d4
f9
fd
03
fe
02
18
07
07
eb
05
f3
f7
00
09
fb
ff
ff
56
02
ff
00
e8
0b
03
f4
08
9f
fa
ff
fc
f5
fa
f9
0f
e7
64
00
fa
fd
02
08
01
0b
fd
4e
fd
06
06
fe
06
f4
08
05
fb
03
ff
f1
f0
05
0b
06
f8
02
f5
00
03
06
02
09
01
f5
bf
0d
07
f9
f7
02
03
fd
ff
f3
0a
06
f8
03
f9
00
00
01
37
f4
06
f9
fa
f2
04
f5
f4
5e
f8
08
0c
05
f7
06
04
00
5a
10
fe
01
02
0b
f2
f6
01
0b
fe
f8
02
f7
f6
f6
01
0f
f9
05
03
f9
14
04
03
05
09
70
f8
fe
0a
15
08
ef
09
01
bc
f8
fc
fb
02
ff
03
fc
fe
1c
0f
fa
f9
f8
02
fa
fa
ff
fa
05
fa
fc
f6
f9
fa
09
fe
f2
02
04
ff
fa
03
fa
07
f5
12
12
02
03
f7
05
fa
06
fa
b9
f6
01
08
00
ff
fd
0e
fa
3f
10
03
03
ff
02
fc
04
09
2f
00
02
fd
04
f3
f8
01
f5
d5
03
fb
0d
02
f9
00
01
ef
59
02
0d
04
fc
fa
06
f8
05
97
f4
0d
ff
02
f4
fa
fe
f1
9a
ff
02
01
fb
fe
06
01
04
41
03
06
09
00
02
00
06
07
f2
09
02
fd
04
f2
01
00
0e
3b
0c
06
06
07
fd
f3
f8
02
79
fc
fd
f7
04
06
00
fa
ff
6d
fb
fa
00
02
04
fc
07
09
d0
03
07
09
06
02
0c
03
02
a6
f6
fe
fa
f3
0b
06
05
03
25
fc
0a
0b
f6
fc
f4
fb
05
6d
00
f0
f5
00
04
fc
fc
fd
de
07
f9
03
05
fc
fa
02
fe
f3
05
fd
03
02
03
05
09
02
9f
08
00
fb
0e
00
fd
04
04
17
03
05
f5
03
ff
f4
06
fe
4c
f7
07
01
01
0c
ff
01
ff
45
11
02
05
fe
0d
fa
04
08
16
09
fc
f9
fd
fe
f2
04
f6
69
fb
0b
ff
06
01
0a
f8
ef
b0
07
f9
09
f5
0d
f2
00
07
c0
fb
01
00
ff
06
03
f8
09
6f
01
0f
f0
02
f3
04
ff
05
5c
0b
f7
f7
06
06
ef
00
04
a6
f0
0d
f6
0e
f8
07
05
03
8d
f4
07
02
07
f8
f5
fd
0d
62
fc
f9
f6
0c
f8
fc
09
08
71
f7
05
01
fc
f0
f5
07
ff
ec
ff
07
fa
f4
0c
02
f6
05
3c
0b
fa
09
03
f5
fb
05
f6
44
01
09
07
08
fd
fd
fa
03
cf
fe
00
fb
02
00
0b
06
0c
aa
f1
02
f6
0a
04
ff
07
fa
18
03
07
fd
f7
fd
03
0b
07
28
02
f8
08
10
fe
ee
04
02
ad
07
06
ef
fd
01
f5
0c
01
e7
0d
f8
ff
f8
01
08
fd
07
c8
08
0a
fd
09
00
f7
fd
f4
af
02
fe
f7
f1
01
fd
02
0c
3c
f9
f9
fd
f0
f9
fd
f8
01
ba
fa
05
fb
fd
01
fe
04
00
71
f2
05
fb
fc
fc
10
09
07
e7
03
f5
fc
0a
05
f9
fa
f8
42
f9
fd
00
f2
fa
00
fd
fe
d7
04
08
04
0e
08
04
fa
05
6d
f2
0e
f6
0b
00
fc
f3
07
d3
00
fe
03
02
04
0c
03
00
64
fd
00
04
02
f7
01
0c
06
20
f7
02
05
00
f5
fc
fd
07
b9
03
fc
f8
f5
04
05
f9
00
59
f2
f8
fe
ff
fd
f9
fe
ff
fe
06
fe
01
f8
05
02
f6
fd
23
f1
fe
05
fc
00
fe
07
02
fe
fc
ff
10
f7
05
02
06
03
18
ff
04
e6
fd
fd
05
f8
04
fe
09
00
fc
05
04
03
03
fb
d6
fc
03
fb
04
02
ff
05
07
b1
00
06
02
fb
0f
05
06
f9
a9
f5
fa
07
fb
05
fa
fb
03
1b
03
01
fe
f8
0b
0a
f8
fc
16
07
fc
fc
07
fb
fc
fe
01
48
f3
ff
04
fc
0a
01
f5
0a
91
fd
00
fc
06
02
00
00
f8
a6
02
f5
11
03
00
04
0e
fc
60
fe
fa
fe
fd
f8
00
00
04
9d
01
06
fd
05
fd
01
05
03
f4
fe
00
05
f9
08
08
07
03
9b
f1
01
02
07
07
06
09
09
aa
fc
ff
f3
fe
f9
06
00
fb
86
ff
f7
f0
02
04
08
07
00
c9
02
04
03
ff
03
fc
05
ff
a5
0b
04
05
04
fa
09
06
02
c8
01
fc
fd
03
05
07
06
f6
a4
ff
f9
00
00
fc
00
fa
ff
a1
fe
02
02
02
03
fc
0a
f8
23
06
fa
0e
f7
0d
01
f5
05
b6
fc
00
f9
04
ff
fe
fc
f8
99
ff
00
09
03
f9
05
0b
02
1b
fe
06
f3
04
f2
fa
08
fb
9e
0b
f7
f0
fb
ff
08
03
fd
90
0a
f9
02
f9
09
08
f9
06
0b
03
fb
04
06
02
fe
0c
03
4c
04
fd
fb
f5
fe
02
fe
fb
d4
06
00
fe
01
fa
03
fd
02
6a
07
04
06
00
0b
f6
fe
f0
59
04
fb
ff
0d
00
ff
0e
01
35
0d
fd
00
08
ff
00
00
02
4f
04
09
03
f8
fb
07
fc
02
c1
06
01
02
01
02
fc
06
03
66
00
fa
02
f9
ff
fd
01
fb
5e
05
f7
02
fe
02
06
0a
08
a6
02
02
01
fd
ff
f9
04
fb
84
04
0c
01
fc
fa
00
04
06
71
02
f3
03
09
05
02
0b
f2
f9
f3
f9
fb
13
f9
f7
03
fc
37
03
fc
08
fd
ff
fe
10
fa
c1
04
f3
f9
00
fa
00
05
f1
ea
01
03
0a
06
f3
ff
07
fd
e0
fd
fa
01
f4
f8
fb
10
fb
5e
07
fd
fd
04
f9
01
09
07
09
02
fc
fe
01
f3
08
06
fd
e7
fd
fa
fc
15
01
fe
03
ff
da
fc
fd
ff
01
0b
fe
f8
0e
9a
0d
0a
f0
04
00
fd
0a
05
70
f9
09
f1
0b
01
07
f9
07
2e
02
06
08
13
04
0a
03
02
10
fe
07
fe
05
03
fe
f9
07
5b
08
03
fd
fc
fb
01
01
fd
9f
f7
f9
fa
06
08
04
fb
f6
e9
03
ff
fe
05
07
03
f6
02
2b
08
fd
03
04
01
fd
07
03
f1
fa
f9
01
06
fa
fa
ff
0b
1d
fc
0e
07
fb
0e
07
05
0d
d1
08
fc
fb
03
06
04
09
08
29
0c
00
fb
01
04
f6
f9
fe
98
fc
00
01
fd
07
06
fd
08
bf
04
ff
fb
07
00
ee
02
fb
e9
f4
02
08
fa
00
02
f1
00
c3
0c
00
fb
f3
ff
11
f1
f8
23
09
02
fe
fa
ff
fc
02
f8
b9
f5
02
fa
ff
f6
07
fc
09
01
ff
f9
03
04
f5
fd
01
06
f5
0a
05
fa
fd
02
f9
09
02
1b
06
03
04
05
01
06
fa
01
8c
fd
fb
fb
fb
fc
09
04
0c
b2
07
f8
02
f8
14
fd
f7
fa
3a
fc
04
0a
09
03
f9
01
f7
13
00
04
06
04
fd
fe
f6
03
a1
04
f4
fc
f2
f9
02
ff
fd
af
fe
04
03
fd
03
00
01
f7
d2
f7
f9
0f
04
fc
f6
f4
08
5e
fb
09
fe
07
00
03
18
ff
95
f8
fb
fb
0a
fd
01
fe
f8
6a
f5
03
02
ff
fe
11
01
0c
16
f9
01
00
0d
12
f9
f7
0b
9f
fe
02
f2
f6
04
02
08
fe
d3
fc
04
f7
01
f4
f9
f9
ff
a0
00
05
06
01
f7
f9
fd
06
1b
03
09
01
ff
0a
0a
03
04
3b
10
ff
08
f4
02
02
06
fe
f2
04
06
09
02
06
09
f4
fc
0f
0d
06
03
f2
fb
f5
fa
fc
1d
fa
ff
fe
02
f8
06
f8
fd
2f
fb
f5
01
fa
f8
05
14
00
b2
fc
09
00
04
01
f8
01
08
4f
fa
04
f3
0c
f6
07
0a
f4
f0
04
fe
02
04
fa
08
fc
03
b7
fe
f4
f8
fd
ff
fd
f7
04
56
fd
fc
06
f7
05
fd
07
00
ac
06
05
fd
fb
05
ff
f6
fe
c9
fb
f3
f7
fd
0c
03
f0
02
49
f8
fd
12
00
ff
13
ff
01
81
f7
00
03
07
fb
02
fe
f7
af
fe
fe
0a
00
01
f3
ff
fd
2f
0a
06
04
02
ff
04
fb
fa
26
00
fb
09
03
05
0f
fd
ff
fe
03
0c
06
f8
fe
0a
f8
01
f3
02
f9
f8
03
f1
f5
ff
f9
45
f1
fe
03
04
02
00
fc
fb
57
04
03
fb
f9
ff
08
00
05
4d
01
09
04
05
f7
01
07
fc
32
06
f4
fc
05
0d
01
ff
f3
5f
0a
0c
fb
03
fc
fd
f5
0a
5a
fc
04
fc
06
fb
02
f3
f2
b6
03
03
10
04
fb
fb
03
05
30
f1
f8
f8
04
fd
fa
f7
04
2e
00
fd
fb
0d
fb
07
02
0d
90
fb
0c
fc
fa
04
fb
f6
fd
c5
f6
04
03
03
f8
02
fa
04
3d
f5
f7
f7
00
f9
fa
00
0d
67
fa
ff
f7
03
00
06
fd
fa
03
00
f7
02
ff
ea
01
07
fe
b6
ee
f9
fb
fe
fe
07
ff
07
23
fc
02
f8
01
0c
fd
fb
02
42
fa
03
04
04
06
02
fb
0a
b4
f5
f6
ff
08
05
fb
fb
f1
f6
fb
fe
ff
fc
fa
ff
01
09
4b
05
0b
f7
03
00
fa
fc
f9
16
fe
ef
fc
11
09
fd
06
fc
b3
0b
f2
fe
02
f8
07
02
08
8c
fa
09
f9
f4
ff
06
f8
fb
66
fa
05
08
ea
fe
0f
fa
06
d5
fd
0d
08
fe
01
00
01
f7
49
f7
02
fd
07
fe
fe
03
fc
d6
f9
ec
f9
00
02
fb
ef
ff
42
04
02
fa
00
fd
f6
04
03
d3
fd
02
0d
f8
00
f4
01
0f
13
07
01
06
02
01
08
0c
ff
44
01
04
05
f9
05
f9
04
fa
60
07
e6
fa
02
f4
fe
01
f4
be
fe
f7
01
07
05
01
0d
00
73
03
04
fe
f4
f6
fb
0b
fe
18
fc
fb
fe
07
fc
02
11
f5
28
06
ee
f7
01
fa
02
fb
06
6f
f8
0b
04
ec
fd
00
05
fe
ce
15
ff
00
00
fe
04
01
fc
28
07
02
fc
01
f9
05
0b
00
44
ff
07
03
ff
07
07
f6
04
df
07
fe
08
f6
f9
0c
f5
0f
f1
05
07
05
fe
fc
09
0a
fa
98
ff
fe
03
fb
00
fc
06
fb
28
ed
fb
02
05
f8
02
fb
ff
f0
06
f9
fb
04
0b
01
01
02
e4
f9
f5
f6
03
02
fd
fd
f6
c0
f8
01
02
fd
00
fd
fc
f8
af
f5
fc
ed
08
fd
f8
ec
01
58
fb
0e
f4
00
09
fd
f9
01
57
00
f7
f9
00
06
fd
02
fe
cf
f5
09
05
f6
01
ff
07
07
11
0b
ff
05
fa
ff
05
ff
fe
54
07
fe
fc
04
fc
05
06
f9
a7
ff
fa
06
f4
02
0c
fe
01
18
f8
02
fe
01
01
fe
06
06
5f
03
05
02
0b
00
02
fe
05
d6
f8
09
f6
07
03
f9
fc
0b
65
f5
fc
07
f6
f5
02
fe
f5
10
f3
f5
07
00
07
00
f9
f7
ae
fe
fa
ff
fe
01
09
01
f4
6c
00
fc
07
f9
fb
01
fd
f7
01
10
fc
ff
0e
02
f6
f4
04
4e
f3
05
0d
f9
f3
f4
03
02
f9
03
fe
f6
08
09
fb
fa
07
b6
09
08
0a
f3
00
fc
f5
fe
ef
0a
ff
fd
0b
06
fe
f4
fe
57
0a
fd
f8
f6
fd
05
f7
06
77
07
fc
02
f7
06
fb
fe
fd
e0
09
01
ff
08
02
06
f4
fd
d6
fa
ff
10
f7
f6
fe
f7
fb
1d
04
0b
01
10
fe
0c
00
05
10
01
fd
00
fc
10
0b
0f
f9
c8
ef
08
0c
f8
08
01
fc
fb
fa
fe
fe
00
f8
04
f9
02
f9
9b
fd
f5
05
0c
01
0b
08
05
fd
fd
fe
06
02
03
fe
ec
05
e5
03
05
fd
f7
02
00
08
f2
b0
05
02
ff
0c
04
00
0a
02
f4
fb
02
fe
07
04
01
f5
01
34
0c
fc
fd
f9
fa
00
05
02
cc
06
fc
fb
09
06
06
05
01
b1
04
00
fc
f3
f6
ff
03
f6
08
05
fc
09
13
fd
f3
f8
f3
47
f7
09
09
ff
fb
ff
06
f3
b6
00
07
ff
0c
08
f7
0b
00
1e
fc
f0
fe
fb
00
03
02
01
53
03
fc
f7
06
ff
05
fe
01
09
07
02
fc
fa
06
f7
05
05
e8
01
04
0b
f3
11
ff
05
0b
21
01
00
ff
ff
0b
ff
11
04
49
01
fe
05
f8
05
04
00
f3
a5
02
0b
00
00
fd
07
f8
f2
dd
0c
00
12
09
fd
03
07
f9
04
fa
01
06
03
02
02
04
05
a8
05
12
08
02
fc
02
fb
f9
1d
f9
fa
05
0a
f5
0b
01
0c
db
f7
01
f2
03
04
03
08
0e
9b
f9
f6
ed
f2
01
fc
0b
fc
34
00
05
08
09
fe
fd
00
0b
e4
fc
f0
f7
04
08
05
09
02
11
fb
0a
fd
f4
02
06
00
00
5c
f8
07
04
f6
f7
fd
f6
f0
bb
f9
09
0c
04
fc
f8
08
ff
32
ef
f1
05
fe
07
fa
fb
03
59
06
0c
01
ff
f6
fd
f5
fc
18
0b
02
05
02
03
ff
fc
00
1c
ef
fb
03
fd
fb
05
f6
fb
50
0c
fa
0e
03
04
fc
02
09
13
05
f9
00
03
fa
08
f7
fe
0f
04
12
06
14
f9
f1
f9
07
dc
ef
fd
f9
fe
fc
03
03
07
3d
f7
ee
04
fb
fa
00
fe
f8
63
f4
03
03
f8
ff
ff
f4
07
e8
07
02
10
01
06
f9
f8
fa
e7
fc
0a
08
f9
fd
05
07
02
54
0b
05
04
01
f7
12
fa
ee
d4
09
0c
05
05
03
fe
fd
f9
62
00
fd
0e
00
06
08
01
fe
70
09
00
f9
07
fc
fe
0a
fe
41
f9
08
fa
04
fb
fe
00
0a
a1
fc
16
12
02
07
f5
04
0c
eb
f5
fa
f4
01
01
0a
08
06
7a
0a
fa
04
f9
f7
0b
fb
04
e9
f3
04
01
06
02
f6
05
ff
9a
fe
fc
fc
07
0b
fc
fe
0a
e0
07
0c
09
0c
04
01
fc
01
f8
ff
01
05
fe
05
09
0a
fa
05
00
03
0b
fa
0d
ff
f3
01
00
07
05
08
02
06
fc
f9
ee
6b
09
08
08
11
02
0c
fd
fd
cc
01
ff
fc
07
fa
09
fc
f7
9a
09
06
11
05
09
04
fa
09
39
09
fc
04
fe
00
13
06
0b
e8
01
07
05
0a
0b
fd
0e
0a
5e
00
04
fe
03
09
01
07
01
2a
0c
01
f9
0e
f7
09
00
03
ce
f8
04
fe
07
fd
ff
00
08
df
ff
06
fc
f1
09
0c
04
0e
be
0b
03
04
fe
09
0e
09
01
b2
02
f6
fb
07
f7
fb
f2
fb
68
f0
f6
06
0d
04
03
0e
f6
1a
01
fa
0f
f5
10
0d
01
05
0e
03
00
04
08
06
02
fa
f7
5d
f6
02
07
08
02
07
09
05
c0
03
00
f4
ff
01
01
08
f8
16
f9
f2
fb
f9
0c
04
04
0a
ba
fb
00
0b
01
fb
f4
f8
00
42
f9
02
f0
0c
06
f8
0b
0a
c5
0c
fd
f7
fc
02
f8
f9
ff
1f
00
fa
f9
f3
fb
07
f6
02
8d
04
05
01
00
fe
fc
f9
fe
73
00
f8
0e
f0
e7
04
0a
ff
fb
f6
fb
f1
fc
06
04
01
fd
ec
01
08
f8
0d
06
fa
01
05
fc
01
fd
03
fe
07
fe
05
f9
0d
fc
f5
fe
07
fc
fe
fc
0b
d1
07
00
07
08
03
01
04
02
a1
f6
f8
0c
fa
01
02
ff
02
4d
04
07
fd
ec
05
0b
fb
ff
e5
fe
f8
f5
01
02
fc
0c
f6
d3
01
01
03
08
02
04
02
06
14
fe
fa
f8
f9
01
fc
09
05
ce
f7
f9
fd
00
03
fb
0c
fd
5d
08
fb
f7
fd
01
fe
03
f8
70
fb
fd
08
02
fc
f9
fb
04
c8
0a
fd
f7
04
f7
0e
01
f8
5a
0b
f2
0a
f6
f6
00
0d
05
56
fe
09
02
fa
f9
02
fa
fe
b9
0c
03
fb
ff
01
fd
00
08
03
fb
02
fe
fc
00
ff
08
f7
9c
f9
fe
f7
f7
f2
f1
fe
fe
eb
fd
04
09
fe
ff
f8
04
0c
4d
06
f9
f9
08
00
0b
ff
ff
b1
fb
04
fc
fb
f8
ff
03
06
f5
f8
04
ff
f2
07
0c
f3
08
22
00
05
f4
fa
fd
fc
e7
fe
ea
ff
fe
03
04
f0
fd
fb
0a
e0
02
fe
03
09
f5
03
04
00
d9
fd
ff
06
f7
03
07
f9
09
49
06
01
03
00
e8
05
08
eb
e7
f4
fd
fd
03
fc
10
f8
fc
3a
0b
fc
09
09
04
03
fe
f7
24
fb
00
ff
f5
03
05
0b
fc
97
02
0a
0a
fc
ff
04
fd
fc
31
fd
00
fe
04
05
f7
fb
01
45
f9
fe
05
fa
f6
ff
02
f5
9d
02
05
fe
01
04
f6
f3
0e
3b
05
04
08
f9
05
00
06
01
60
fa
06
08
02
fc
f3
fb
02
a0
0c
07
01
fe
08
07
03
f6
36
ff
02
fe
02
f7
04
00
f4
8f
03
fc
f6
00
fb
02
fa
0c
15
02
fd
01
fb
0f
fd
06
f3
43
fb
03
01
f6
fd
0a
ef
fa
17
04
00
12
05
01
09
02
fa
c3
fd
f8
ff
0a
ff
fb
f6
0c
df
05
0e
09
f2
02
0a
02
0a
f5
f7
fe
05
06
ee
fb
fa
01
da
02
09
01
09
01
fe
fe
f9
06
03
00
01
f2
fd
00
02
0c
dd
00
ff
02
f8
fc
04
05
ff
c5
02
fb
0b
01
ff
0a
fd
06
53
fb
fb
00
fa
01
03
07
00
81
f4
ec
f6
f7
06
ff
f1
00
25
01
02
fe
fa
fa
ff
0e
fa
d0
f8
f5
fd
fc
06
fd
f8
f0
a0
f5
01
ff
04
07
f9
04
ff
6d
fe
ff
ef
fc
f5
05
0a
05
14
f6
07
fc
02
f6
02
04
02
8a
0d
f5
fc
f9
08
02
01
f8
a9
f6
01
fa
fe
05
fc
fe
00
a1
fd
0c
05
fe
f8
fc
f9
05
dd
fa
fd
09
fd
fe
0d
04
ff
8e
09
04
01
fd
0a
07
f0
07
5d
03
07
00
02
06
02
07
07
54
fe
ff
f6
10
00
06
ff
08
1e
f5
00
0e
07
00
ea
03
01
11
f5
03
ff
f9
01
03
fc
06
38
fe
fa
04
00
10
f9
ff
00
f6
04
f9
04
f9
fe
04
ff
07
95
08
0a
f5
0d
fa
fb
01
fa
ba
fc
fe
f5
f2
08
07
fa
05
55
ff
01
fe
07
f5
fe
04
f9
f4
fd
0e
fb
fe
0e
01
06
f5
55
fe
03
f9
03
06
03
ff
01
a9
fc
ed
07
fe
01
0e
fe
fe
33
fa
0a
09
f0
04
04
fa
03
41
05
03
0a
f6
fd
f6
fc
f4
28
ef
f9
0f
04
01
0f
00
0e
c8
00
04
04
03
e2
fa
00
fd
c4
ff
eb
f9
f7
f8
00
0a
ff
dd
fb
06
03
f1
fc
f7
f9
fe
15
ff
f2
07
11
04
08
07
09
fa
f6
fd
fc
05
0a
0c
0d
07
26
fd
04
f2
02
00
fa
f7
0c
e1
03
0c
f9
f9
08
04
fe
fd
e8
f9
04
ff
fc
f8
00
08
0c
cc
fa
fa
00
04
05
01
06
f5
0a
06
05
ee
f8
0d
05
02
0c
02
f9
06
f4
ed
02
02
00
01
d1
fd
03
f8
02
f3
fa
00
03
68
07
fd
fb
ff
03
f5
f6
04
0b
04
fc
ed
03
05
00
fa
02
9d
f8
fc
f6
04
f3
06
01
04
0a
fb
06
fa
03
fc
02
f7
04
d2
04
fe
f9
0d
08
ff
fc
fa
0d
f4
01
0f
f4
f4
f9
04
05
e7
05
02
fe
09
fb
0a
fc
0c
ae
08
f8
0e
09
08
f8
07
f1
35
03
08
0f
00
07
f6
ec
fd
5c
f7
09
00
0c
fe
05
01
02
3f
06
11
fc
07
ef
03
09
00
b8
09
06
03
fe
06
00
06
fd
93
04
09
0b
00
06
fb
06
fa
a3
fc
0b
fd
fe
01
08
07
f3
34
05
f4
0a
f9
11
f0
ff
0e
9b
02
02
06
f9
00
fa
fe
05
f9
04
04
f6
03
ee
0e
06
ff
9b
04
13
f8
08
03
fc
01
f9
31
fb
02
fa
fc
09
f9
fd
08
b9
02
fd
00
0d
0a
f7
ff
fe
65
14
0d
0d
f9
08
07
01
f2
5c
fc
08
12
00
00
00
02
09
fe
01
fe
06
ff
0a
fd
fc
f8
35
01
0c
fe
f1
f6
ff
f0
ff
8d
f7
fc
fb
fe
04
fc
07
fd
b1
fb
fe
0b
f5
ef
07
ff
fa
d1
fa
f9
0e
0b
f9
fc
fe
05
51
02
fe
02
0d
ff
0c
00
fa
76
fd
fb
f6
fa
02
00
fc
03
d0
03
f5
f8
01
f9
07
fb
06
f5
06
07
fa
f4
f4
fe
f3
00
27
07
02
12
06
fa
03
02
03
77
02
04
06
04
fc
04
07
fa
00
fa
fd
07
03
02
f9
06
f8
4d
06
0f
01
f4
fb
0e
05
f9
65
ff
0c
f8
06
f5
f8
ff
e9
5d
fe
fa
05
f2
fa
0d
fc
f9
3b
f3
f6
f7
03
fe
fe
09
04
d8
f4
fd
04
f2
01
00
05
fb
5f
00
1e
eb
fe
09
f8
ef
10
12
fb
fc
fc
08
02
ff
05
f9
3b
f6
02
fa
f1
01
ef
f7
02
e4
04
fc
04
fe
fc
02
f6
f7
93
f4
fd
0d
01
fd
03
f8
f6
a9
02
07
01
ff
06
fb
ff
11
17
00
08
f9
0d
ff
ff
05
ef
37
01
04
eb
fe
f6
05
f7
0a
44
10
ec
ff
e9
0b
02
fa
07
6d
08
04
fa
fb
07
f9
f4
f5
4f
08
fe
10
f5
02
0b
fe
ff
a1
02
02
02
08
12
fc
07
fd
b9
04
09
f4
f7
fc
0a
ee
fc
5e
05
fa
02
06
f8
0b
f5
ff
49
f9
0c
fa
04
0d
0b
05
ef
e8
06
fd
fc
f6
03
fd
fe
13
59
ff
09
07
10
03
06
0c
f9
77
fb
ff
0a
04
00
02
f3
01
3d
17
f0
f6
00
00
0c
02
06
2f
fd
f6
09
04
09
f8
ff
f6
e4
fc
fa
05
fd
f4
03
fe
08
0c
02
03
fe
ff
05
01
02
0c
ff
03
fe
fe
f9
04
f3
01
08
bd
10
f5
fb
fb
01
03
07
00
13
f9
f6
fa
02
f6
fc
f9
f7
3d
fd
ff
05
07
fe
ff
fc
15
a0
01
f3
f7
04
fe
05
fa
fb
35
ff
00
03
02
f7
09
08
fd
93
01
0b
09
f6
fd
fc
fd
07
21
fb
fc
f7
02
10
02
0c
01
0d
0a
01
f5
03
fb
0c
f7
08
47
01
01
ff
fe
f5
01
f2
0e
14
f6
f9
15
05
1a
eb
11
0a
d7
fc
15
01
00
04
f7
14
0c
5e
0a
07
0c
03
fe
03
06
08
72
ff
f9
fd
05
02
09
01
02
47
fb
05
14
f2
08
04
fb
fe
6d
03
f2
fe
ff
fe
01
fd
f9
67
f7
04
fe
06
06
f4
f8
f5
b4
fe
ff
05
fa
0d
f5
04
f6
ee
fb
07
02
ff
01
01
04
01
27
fb
05
fb
0c
07
fc
ff
07
4c
ff
03
f9
02
fe
f1
04
ff
eb
fe
02
f9
05
f9
01
f9
0a
bf
ff
fe
fe
00
08
f6
fa
fd
cb
06
04
0c
00
05
06
f0
fd
2e
00
fb
fa
f9
08
f5
01
01
42
fd
08
f9
fc
06
04
05
01
d5
05
09
05
02
fc
0d
01
04
2b
fc
05
08
0a
07
f4
fd
f0
59
04
02
ff
03
f9
fb
03
03
09
00
f6
0f
07
ff
0a
0d
f0
12
00
03
06
07
02
fd
0c
01
21
fb
f2
fe
05
00
04
f9
fd
5f
07
05
ed
f0
03
f6
09
03
5d
ff
07
fc
0a
02
06
fc
11
45
07
fb
fa
fb
fb
04
07
04
b1
fc
fa
03
02
f7
03
07
fa
8e
00
f1
fd
fc
06
fe
08
f5
27
f9
05
07
00
f6
00
06
03
60
f5
fb
f6
fc
f7
06
01
f6
9f
f4
13
00
fa
f4
01
07
fe
5e
fa
09
fd
05
fc
fd
00
f2
fa
02
fb
fb
07
fd
fe
14
fd
1a
f7
fb
f8
ff
00
f5
01
0f
c9
fc
04
fa
fe
fa
f9
02
f6
04
fb
05
fe
01
