ff
fa
fd
07
d3
f6
01
fd
03
02
07
01
05
9f
fd
fd
ff
01
fe
fc
02
01
ff
fa
0e
15
ff
fd
fc
f5
00
63
fe
fd
fe
fc
04
01
06
05
f5
f8
01
02
05
08
f8
04
fe
45
fd
09
02
f7
fd
05
fa
fc
c0
fc
02
fb
00
04
06
fa
fa
cf
0a
07
06
fa
04
ff
03
fe
20
ff
fd
01
02
00
02
0a
f9
29
fd
fe
f5
06
fb
f9
ff
03
e7
01
00
ff
03
ff
06
f7
f8
16
fc
fe
ff
02
00
f8
f8
f6
d0
fc
02
06
f9
fa
12
ff
06
b1
07
fd
04
fc
08
fa
fb
02
fe
12
09
0a
f8
08
fa
f7
ff
cc
13
01
04
f8
fc
06
08
01
95
09
08
fc
fc
02
02
06
04
0c
01
f9
02
07
07
fe
fa
fe
fb
f9
fb
fe
f8
01
00
04
f6
44
fe
03
0a
01
02
fd
0e
00
e2
ff
08
fc
f8
01
04
ff
fa
4f
ff
ff
ff
ff
05
fc
02
fd
c5
06
fd
08
f6
fc
fa
fc
fb
a6
f9
01
09
ff
05
f9
f2
f3
42
05
fc
ee
fb
fa
fe
0a
06
bd
02
0a
00
fd
06
f9
07
fc
28
fc
05
09
01
02
00
fd
f9
62
fc
ff
00
fd
f5
00
f9
ff
f8
00
03
05
06
fc
01
0c
02
4a
fc
f9
02
04
fc
fd
03
02
4a
09
08
07
05
04
03
f9
f9
8c
fa
fd
06
00
02
f8
ee
02
2c
fd
06
00
fd
08
02
07
04
98
04
08
01
05
f9
f4
f8
fa
90
fd
fd
fb
ff
14
fd
fb
05
4e
fd
06
fe
fc
00
05
f3
f5
ae
08
f1
04
f3
fb
fe
f5
0c
b6
05
01
0a
02
fd
f5
03
02
df
0b
00
fe
0a
01
07
08
07
84
06
fc
fa
08
f7
f0
f9
fe
33
01
fa
02
04
fe
0a
fb
02
37
ff
fe
0b
f7
fc
0b
08
ff
61
fb
fd
fa
01
f6
02
14
01
f6
08
07
ef
11
00
02
02
ff
de
06
05
fd
00
05
04
10
f7
bd
00
05
f3
0a
fc
fd
0c
fa
20
f7
fb
fa
fd
06
ff
02
0a
25
03
eb
fa
03
fb
03
f7
f9
50
fa
07
01
fd
00
14
ff
f8
f4
f7
fc
09
ff
ff
f7
fd
04
aa
04
05
07
09
03
fc
00
02
20
01
fb
04
f1
f9
fc
f5
ee
44
07
00
08
06
fa
05
09
0b
aa
fd
fc
fc
05
fd
0e
fd
02
2a
f9
01
01
f1
f4
07
fa
01
f9
fc
06
ea
0a
0f
05
05
19
20
f1
04
f8
fe
00
07
ff
07
03
08
f7
fc
fb
fd
f7
05
fe
cc
0d
f0
ee
05
fb
00
04
fd
ad
01
f3
00
08
02
02
06
02
7a
fd
fd
fe
05
fe
02
f5
fc
c7
ff
05
0c
0a
fb
f0
f8
f6
0f
0b
fa
f9
04
01
ff
01
05
63
08
01
0a
f8
00
07
00
fa
60
0b
fe
00
f7
0d
07
fb
04
47
00
06
fc
ff
fd
f5
04
fc
c3
07
f8
08
fb
f7
fc
f8
01
67
09
06
04
02
07
01
06
fb
30
03
04
04
fb
fa
09
fb
0d
2b
f2
fa
fb
fc
fe
fd
05
fe
41
02
00
06
fe
06
fd
04
08
bf
03
fb
02
fe
0e
04
ff
04
27
ff
05
fd
00
01
fe
0e
02
56
fc
02
06
06
07
fc
ff
f4
b1
07
fd
f5
02
05
f9
06
00
3f
09
f8
00
fc
f4
05
03
0a
49
08
f4
13
0a
0e
fe
02
fb
6f
ff
04
f3
ff
ed
f6
fe
04
c1
ff
0a
fb
f6
fa
04
fb
f7
47
f7
02
f9
fc
06
06
fe
02
70
fa
00
02
09
01
00
ff
f6
e4
0d
04
01
fa
fe
f7
f3
04
de
05
01
05
ea
fc
07
f3
07
74
fd
fa
02
fa
02
fc
03
ff
ce
02
04
ff
f4
03
0f
f8
fc
4b
fe
00
f5
fa
01
07
05
08
ce
00
fa
08
ff
ff
f3
01
ff
b3
06
ff
05
06
f4
09
f1
f9
fb
03
f6
05
03
fa
0e
f8
03
37
fa
02
02
05
09
fc
0d
f8
11
03
04
03
02
06
f9
0c
fc
f0
fd
08
ff
fb
ff
ef
02
fb
cb
05
07
02
fe
00
07
01
ff
f5
03
05
fb
fe
0d
fd
0f
07
1c
fb
fd
fd
06
ff
0a
03
fe
fd
07
f5
fd
fe
fd
0d
fc
00
23
ff
00
00
14
fb
fb
05
fc
a3
06
fb
fe
f6
0e
01
0f
fd
36
fc
f9
00
f4
08
08
fe
f1
5e
0a
11
fd
01
fe
fd
0a
03
03
f8
f7
f8
06
02
fb
fb
01
91
f8
03
f7
0f
f6
ff
fa
0e
14
0f
01
ff
0d
ff
fc
06
ff
db
05
02
ff
00
fe
06
02
fe
10
00
fd
fd
fe
00
01
f8
01
9c
02
02
0a
fa
f6
ff
06
05
c1
0c
ed
fb
08
00
fe
fd
00
db
00
fb
07
0b
0a
fd
04
fd
c2
f4
01
01
08
04
fa
fe
06
3c
02
fa
05
fe
07
f1
04
fb
0d
ef
03
0b
0e
f8
f7
f7
03
95
09
f9
f9
f3
08
fc
fb
fb
4c
f9
f9
03
f8
0a
09
07
01
fb
f9
02
01
02
0a
0d
09
fd
4d
fa
0d
07
f6
fc
f8
f9
09
ea
0e
08
00
f2
07
f2
01
04
d3
f4
04
fa
01
05
ec
f4
ff
34
01
04
fa
f9
fd
f6
0d
f7
58
f7
fe
f4
01
f8
04
04
fa
b5
01
05
02
03
01
05
ef
0c
f0
07
01
0b
0e
f3
00
f9
fe
d8
00
fa
09
09
03
05
03
0a
b6
06
f0
ff
f9
01
07
0a
00
65
0a
f2
f7
f3
08
00
fe
04
c2
00
fc
fb
05
f5
fc
f8
f5
ae
04
05
00
0c
0a
02
00
fa
e2
01
f5
f7
ec
19
03
0e
f9
61
02
00
05
f5
fa
0a
fa
05
6d
f8
fe
04
ff
f9
01
fe
01
ff
ff
fe
07
08
0d
f6
fe
0c
ac
ff
07
0d
05
fd
fa
06
04
9a
00
f2
fa
f2
10
ff
07
f4
24
fc
f5
fd
04
fa
05
fb
04
e5
00
05
f2
06
01
08
ff
02
ca
fa
03
06
09
0b
00
01
05
86
02
f7
f9
03
0a
03
03
04
af
01
05
01
01
07
fd
03
f3
d5
07
f9
fc
01
01
fa
02
ff
07
00
fe
07
05
09
0c
0d
0d
02
fb
0a
fc
11
f3
f4
fa
04
97
ff
01
fd
09
07
09
05
f0
86
ef
ff
ff
fc
f8
f4
f9
02
a3
f7
04
fd
03
fd
f9
ff
f3
d2
f9
ff
fa
f0
f4
fd
fe
fc
36
05
01
05
f5
f8
fb
fd
f3
00
02
ee
08
f9
07
fd
08
0d
0f
02
f5
fc
ef
03
0c
f8
fa
d3
ff
fe
fa
00
f8
07
0a
00
33
0a
03
04
fc
10
0b
f1
f9
06
14
f8
f6
02
09
07
05
00
18
01
fd
00
fc
14
06
04
0c
0f
05
fc
05
08
fe
0c
f4
04
64
0b
f9
f9
fa
fe
fe
00
fe
eb
01
03
fd
0f
09
fc
06
fb
a2
fe
00
f6
0a
0a
01
fc
04
1f
02
ff
fc
f8
f7
ec
04
f4
89
fa
fb
ff
0c
fc
fd
ff
03
5e
07
ff
f8
06
05
f9
09
ff
d4
f4
0e
ff
fa
07
06
f8
11
0f
0a
f5
ff
fa
fd
03
03
f7
d8
02
02
08
06
ef
08
0a
00
3a
fd
f9
04
fe
05
01
0c
fd
38
00
00
f6
03
07
fa
00
f3
2f
03
04
03
03
03
fa
fc
fb
4c
05
04
fa
ff
f7
fa
fa
07
d0
0c
fa
fe
00
f8
0c
f7
09
ee
03
01
fe
03
00
01
00
00
5a
fc
f9
ff
08
fd
06
f6
02
9c
04
fe
08
03
09
ee
f9
06
6a
04
fc
02
f9
02
05
0f
fc
ad
fc
06
05
04
ff
05
f8
00
f8
ff
03
fd
0a
fe
07
ff
08
be
05
02
f7
03
f9
ff
03
05
d2
f7
03
f8
f6
f6
ff
09
ff
9c
f9
06
01
0c
09
01
02
fe
ca
fd
01
fd
08
04
fc
fe
00
18
fd
f5
00
f3
06
ff
04
fa
1c
01
ff
f5
f5
0f
fb
01
01
2a
04
03
fc
f2
08
fa
03
00
d7
fe
09
02
fc
03
fc
f6
03
0a
00
fa
02
f9
0b
00
fc
06
3f
04
00
fc
f1
f2
ff
02
ff
e2
fd
fc
01
07
07
0a
06
07
f8
06
00
fe
fd
10
fc
fe
fd
0c
09
05
03
fa
fd
05
fd
fb
c3
04
00
06
03
00
05
fd
05
b3
fe
08
fc
05
03
05
05
01
7e
01
0c
fb
04
07
08
f9
fe
f3
06
00
fa
ff
f8
05
ff
08
8d
0d
01
01
00
01
04
ff
fe
ef
ea
05
0c
0a
ff
03
0c
fd
03
f8
09
f3
fc
ff
fe
01
fe
6b
fa
ff
04
f6
f6
fd
ff
01
24
ff
f1
f1
fd
0c
fe
01
fd
f4
fc
05
fe
01
06
02
04
fb
a8
09
05
ee
f8
03
f1
08
f6
18
f6
00
fe
fd
0d
fe
fa
0b
c0
ff
f1
ff
ff
f7
fc
f9
fd
dd
02
f8
0c
03
0a
08
06
00
c7
fc
f5
fd
09
04
fc
fc
ff
99
01
fe
06
04
0b
03
f7
fd
b8
08
f9
f8
fb
f5
08
10
f8
ba
fb
fa
06
03
07
01
fc
ff
d8
fe
01
03
09
f6
f3
07
01
99
f9
01
f9
05
09
05
02
fd
e9
fb
fc
03
06
03
05
04
fe
48
f4
08
0a
01
fd
09
00
07
35
f0
03
16
fd
0a
06
fe
05
9e
04
fb
03
02
01
fb
07
fb
9a
fd
ff
fa
06
08
f9
f3
0b
f8
04
f6
f7
f5
08
06
01
01
dd
00
05
fe
fc
fd
f9
05
00
eb
f6
fb
02
f8
0d
08
f7
02
d9
0a
05
ef
0a
02
01
05
f8
14
fb
05
f4
11
11
02
fe
fc
57
fe
f2
0e
04
06
fd
07
06
00
09
05
0d
00
fc
f9
f9
04
fe
02
fa
04
fd
07
f8
05
f2
8d
f4
03
09
fb
f7
0e
fd
01
5e
fb
02
0d
02
f8
ff
00
f8
d0
04
07
03
05
02
04
fc
05
51
02
fa
fb
01
f8
06
03
fb
10
ee
05
00
01
01
05
08
07
60
fb
05
f4
02
10
07
fe
0a
dc
04
04
08
fd
0e
00
01
fa
b5
ff
0f
05
fd
10
fb
fb
0f
df
fe
f7
00
05
ff
ff
f4
f9
55
00
fe
05
f7
03
09
05
01
b5
0a
fa
04
01
ff
f8
08
06
25
f1
01
fc
fb
06
f9
07
fa
fd
03
09
fd
f9
f9
ef
09
fb
21
fc
06
ff
fb
02
05
07
f7
cb
07
05
fe
03
f3
02
f9
f7
b6
01
03
00
00
16
fe
0b
09
db
07
f1
09
f8
ff
01
08
f0
e5
04
07
fd
09
01
fa
f9
0b
63
fb
ff
08
01
f7
00
08
fd
fa
02
00
02
fc
fb
eb
ff
12
b3
fd
f9
fa
01
f5
fa
ee
04
9a
f1
fa
f7
fe
fb
f9
08
fd
13
00
06
00
fe
f1
06
06
09
f5
05
fe
09
09
02
03
01
fc
c0
01
0a
07
fe
f2
f6
f1
01
4d
0a
ef
f2
fd
05
fe
13
02
2c
0c
07
09
fe
f6
07
f3
02
e4
07
fe
06
fa
02
02
04
10
4e
06
00
02
fe
f7
fc
09
ee
4f
0a
09
10
01
fc
fe
ef
ff
9e
05
fa
0b
f6
05
03
ed
04
19
f4
01
f6
ff
f6
fe
f5
fd
2e
01
00
fb
00
ff
00
ff
01
4c
09
fa
f1
03
fb
01
0f
03
5f
ee
fb
f0
02
fa
fb
f8
f2
68
fc
0a
ff
09
07
07
f7
03
0c
fa
f8
fa
fb
0b
05
fb
00
f6
0b
f8
02
01
0b
ff
06
01
df
f2
f5
07
ff
f9
00
fd
02
3c
fc
fe
fb
0c
03
fb
ff
0d
d8
f8
00
fe
03
fc
f5
fe
f5
f9
0b
f9
fc
f9
f7
05
02
fe
19
f7
ff
fa
08
06
05
fe
06
58
fe
f8
06
fb
03
10
02
fa
41
f8
fe
fc
ff
02
07
05
03
da
04
fd
02
04
07
02
02
fd
f0
f9
07
fd
ff
ff
02
fb
fc
95
0d
00
f3
ff
f8
00
0a
ff
ce
f5
fe
03
0c
0f
09
00
ff
11
f7
0c
01
00
f8
f7
fc
01
c2
01
ff
fc
f8
f7
07
03
09
e8
f7
01
05
ff
0b
01
f0
0a
5e
f7
fb
06
f5
fa
fc
02
fc
3e
fb
13
0e
f9
04
f7
f6
00
74
08
fb
f8
f5
f6
05
06
05
eb
00
fe
05
02
fd
ff
fa
02
2c
fb
fc
fa
fd
fd
0c
00
f9
ea
08
00
03
03
fe
09
0b
ff
f9
fe
08
fe
07
06
0d
05
ff
0d
fe
01
0a
05
fe
0d
fc
04
bb
04
fa
01
0e
0d
00
00
f8
01
fb
02
03
03
04
fd
09
f5
f2
0d
fa
05
f5
03
fa
f2
00
20
06
05
f8
04
f4
04
fc
fc
3a
f6
0f
01
f7
f4
01
fc
f9
d4
f5
02
04
01
fc
fd
ff
01
a2
02
04
ff
fe
0c
f7
fa
f8
3f
00
0f
ff
f9
f3
fe
08
02
51
ee
07
01
05
fb
06
fe
0c
b7
fc
f9
06
02
04
07
f8
f9
fb
f6
ef
06
02
0c
09
fd
00
30
ee
fe
06
01
08
fc
02
04
da
03
f3
f4
fd
fc
ff
fc
03
d6
03
02
04
00
07
02
07
fc
06
03
f6
f5
05
0f
18
f8
02
ad
f8
07
e3
08
ff
0c
f9
01
c9
f5
f4
0a
05
00
04
01
03
c9
ff
ff
fb
03
07
02
03
03
c8
02
fe
f9
f3
fd
ff
0e
fd
ec
08
0a
ff
fb
f0
f7
08
fe
d9
07
f8
0d
0c
07
08
f9
02
43
04
03
ff
f8
0c
07
fe
ff
0e
f9
fd
fd
07
fa
f4
04
f8
29
01
05
ff
fe
05
fb
fb
fa
c2
f6
fd
f4
05
fd
fc
fe
f7
5a
00
08
f3
02
f8
fe
00
00
d5
fb
f4
fe
f9
08
f5
05
f3
36
0b
08
10
fd
04
05
00
0a
06
00
fc
fb
ee
fc
f5
f6
f9
73
04
00
fa
00
f2
05
fc
03
94
ff
fc
f8
08
0f
09
fd
f2
3e
12
05
f0
fd
05
fe
0f
03
5d
01
fb
01
0e
00
05
08
fa
11
0f
fd
03
fc
f6
fd
ed
f9
bd
0e
fe
11
00
07
02
f2
01
af
f3
f3
fe
09
02
00
01
f6
e9
07
0c
02
fb
03
04
0b
05
18
fe
0e
ff
fd
07
f9
01
05
b4
0a
ff
fd
fe
05
03
fb
fe
41
fe
04
fe
08
fd
f2
00
00
45
00
05
f7
fe
01
09
ff
00
b6
04
06
03
fd
fe
fe
fd
fd
97
f7
00
05
f8
06
05
09
11
c6
0a
04
03
01
02
ff
11
ff
21
fa
fd
f2
07
01
f2
02
f4
bf
05
08
07
02
00
02
fd
fb
4e
02
fb
f7
fd
f5
01
f6
09
c5
fe
00
0d
f9
08
12
ed
fc
17
f5
f7
00
06
fc
fb
07
fc
94
ff
0a
fc
06
01
03
fa
00
af
00
04
fd
fc
fc
f8
f5
f9
a0
0b
0c
01
f8
04
06
10
03
70
09
fa
f7
04
02
f8
09
00
1d
f5
f4
fe
03
fa
fa
fb
0d
cf
fa
f7
0a
0a
03
02
06
02
f9
f2
fb
fb
06
fa
f1
07
f4
9b
fd
fe
05
09
02
04
f9
02
f4
02
00
04
01
03
f9
04
fb
34
06
0c
f9
f4
03
f9
02
05
2c
ff
fa
03
05
02
fc
02
f9
f8
0a
0a
02
fe
ff
fb
02
ec
bb
03
fd
03
f5
02
06
08
ff
c4
09
00
f5
07
03
04
07
08
cf
06
04
04
f8
f4
00
fa
03
ef
0d
fb
08
fa
fd
01
01
f9
25
0a
09
f0
00
06
fa
f1
eb
2f
fc
fa
0d
fd
fe
00
f0
05
a5
13
f5
0b
fc
06
f8
fb
fb
a7
fd
f9
fe
fd
fe
ff
01
fb
d2
04
03
00
01
03
0c
fe
ff
34
fb
06
f2
0b
fd
ff
fb
02
49
0f
05
06
ff
fb
04
02
11
ab
fa
04
02
02
fd
05
0a
03
cd
ff
00
09
00
fc
09
00
fe
d9
f6
0f
09
04
02
fa
f5
f5
f8
03
f7
ff
fe
04
03
fe
fd
e0
fc
05
ff
00
06
05
fd
03
fa
01
fb
00
04
fd
fd
fd
0e
44
f2
04
fc
07
0d
f9
0e
01
2e
fa
fd
fb
05
f1
fd
f8
fd
a6
00
f8
0e
08
05
fb
02
ff
6b
fd
fd
fc
00
fe
01
fb
fd
0c
ff
04
fe
ff
fa
fd
05
fb
22
f9
ff
fc
00
fb
05
03
ff
bc
fa
02
fc
03
f9
ee
f5
03
e5
04
fe
0c
f9
08
08
04
05
1a
fb
04
0c
fc
02
fa
f8
0e
df
0a
02
fc
0a
0d
08
08
04
62
11
0d
01
06
01
fe
03
0a
f6
08
fe
f9
f9
04
0f
06
fa
9c
07
fe
05
05
f7
00
fc
0d
e5
04
01
00
f6
fc
08
f8
ff
03
03
06
04
00
f4
fd
06
02
e1
ff
fd
02
05
fe
fc
ff
fb
25
ff
f1
fd
ff
f5
f8
0e
f5
37
01
f2
f4
01
06
fe
01
fe
e0
fb
01
f9
f9
f5
fc
f7
f5
41
fd
fe
fe
fd
f2
0b
12
ff
49
f9
fb
0c
10
f5
fb
0c
ff
22
fd
07
0f
01
00
fb
f6
f8
de
f9
0b
01
f7
ff
01
fe
06
37
f8
06
f9
f6
03
07
f7
f9
40
05
06
06
fb
fb
f9
00
fe
ce
fb
e3
f4
f2
0b
fc
fc
08
0e
02
13
01
f7
fd
01
00
06
60
fe
02
fd
fa
fe
fd
04
06
0c
fc
0b
fb
f6
fb
fc
fe
ff
97
ec
01
fd
03
02
02
00
07
61
13
ff
f9
0e
fa
03
fe
05
34
fb
f8
06
f6
0b
fb
01
f6
1d
12
0a
f4
f9
f1
e8
07
fc
2d
fd
fd
03
07
01
09
f9
00
19
03
06
f3
fb
ed
fc
04
04
5d
03
f6
fb
04
08
fb
00
fc
4e
11
05
03
f8
01
f1
06
00
60
fd
f7
02
09
0a
fb
03
05
83
fc
03
fe
05
03
ff
fd
f2
52
f9
08
fa
0e
f4
09
fc
f9
ec
f0
04
f9
08
f9
11
0a
ff
61
02
fc
f9
f5
00
0a
02
07
6e
09
fd
f9
04
0a
01
fd
fa
f9
07
00
06
05
01
fb
0d
03
93
04
f9
05
fd
f5
01
ff
ff
70
fa
01
fc
fd
09
f6
fd
01
2e
05
f5
02
fb
01
02
08
08
c3
07
f7
f9
08
02
fb
fb
04
3b
01
ff
f8
01
fb
02
fe
ff
b1
10
06
04
08
f1
ff
04
0d
2c
07
0b
f6
f9
00
f3
0b
00
2d
07
03
fe
00
08
fc
f7
f9
aa
09
08
0a
fc
13
04
06
fe
7f
f9
0c
f9
09
02
fa
07
04
4a
08
04
f9
00
03
fd
07
08
ab
0b
f9
f9
05
fd
0d
fd
01
91
00
fe
fa
00
fe
f6
03
07
df
e8
fd
01
0c
00
08
ff
03
60
fc
fc
f6
fd
f7
08
fe
05
b3
08
ff
01
07
00
fb
02
01
72
fc
f0
04
f9
03
0c
07
02
4f
01
08
02
f5
04
fd
09
01
96
ff
fe
f1
05
04
f9
fe
ec
d6
04
fd
02
0d
03
f9
00
f4
a1
fc
f1
01
fc
fc
07
03
07
6e
fa
01
f8
08
0f
0a
05
09
e0
08
fb
02
fb
04
06
09
fb
f4
05
04
f4
fe
04
fe
fe
05
d3
03
01
06
f9
f6
01
f8
ff
9d
04
09
01
02
fa
04
02
02
c3
05
ff
fc
f7
fb
f6
07
0d
d3
f6
01
03
fa
13
fe
03
02
db
fb
fb
fa
07
05
08
09
06
1d
f2
06
02
fe
ff
f6
0f
f0
f1
05
fd
ed
0e
fc
fd
02
06
9a
01
00
01
ff
fb
fd
f9
fd
c6
09
04
0a
fc
fe
f8
fb
fd
fe
fd
f9
08
03
00
05
02
f8
39
fe
0e
fd
14
f9
02
fc
ee
42
06
0a
ff
fe
06
00
03
f9
89
0b
0a
f8
04
04
ff
00
00
50
ff
fb
0a
f5
05
0a
f3
f5
a0
0a
fb
01
01
fa
02
02
03
58
08
fc
f0
fd
02
ed
f9
fb
42
f7
ff
0c
ff
11
06
fb
f7
bd
08
fe
00
f9
01
01
f9
05
45
f4
09
f6
fd
f7
0b
fa
0a
91
01
0c
f8
05
05
02
fd
03
23
07
ff
fc
00
05
01
fe
fd
14
03
03
f2
00
05
03
02
0d
de
00
06
04
fd
fe
0d
02
0c
56
fd
09
02
00
fe
f4
05
f8
17
fc
f8
f7
f0
0c
f6
f4
02
36
fe
00
02
00
f6
fe
05
fc
d7
03
02
06
03
ec
09
12
05
c9
02
f4
f9
06
01
fd
09
f7
fc
f5
ff
fc
f6
03
f1
02
fe
3a
e9
0a
fe
f9
16
fd
f8
fc
cf
fd
fd
05
f9
fd
fd
fa
fa
ea
f6
03
08
fe
05
fa
ff
fe
ba
fb
01
02
02
fa
09
fd
03
37
fc
08
f4
00
02
fb
eb
fc
14
07
00
07
ff
07
fc
fe
f9
51
ff
fa
fa
fb
01
f4
ff
fc
32
fb
ff
02
01
0a
03
04
00
67
06
05
05
fe
f8
07
0e
03
ba
06
02
00
f5
ff
01
08
01
42
05
08
0a
fd
fb
0b
00
07
5b
0e
07
fe
0b
f6
fe
02
f9
f2
06
fe
f9
08
f9
03
08
f9
c3
03
f9
fa
09
f8
05
08
07
3a
fb
09
f6
fe
fe
08
ff
f7
e7
08
ff
02
0d
ff
01
0e
fa
98
0a
01
0e
01
01
03
ff
fe
e9
f5
fe
0d
fa
13
06
09
09
5d
0e
f9
02
00
f3
f6
06
00
bc
07
06
fb
02
03
00
fe
0e
a4
f9
01
fd
f4
08
01
03
05
bd
fc
06
fa
f8
09
fc
f7
0a
bb
01
fe
00
01
03
01
fd
f6
0b
01
fb
fe
05
02
01
05
00
92
f5
fb
fa
01
fe
fb
f7
0d
11
04
08
06
fc
f3
00
02
00
db
02
02
0c
fd
02
0d
04
02
43
02
0d
0b
fc
04
00
ff
11
ea
03
ff
fd
0c
02
01
f8
fd
0b
04
0a
fd
f4
fd
0d
fd
07
64
fd
00
06
03
f7
fc
fd
0a
8e
ff
04
02
04
0e
03
fe
f9
77
05
ff
f5
f5
10
01
06
fa
12
f5
00
0d
f9
08
f2
02
fd
cb
fb
0a
05
fb
08
f9
0b
fe
29
f9
08
fd
f6
fa
04
00
fc
01
fd
f9
00
05
f5
08
f8
ff
1e
ff
0a
01
0a
10
f5
fe
f9
c4
04
fe
01
05
fd
fb
06
0c
b0
04
ee
05
f9
f8
ee
01
fe
e0
09
fd
02
03
01
01
01
08
d6
02
00
01
f7
07
f6
ff
f3
ca
ff
0e
ff
fb
fd
f8
09
0a
2f
fe
01
fa
00
f5
fa
07
06
1d
00
03
05
01
04
ff
09
fe
94
f7
03
03
fa
03
03
01
f9
c7
fc
fa
04
fd
f8
00
13
06
46
f9
f8
01
07
fc
00
0d
f8
ad
fa
f9
f8
ff
f6
02
fc
08
e7
f5
08
fc
05
f8
ff
fd
f1
4f
fe
07
07
f9
03
00
0a
f9
e7
01
01
08
fa
05
ff
ef
ff
bd
f1
f2
fb
05
0c
04
f8
01
e1
04
fa
0c
02
06
fb
01
f6
a7
fe
00
fe
fc
0c
06
ff
fc
2a
fd
fc
06
ff
07
06
fb
fc
fb
fe
f9
02
fc
02
fe
04
fa
3d
03
fc
f8
ff
fa
f3
00
02
28
0e
f8
f8
fd
ff
fc
04
09
60
f9
03
f5
f9
01
04
05
fd
66
ff
09
fd
ff
01
06
fa
06
fd
00
02
04
00
fb
f6
fb
03
15
f1
f8
f6
fe
07
02
f9
f9
53
f6
f9
06
fc
05
08
f7
01
48
0b
f9
ff
02
f7
fa
10
02
78
10
03
01
f8
04
0c
ff
01
ad
01
01
03
fc
fe
f5
ff
01
5d
08
08
ff
fb
02
03
fc
fe
a5
f9
fd
fc
fc
08
05
04
ff
0c
f3
03
06
05
07
0a
0a
09
d4
12
0d
01
f8
fb
0a
08
05
38
06
fe
ff
00
f9
07
02
fa
68
07
06
09
fc
06
0a
08
00
75
fb
ff
01
f4
03
08
ff
f7
6a
00
ff
03
05
fc
f7
01
04
b6
02
fb
fd
fd
08
0c
02
f9
c9
f0
06
0c
f8
f0
f6
fd
ff
16
fc
01
fa
08
03
05
fc
fc
15
fb
fc
00
01
fe
fe
fc
f3
50
fa
fd
01
07
08
05
02
fb
45
fe
fe
ff
04
0a
10
f9
f7
9b
f8
06
00
0d
07
fe
fb
fb
ee
00
07
ff
ff
03
f8
09
12
ef
01
ff
f5
f9
07
03
08
01
c1
fd
f6
fb
06
fc
0f
fb
fc
44
01
ff
03
03
05
0c
f6
fb
68
02
03
ff
0a
fb
00
0e
06
61
00
f8
09
01
06
03
f6
fa
4e
fa
01
03
02
fd
01
fa
fb
51
ff
07
fb
03
f8
03
f7
07
c8
fd
01
f8
fa
fc
fe
fa
0a
2d
03
fb
fc
f8
04
02
f9
00
96
fb
f8
01
fe
ff
fb
05
03
a7
08
fa
0a
07
fe
f7
fa
04
99
02
f8
fa
f7
fa
0d
08
fe
af
f1
fa
06
ff
ff
00
03
fc
9a
08
0d
00
f6
06
fb
05
fa
42
00
04
02
fb
02
02
05
fe
8f
02
0a
ff
06
04
02
05
f2
6e
fb
fc
00
02
0d
05
07
f3
25
00
02
03
00
02
fc
fe
0b
e2
00
fe
04
fc
02
0a
01
fd
49
05
09
f4
0a
f2
ff
fc
08
68
0d
fa
01
0a
03
fd
06
fc
bc
07
03
06
05
fa
f8
00
08
f0
08
06
fd
05
f8
fc
fc
fc
22
fe
f6
fb
fe
06
02
01
07
e9
fd
ff
02
fa
f4
09
ff
0b
e7
e3
f5
f9
03
05
f8
f8
05
15
05
f5
f0
f9
00
04
01
f6
f7
f9
01
0a
fd
ff
06
ff
00
2f
f3
09
0c
fb
fb
ff
09
f5
8c
00
02
05
12
fd
07
01
01
c2
fb
04
09
03
f7
fd
02
03
ba
f6
fe
0d
03
05
f9
ff
08
20
0c
06
ef
01
03
04
05
fa
9e
03
f9
06
f4
02
fb
04
f1
bd
03
fd
fb
0a
0b
04
05
fa
48
04
fa
fd
01
f7
f4
01
01
45
fc
ff
ff
0c
00
04
07
fc
5c
f9
fa
0d
fd
01
06
ff
f0
b1
0d
fd
02
07
06
04
fa
00
ca
05
fc
ff
03
ff
fc
0b
0c
67
f1
09
ff
06
01
fd
12
07
30
07
ff
01
f9
00
05
f8
04
37
fe
01
f9
fc
f4
f5
fa
fa
11
fa
02
08
07
04
0d
f6
03
26
fa
fc
ff
fd
04
ff
04
03
d6
fb
05
03
ff
fd
02
0f
0d
97
0d
f4
00
ff
fc
01
04
01
66
0b
fb
fa
fe
01
03
07
ff
59
04
ff
fb
ff
f9
09
fb
fb
32
03
ff
01
fc
13
00
02
08
9d
ff
fe
fe
00
02
06
0b
01
ba
0d
fb
fb
f9
01
06
fc
03
c6
04
0a
07
05
05
f9
fa
ff
e7
07
fc
fc
fe
08
fb
00
fa
0a
f4
07
00
04
fd
01
f3
04
5d
fb
03
ff
f1
fa
00
fa
f4
13
05
04
04
03
fe
0c
01
05
8d
f7
fe
07
fe
ef
f4
04
ff
a4
06
fc
0f
fb
fc
fd
fd
09
c6
fc
f2
ff
01
0d
01
03
fb
72
fa
01
fe
05
ff
f9
07
f8
05
0c
f5
02
f1
03
06
00
fb
ce
ff
00
fd
04
fd
00
0b
f7
d3
01
03
f9
09
fe
f8
fc
fe
2b
fe
fc
06
05
f6
00
02
0c
aa
09
f8
0b
f5
00
09
f4
03
d7
fd
fd
fc
fc
07
07
f7
04
03
07
f3
01
f9
f5
00
fc
03
6f
07
06
00
03
02
04
00
fb
b2
08
ff
0c
01
06
fd
f6
fb
3f
fc
08
f6
f7
07
fb
fb
03
03
fe
fb
03
ef
03
09
08
05
10
f3
07
00
11
f6
eb
02
f3
dc
fa
fa
04
02
08
0e
f5
06
b4
02
06
03
f9
02
05
0a
06
1c
f8
fc
05
01
10
08
04
fd
c0
04
02
05
09
04
fc
08
ff
90
06
0c
01
14
fc
ff
05
09
35
fc
ff
f5
0a
fc
fa
f6
fa
47
04
03
fc
f6
fb
02
04
fe
23
02
fa
fd
0a
00
00
fd
00
72
07
04
01
02
ff
f5
f9
05
c2
fb
02
03
f8
ff
0f
f4
00
3e
05
f7
ff
fe
0d
04
fb
f5
aa
fe
13
fd
fe
fb
fd
f1
fc
ff
fc
03
ff
fc
0a
09
fb
f5
11
f9
fb
03
fd
f7
ff
fa
02
ce
ff
fe
03
f8
fb
01
08
fe
11
04
fe
07
fd
05
01
fd
ff
96
01
00
06
05
04
07
09
07
da
f9
f2
0a
0d
00
04
04
05
41
03
fb
02
07
09
05
09
04
6b
00
f7
f9
fa
01
fe
f7
02
cb
00
fd
fd
06
09
f8
00
fc
26
05
0a
f8
00
04
05
f5
04
98
09
04
fe
09
00
0a
09
09
a4
fb
01
fa
02
fd
f9
0d
02
76
f7
07
02
00
03
05
f4
00
c4
01
06
fe
ff
ff
ff
f6
09
4e
05
fc
06
fc
fb
02
02
03
6e
06
ff
fd
fe
f9
f7
03
01
c0
06
fd
fe
06
03
01
f7
fc
e1
fe
07
f9
f0
04
00
f2
07
99
f8
fb
04
f6
fc
0b
01
04
2f
06
fe
02
02
f6
09
f4
06
aa
f8
fe
f6
fe
fd
fd
0f
03
c6
01
fc
04
03
fa
03
fe
fc
9b
06
fd
07
f5
f5
fb
0f
fc
b2
f9
0e
fa
09
10
00
fe
f9
13
f6
fd
03
0b
fd
0f
f4
03
1f
fe
f7
f8
03
fa
f7
08
04
f6
f6
ff
0a
07
00
04
04
f7
49
04
fc
01
fc
0a
fb
06
f9
10
fd
ff
fc
fe
fc
fc
02
0c
62
03
06
fc
06
05
fc
fc
fe
90
fb
02
0e
05
f3
08
04
06
0d
f4
03
02
03
f9
f7
fb
01
21
0c
fe
fb
fd
04
fa
f5
03
39
f2
02
17
f8
08
fa
f9
fd
92
04
07
0c
06
0e
fa
f5
00
3f
f6
03
f8
fc
f2
03
08
06
0f
04
09
ee
00
ff
08
f6
fd
ab
f9
f3
00
f1
09
f9
05
ff
92
07
fb
f9
fb
fc
ff
fe
04
c2
ee
01
fe
fd
0a
f4
09
fb
a5
13
12
f8
0a
f9
f6
1a
f7
92
f8
0c
00
0b
03
ff
0b
03
ca
02
08
0b
f5
0f
00
f8
fe
6c
10
05
0b
01
07
07
f5
fe
c0
f9
fe
08
0c
ff
f9
0f
fa
65
07
ff
10
fc
08
fa
09
ff
10
ff
fb
f9
00
04
fe
f8
fe
0f
fb
03
03
00
04
01
02
04
b4
00
01
fa
02
f6
fc
ff
02
22
01
fa
0c
02
f7
00
16
fd
93
09
02
fe
0a
02
ff
00
0a
71
fe
00
05
06
04
01
04
06
06
f3
f9
ff
02
f7
ff
ff
fc
dc
04
f8
fc
fc
fb
09
f8
05
fd
08
0d
fd
02
ff
08
00
0c
17
06
f7
00
f8
0f
f1
06
09
85
f4
07
0b
0f
f7
fb
06
09
04
f9
ef
f9
fe
f2
f8
04
05
8f
03
0b
00
00
fd
fd
ff
fc
79
fe
fc
00
fb
fe
01
fe
09
49
02
05
06
02
0a
06
00
fb
62
ff
f4
ff
fa
fd
04
04
ff
97
04
f7
fc
fe
0a
09
04
01
97
02
0d
fd
fe
f3
fa
ff
03
3f
03
fe
00
03
05
f4
05
02
6c
fd
f4
fb
fc
03
f9
fd
fb
02
09
01
04
fb
05
0b
f4
f0
fa
03
03
fc
05
fd
09
01
04
f3
09
09
08
f9
fb
fc
07
06
f9
06
fd
03
f8
f5
f0
fa
00
22
03
ff
03
09
01
fd
fb
fb
4c
fa
fa
02
fe
f9
fb
0d
f1
f1
06
0a
00
fe
07
f6
06
04
ef
fa
0f
fb
01
ff
02
06
f5
b0
06
01
fe
00
fc
fe
02
f6
4b
09
07
03
fb
0c
08
01
0b
97
fa
fb
fc
02
ee
ff
03
0d
bd
04
01
fb
01
02
f2
08
f9
30
08
fc
fa
00
f8
07
03
fc
48
0a
01
f6
fe
04
06
ff
06
58
f6
08
0f
09
04
f7
f4
f9
d7
ff
08
f9
fc
fa
f2
02
f9
11
05
10
02
f6
fc
fc
01
06
5a
fa
ff
ff
01
0e
05
08
01
63
fc
05
01
fc
05
fb
f9
03
4f
0f
08
06
ff
f7
f9
06
00
ef
00
f9
f8
04
05
fc
fe
fd
45
fd
ff
03
00
03
03
f2
08
0c
fb
fe
f1
fc
06
fe
02
07
c4
04
07
09
06
07
0b
08
0c
22
04
fc
fa
fb
01
01
01
ff
28
fe
06
05
fa
02
04
00
05
b0
04
f3
03
fd
03
03
09
03
42
ff
02
06
0d
fd
fe
00
00
0f
fc
02
02
06
01
fe
01
f9
cc
ff
fa
fc
08
0c
09
fe
03
d9
ff
0a
f6
00
01
08
0c
f9
0f
fd
00
f6
f4
ff
fb
04
fa
40
f4
02
02
ff
f6
07
fc
0b
58
00
f4
06
01
09
05
07
f6
58
f6
f5
02
f9
00
fb
f7
02
79
fe
f9
f9
00
02
06
fd
03
5f
06
02
f8
f0
fb
07
fc
fa
a0
fb
fd
fc
01
0a
04
03
07
38
08
01
f8
02
03
06
04
f8
11
fd
02
fa
00
0b
fb
0c
01
2e
02
fb
fb
ff
fb
fc
fa
0b
55
ff
06
03
fd
04
fe
fe
fb
c1
02
04
01
fd
06
07
fe
fe
2b
03
01
01
f9
fd
08
f6
01
b1
00
01
06
07
02
f1
0a
06
15
00
ff
ff
0a
05
08
04
00
37
f7
fc
fc
05
fb
fc
02
f1
aa
fe
00
f4
fd
fb
08
f0
06
c3
0b
fe
00
f9
06
03
fa
f5
eb
00
01
fc
f6
01
02
00
f9
c1
ff
f8
ff
f1
fc
01
04
01
43
fa
03
fa
0b
03
03
06
f8
05
07
0b
06
0a
04
06
f2
fb
fb
f8
fa
06
f6
05
f8
00
12
27
fe
0a
0f
00
fb
01
fa
fe
25
07
f6
fa
f4
fd
fe
fd
02
3e
fc
03
0a
01
fc
fa
fd
04
d3
01
ff
fc
04
fd
04
f6
00
f6
00
01
01
fa
01
0b
fb
fd
d8
ff
f4
fd
fb
04
f4
05
07
0c
ff
fc
fb
fe
01
fb
ff
06
33
03
0b
0b
06
fe
fa
07
00
00
fd
fc
04
fd
ff
fd
04
02
00
fc
03
08
03
0c
fd
05
0b
32
f7
02
0a
07
ff
04
01
ff
6d
08
08
fe
03
00
ff
f6
f3
d1
08
00
0a
00
f9
fd
05
fb
a2
08
0d
03
fd
f2
fe
fe
fe
b5
fd
04
fb
02
fa
ff
f5
00
e2
0c
00
01
02
f7
fe
0b
00
d5
02
05
07
fe
03
0a
fa
f7
f7
fa
f7
09
00
09
11
fc
02
5f
0a
00
ff
fe
f9
fa
06
04
16
07
0c
01
09
07
05
fe
03
9c
04
fd
01
fa
fc
fd
01
02
92
fb
03
f9
fc
00
00
05
08
52
ff
fe
fb
fb
fd
01
03
fb
b0
06
03
fb
00
00
0a
02
03
2f
07
fa
00
fa
03
f4
00
12
be
f8
0a
00
0e
f5
fd
15
02
5d
fd
0d
06
f7
05
fc
07
07
46
06
fe
09
02
00
07
ff
fe
9b
ff
03
fe
f9
f9
ff
f4
f1
8e
04
04
02
05
ff
ff
fc
ff
34
01
fd
05
08
0c
03
fc
03
3f
04
03
0c
05
f9
f7
fe
05
dd
01
f1
05
ff
10
00
11
fd
44
ec
fd
01
f8
09
f6
f6
f4
11
fa
fc
ff
01
01
00
06
03
26
f9
00
09
01
fa
fa
f9
07
e4
fc
f9
02
10
07
04
f5
f2
fd
06
03
fb
f9
ed
08
07
f8
f9
f2
f6
0e
f7
ff
07
00
03
61
0b
06
02
fc
09
0d
f8
f6
2d
01
06
f7
fc
f8
06
f8
02
54
ff
ff
ff
05
03
08
03
00
f5
02
0b
07
09
fa
09
fc
07
9b
f8
06
fb
0c
0d
06
ff
08
f5
05
0c
f7
01
03
fa
fd
f8
d9
fb
f7
07
0b
08
fd
fe
00
74
02
00
fc
06
03
fe
03
fe
e0
ff
fc
00
fe
fa
00
07
ee
6b
f4
17
04
f0
06
ed
f9
05
2e
0f
fb
f4
ff
ff
f2
04
f4
e8
f9
05
0a
f1
ff
00
0c
01
03
f8
0c
f3
f8
f6
0b
fd
06
1a
fc
fe
00
f8
01
02
01
04
db
0b
f8
05
0b
00
f9
fc
fc
c4
02
f0
05
08
02
08
02
f9
9b
ff
05
00
01
f9
fd
0c
ff
f0
fa
ff
03
02
f6
0a
f9
fb
2c
10
fd
0c
03
01
f7
01
f5
6a
0e
00
f6
ff
04
08
fd
fd
0d
04
03
fa
fd
03
fe
02
ff
58
07
0d
fe
fe
03
fa
08
06
35
05
04
02
fe
f9
fe
06
fa
f9
01
f6
11
fd
f8
fb
0b
fc
39
f8
04
f3
03
0f
02
0b
04
56
f6
0a
fb
fc
0b
04
f0
01
95
04
02
fa
ff
06
f2
0f
01
da
f9
0e
05
fe
00
09
ff
fd
13
fb
02
f5
f9
fb
08
05
fc
25
03
ff
fa
f5
0b
f9
fc
fe
b7
fa
08
fe
04
02
fa
fc
04
48
03
fb
04
05
fa
f5
0a
0c
db
fa
f5
05
02
03
f6
fb
05
c8
08
05
01
02
f8
fa
03
0e
1a
fd
04
10
ff
fe
fe
fd
06
3e
f3
fd
f2
07
00
ff
05
04
f6
f9
08
f9
fe
eb
f9
01
fe
70
01
f1
f2
07
fc
06
fa
ff
de
f8
02
07
fd
f8
07
fc
fc
d8
fd
00
07
fc
04
06
08
fc
f4
fd
02
0d
08
08
04
0d
05
e9
ff
fc
f6
04
09
02
09
fb
db
fd
09
0f
01
0a
07
07
fb
57
01
fd
00
ff
00
fc
f5
f9
18
fc
f5
01
10
00
00
fb
fb
e1
f9
0e
fc
00
01
05
ff
fd
62
fc
00
02
ff
00
fe
f4
03
27
fa
0a
fb
ff
03
fc
fe
02
59
f7
ff
fc
ff
07
04
07
fa
09
0b
fe
ee
f9
06
0d
ff
05
9d
01
04
09
fe
05
fa
f8
06
e2
ff
fe
03
08
f8
00
07
f9
13
fb
fd
fd
fd
06
07
ff
03
e5
09
01
07
03
f8
0b
09
01
01
f7
00
f9
06
f7
fe
02
04
f4
f3
03
04
09
00
02
01
01
03
fe
03
05
f1
f7
ff
0b
f1
7b
03
05
fc
00
00
ff
f7
00
59
0f
ff
fc
f9
fa
02
fe
01
f3
02
0d
fd
fb
fd
fc
00
00
f0
ff
01
00
fa
f9
03
fa
02
2e
fc
07
00
fa
0f
08
00
0e
ac
08
02
01
01
fd
f1
01
fa
47
fd
f6
07
fe
03
00
fe
f4
ec
f6
f7
02
04
fd
01
ff
07
91
0c
07
08
ff
01
fe
16
f5
42
0d
fd
f9
01
08
f3
0a
f9
dc
0b
ff
06
f9
fc
fe
0c
0a
e6
ff
02
fd
01
05
ff
fa
05
ea
f9
00
06
f5
ed
00
0f
ed
42
08
16
01
0d
ff
fd
0f
01
d6
03
fd
f6
fe
03
fc
01
0d
75
02
fa
f6
07
fd
f0
10
10
01
fd
f8
10
05
fd
0a
f1
06
d8
02
00
fe
fd
fb
f6
07
01
e1
00
00
ff
f8
fe
f0
01
ee
99
f2
01
04
03
02
fa
0e
f8
df
09
f8
09
fa
02
06
fe
fa
88
fc
00
07
f7
01
fd
05
02
78
08
09
f7
ff
03
07
01
00
2a
0a
fc
fc
fa
03
08
01
0d
ae
fc
ef
03
02
0a
07
01
06
42
07
01
ff
02
fd
07
04
01
c5
f4
03
03
04
17
fa
04
f1
cf
0f
fd
ff
09
16
fb
0b
f7
04
fe
ff
0d
06
fa
fd
f9
02
10
06
fc
ff
fa
f3
05
f5
ff
4e
fd
08
07
fa
06
07
07
fc
38
0d
0e
00
0b
06
fb
ff
03
89
ef
05
08
08
fd
0b
f9
fe
1d
10
fb
fd
f8
f9
02
fe
04
22
06
01
07
fd
fa
01
08
fc
9e
0e
ff
fd
fc
fa
f9
05
00
3b
00
01
04
05
19
f3
07
01
16
f7
fe
01
05
01
0f
fb
f9
17
fc
07
f9
06
01
05
ef
f8
bc
f6
09
05
fc
f9
06
fe
06
48
05
03
f9
f3
f9
f8
f1
0a
24
04
fb
ff
fc
f9
0c
fd
0c
a1
03
f6
fa
ff
f2
f9
00
f2
11
04
f9
0b
03
04
fe
07
f7
33
0d
0b
fb
ff
f9
03
01
fc
a2
01
09
13
f8
f8
f5
ff
0a
4e
02
07
fc
f6
00
01
f4
fd
ab
f5
13
06
fb
04
06
03
02
c9
fb
06
05
04
0e
fc
07
01
0d
f9
06
07
fa
05
f3
00
02
ba
06
f9
02
08
f6
ff
fb
01
19
fe
fa
01
fd
fe
0a
06
04
cc
f3
00
0a
0b
02
0a
01
0b
bf
04
04
f9
fe
0a
ff
00
06
0f
fb
04
f6
00
f6
0b
f9
09
53
fe
06
ff
f1
fe
fa
ff
f9
9d
fb
fd
02
0c
01
fc
01
02
ff
fd
05
f7
f4
fc
01
07
ff
e4
04
0c
fb
03
f8
fb
05
0c
05
04
06
fd
ff
05
02
04
06
1c
fc
f5
01
03
fb
fa
ff
f6
bc
03
02
fb
f3
ff
04
07
19
bc
fa
06
fe
06
f8
04
04
f5
76
09
fc
07
f5
02
05
fb
e9
9c
02
0d
0f
0c
fc
01
fb
05
13
00
fd
fc
f7
fe
fd
fb
f8
3a
fe
0c
ff
fc
00
fa
f7
fb
2e
09
05
ff
fa
06
0e
fd
fb
4b
05
05
02
07
fc
fa
07
02
3e
02
ff
fd
f5
03
00
01
03
74
0d
fe
fb
ff
01
04
01
f2
c0
f0
01
fc
03
f9
f0
fa
f3
c3
fd
ff
01
fd
fa
f3
08
f3
16
f4
fe
ff
fc
07
fb
fb
fa
f5
fd
fb
07
00
09
fc
fa
f7
29
f9
09
fc
04
06
04
09
ff
5c
fe
01
01
04
03
fa
03
02
15
0b
ff
fe
fc
08
ff
00
ff
1c
01
01
fe
fd
fc
ff
fc
f3
f1
fc
fb
01
ff
0d
fd
ff
fc
2d
11
02
02
08
ff
01
04
f9
40
fd
14
05
08
fd
05
f9
01
5d
10
01
fa
fa
0b
f9
fd
06
26
01
08
f9
f9
0a
02
07
04
2f
ff
f4
0b
04
f9
ff
fc
fe
dd
04
fc
06
fe
03
ff
04
fc
1a
03
02
03
ff
f7
00
02
fc
4f
05
02
fa
03
09
17
ff
ff
96
ff
fe
09
0b
fc
fa
f4
fc
4e
00
fb
ff
fe
f8
02
03
03
b1
fb
03
08
f9
fe
08
05
02
b3
fd
00
fe
03
04
0a
02
ff
f3
f9
ff
fd
04
02
fd
02
f3
63
09
0a
05
f2
f7
fc
03
0b
ad
09
fe
0a
08
03
0b
05
00
c1
ff
f7
fc
01
06
09
f9
fa
28
04
13
11
fc
0b
07
f6
f6
d2
ef
fd
fb
02
09
fb
ff
fd
b4
00
0e
07
fc
04
01
fa
03
cd
f8
06
ef
f5
06
05
02
05
bf
05
f4
ff
ff
ff
01
00
ff
e1
f8
fa
fb
02
f9
02
fc
09
b4
01
03
fc
fb
f8
f7
0a
f7
76
ff
fa
0f
03
05
fe
03
f9
9b
01
02
02
ff
fc
f7
03
00
17
ff
11
0e
00
fb
fa
f9
fe
a8
fc
06
f5
00
06
02
01
01
c9
fa
03
ef
02
09
fa
08
f9
5f
f6
ed
05
0a
fb
f8
fb
00
22
ff
f3
06
fa
04
01
ff
f8
5e
f7
03
09
fe
03
02
04
f9
c8
f5
00
04
08
0d
08
05
f4
8f
02
0a
f4
f6
0f
f7
03
fb
1c
05
00
08
00
03
03
03
f7
3d
f5
02
fc
f6
00
fd
fb
06
cf
fe
03
f7
04
01
05
01
ff
af
fd
01
f5
02
fa
02
07
fc
5d
03
fb
ff
03
fd
fa
ef
f1
ed
f8
f9
ff
f7
fb
f4
fd
fe
3b
02
05
ff
05
0c
0e
08
fa
b7
06
fe
05
09
f6
fc
fe
fd
98
0a
05
fa
fc
01
f8
ff
f9
0f
03
fe
0b
f6
ff
00
ff
06
5f
fe
04
fd
01
f3
03
09
fe
96
fe
f9
fd
ea
fb
0a
ff
fd
5f
01
0a
fb
03
04
f9
ef
fc
24
03
03
0b
0e
00
0b
ee
fb
72
03
08
08
f8
fe
f7
0d
fe
51
14
fe
02
fb
fb
f1
02
07
ec
04
00
eb
fd
fd
00
03
f8
64
06
02
06
ff
f7
01
fd
02
42
f6
fe
00
05
01
01
fb
06
5f
f9
f2
02
00
0a
05
07
02
a9
f9
04
00
f9
f8
fb
f9
fa
c7
0a
05
fc
07
ff
10
02
f9
61
10
07
03
ff
fc
f8
09
fc
bc
0b
07
04
f0
03
04
03
04
e2
0c
0f
00
fc
09
fa
02
02
d6
f7
fe
f9
0c
08
07
fa
0b
f7
f5
06
f9
fe
04
11
02
fb
f0
fa
fc
03
f4
fb
f5
f6
fe
4f
08
00
fe
ff
06
fe
07
04
0c
f2
ff
00
0a
0d
fc
fe
02
f4
02
ff
03
ff
f6
ff
09
04
ed
fb
07
01
fa
fc
05
00
fd
ae
00
f8
03
fa
f6
0c
08
fc
d4
fa
07
01
03
0f
f7
f7
02
b9
05
0f
ed
0d
04
02
fa
02
f8
00
0d
f3
f9
ef
03
00
f9
60
fc
fa
04
02
f3
00
03
fd
79
f9
f7
03
fc
fe
06
fa
05
59
09
03
01
01
fe
0c
10
07
a4
02
fd
06
03
fe
08
fd
f9
e1
f5
fa
0c
0e
fd
fb
07
f3
9c
fc
fe
05
f8
f1
f4
fd
04
56
00
01
f9
ff
fd
06
05
0b
bf
fc
ef
fd
ff
ee
fc
0d
f2
62
07
fd
0c
f7
fe
ff
03
0b
1e
08
08
01
08
ed
f8
f8
f7
34
f6
02
fc
03
08
f8
14
f6
37
fc
04
10
00
00
0a
f2
00
13
f2
fa
ed
fb
02
ff
12
fe
25
fc
09
08
08
07
01
fc
fc
45
fe
f8
05
f5
02
07
08
05
56
09
fc
00
0c
f3
fa
fe
fb
2f
fe
0c
f8
08
01
01
fe
f4
26
f8
01
09
05
fc
ff
fb
f9
9a
fa
fe
05
fc
02
f0
f5
05
8a
f3
04
ef
fc
fc
01
04
ff
d8
02
08
0a
00
17
fc
03
f5
61
10
0c
08
fd
06
02
ff
07
07
07
f2
06
f8
eb
04
f7
03
25
fd
07
ec
08
08
fd
05
0d
6d
fe
00
06
ed
00
04
0c
00
b2
04
11
04
04
f4
04
09
fb
fb
fa
0a
fb
ff
03
ed
1a
f2
34
06
04
04
10
f6
f3
09
fd
61
f8
11
0a
04
01
ff
07
05
43
fa
fc
f9
ff
09
fc
05
f9
77
0f
0e
f1
01
08
08
ff
f8
07
09
f9
0a
04
fe
ff
f4
03
ae
ee
03
06
f8
08
fe
07
fe
00
00
09
00
f3
02
00
ef
f5
ef
fa
fc
09
03
04
0e
11
00
df
05
fb
fe
03
07
f9
f9
f7
c8
00
00
13
fc
ef
f3
0d
04
62
ff
0b
09
f7
