fe
03
f7
f7
ac
f8
ff
01
00
00
01
fc
fe
fb
01
fe
ff
f7
02
04
01
08
04
00
11
04
01
ef
fb
06
04
36
08
05
01
fd
fd
09
00
f8
d1
fa
ff
01
08
f8
fd
f9
0b
b0
fe
fb
fa
01
fc
fa
f7
06
5e
01
f5
ff
03
fd
fc
ff
03
9c
fe
06
fb
00
fe
0a
03
06
d8
10
09
05
f7
f5
ff
ff
03
46
fa
06
0b
03
fd
01
fd
fa
dc
01
0b
f7
03
ff
00
0b
fa
f2
04
fb
fd
04
fc
f4
fb
06
93
eb
fd
fc
10
02
05
f9
04
02
0f
0e
ef
12
fe
fb
fe
ee
e0
fd
f5
ff
fd
fd
07
05
f8
9c
fa
fd
10
07
f4
fd
09
f3
4e
e8
fc
08
f6
06
f8
05
05
53
02
02
03
07
09
f9
01
fc
b1
0d
fc
f4
0b
0f
09
05
00
9c
0b
f6
fe
07
f6
fe
03
0b
46
09
ff
fb
f8
fc
f5
ef
0a
db
fb
fa
fe
ff
fa
0a
05
f6
1b
0d
0b
01
fc
08
03
f9
fb
0d
fc
ff
01
fe
08
0c
10
f4
a1
fc
fb
11
02
09
00
ff
07
18
03
fc
f5
fb
fa
03
f8
eb
56
f6
05
04
fe
01
00
0a
fd
46
00
f7
0a
f7
01
f3
05
06
20
f3
ee
ff
00
fa
10
09
f2
3e
02
0f
0d
f9
0a
f8
fd
f3
ba
04
ea
fe
0b
02
fe
fc
fa
f2
fd
fb
02
fc
01
05
12
08
5d
ff
f5
fa
07
fb
f4
09
00
04
00
f4
fa
fc
02
08
f8
01
ff
03
07
08
06
ea
fd
fe
06
e9
f5
f8
fc
fe
00
0a
10
06
e2
05
03
ff
fc
f9
ff
03
04
ff
fa
f6
ff
02
fd
fb
f4
ff
a5
0b
f5
07
03
06
fc
fe
ef
02
00
08
f4
07
fb
f5
05
06
09
08
fc
00
e7
fb
04
0d
f6
d6
02
fa
fc
0a
f7
ff
fd
f9
ac
fb
05
06
fb
fe
01
02
01
24
f6
f8
06
04
01
00
00
f8
d9
00
01
f8
fa
f7
05
03
f3
1e
04
fc
07
f6
05
ff
fe
0c
5b
fe
fa
05
19
f3
fd
01
fd
24
00
02
f7
02
0a
05
03
fb
20
09
09
f6
f8
f9
ee
fc
05
fd
0e
ff
ff
fe
f8
ff
0a
f7
04
04
05
05
04
fd
fc
06
02
ac
fe
09
07
02
fc
ef
02
0b
c6
06
04
00
f5
ff
fb
fe
00
02
fb
f4
f1
0a
fa
02
08
09
0d
fe
fa
00
fe
0b
06
f6
f7
62
fb
03
00
01
10
f9
fe
09
7a
0a
0e
0d
02
fc
03
00
f6
58
fe
0c
05
fa
fd
04
fa
0a
56
fb
f9
fd
03
0a
fd
02
ff
ae
0b
01
01
03
0b
f8
f7
04
29
0d
f3
fa
11
07
0b
0e
03
1d
0b
02
fa
01
04
f7
fa
05
a7
05
fb
06
04
fd
f9
00
04
13
fa
00
f3
fe
fc
f6
01
f9
48
ff
0a
f9
fa
09
fd
0a
fa
0f
00
00
05
03
02
fd
ff
03
65
04
fa
fe
08
f6
01
fe
f2
34
13
fe
f7
fb
07
fe
04
09
bd
f9
04
05
04
02
f8
fc
03
04
f9
03
fa
04
0c
03
08
ff
50
07
00
fa
02
06
05
02
f6
ae
f4
03
04
0a
05
0c
06
0c
b4
07
03
03
05
fd
03
f9
f6
c5
fb
03
fb
f7
ff
0c
f4
08
39
fa
ff
0a
06
f9
f5
00
f8
db
04
ff
04
fe
0c
f0
08
fc
6a
f3
02
f7
09
00
ff
fc
00
cf
0d
fc
f9
07
00
f1
fd
f2
37
fb
06
06
fc
05
01
ff
f8
bf
10
f9
0d
fa
ff
e3
09
fd
ec
fb
ff
fe
fd
fb
f0
07
04
bd
16
ff
fd
fc
03
fc
00
00
d4
fa
00
01
fb
07
f7
ff
08
46
f9
0a
0b
fd
08
fb
07
06
26
0b
01
f5
0a
fe
f7
f4
fd
b1
f7
00
02
fd
fd
02
f7
03
35
ff
00
07
fd
f3
fc
f7
03
55
f5
00
02
fb
fd
f6
0a
01
4c
0d
10
03
f9
04
02
01
05
a5
f6
fe
f7
05
fc
fa
01
09
da
08
01
03
f3
fe
fe
02
f9
fa
01
fd
ff
f5
00
fb
06
fb
ef
01
06
00
f9
f6
f5
05
fe
34
f9
04
05
08
fe
f9
06
f8
ed
0c
fe
09
f1
11
07
03
fa
e2
f4
0e
09
02
07
07
f7
f4
94
f9
0a
04
07
fa
ff
f9
f1
af
f9
02
f6
fb
02
f9
0a
0e
53
03
04
09
01
04
00
f9
f6
a0
fd
f9
fa
05
fe
fb
fd
00
2e
fd
03
0d
01
ed
fb
f7
f9
58
0d
0b
fb
00
f6
0b
0a
fb
a8
03
01
f7
fd
04
fa
eb
02
b4
fa
fe
0c
f9
ff
10
f7
f8
a6
ff
fb
03
00
02
06
fd
fa
41
00
02
0d
0a
ff
00
00
05
c8
06
f7
03
06
02
f7
fe
fc
e6
f9
06
04
04
0d
05
f9
fe
40
f6
06
fd
f3
0e
fa
01
0e
65
03
08
fd
05
06
01
0e
fb
f8
03
06
00
fa
fb
f8
ff
f2
67
f2
f1
01
04
06
07
f7
fd
0f
05
08
fe
f8
0b
0a
01
f6
c4
fa
fb
08
04
06
02
00
10
33
fd
06
09
fc
f9
01
0b
08
2b
01
02
07
fe
f8
05
fe
f7
21
fb
01
fe
f9
fa
0c
0d
0f
d1
fe
ff
02
00
01
03
fc
f6
0d
ff
fe
02
ff
01
01
04
07
db
03
07
ff
00
fa
f9
0c
07
5a
f9
00
02
f8
f7
f7
f6
0c
03
03
0a
fa
f3
06
01
00
f5
2a
00
fe
f9
03
05
03
0e
fe
c0
0d
f7
01
00
05
05
03
fa
1e
f9
00
05
01
03
02
f3
ef
fd
01
00
fc
ef
00
f9
06
0a
66
fd
f6
f7
09
f9
04
02
fa
67
ff
f9
0a
04
fa
fa
0a
fb
4f
08
03
f6
02
08
fb
05
07
29
05
ff
fa
08
f9
06
f9
f5
31
0a
0a
0c
12
f0
f7
ff
0c
e1
02
f7
fd
fa
05
f5
0e
03
51
ff
fb
fb
f5
05
05
fc
09
c6
0a
fd
f3
03
07
fb
ff
0b
ed
13
01
15
fc
02
ed
12
fb
40
f4
0d
01
00
05
01
07
00
dc
ff
09
fc
f8
04
00
01
01
49
03
fc
00
08
fb
fa
f9
fa
e5
ff
fd
02
fc
fd
00
00
04
08
f3
f6
fe
0b
08
f9
fa
09
9d
f5
fd
fa
ff
fb
08
04
08
49
fd
04
f6
f5
09
01
f3
f4
5a
0d
fd
ff
04
ee
fb
0e
f3
70
03
f2
09
f9
07
ff
fa
ea
b5
fd
f6
ff
fe
f0
f5
ff
ff
5a
e8
0a
fe
f6
f9
06
03
ff
91
00
05
fc
07
fc
04
ff
fd
9a
fe
0b
02
06
0a
fd
06
0c
5d
f2
05
00
07
04
f7
fe
01
ef
08
01
fd
fa
0a
fd
f8
f6
26
0d
f8
fe
ff
fd
02
04
fd
5d
06
fd
02
ff
00
03
05
f5
6d
fe
fe
04
06
01
04
06
09
3e
03
f8
0f
09
fb
f7
01
00
77
ff
f4
08
f6
01
04
06
ef
3c
fe
fe
08
00
ff
f3
05
0c
68
f9
fa
00
f9
08
04
05
f6
56
fd
f5
f1
07
fb
03
ff
f9
b1
fc
ed
0b
fa
05
f9
f0
f8
03
ee
04
f5
03
fe
fa
06
f6
c1
00
f1
02
f9
fa
f7
01
fb
96
f4
00
08
f6
04
0e
f1
12
12
07
08
ff
fd
fa
f5
fc
05
cd
02
03
ff
02
fd
fd
0c
07
53
f3
fc
04
fb
02
ef
00
fb
5a
03
fe
08
fc
07
fd
06
fb
e9
01
03
ff
09
f5
fa
fe
11
2e
f9
f9
fa
fb
05
0f
f9
f1
5a
fe
07
07
06
0b
f8
0d
f6
00
f9
03
ff
09
06
03
03
05
96
fb
03
07
fd
fa
05
f3
0a
42
06
fe
01
04
04
f7
0a
02
02
f8
e9
fe
f6
fa
f9
f8
04
c3
03
03
ff
07
f8
05
fb
fd
c0
06
fc
03
05
0a
02
03
fd
8c
fc
04
00
fe
fe
04
ef
f5
f1
ff
f3
f1
f1
f6
06
08
06
c6
fe
02
f7
03
02
06
fa
03
c8
fa
0a
03
07
07
fa
01
fb
3c
07
ff
04
09
fe
04
03
fc
43
f7
01
fd
f7
05
f8
0f
ff
9c
f9
08
0c
03
07
0d
fa
fa
16
fe
0b
09
fe
fd
08
ff
04
fe
ff
fb
00
f6
fb
04
fb
04
a1
0e
fe
fc
fe
03
fa
f8
08
4c
03
ef
fc
ee
ef
fe
06
05
40
05
fb
fb
f9
07
00
0c
fb
ef
04
fc
fb
08
fc
02
0e
0d
cd
f9
03
06
03
fc
ff
fe
f5
b9
06
fb
02
f2
02
f8
fb
fb
31
fc
01
fd
f9
fc
0d
05
01
1f
01
02
fc
fc
09
06
02
0a
fd
04
04
f6
f7
0a
f8
06
f9
b5
ff
ff
fd
fb
f4
09
f9
f7
c7
fc
fa
01
fd
03
ec
06
f6
da
04
f6
fa
fc
0c
fe
07
05
a0
03
02
f6
fd
fd
f5
00
f8
4b
09
f8
ff
0c
07
06
fb
f5
d3
03
f3
04
00
01
fb
09
00
1f
fe
fd
08
05
08
07
ff
03
1c
fd
fd
f9
f4
04
fa
f8
05
e6
01
fe
06
f9
f6
02
f3
fb
b3
00
0b
0a
02
ff
03
f7
f7
59
03
02
00
f7
00
f8
0c
0c
9a
fd
04
fe
fd
f8
fb
01
fd
b2
10
ec
f6
fa
03
00
fa
01
9f
04
03
03
12
0a
fd
f9
fa
a7
03
f9
fa
04
0d
ff
0e
04
1e
f9
03
fe
03
04
fd
fe
00
fb
05
01
f0
f2
fc
09
ff
ff
dc
f7
fa
05
f3
f8
fe
03
fe
19
f8
06
fa
ff
06
08
08
f9
bb
f6
0b
ff
fd
f3
f4
ff
f6
d8
f3
04
00
04
0e
f7
f6
f8
05
ff
02
fb
05
f3
00
fb
0b
e9
01
f6
06
00
01
05
09
05
b8
00
00
00
03
f8
f9
05
f7
4a
08
f9
0a
02
fe
00
ff
03
b8
03
00
fc
f7
f8
f5
f4
f9
67
f7
fe
05
06
02
fb
00
f9
5b
fd
0b
05
fe
09
ff
0a
02
a0
fe
09
00
07
fe
04
02
f9
16
0a
ff
00
fb
09
03
04
fd
1e
f9
15
02
f9
ff
09
08
06
11
fc
fd
fe
08
fb
06
ff
06
a4
00
fc
02
0a
fd
fa
01
03
91
ff
02
fb
fe
fb
f7
00
fe
96
06
ff
f9
06
fe
f8
09
fd
4a
fa
fd
0d
fd
0b
fb
01
07
0a
09
f5
fa
fe
07
02
f3
00
f3
08
00
00
00
fc
fc
08
07
cf
ff
fd
fa
f4
08
fd
00
fe
70
ff
05
03
0e
fe
fc
00
ff
37
08
00
02
02
fe
f3
02
fc
f7
0c
fd
fe
fb
04
03
05
0c
f1
fe
08
0c
00
02
00
fe
fc
31
f3
00
f4
00
03
00
01
f9
73
f4
ff
04
03
01
02
ff
01
b9
01
01
09
f7
fc
00
04
f8
66
09
0a
07
f4
05
01
01
09
a1
fd
0e
f8
0e
ff
04
ff
ff
b0
f6
07
06
06
04
f4
03
f7
6d
05
06
04
03
0f
03
fa
00
53
02
05
05
fd
00
fd
fa
08
d5
f5
fc
04
07
02
fd
f9
ff
3f
0e
fa
f8
f8
fd
fb
fa
f8
56
ff
00
0e
06
ff
fe
06
0d
b6
03
f8
00
ff
05
05
02
fd
9b
04
ff
08
f7
02
03
fb
09
26
fa
fb
f2
ff
fa
fe
05
03
94
fe
03
01
fb
03
01
f6
02
db
03
01
04
05
02
05
05
01
68
02
0b
04
ff
02
00
02
01
b1
fc
06
fb
09
06
0b
f0
00
df
fc
0b
02
ff
02
06
f8
05
22
05
09
fd
fe
fd
0f
00
fb
30
07
04
01
05
fd
00
01
00
bc
01
fe
f6
fd
04
07
00
00
dc
07
04
fe
f7
f8
04
02
fb
e4
f8
fd
00
fb
fb
fb
00
02
ef
0c
ff
fd
fd
f3
05
07
01
97
fb
fd
f0
07
00
ff
03
05
08
f8
fe
01
fc
f6
f4
fc
09
9c
02
05
01
08
01
04
f9
fd
42
ff
02
fb
f6
fc
fd
05
02
8b
06
f6
fb
03
04
00
00
ff
fd
fe
ff
f7
06
02
ff
02
03
64
03
f9
01
0f
fc
09
01
02
c0
05
05
02
fb
f8
00
05
08
f7
01
fc
01
fc
f7
00
02
01
a4
03
f7
fc
04
06
f0
07
01
ff
f9
f9
fc
03
fd
15
fd
06
0d
08
0b
01
f9
05
04
fb
fa
f8
f7
fa
0a
f8
02
05
05
02
c0
00
fe
00
fd
f6
fd
03
f8
68
f6
f6
f5
0d
00
02
f9
07
e4
0a
0c
02
f6
08
06
0a
01
f0
f6
fd
f6
00
f9
f8
07
05
ea
10
ff
04
fe
05
06
08
fc
dc
08
01
0e
fb
03
f9
fd
fa
fd
03
fa
06
04
00
fc
04
06
7a
13
0d
0d
07
fc
fe
f5
fd
9e
f5
fc
07
00
fc
f8
02
ff
f8
03
f4
01
04
02
02
04
f9
4e
fd
fb
fe
0a
fb
07
fe
fc
17
0b
05
fa
fe
00
fc
01
fe
6b
ea
f6
03
10
fe
04
fa
01
cd
fc
f3
04
02
08
07
fd
fd
3c
f3
0e
f8
fc
ff
00
fd
00
a5
fd
04
fd
0e
ff
f8
fa
f8
53
04
fe
05
fe
fd
0a
02
ff
ec
fe
fe
f3
00
fd
f8
fe
01
e1
f4
fb
0a
03
f9
04
00
00
30
08
02
fb
04
fa
f3
f1
fa
c7
04
00
fb
03
01
f5
f3
04
04
f9
02
09
ff
f6
fd
fe
ff
53
fd
fd
ff
fb
f9
fe
01
02
62
02
00
06
fb
f8
00
02
ff
c8
07
fc
03
fc
02
0a
fb
06
08
fc
02
f3
07
f6
08
02
03
8f
f9
01
00
07
f4
0f
00
07
34
05
0a
fe
00
0f
f9
0d
f7
f8
fb
00
fc
03
03
03
f7
07
1d
f9
fd
05
fb
fe
00
0b
03
97
ed
03
fd
f0
fe
03
09
f9
4c
f0
fd
fc
f6
f6
fd
02
f5
1d
01
fb
08
fb
ff
07
f8
0c
15
0b
f7
13
02
02
02
06
fa
bc
fb
f8
02
0b
04
02
12
f7
e9
05
f6
07
fa
0d
04
05
01
55
ff
00
f6
01
15
f7
0e
00
54
02
07
00
f3
0c
04
f7
02
09
fa
f7
06
00
04
02
fb
ff
de
0a
03
02
07
09
ff
02
06
59
f2
f8
ee
ff
f6
fe
05
fb
ca
04
fb
04
f3
f9
00
fa
00
2f
fe
fc
ff
03
f0
10
ff
10
e7
01
00
05
fe
0b
0b
02
00
37
fe
00
fc
06
f2
00
fb
f5
2d
fe
f8
05
00
0e
fb
01
fe
ad
0c
f6
05
fc
02
fc
07
fa
4f
05
f4
fb
01
0b
02
fe
03
44
fa
01
f8
f6
00
04
fa
09
b8
f8
ff
0c
f9
14
00
f4
02
0d
11
fc
01
fd
fe
06
09
fd
33
fa
08
00
fb
f3
fe
0e
05
2a
f6
f9
00
06
10
00
fc
f1
95
0b
00
02
03
f1
fd
f6
f8
ac
01
f8
fa
fc
09
05
07
04
b0
0a
fb
00
04
05
03
04
01
51
f5
0c
00
fc
fd
ee
01
f7
31
03
fd
03
03
07
07
00
fb
da
15
05
0a
f3
f9
f3
0c
0c
26
fd
03
10
f6
f7
fe
fb
07
be
fa
f8
f6
12
00
ff
01
04
af
ff
03
f2
06
0f
09
fd
ff
ad
13
05
ff
05
03
00
f5
02
9a
04
02
0d
ff
f9
0c
fb
06
22
fa
03
0d
00
f4
02
06
f7
31
ef
03
f8
02
03
f5
f8
00
b6
0a
01
08
f7
f8
09
04
04
19
f7
0d
f8
01
f9
f9
0a
0c
33
fb
f8
fd
01
ff
01
03
01
f2
ff
07
01
09
fe
f5
ed
ff
25
01
ff
fb
07
03
fc
03
04
60
06
0b
0d
fa
04
fe
01
07
03
fd
fe
03
06
fe
05
f8
14
6d
00
0a
f5
08
15
08
fc
f1
d6
03
00
fe
02
08
04
01
ff
13
0a
f0
f8
04
f2
f8
06
05
f6
fd
07
00
00
fe
fa
02
f9
f5
06
fb
04
06
f5
07
08
f5
b3
ee
ff
f5
01
04
02
ff
fd
06
01
fd
f7
fa
05
f4
07
00
cc
01
06
fe
f6
00
08
00
02
ee
f9
fc
fe
fd
0b
ff
03
fe
38
f8
03
05
01
fd
03
f6
04
08
07
05
fb
00
0b
fb
f5
f9
d7
11
07
f9
05
0d
09
fb
f5
ea
02
06
0b
05
fb
04
f7
fa
e1
03
f8
06
09
04
15
f9
03
f7
02
fe
07
01
ff
f1
07
02
ac
f5
01
08
06
fa
f8
ff
fa
e1
fa
ff
05
fb
00
07
ff
07
ba
fc
ff
ff
f3
08
fb
04
03
56
ff
ff
04
f9
fc
08
06
08
d7
00
fa
fa
f7
06
f5
f6
00
e9
f4
06
03
07
f9
08
0e
ff
b2
fc
fe
ff
02
fc
07
0d
f1
af
f6
f9
03
0a
09
01
03
02
c3
01
02
0a
f8
f8
fd
0f
fc
07
08
04
fa
fd
02
0c
06
fd
24
fe
02
fc
00
fa
01
03
f5
c0
fc
05
f2
03
02
09
f2
07
0e
f2
f5
02
0c
02
f2
05
f7
c5
fe
07
06
fd
f8
03
08
09
f8
02
10
08
fe
02
01
fe
04
dc
0a
11
fc
f7
fe
f8
06
fc
e5
f4
fd
fb
06
f6
0c
fe
fc
df
02
fa
07
fa
01
fb
f4
f0
9b
fe
04
f9
07
ef
05
f7
05
15
08
02
04
fc
f9
fa
00
fc
38
06
02
f0
06
f3
01
01
f2
a4
ff
fc
04
00
fe
01
f1
f7
fd
f8
ee
12
00
f6
fb
fe
f9
b3
f6
f7
03
fd
0a
fa
03
16
b1
00
07
fb
ee
fe
00
00
f5
f7
f8
03
03
0f
04
05
f7
f4
94
fb
04
fc
f2
fe
fc
03
04
d3
ff
f4
04
02
fe
f8
08
ff
35
fc
06
fa
00
02
0a
f6
10
75
fd
fb
f7
06
06
01
fd
03
fe
08
08
09
f9
02
0a
03
f9
af
01
09
f9
03
04
07
ff
08
b5
02
0a
f9
02
0d
00
fc
07
a6
0e
fe
fc
0a
fe
01
f9
00
e6
fc
01
01
fa
ff
08
fa
fe
94
f9
12
00
fa
ef
f2
01
02
f4
fd
f5
fc
06
11
02
07
00
c9
fc
08
04
fd
fa
04
fe
00
de
fb
f9
0a
fc
01
08
fb
f6
bf
fd
06
0f
f7
12
fb
00
02
33
02
17
f4
fd
13
00
f9
02
7a
09
f2
fa
01
f2
08
fb
fd
d2
05
fe
fd
eb
02
08
fe
06
09
fe
08
01
f5
ef
08
0e
fe
43
10
fd
05
0b
ff
12
04
fe
d3
03
07
0b
fe
0c
fe
02
f8
a1
14
f3
03
ff
0a
03
f9
0e
44
02
fc
f1
fc
f4
03
fa
f5
d2
05
fa
0c
02
fd
fe
fd
0b
3c
ff
07
02
03
07
fb
03
f9
58
08
fd
08
05
01
f8
f9
ff
1b
06
f6
0a
f8
08
fb
f9
f9
53
fd
01
03
0f
03
00
06
01
c0
ff
f2
fe
07
05
07
00
fc
69
ff
02
05
fd
02
03
fd
00
73
01
04
08
07
f8
fc
00
02
55
00
fe
fa
fc
0b
06
f7
09
17
ff
04
ff
05
f6
0b
02
04
0b
0d
02
01
ff
03
01
09
04
20
f9
fa
09
02
ff
fe
f6
04
6e
fd
01
03
fc
ff
06
05
fb
73
ff
02
0a
f4
f3
eb
fa
08
df
03
00
ef
fd
00
03
02
f8
e8
0c
f6
f7
f5
fb
11
02
f7
b9
03
fb
fd
fd
fc
01
08
08
f3
ff
03
f9
fa
04
0b
00
f1
be
fe
07
0e
02
03
ff
fe
03
ea
04
02
f6
04
fc
f8
0b
02
30
f3
ff
0c
00
f4
06
f9
05
2c
02
01
f7
00
fa
05
05
fa
dd
04
06
05
fd
04
fa
fd
fb
62
02
03
02
07
f9
f6
03
fd
c3
ff
01
02
01
fe
02
06
08
16
f8
f8
fa
06
10
fe
09
f8
ce
01
03
01
0b
01
02
00
f4
04
f9
fe
00
06
01
fd
0b
04
dc
08
ff
f6
fc
03
00
ff
fd
26
04
02
fa
fe
05
f4
08
04
33
01
f8
fc
04
0f
06
02
08
b2
01
0e
03
06
07
01
03
08
02
05
0c
03
00
f7
fb
fd
00
65
fb
fb
03
fe
fa
fd
f9
06
a6
05
04
0b
04
08
06
03
01
04
ff
01
05
00
06
04
00
05
e5
fc
08
07
0e
ff
04
f8
fa
18
f7
fc
fd
fc
f4
06
f4
f4
ca
fd
f9
09
f7
04
08
fd
02
c3
fc
04
0f
02
fd
04
ff
ff
4f
fe
01
fe
00
04
fa
ff
08
2d
00
0a
04
f7
f6
05
05
fa
08
fe
f4
01
0d
03
fd
fb
fb
f6
06
07
05
fb
f9
01
0c
fb
b1
fd
05
05
02
fd
06
fe
05
b5
f5
01
08
f8
08
ff
04
f9
d5
05
03
fb
0c
0d
fb
f8
03
ae
f9
fd
05
ff
06
f5
ff
0c
c8
00
03
01
fc
fe
0a
03
fa
e0
fb
00
07
fd
01
fb
03
09
d6
fc
03
0b
03
02
ef
07
06
9e
04
01
fc
07
fa
12
05
04
d0
fe
fc
fe
f2
01
04
02
fe
dd
f8
01
07
01
f2
05
f6
f5
18
f9
04
05
05
fa
03
fa
05
05
fd
06
fb
01
02
0a
00
07
c4
03
ff
fe
06
fa
07
fe
eb
d8
02
f5
f8
00
04
fe
fc
f9
8c
0b
05
09
11
03
f8
fb
fd
cd
04
04
00
00
0f
00
08
01
ca
03
fc
fa
f9
fa
fe
02
fa
24
fa
f5
fc
00
ea
0f
04
ef
ab
f5
f4
f9
05
00
f1
f7
01
e4
01
01
05
01
fa
fc
ff
fc
3f
f9
06
07
f7
fa
f9
ff
0d
1e
fb
01
ff
f2
fc
13
02
ff
c4
f0
01
ff
fc
fe
02
f5
fb
13
fc
fc
09
f8
f6
03
f9
ff
63
fc
00
ff
f8
fd
12
01
00
78
08
02
06
05
fb
01
07
02
09
fb
00
fc
ff
f7
fd
ff
0b
55
fc
f4
f7
f6
07
fe
fe
fc
df
fa
f8
0b
f7
fb
03
05
f7
01
f8
f2
01
06
0b
fb
fd
fb
99
fe
03
f7
fe
f4
fd
f7
fc
48
fa
08
05
03
f0
01
03
03
5e
fa
ff
f7
02
09
01
f1
02
60
ff
fc
fe
04
01
fc
08
0f
a6
0b
ff
0a
01
01
00
fb
ff
13
fc
02
0c
0d
07
f9
06
03
a2
06
12
08
02
02
fa
fe
ec
ff
03
fd
02
ff
01
02
fc
09
bc
07
0b
f6
00
09
f7
05
f3
63
04
08
04
03
fb
08
07
0b
c4
00
fb
fe
08
ff
f9
03
04
13
ff
01
fb
fb
06
04
02
16
18
fa
fb
04
02
08
01
02
01
28
0c
02
04
00
fd
fb
fd
07
3b
0c
05
03
fe
fa
02
04
f4
15
ff
07
fc
f3
f8
fa
f3
04
60
02
f6
08
f6
01
0b
f9
02
58
fc
05
fe
fc
fd
fd
01
03
70
f8
f8
00
09
05
fd
fa
f9
65
fa
06
09
02
05
00
01
01
a4
ff
fc
ff
f7
f9
fd
f0
f4
34
fd
ff
01
fc
09
07
04
ff
1b
02
fa
03
01
05
0a
01
0d
91
08
00
05
05
04
0a
f9
f7
60
fc
f9
f1
01
fe
07
f4
12
d8
10
fb
fc
f1
06
fe
08
01
b1
fb
01
f9
fa
f7
fc
0a
11
39
06
fa
fb
05
ff
f6
10
f1
3f
f8
0a
f5
fb
0d
03
ff
fc
b7
01
0b
f9
02
f9
0b
fb
03
e8
04
03
04
08
fd
04
06
06
9f
05
07
0c
ef
0b
fe
fd
03
45
fa
07
fc
05
fd
16
03
fe
d0
03
fe
02
00
fc
fd
0b
fd
a8
ff
10
fc
0d
0c
fc
f6
06
99
fc
f4
01
fc
fb
fe
ff
00
e4
09
08
00
04
fe
04
f9
07
18
00
fb
07
f9
fb
12
03
fa
5c
04
f3
fc
04
fb
f6
01
f6
4b
ff
05
09
ff
fd
fe
05
f1
93
fb
04
f6
fe
0b
00
04
07
ed
fc
15
ff
05
fa
f9
03
fa
cf
fb
fe
02
05
fe
f8
08
03
93
03
02
04
05
f8
ea
fe
01
22
ea
fd
ff
f6
fb
f2
0d
04
cc
fe
02
ff
ff
fa
07
fd
07
29
fe
03
fc
04
ff
0d
04
0a
67
0c
ff
0c
01
04
fb
fe
06
6b
0f
05
f7
07
f4
06
09
04
a8
06
fd
02
03
01
fb
f6
ff
3a
0a
07
05
fc
fe
e7
fa
06
98
f6
08
ff
fa
03
fd
fa
05
08
0a
fe
0d
fc
07
10
fe
05
53
f8
07
fc
fd
05
ed
0d
fe
bf
fb
01
06
f6
f3
0f
08
04
a1
03
f7
04
f6
fe
00
fc
f2
c3
ff
fe
f7
f2
00
10
f5
ff
4e
04
fc
08
ee
05
fa
15
06
ec
04
fc
ff
f9
05
ff
fb
f4
63
f9
fa
0b
07
fc
ff
fc
fa
9a
fc
04
06
fa
02
0b
fb
00
26
02
fd
02
f7
06
fe
01
fe
22
fe
04
0b
07
06
08
05
00
08
03
00
09
00
fd
fd
03
fd
e3
fb
05
05
fb
05
01
f7
fc
f8
0f
02
fa
fc
08
03
03
fe
be
0b
f6
00
00
07
01
06
01
ef
05
0e
ff
fd
05
fe
06
fa
06
02
ff
fd
ff
05
04
fa
08
4c
01
11
03
f0
fa
ed
f6
04
b1
09
08
fd
fd
0c
f8
ff
fa
ff
07
0a
02
fa
f5
fe
f9
fe
44
fd
fe
fa
ff
ff
01
00
fd
ae
ff
0b
01
fa
00
fc
01
01
ad
fd
fd
f3
f3
08
08
03
fa
db
01
03
02
00
f9
03
04
07
40
ee
04
f7
0a
f7
08
fd
f7
59
f1
06
04
fc
ff
07
04
00
d4
00
ff
00
04
ff
07
00
04
b2
0c
00
03
09
00
07
03
fd
1f
fb
fd
fc
fb
fc
06
07
01
fe
0f
02
f8
03
02
03
05
08
c9
02
ff
fd
f8
f6
fe
06
03
9b
ff
04
ff
04
05
0d
0a
fa
24
fd
fe
02
12
01
06
fe
01
1e
00
01
02
0b
f9
f8
01
fc
56
fa
f7
01
10
f5
0b
f9
05
34
f7
0e
01
f9
05
00
01
fd
d3
fe
f5
fe
fe
02
02
fb
ff
f5
fb
03
00
03
fc
04
00
02
a6
01
fd
02
09
02
00
fc
fc
25
04
04
04
ff
04
01
07
0f
ba
06
07
09
f9
07
00
04
07
5f
fc
f7
fa
fe
01
fd
f6
f7
aa
fa
07
01
fd
f4
fc
0c
0a
6c
00
03
0b
fe
10
00
fb
06
06
02
02
03
0a
03
06
03
ff
f4
00
fa
fb
00
f2
fc
f4
f8
ab
fd
fd
f3
00
09
fd
04
fd
17
00
fd
09
05
01
02
fb
f8
6d
05
fc
f8
00
fe
01
04
0b
24
02
02
0c
f9
06
00
f9
f4
ac
02
ff
03
fc
fb
ef
02
fb
bc
09
fd
02
fd
ff
00
f8
02
a0
fc
00
fd
07
02
02
04
01
a7
03
11
fa
05
f6
f6
fb
01
3e
03
f9
00
07
fd
00
06
02
02
fd
fc
06
00
04
fd
0f
07
92
f7
06
fd
09
f9
00
04
08
b4
fc
00
ff
02
00
08
fb
fe
d3
04
00
f9
06
fd
03
fb
07
48
03
03
04
00
0a
fb
00
01
d6
f8
fe
f5
fc
ff
0a
fd
f9
a3
ff
0d
fe
fc
04
00
0a
fd
1b
fd
01
03
00
07
f7
f8
fd
a6
00
0a
fc
fe
07
f8
01
02
63
03
00
01
06
0f
07
fb
00
f8
f8
0c
fa
fa
05
fa
06
06
41
02
fd
05
01
f8
05
fe
10
d3
05
05
06
00
03
03
03
05
e1
02
f9
02
ff
05
0e
09
11
30
0c
f6
02
05
00
01
09
ff
5f
05
07
fb
fb
fe
fa
ff
ff
a4
fe
fc
05
01
00
09
f8
08
15
04
ff
01
f4
f3
00
00
07
db
fc
fb
05
06
fc
03
f6
fe
79
fe
01
f9
01
03
08
0f
00
29
f7
05
04
fd
fe
01
02
fc
20
04
ff
fe
fc
02
00
03
fa
ab
06
f8
08
06
f0
fc
00
01
66
02
f7
fe
06
fc
f8
fb
f7
56
09
fe
f4
f9
fd
ef
07
fd
49
fb
f6
fa
01
04
fb
fd
03
99
02
04
06
0e
ff
02
01
fd
38
00
00
ff
fc
01
0f
f8
04
fa
fe
04
f7
f5
fa
0f
fe
fc
b6
0c
04
f9
fc
00
fc
06
f4
3c
fa
00
03
fa
0b
05
fc
09
93
05
0c
0b
01
fe
04
f4
fc
17
ef
0a
f4
fc
0b
01
03
ff
ce
02
05
fe
f3
f5
0a
00
fd
67
f3
08
f8
f9
f7
08
0b
f2
ad
07
fb
08
ff
f3
0b
fe
0d
24
0c
f5
fd
fb
f7
01
06
fd
6e
ff
fd
06
08
f9
0e
0c
ff
ad
fa
04
09
02
0d
f5
ff
05
aa
f4
07
06
05
09
00
06
fc
04
fd
f8
02
00
09
03
f7
06
f4
fa
f2
01
fd
f4
00
fa
ff
9f
03
f8
fc
07
06
10
06
01
b4
f8
02
fe
fe
fd
05
f3
ff
ef
f6
05
01
07
fc
0a
ff
07
17
fc
01
fc
fa
01
08
f8
0d
eb
fa
fd
fe
04
00
08
f7
0a
aa
f8
04
07
f4
fb
fc
fa
11
d9
05
00
fa
f6
08
fa
fe
ff
18
fb
12
fa
05
03
f1
f7
f8
0c
04
09
f9
07
0a
ff
08
fb
c1
fb
f2
fa
fe
08
fe
08
04
c4
fb
fb
ff
f9
0f
fd
f3
02
34
04
fa
09
00
fe
06
05
07
5c
03
05
0b
f8
f7
03
02
ff
cf
04
f8
fb
07
03
fb
f6
f7
0d
0c
0b
fb
fd
f6
08
f6
fe
12
fb
f0
05
02
fc
0b
04
09
c3
05
fd
04
01
f2
09
ff
06
70
f1
fd
fd
01
fb
fc
fe
fe
3c
f9
02
00
01
02
08
04
ff
3c
07
08
01
f8
ff
ff
04
04
24
fc
f7
04
f8
01
f9
03
04
2f
f9
01
05
03
02
fc
f8
fa
35
fb
02
f6
07
08
f2
09
fc
86
04
0c
fd
f3
06
f7
fc
01
d4
fc
04
ff
ff
ff
0d
f9
02
cf
01
f3
0d
00
fe
07
07
00
bf
04
00
fb
fd
fb
00
fa
fe
9f
08
fc
0b
ff
f7
05
fe
07
62
fc
f8
f6
00
fb
00
fa
08
ae
ed
fb
08
00
02
fa
06
05
14
fa
03
fe
06
07
f8
f6
0a
45
06
07
06
ff
fe
06
04
fd
fc
04
fd
fe
fb
0c
f1
02
07
90
f7
05
f7
09
00
06
00
09
b7
00
00
fb
f7
0b
fd
f2
f7
12
06
0b
fc
00
08
fe
f9
0a
d8
09
05
fd
fd
01
f0
fc
ff
3d
01
02
f2
fa
f4
fe
f8
fc
96
01
0d
04
0a
11
ff
f7
06
d3
e7
fd
07
fa
f8
f8
fe
fe
01
f8
fd
fa
05
08
fc
05
02
a6
fd
f8
f9
fb
0b
07
fd
f4
0d
fc
04
00
11
08
07
fd
fd
d7
fc
01
0a
fc
f4
ed
00
f9
0b
02
02
05
f7
fc
08
fd
00
4b
00
01
ff
04
ff
fb
f5
04
5c
0e
f7
fc
f8
fc
06
00
02
21
f6
f8
03
fa
08
f9
fb
0b
5b
01
08
0f
fb
fc
02
04
05
2b
ff
07
00
ee
fe
01
f5
02
cb
fd
ff
f7
f6
ff
ff
f8
07
c3
09
ff
01
fa
00
0d
ff
f6
f0
02
09
0b
09
04
f9
07
04
c0
f4
ee
fe
fa
00
01
f8
04
a4
f5
0a
f5
05
06
fe
0a
02
2e
fe
ff
f9
08
0f
12
fe
fa
4d
f5
07
02
0a
06
06
fe
04
03
09
f9
0c
ff
f3
03
06
0d
a3
05
f9
fc
01
ff
07
03
fa
0d
fa
f8
fe
f8
05
09
0d
02
e7
00
02
04
fe
00
00
10
07
59
f2
f9
fa
ff
09
01
01
00
15
f5
11
05
02
fe
fa
06
0a
bc
f3
fb
f2
08
f9
01
fa
fd
6a
0d
06
f4
f6
02
fe
09
00
4a
f8
06
e8
13
04
02
00
00
0b
01
06
fb
01
04
03
ff
fb
2b
01
02
f8
08
fa
f1
07
0d
e1
fe
02
f3
03
01
00
00
fc
f9
01
0a
f6
15
f5
fd
02
0c
dd
08
f5
ff
05
0c
09
f8
00
5b
0e
10
07
06
ff
fd
ff
fb
be
f9
06
03
0d
fc
fa
04
00
c4
f8
ff
04
05
fe
fe
02
ff
4c
02
f9
fc
04
ff
fc
05
05
b7
02
03
08
09
ff
07
fa
02
d3
ff
07
fc
04
f6
fb
fb
fd
20
fb
f9
01
00
0b
fd
00
02
34
00
0a
07
05
f8
0c
f4
f6
c9
f8
fe
f8
fb
00
ff
02
fe
d2
0c
06
fa
fe
08
03
f2
00
1a
0d
00
00
fe
fb
f7
0d
03
2b
ff
fc
ff
08
08
08
f7
0f
09
f8
08
0a
01
f7
01
04
07
4a
00
fc
00
f8
02
04
0d
08
31
05
06
fa
07
f7
fb
03
f9
f8
05
f0
ff
03
04
11
fe
0a
43
08
0e
03
0d
ff
06
fb
ff
49
02
fe
fd
fc
fa
fe
ff
fd
b0
f5
fe
01
f8
ff
fc
03
f0
1e
f2
fd
04
f8
fd
fc
f6
fe
6c
fa
05
04
0d
04
03
f3
fd
58
00
02
09
02
02
fb
07
fe
9e
01
03
f7
ff
00
08
07
03
bf
07
00
f6
fd
f2
fe
10
fc
69
ef
f6
04
05
03
eb
fc
fd
8b
ff
07
0a
fe
ff
07
00
03
3c
fd
fe
fd
fe
fb
fe
01
05
f2
0c
fb
fb
fd
01
fe
fe
00
25
fa
03
06
0c
02
07
fe
fc
30
fa
ff
08
04
fe
fe
08
ff
3f
ff
f8
03
ff
02
06
f8
f4
0b
01
03
08
00
fb
07
f3
ff
b2
0a
01
fe
ff
06
06
fa
f6
02
fd
00
fc
fd
fd
01
fb
05
41
00
01
f9
fc
03
fe
13
fa
47
ff
04
01
f6
01
fb
ed
ff
a3
04
02
f0
03
fb
08
06
04
0a
f9
03
02
fe
00
04
fa
ff
a4
fb
ff
ee
fd
fd
07
f8
05
3c
03
fc
0b
08
12
04
f4
ff
a0
f7
00
fb
ff
f1
fe
09
fb
0b
fd
fd
fe
0a
fa
01
03
fe
20
fd
01
03
12
06
03
fe
fe
a8
0d
04
00
03
02
0b
05
f8
fe
03
05
05
fe
ff
fb
04
12
46
01
f8
f8
02
f7
02
f7
00
55
0c
0d
fe
ff
12
fc
03
01
d6
fc
fd
00
fe
07
fd
ff
fb
bb
02
fb
0b
fb
05
fd
06
fc
b3
fc
f6
f7
fc
05
03
f9
06
09
f8
fd
f8
f9
00
04
f8
0b
ea
fc
f3
ff
ff
0b
0a
f9
f8
63
f6
07
fd
00
f9
04
02
05
df
fd
05
03
01
03
02
f4
fa
94
f9
0e
fc
0d
fd
00
0f
06
75
08
f7
0a
00
04
f6
f5
05
e7
09
02
fe
ee
fc
05
06
07
bf
fd
fd
fb
04
05
02
ff
01
d0
04
05
07
f6
f6
f4
fe
03
34
02
f8
fd
02
01
ff
f4
f9
00
03
05
ff
f5
00
f1
00
fb
51
fd
02
09
01
0a
05
fc
04
d9
08
fc
01
fa
09
02
fc
f5
54
fe
fe
04
f7
ff
fe
f7
fc
e4
fe
08
06
fe
01
03
04
f9
e3
05
fd
0c
07
02
03
0b
02
10
08
0b
f8
07
fd
10
05
ff
aa
06
09
08
fa
f7
01
fb
01
2d
fa
08
fc
ff
ff
05
fd
f4
ad
ff
08
01
fb
01
06
05
fa
b2
07
08
01
fc
0e
00
f5
fc
9d
05
f7
fd
fb
01
01
ff
fb
f9
fc
00
f6
07
03
05
f7
01
c3
05
07
05
02
04
01
03
0c
00
04
00
fb
f7
00
05
ff
fc
b6
09
ff
f9
02
00
ff
fc
04
04
fe
01
07
fc
fe
03
fc
ff
24
f1
0a
02
fa
09
05
07
fe
e1
0a
03
fd
fa
f8
02
02
05
40
fe
fc
02
01
fc
f2
fa
fc
0b
02
f5
ff
0f
fa
09
06
f9
9b
f7
fb
04
06
04
fe
04
06
fd
00
04
fd
fd
f9
00
03
ff
17
09
03
00
f9
05
00
f7
ef
d6
fb
02
fa
12
f9
0e
04
ff
98
0a
0c
0b
fc
ff
ff
fe
fb
28
05
01
f9
02
09
fd
06
f8
e5
fc
05
fd
ff
f4
00
03
fc
c8
f3
f9
f4
09
08
f9
fe
ff
63
fa
0b
fc
01
03
01
04
f9
f2
fc
fc
00
fd
f4
0d
0a
05
9d
0b
ff
fd
fc
f9
01
fb
fc
d4
04
fe
f6
fe
f0
ee
f4
07
ec
f5
f7
05
06
f6
01
07
04
6d
06
ff
0c
02
04
02
00
fd
f5
07
f4
05
00
04
f9
fc
06
8e
f9
01
00
01
07
fa
03
02
d6
03
f9
fd
fb
fd
f9
02
03
ca
09
f7
07
00
fb
0a
04
ff
84
04
f9
07
08
08
f8
00
09
c9
03
00
f3
f9
f9
01
fb
fa
52
01
07
fd
0a
01
fe
03
fd
54
f9
ff
fd
00
17
02
01
ff
63
f9
fc
fe
04
01
fa
fe
fd
9f
02
00
ff
f5
06
03
ff
06
54
fe
0f
05
fe
04
ff
f1
f9
f3
00
06
07
04
05
fa
fd
f8
b9
06
09
fe
ff
06
fc
f9
f5
71
fc
fb
05
ff
08
01
ff
ff
31
04
06
ff
fc
fb
fc
02
f9
81
0d
0f
fd
0c
ff
06
fc
07
34
0b
f5
fb
ff
05
fd
05
fe
56
01
02
07
06
01
04
fb
f9
fa
06
fd
03
f9
fe
fa
fd
01
03
ff
02
f6
f5
07
f9
00
00
49
fc
02
fc
fb
fd
f4
ff
fa
b1
fd
ff
ff
fa
f8
ff
ff
07
b6
02
01
00
fd
f7
fb
05
fb
ca
0f
0a
fe
07
fa
0c
f9
02
2f
01
07
f8
07
f6
01
05
ff
e9
08
03
ec
03
ff
04
fd
fd
3b
f9
f9
05
02
01
07
fe
fd
e7
04
00
04
fc
f2
07
ff
ff
5f
07
05
03
08
f9
f3
0a
06
59
03
ff
05
f1
02
fc
01
01
68
f7
fb
08
01
f6
00
0b
05
c9
0f
00
01
fc
11
f7
0a
f8
0f
03
01
05
fd
fb
f5
01
0b
e4
0b
fa
ff
05
ff
05
00
00
e2
03
fc
04
f3
ff
07
f9
fd
c3
fb
0e
fd
f8
f9
ff
01
f9
e9
fd
fb
0c
f6
fa
ff
ff
03
36
fe
07
f7
ee
04
02
fe
fc
d1
f7
01
fc
fa
fe
03
02
fb
6b
0b
f7
fc
fd
ff
0a
0b
03
95
00
06
fa
0a
0c
08
08
02
8e
fe
fc
00
00
fa
00
0c
06
69
f1
08
fc
fd
fe
fa
08
fe
9b
fd
04
04
08
04
f8
fe
04
49
08
fc
f9
0a
02
00
00
f9
57
02
f8
fe
01
f0
08
f9
fd
b6
00
ff
01
f4
fc
f9
eb
02
6b
04
03
f3
06
0e
07
09
fd
23
fd
05
01
04
09
01
f5
00
ca
05
f6
f9
fd
fa
01
01
0a
39
01
f9
fb
fb
05
03
f5
fa
cb
fc
08
fc
f7
fc
ee
fd
0b
e6
04
05
01
04
04
0e
00
07
ee
f1
02
f7
f0
07
09
0d
fc
fd
02
0e
05
f7
f8
00
fe
0d
fc
fa
06
05
07
fc
05
fd
04
6a
06
fe
02
09
05
f6
f4
03
b5
05
0a
ff
05
f9
00
09
f8
61
fd
fe
08
04
ff
08
fa
fd
3e
0b
eb
06
04
02
02
fd
fe
64
fd
0a
fd
05
08
f7
05
01
7b
0b
f3
f3
fd
ff
f3
05
f7
39
02
f9
05
02
fe
fe
fc
fc
bc
0a
04
09
09
07
fe
00
06
c2
fc
01
fb
00
01
f7
14
fe
71
f6
fe
03
04
04
01
02
06
6e
f3
07
fd
01
fd
05
f9
ff
1d
fc
fb
01
f2
09
09
fa
fe
1f
fc
fe
03
08
01
f6
ff
fc
07
f3
08
07
fe
0c
fb
04
00
2e
fe
fc
02
04
02
fd
f4
ff
cd
fc
18
f2
04
00
fc
0d
0b
91
0e
fd
f3
00
f9
f8
01
01
ca
f9
01
03
02
10
0d
04
fe
ee
04
fe
0d
02
02
f5
fe
06
bf
06
f3
f6
f7
fc
09
f8
11
1c
fb
f4
07
ff
fc
04
ff
0e
43
00
f0
fd
fc
f7
0c
fb
f8
49
f4
0b
09
fb
ff
04
fe
fc
48
03
f9
0a
ff
fb
03
f6
ff
25
fb
08
f4
07
e9
13
02
04
52
f3
00
fb
08
f7
07
0f
fb
d7
ed
08
ff
05
07
fb
ef
02
09
01
01
05
fd
ff
04
00
00
01
05
f8
fe
0a
fe
08
0f
04
ab
ef
05
08
f7
00
01
09
f3
4a
06
01
02
fc
00
0c
02
fd
d9
fa
05
10
01
05
05
0e
f9
72
05
ff
0c
f8
f7
09
08
03
5c
fd
fe
fd
05
0c
0c
fa
03
32
10
fb
00
fa
f5
fb
0b
fb
e6
fb
fb
ee
06
01
07
fa
f1
c9
03
fa
04
04
fd
f2
ff
0d
9c
01
0a
fc
03
fd
04
01
03
0a
fa
fc
f6
fd
f6
05
f5
f6
1a
fd
0a
fc
00
f8
fc
03
09
65
09
f6
f9
ff
0e
fc
11
fa
3a
0e
00
03
04
02
fb
09
01
d3
02
01
fc
0a
f8
07
f7
fe
db
f4
f9
fe
f1
09
fc
0b
f9
c6
09
01
0a
00
06
f9
fb
04
54
09
01
fc
fd
11
03
02
09
e9
fe
05
04
fe
fe
03
fe
07
cc
f7
07
fb
05
01
fe
05
ff
5d
16
f3
f7
02
01
fe
fc
08
24
f3
ff
fb
fd
fd
fe
06
00
60
0f
f8
06
fc
01
06
fe
01
f8
05
04
fb
fe
f5
f6
06
ff
da
07
f8
fd
fe
02
0b
01
09
ba
0d
ff
fe
ff
f7
05
0a
01
0f
f5
06
07
f5
fc
03
00
fe
f0
03
fe
fd
05
fc
fa
02
ff
bf
0d
06
f6
fe
07
03
02
06
ee
09
f6
f7
09
01
fd
0b
02
d1
f9
08
03
fe
fb
fe
f4
fd
6d
f7
fc
06
fb
fd
02
fb
ff
af
f5
00
fa
01
07
04
fe
08
a5
f3
06
00
05
ff
0b
00
ff
05
03
07
0a
ff
fc
f9
f9
00
3e
ff
05
01
03
ff
fd
05
02
64
f9
fe
04
f9
01
f5
fb
01
c0
03
f9
fd
fe
07
06
fa
05
49
ff
00
01
00
09
fc
12
02
62
02
03
fa
03
01
14
f8
02
d1
06
01
ff
fb
02
f5
f6
01
32
04
03
f9
fd
0a
fd
0f
03
d4
02
ff
f9
08
fb
03
03
fa
0f
00
07
06
03
02
fc
f7
fd
09
05
ff
f9
04
fe
0e
0b
03
48
01
0b
fe
f7
05
0b
09
fb
d7
ff
10
00
00
fb
0b
f7
fd
bc
02
0b
00
11
f9
f8
03
fd
3f
02
06
fd
f4
f8
01
09
06
ae
fc
fd
04
05
f7
01
0a
fb
cf
f4
f4
f3
ff
fd
08
f5
fc
29
03
fe
00
ff
f7
fd
00
05
4e
f8
f9
0c
0a
fe
0a
ff
00
01
fc
05
f8
f7
fd
f2
0a
f7
0a
03
f4
ff
09
fa
fe
02
01
36
00
f1
fd
fd
f8
0d
03
ff
67
fb
05
0b
0c
fc
04
0a
01
f5
04
fa
06
fb
f1
0a
09
08
2b
10
f6
fc
04
03
00
f3
f1
56
01
04
06
09
ff
fe
06
fe
5a
f7
f7
ff
01
02
fa
fb
00
f7
f9
0b
f9
f6
01
fa
04
08
29
fb
fe
fb
f5
f9
07
02
fd
4a
ff
ff
07
00
fa
fd
fc
09
40
f3
fe
0c
0a
0b
09
05
05
47
04
10
fc
04
04
f8
02
fc
c8
f9
f5
00
fb
09
fd
00
fa
c9
fc
05
f7
00
05
fc
0b
07
28
02
00
07
f3
01
fd
f2
fa
23
f1
fd
0f
fe
fb
03
06
00
1a
09
03
0c
fb
f8
fb
fd
03
01
f9
02
03
f0
06
ea
fd
e6
4f
fe
ee
ff
01
fd
fd
fc
fe
54
f4
02
fe
08
f9
04
08
f8
5d
f9
08
fb
08
0a
02
f7
03
45
fd
f7
0a
f7
03
02
fa
03
ea
f6
08
06
02
04
01
00
03
09
02
f4
ed
f8
00
03
fc
08
0e
04
f7
07
08
fc
04
03
fb
d5
f9
f2
f7
ff
00
f9
04
05
11
08
f8
01
05
fe
f8
f7
fa
1c
ff
00
f3
00
fb
ff
0d
06
46
fa
0d
05
01
ff
02
f7
05
4f
f0
02
00
06
fc
00
00
fb
dc
f6
fb
0b
f9
09
f5
02
02
fb
ff
06
fa
04
fa
f2
f6
01
5d
f7
04
04
07
ff
02
05
f8
9f
0b
06
09
fa
fc
01
fd
fa
a8
02
08
fe
fe
03
02
04
04
fc
fe
0a
fc
08
ff
fb
04
fe
22
06
fc
fb
11
07
09
08
0d
c2
fc
01
ff
0c
09
05
fb
08
16
0b
0a
02
f8
0f
fa
03
08
50
f7
01
02
00
0b
fb
ff
01
fa
0e
fb
fd
09
f5
ff
fd
04
c6
fa
03
02
08
f4
08
00
fe
05
fb
fc
ff
f6
0b
f6
f4
ff
54
f4
f6
07
13
ff
fe
fb
fc
20
02
01
05
02
0f
f6
f6
06
f2
fa
01
00
fe
05
f4
00
0a
f2
07
fa
fc
01
fd
02
00
fb
45
fd
f9
01
f4
f1
fd
00
fc
fa
f4
fa
fb
02
0c
fe
01
09
ee
08
f6
00
f3
00
f6
0d
03
cd
f9
fd
06
08
f3
0a
fd
f6
8d
f7
fc
01
ec
fd
fd
fe
05
35
ff
f8
f9
f7
03
13
09
00
93
04
0b
04
fd
fc
01
00
fb
c5
07
00
0e
f8
0d
fd
0d
03
83
09
03
ff
f9
fd
fd
07
02
b1
fc
03
fd
f7
07
07
ff
00
d8
f3
00
07
00
f8
f0
fc
06
e8
f1
eb
05
08
0e
fc
fb
f8
5d
07
06
00
fb
07
fa
fd
02
c0
f9
f6
f3
05
f8
02
06
fd
a2
f9
0d
fd
fa
0a
09
fe
00
48
09
fe
05
02
00
fe
fe
07
11
12
08
fe
f6
04
08
02
fe
eb
0c
f8
01
08
09
fb
f7
08
a2
0d
02
f6
f8
06
fd
10
f6
97
fe
f5
ff
08
ff
fb
f7
06
36
01
07
f3
f7
f6
f6
07
f7
f1
0b
f8
f7
f3
06
fd
0a
fc
b3
fc
ff
02
13
fd
05
02
fa
41
03
01
04
02
06
03
00
07
5e
f8
05
05
04
07
fb
02
08
c4
09
03
0c
fa
03
fb
fb
fd
9f
00
0f
07
fe
06
0b
05
fa
14
ee
06
03
fd
f6
f5
f8
04
a5
f8
0a
00
f8
f6
01
f6
fd
e9
fc
03
f3
f1
ff
fb
09
eb
4e
ff
fa
04
08
0a
0c
00
ff
8f
05
05
01
fc
07
07
04
f0
43
f4
fc
0d
07
04
fc
f1
fe
9f
fc
03
fd
fb
02
fd
fa
fe
c2
04
f8
0a
fd
09
02
fc
0e
b1
0e
fa
0c
0c
0b
04
03
fb
99
01
04
0c
08
0a
04
fb
f8
a6
05
fe
f5
ff
fc
00
05
fe
a9
fb
fd
0a
fb
01
fe
06
08
e1
00
04
01
ff
