00000000000829e2
00000000000c3288
ffffffffffff53e4
fffffffffffd36fb
fffffffffff5d1cb
0000000000054847
000000000003f010
fffffffffffd80be
fffffffffff8cbfc
ffffffffffffced4
0000000000045269
ffffffffffffe76a
000000000002b06f
fffffffffff4922a
fffffffffffd6828
0000000000076530
000000000002357f
00000000000170ce
ffffffffffff3b4e
0000000000037521
00000000000170ce
fffffffffff6e03f
000000000009b346
00000000000a5f62
000000000007f8b6
fffffffffff990ae
00000000000408a6
00000000000049c3
000000000007965d
00000000000a908e
0000000000010e75
fffffffffff7bd88
