08
fd
fe
02
ef
0d
fd
07
06
01
00
ff
08
f8
ff
fc
f3
f5
06
f9
08
fa
96
fd
ff
f6
f9
f7
08
fd
09
b6
07
fd
02
04
04
03
08
f5
cc
fe
f9
0c
f5
fe
0a
03
02
25
f7
fa
0d
f6
f2
ff
01
fe
32
05
01
04
06
fd
05
0a
06
b7
0b
10
02
f4
fb
f3
07
00
99
f0
02
08
08
00
0d
fc
03
00
02
04
07
0e
02
f8
05
05
8f
f1
0e
00
f6
fa
fc
03
f9
ad
01
01
f4
0c
02
ef
11
0d
26
04
11
09
01
f6
f5
fa
07
7f
fd
fc
04
0d
ff
00
fe
02
69
05
ff
f4
0b
02
fe
02
04
92
f6
f8
06
fb
03
fc
08
05
6b
04
00
ff
0a
03
fa
00
07
ae
fe
03
0a
ff
ff
02
f8
06
f0
03
fe
0b
f9
fe
fc
05
0d
f7
fe
ff
06
0b
ff
f9
f0
fc
ae
fd
f7
12
fd
fb
04
06
f7
34
02
0a
ff
f9
05
00
08
f2
02
09
f8
f8
f8
04
fc
f9
06
6e
03
0b
eb
f8
09
f0
02
0b
02
eb
00
04
13
fc
05
05
06
d5
fd
fe
fe
f8
08
f9
02
f9
00
f7
fe
f8
fe
f9
02
08
0b
8d
07
02
04
f4
f8
0c
00
ff
f8
f8
f3
06
f5
fc
0f
05
f9
31
0e
f7
03
fe
01
f9
f8
fa
10
04
fb
04
fe
fb
fb
fe
fa
24
03
04
01
07
fe
0b
04
02
4a
fd
04
fa
08
08
05
09
fc
23
f7
f8
03
fc
01
fd
f5
fe
d1
03
fb
f8
fb
0a
06
04
fc
cb
02
03
02
fb
fc
fe
fe
04
98
fd
ed
fd
00
05
03
0e
ff
66
01
f1
f4
f9
fb
07
06
0f
bf
08
fe
0c
0a
01
01
04
05
98
fc
06
08
05
02
fd
f5
fe
d9
00
09
fd
fb
06
02
04
fd
a1
04
08
ff
03
07
f9
ff
f8
c0
0d
07
fd
04
02
f4
f9
04
d1
f9
01
02
f9
fc
f4
00
fb
5f
0a
0c
04
0a
04
02
09
fb
4e
08
06
fd
fe
04
f9
fa
fe
f7
02
06
f4
f8
05
f9
f4
05
a2
07
00
02
fd
00
fd
f9
09
96
06
f8
fd
fd
f7
fe
ff
fe
79
01
fe
f9
02
fd
f3
08
09
64
fe
00
00
04
f6
0f
06
fa
2f
f7
fa
08
ff
06
06
08
0a
44
06
09
ef
fe
06
fc
04
fd
2c
01
03
06
fc
05
f8
f5
00
23
f2
f7
0c
00
06
f4
02
03
ff
fd
07
03
fc
ef
02
fa
ff
e7
08
08
fe
08
fb
0d
08
fe
f3
07
03
06
06
fd
01
03
fc
15
fc
f8
04
f7
0a
f9
fd
06
a8
0c
fd
06
fe
05
04
08
05
12
05
f6
03
04
02
06
02
10
10
ff
ec
06
02
fe
f0
f6
fc
62
03
09
06
05
fe
fc
fb
fc
f4
f3
04
02
fd
01
fc
00
fc
ce
07
fa
ff
05
fe
f0
05
08
25
02
01
f3
fd
0a
fd
fa
0f
47
01
04
07
05
fe
0f
09
f9
a4
00
f9
fd
fe
06
ff
0b
0e
e3
fa
04
ff
ff
0e
f7
08
12
2f
00
fc
fb
0a
f7
ff
fc
01
b1
04
03
14
02
eb
00
fd
fa
4e
fb
fe
fe
f3
00
fa
f9
03
02
02
12
04
ff
04
fe
fb
00
f0
09
ee
0f
f3
07
01
f5
fd
3f
fd
03
ff
06
08
16
fd
00
cb
06
11
fc
02
05
0e
f1
f1
65
f8
02
00
f9
fd
10
ff
02
2a
03
0b
00
02
01
0a
fb
fd
db
04
07
f9
05
10
f3
f5
0b
f7
0d
00
ff
fc
02
f6
03
0a
59
06
10
00
f9
00
f5
0c
04
c4
fe
02
04
04
08
03
01
02
d9
ff
04
fe
10
fc
0c
04
02
3e
ec
03
ff
06
ff
09
02
f1
42
0a
09
fb
fb
f4
fe
f2
fa
68
fa
f9
0f
02
f9
f7
f6
02
bc
fb
fa
09
f5
00
f9
fc
ff
95
05
fa
fa
ff
07
14
05
fb
54
fa
0d
01
00
f7
f9
01
fd
4b
03
ff
0c
0e
fa
fc
02
04
56
f5
04
02
fe
04
f4
f6
09
d1
08
f8
ff
0a
04
06
06
ff
29
f4
f1
00
fe
f2
fd
fe
11
ed
0c
fb
06
0b
07
01
03
f2
e4
03
02
01
f5
f6
ff
ff
00
4e
f7
04
03
f7
06
05
fa
fb
8e
04
f3
fb
fb
fc
00
05
fb
55
08
04
f5
f7
03
fe
00
fc
01
02
ff
0d
fd
f6
03
fe
fc
6a
fc
fa
f7
06
03
03
01
fb
4f
01
0c
07
01
04
05
04
04
5c
06
10
fe
01
f3
fb
fd
fe
74
03
03
fc
ff
06
04
f9
f7
01
00
02
fb
02
03
06
01
f7
ef
01
f8
0d
01
f7
0c
04
fe
a2
0e
ff
f8
f8
0e
00
f7
03
1d
00
00
05
fc
03
f4
05
f3
4a
fb
f4
11
08
04
fd
fc
01
da
fb
07
ee
00
fb
05
05
fe
2f
fd
00
03
04
07
06
fa
f4
fa
05
f8
00
f9
fa
fe
05
fe
a1
01
07
01
fa
fd
09
03
00
51
00
02
f6
02
0f
fb
f4
fc
69
ff
fc
f9
05
f4
fb
f7
f1
60
fc
0b
f3
fe
f3
fd
03
f7
ab
0a
f9
0a
0c
fc
f6
f3
fc
c5
08
0d
fc
03
09
07
f7
0a
cf
02
03
eb
ff
f9
ff
03
fe
1c
09
0c
04
0a
0b
01
f6
f3
0e
09
01
fd
f5
01
02
fc
fa
cc
01
03
f8
01
fa
fe
03
0c
a0
06
fe
fc
fc
03
f4
08
01
5d
fb
f5
f7
07
03
0a
f9
fe
9d
fa
04
fb
f4
00
01
00
02
4a
0d
05
f2
fc
02
fc
07
f7
6d
07
02
fb
02
02
f9
03
ff
b1
fc
01
fd
02
05
0d
00
00
ee
fe
f6
06
08
fc
04
04
04
f3
ff
fc
01
02
fb
01
ff
04
b7
f7
05
00
0a
03
03
05
03
1c
fd
09
02
fd
00
fc
00
01
c1
04
05
01
fe
07
f5
fa
02
e7
f3
04
07
0a
01
fe
fe
06
5e
f8
05
04
05
06
fd
ff
00
de
fd
02
ff
01
fc
04
04
03
69
fe
f2
f7
fc
03
fd
f5
f9
b7
f8
fc
f0
f8
02
fd
f7
fa
30
01
05
fa
f9
02
ff
fe
fb
51
03
00
f9
05
04
05
01
01
97
f7
06
00
03
01
02
fb
fa
ed
04
f7
f4
00
04
02
02
ff
18
01
0c
03
f9
f9
ff
08
03
a5
fd
0b
ff
fc
04
06
ff
01
56
ff
01
00
06
07
fd
02
0c
37
fe
05
10
0b
03
fb
01
fe
e6
0a
ff
0a
0b
01
04
05
fc
c5
fd
ff
fe
0d
04
03
00
00
05
f6
02
02
fc
fa
ff
03
fc
ab
06
fe
fc
06
05
00
fb
fb
99
0d
fc
fc
fb
11
fc
04
ff
59
02
01
03
01
fa
06
0d
fa
66
04
f8
ff
07
fe
fe
fa
00
3b
03
fa
07
fa
ff
05
f3
09
c9
00
0a
04
04
fa
08
02
00
2e
ff
fc
ff
ff
06
04
03
0d
4c
f6
f7
ff
03
fd
fd
03
03
10
02
f9
f8
ff
03
04
03
0f
9e
03
06
04
fd
04
01
f2
ff
b2
01
00
f1
02
07
fa
05
04
04
04
02
fe
fe
f5
fb
f3
0a
5c
f7
ff
00
ff
fa
f8
f3
09
5f
0a
01
05
0e
fe
f9
fb
08
22
09
09
f7
03
09
ff
00
03
45
07
03
f8
05
fa
f8
01
fc
54
01
0b
f2
05
01
f1
00
fd
f0
12
fc
07
05
05
00
ff
f7
86
ec
f6
01
ec
fe
ed
f2
f2
5a
f3
0b
f8
04
f2
06
00
03
72
02
07
fd
07
07
fc
00
0c
04
f4
fa
f7
00
f2
06
f5
fa
43
0a
f7
01
02
fd
f7
fc
00
4b
00
ff
fb
04
01
04
f5
f9
25
06
fc
02
0d
04
0a
fe
fe
cd
09
06
01
f4
05
01
ff
16
1d
fb
fc
0d
06
f5
0d
ff
fc
dd
fd
00
05
06
08
09
05
01
bd
f6
f4
08
06
fd
08
f9
01
54
05
04
0a
01
01
0c
0f
fc
1f
ee
ff
fd
fb
06
00
00
f6
22
fb
fb
09
ff
00
01
fc
09
bb
0c
07
f9
0e
0e
00
06
ff
04
fd
02
02
02
04
f5
09
06
d8
f1
0a
f9
f7
fe
fe
fb
fe
bb
f2
f2
06
06
14
ff
ff
ff
57
00
fc
09
06
fd
01
02
fe
eb
fc
04
0b
fd
03
fd
fb
08
9a
0a
02
05
03
ed
02
01
fc
5e
07
f5
f8
fa
01
f4
ed
02
59
09
0a
fd
09
00
e6
f5
03
78
f3
01
04
ff
fb
01
00
09
5c
0b
08
f8
0c
04
fc
ff
ff
8d
fb
08
01
00
01
fb
04
ff
ec
f4
05
00
fa
f5
ff
0c
03
e8
00
05
06
05
fe
01
07
f5
cd
fa
0b
f7
01
0d
0a
08
f6
a5
ff
fd
07
fb
02
f5
f6
02
b1
07
05
fa
02
f7
03
03
03
54
fe
01
f2
07
06
f9
fa
03
44
f9
01
f6
fc
f8
fb
01
09
33
fd
f9
03
03
06
fc
05
f6
52
ff
01
00
02
03
02
fa
02
a1
fe
06
00
f8
fa
03
03
f9
f1
02
02
fc
08
ff
14
f5
00
37
06
10
03
f8
fc
07
04
fa
da
0a
ff
11
fa
08
fd
06
f1
42
fd
06
05
f6
02
ff
03
0d
a2
00
0e
f9
f7
00
f8
fb
fe
5d
05
04
00
07
f1
04
f9
ff
5f
07
01
fd
00
ff
f3
05
f8
b3
ff
ff
f7
00
06
05
ff
03
8c
fd
f6
06
05
08
07
f7
07
04
fa
08
06
fa
ff
0a
0b
f0
0e
f6
f8
f7
06
fe
fc
07
ff
34
09
fd
01
fe
fb
fb
f2
fe
f8
fd
fe
00
07
f9
fd
05
0e
11
fa
01
05
03
fb
0b
02
05
94
02
0e
08
f7
fb
ff
0a
fa
af
00
f9
fe
06
00
0e
ff
fc
0f
08
fc
0c
06
fc
f5
fe
04
03
ff
00
02
0a
f9
fa
ff
05
0d
fc
0a
05
03
ee
f5
f8
11
62
f8
0c
fb
fe
03
08
05
fb
62
0e
fa
0b
fb
02
f4
05
fe
f3
02
03
02
f3
0a
fd
f9
f5
05
fb
f3
00
07
f8
10
0a
fe
6c
fc
02
fd
04
fd
11
05
ff
18
fd
00
06
00
f2
f4
03
0b
c3
f7
01
fc
00
ff
09
04
fe
f1
01
03
02
0b
0a
04
04
04
cb
05
05
f7
09
03
ff
fb
0b
d4
06
06
03
02
fb
05
0a
06
4e
07
f9
0e
03
06
04
02
08
1f
fb
f5
01
fd
fa
f9
f9
02
0c
03
02
ff
07
08
08
f6
f8
45
01
04
03
f7
f7
fe
0b
01
63
f3
fa
fb
fd
06
fc
fd
12
eb
03
fa
0d
fb
03
fe
01
fb
36
00
0c
f6
01
f8
f8
fd
ff
45
05
04
03
fa
f9
09
00
08
2d
04
fb
03
08
f9
04
06
04
60
f4
fb
00
fb
0b
0b
f7
fb
c3
0f
fa
05
fd
07
f7
fd
00
95
07
04
f9
0d
f3
00
ff
07
24
f5
fa
05
03
03
03
09
0e
04
ff
f5
02
03
02
f6
fb
0a
a5
08
0c
03
01
02
f9
fa
03
40
00
05
0a
fd
f6
03
05
f7
bd
0c
fc
03
02
03
fc
0e
04
c7
03
0d
fe
fb
fa
02
ee
0a
18
f7
ff
08
04
00
03
01
07
13
f2
fc
05
fe
fe
0a
ff
01
58
0d
05
fd
0f
03
f8
01
09
f9
0e
0a
01
f9
01
04
0b
fe
a5
04
05
04
02
00
00
07
05
5f
f3
f8
07
fc
09
02
fa
f5
fd
00
fe
00
fe
06
03
fe
fb
f9
05
02
00
03
08
01
f8
05
5f
03
09
03
fc
fb
05
f5
04
78
04
fa
01
f6
00
fc
03
01
bc
06
0e
03
03
00
04
01
01
b9
f7
f2
04
f2
fc
0c
05
04
4d
fc
fa
0c
fb
f6
fe
ff
02
33
06
fa
07
01
fd
04
fe
06
01
05
04
fe
ff
04
ff
f9
05
f4
ef
02
03
f0
04
fa
f7
03
cf
08
0a
08
02
03
ff
01
06
f3
fd
00
01
ff
03
0a
fd
04
db
00
fe
fd
00
00
03
f8
01
fa
02
01
0b
04
fc
ff
00
fc
ce
03
fe
03
fe
05
f4
fd
fe
4a
04
0e
fb
0d
fb
fb
f8
0c
1c
fe
fb
03
fb
f9
f7
00
01
d3
ff
f3
fd
f1
f9
02
03
02
95
00
f8
00
fd
03
00
06
0a
ac
00
fd
07
0d
09
fe
03
04
5f
fe
fb
fe
07
06
fd
03
f9
e9
fc
02
fd
f2
f5
f7
ff
f8
0f
04
06
0a
02
fb
f3
fb
fe
f8
03
ff
02
fa
02
fe
fd
04
27
08
0f
f9
06
05
04
07
f8
e8
f0
f3
fe
fd
fd
fa
fa
00
5c
01
02
02
08
0a
03
fa
06
1a
fc
00
fb
fe
00
f9
fb
0a
ae
0a
01
01
04
f9
02
06
fa
aa
f9
ff
11
fd
f4
00
fe
0a
e0
06
fa
04
09
fe
02
ff
ff
ea
fa
01
01
06
f6
f7
01
f5
5b
f9
fe
00
fb
f7
f9
fc
fe
f5
06
fc
f6
fd
f4
03
00
fd
59
fb
fe
f9
07
05
ff
01
f9
9b
fd
0b
08
02
07
00
f6
f8
33
fb
01
0c
00
05
fe
f8
fb
c8
01
08
f3
03
fd
04
f9
f9
c7
fe
04
ff
0b
fb
ff
04
03
05
02
10
ff
0a
f9
fb
00
0b
a2
f9
f2
f2
f8
03
fd
fe
ff
de
f4
07
f7
fa
00
05
f6
f7
3b
07
11
0b
fa
fe
fb
04
01
4a
fd
02
fc
ff
04
0d
05
0d
e8
f7
0a
01
f3
03
02
0f
08
d1
07
07
fb
01
03
fb
fc
04
59
ff
06
02
03
07
02
f6
09
e7
fe
0e
00
f8
fb
09
00
f5
e9
07
0f
07
01
00
03
04
02
10
0b
00
00
09
05
eb
fe
f9
b9
fc
fb
fe
0b
fe
07
f6
fb
00
05
09
fe
07
0b
f3
fe
07
f4
ff
01
06
00
fb
04
00
f2
f2
f3
08
f6
02
10
03
fb
01
b9
00
0a
07
f7
fe
0a
0b
fa
9f
0c
10
05
12
01
01
07
05
93
06
f7
00
01
07
f4
ff
07
2b
03
04
01
f9
01
03
ff
fd
52
f6
00
08
07
fe
0a
0d
05
5d
03
fa
fe
06
01
fe
f7
01
76
fc
01
f7
fd
fb
fe
01
f4
21
fe
04
fd
f7
fd
09
02
01
66
fb
07
f7
00
fd
08
0c
04
a8
01
00
f6
01
01
f7
08
05
e0
09
f7
fb
fb
0d
06
00
01
f0
f9
fd
09
f9
f1
fb
07
0b
32
04
0b
fc
02
07
03
0f
00
e8
fb
03
fa
ff
02
fd
02
0c
b6
06
fd
00
05
04
f5
00
03
14
0c
01
f6
04
06
03
fb
0d
3b
f6
f9
0a
0e
ff
f8
02
01
d7
fa
fa
f7
ff
02
fe
03
01
4f
fa
fc
00
05
f2
ff
04
ff
5c
fa
fc
fc
f8
03
04
f8
f8
1f
0c
fe
f5
12
03
0d
02
07
bc
e6
02
00
f4
03
0a
fc
fa
e5
01
f9
ff
fe
00
04
08
ff
d4
01
00
09
fd
04
00
02
05
84
f4
fc
08
fc
f8
fe
0b
ff
20
02
00
04
f9
f6
fd
05
ff
3e
01
02
02
fe
02
ef
fe
fb
fc
fd
01
03
fa
0b
00
0c
fa
8e
f4
f3
fb
03
03
02
01
00
b0
f9
f7
0a
04
05
03
fe
0b
ce
03
03
04
06
f4
fe
07
00
a1
f6
f7
09
03
ef
00
03
f0
0d
0f
04
ec
05
f5
f8
ff
ef
bd
17
07
f6
0d
ff
06
07
f4
82
00
fd
06
02
01
00
0f
f7
3d
02
f4
fb
09
fd
04
01
0c
9c
0a
09
f0
fd
fc
04
ff
07
cb
0b
06
f7
fc
00
fc
fd
09
74
ec
04
07
f9
f0
02
01
f9
67
03
09
fb
01
01
05
02
fe
41
00
07
ff
01
07
fd
05
fa
31
13
01
fe
fd
01
00
fb
f8
e3
07
02
00
fb
13
0e
0e
04
34
0b
fd
07
00
10
07
02
f9
65
00
07
f6
07
f8
fc
0b
03
1d
f7
02
fc
f3
ec
02
0d
0d
c8
ff
08
f2
fd
01
03
fc
fe
df
ed
fa
0e
fb
0c
08
ff
00
59
ee
fa
09
fa
00
ff
fa
08
ea
07
04
00
05
0d
08
f8
fd
5f
03
02
fe
05
fb
05
f7
f9
6d
fc
eb
01
01
f7
10
06
01
05
f8
fa
01
05
02
01
f0
01
dd
f2
01
00
fc
f5
f1
f7
f6
eb
ff
f0
fc
06
fe
eb
fc
fe
fd
fd
03
00
fc
f6
fe
fd
00
ef
fa
06
04
08
f6
08
0f
00
13
04
fb
05
02
0b
f9
09
02
c4
f4
fc
f9
03
05
0b
0e
09
f3
08
ff
05
07
f9
0b
07
fe
9e
08
02
fc
f2
07
fb
fd
fe
2f
00
04
06
08
f5
0e
f1
ff
9f
04
fc
07
06
08
f8
ff
14
a6
ff
f7
fd
06
ea
f8
03
fb
06
03
04
ea
00
03
05
ee
f5
e3
08
fe
fb
fa
ff
02
ff
f1
0a
09
09
f9
fd
ef
fa
05
f6
27
f9
09
00
fe
ff
fd
fc
14
b9
03
04
fd
f6
f9
f7
00
fc
d0
0b
01
f5
ff
07
0c
06
08
e0
01
00
fe
fa
fd
02
fc
fa
c6
fb
01
f2
fe
fe
05
06
f6
4c
0d
09
fe
fd
ff
ea
f2
00
d6
fe
02
02
08
ff
0a
f9
f9
78
07
02
0c
0d
fe
05
07
01
f3
f5
03
fe
f6
ff
f2
02
f7
df
08
ff
fa
04
f8
fc
03
fb
fb
fc
fd
05
03
03
0d
02
03
ee
ff
f4
fb
f9
fb
07
f7
f7
2a
0a
08
f4
07
fd
0a
00
fb
22
0a
00
f8
07
04
00
fe
06
93
f8
0e
fe
06
08
04
f5
05
fb
f5
09
08
06
fc
f6
02
05
fa
f4
0b
07
ee
fd
09
0f
f4
65
f6
fe
fa
0a
01
07
fd
09
e0
fc
04
05
f9
03
fd
05
00
e6
fa
f8
0f
fa
00
fe
0d
0e
8e
09
09
08
02
f5
fe
08
06
41
f6
fd
0f
f9
08
fb
0d
f5
5b
f8
02
15
f3
01
fc
fb
f7
d0
0c
fa
f7
fe
0a
f2
f5
f7
6c
0b
ff
fc
00
00
fe
0b
f4
d0
fb
07
f2
02
ff
fa
fc
fe
36
07
0a
07
06
fe
04
05
f6
95
05
f9
09
ea
fb
07
fe
08
54
ff
06
f2
f9
03
05
0b
00
6e
fe
fe
f4
0c
04
03
f4
e8
02
06
01
00
13
06
f7
fc
01
27
fa
fb
0b
03
0a
01
ff
11
60
08
01
02
f5
08
05
07
fa
9c
03
ff
ed
09
fe
fd
09
ff
df
0b
fc
f7
fd
fb
07
fb
fd
b0
fd
06
fe
fd
ed
0c
f3
09
af
04
fe
f3
ff
04
0c
05
ee
04
f7
fe
f5
06
08
f8
03
0d
14
04
fe
fd
02
fd
f9
fc
04
a4
f2
06
0f
fe
0d
02
06
fe
51
fa
00
fc
07
ff
07
04
fb
2d
07
05
0b
07
fc
05
08
f1
07
fc
0b
fe
05
01
0a
f4
fe
3b
10
ff
fd
fc
03
fc
ef
fe
db
07
01
fc
0d
fc
05
05
f3
91
06
16
f7
05
01
ff
06
0c
33
fa
04
0f
ff
04
ff
03
16
a1
fe
05
07
0c
07
08
0e
f8
13
05
03
07
0a
03
fb
fc
04
e1
17
0f
00
03
0c
f4
13
00
c6
fb
0a
08
03
ff
f9
fa
00
49
f5
fe
fd
f2
fa
fd
10
03
d5
03
0d
09
07
08
04
09
ef
26
ff
07
fe
fa
07
f4
f4
01
b5
07
fa
05
fa
fa
fe
0d
f8
e2
00
00
fd
06
00
06
fe
fa
ea
00
fe
01
fd
fb
05
00
fb
b4
00
07
02
0e
09
01
04
07
bf
fd
06
04
00
04
02
f9
01
4c
f9
03
06
fe
04
0a
01
fc
37
05
08
03
08
01
fc
06
04
58
01
0a
01
01
ff
f5
e9
08
01
04
f9
fe
fd
fc
f7
06
06
d7
f3
fa
09
fe
fb
fc
ff
ff
69
fe
0e
09
01
fb
01
0a
05
99
03
07
00
01
04
06
ff
01
5a
04
fb
01
01
08
fe
01
fd
31
09
02
02
07
00
f9
ff
08
58
06
05
07
ff
04
fd
00
0b
5a
f1
01
02
02
f8
05
01
04
10
04
fc
08
06
08
03
f7
fe
5b
fa
00
04
02
f7
fa
0a
0b
0d
03
fc
02
14
fe
fb
fc
07
cc
f0
fe
00
fb
ff
f9
f5
03
18
04
05
05
00
03
11
fe
00
3d
f9
06
fa
f8
f9
ff
f0
07
4e
00
fa
0b
02
f9
fe
09
0b
ab
fc
f9
08
f8
01
01
03
fb
6e
0b
f9
05
fa
fe
fa
06
f5
41
07
f6
f3
f8
01
f9
f8
f5
4a
fd
00
04
f5
08
07
fc
07
48
ef
0b
05
f2
fc
ed
07
fc
c4
0d
fd
0b
09
ff
03
f6
fb
a0
03
08
05
14
fe
03
f9
f8
bd
05
f5
fa
fc
01
05
fc
fd
9e
08
01
07
fc
0e
04
08
01
38
fd
0e
ea
07
01
f3
05
15
b0
fa
02
0b
04
07
f7
07
0c
91
0e
ff
02
fb
f8
ff
fe
00
24
02
04
07
03
f9
fb
06
05
40
ff
06
fe
0a
01
01
03
f9
0d
03
fd
f1
f8
f8
07
01
fd
8e
07
02
03
f9
0c
03
02
fb
5d
fb
fe
01
f2
00
00
09
09
8e
fb
fb
01
f3
fc
fe
05
fd
f3
fa
17
f8
ff
f9
05
ed
fe
c6
ff
00
05
02
0d
03
02
ff
56
fe
f0
09
02
00
00
f5
fc
17
f7
f9
f8
fc
fd
f7
04
13
e3
08
fd
fb
05
fb
02
fe
04
31
fb
fc
0c
03
fc
ee
03
0d
fc
03
fc
03
0f
04
04
f6
fa
c7
fa
fe
f3
01
01
f1
0c
00
8c
07
03
fb
01
04
f3
f4
01
c2
f6
f9
09
ee
04
02
ff
00
e1
03
06
00
f8
fd
06
fc
03
ec
01
05
fb
01
ff
0c
02
01
88
f8
02
f7
00
02
f9
00
f0
ae
03
02
fd
02
ef
fe
04
fb
eb
06
ff
fd
f9
07
06
ff
f7
12
ff
f9
fc
04
fd
f9
00
fd
f1
01
08
07
00
04
02
11
03
74
07
0b
08
08
fe
fd
0d
09
c1
f5
fb
fc
f8
02
ff
07
03
a0
0b
f8
08
ef
f1
fa
f7
fe
c7
05
06
fc
10
03
05
fc
03
ef
fe
01
07
03
f9
0b
f8
fd
66
fe
fe
05
fa
05
05
fc
08
b8
06
f6
06
fc
fe
08
07
08
4d
fa
f9
07
f6
0a
ff
f9
03
56
0b
fa
fd
10
01
06
fa
02
2b
fc
0b
09
f7
04
13
fc
01
b8
f9
f3
06
f4
06
fc
0c
f9
67
fe
03
fa
0a
08
fe
09
01
5c
08
fc
07
02
fa
05
09
01
ba
03
01
08
fc
09
f6
08
03
13
00
f8
03
0c
fd
ff
fe
08
58
fa
ff
06
fb
0b
ff
fb
01
cb
fd
03
fe
02
00
02
04
fd
b8
fc
fe
fb
fc
0f
fa
ff
03
4d
fc
10
fb
08
f2
0b
ff
f9
99
f7
f9
02
f8
fe
fa
08
f9
b7
fe
01
fe
f7
f6
f9
f9
05
1e
f2
ff
0e
fc
ff
0d
01
07
2b
06
02
03
04
01
fb
00
05
de
02
02
02
09
f6
07
03
00
fd
f6
fc
f6
fa
f8
ff
05
fc
4b
fb
02
fd
fa
ff
fa
fe
00
26
ff
ff
09
05
02
0a
f4
0a
47
fb
00
09
01
fa
fa
f9
fa
d8
02
fe
f5
15
01
fa
fd
06
a3
fd
07
eb
02
02
fc
0c
f6
44
ff
02
fa
03
fe
01
04
03
8f
f8
fa
07
08
f6
f8
06
fe
48
0a
fe
fa
01
05
00
02
fb
02
fb
ff
f6
fa
01
02
06
07
56
fd
02
fe
ff
fa
fb
00
f6
61
02
fe
04
03
04
06
09
01
2f
fd
05
fb
fd
01
fc
03
f6
9e
00
fe
01
04
02
00
02
ff
d5
07
fc
05
f5
06
03
02
01
5d
fb
fc
fd
04
06
f2
fe
01
f3
00
05
09
01
08
09
04
fd
45
01
03
04
06
fd
02
f9
05
ff
03
ff
f1
08
fb
f8
07
ff
66
0b
09
fc
f4
f9
08
0a
00
90
06
fb
fa
04
03
0f
f8
06
da
fd
01
0d
fc
07
05
07
fe
ee
05
fe
05
07
fe
08
02
fd
22
02
f6
0b
fc
01
f6
f9
f9
11
15
fc
fe
04
01
05
00
03
bb
f8
08
f9
fa
f4
01
0d
08
49
03
08
01
f7
02
0b
fc
01
8c
e1
01
00
0b
00
07
06
fe
af
03
fc
fd
03
00
05
05
fe
1e
f0
fe
08
00
02
00
08
f9
32
07
03
ff
fc
01
fb
06
fe
8b
09
00
fd
00
04
08
0b
fb
5a
06
0e
07
07
05
03
ff
01
37
00
02
02
f6
fc
07
03
00
5f
fc
07
04
fc
01
fa
fa
06
e0
f9
ff
04
fd
02
05
f5
fb
2b
02
00
0d
02
12
05
fe
f2
31
ff
fe
08
08
07
fa
02
03
f1
04
fc
04
00
fe
0a
fa
fa
2f
03
fe
0d
02
00
00
fc
06
10
04
f4
02
f5
0b
f4
f4
08
e3
ff
ff
00
04
07
fc
11
f9
99
fa
03
0a
fe
fd
fa
00
00
88
0d
f6
03
02
f7
f2
00
f5
d3
f5
fe
04
00
01
05
fe
fc
68
01
05
04
fe
f9
ff
02
fd
3a
02
fd
f4
fd
05
f7
10
0d
9d
fc
09
f9
fd
fa
02
02
02
ec
03
ff
f8
fb
f7
06
01
01
e9
fc
03
fb
01
12
ff
14
fc
11
01
04
05
01
00
0e
f4
00
1f
06
f3
ff
05
06
06
07
f9
cf
02
fc
0b
f9
f5
f3
fe
fd
99
ed
f5
f8
03
fa
f9
f0
06
79
fc
fb
01
fa
ff
00
10
fe
12
fe
0b
fd
fe
f0
04
f9
f6
4f
00
05
f9
0e
01
fb
03
03
f2
fc
fb
fb
ff
f4
ff
f3
0a
e1
03
f9
f6
01
05
fb
fc
00
f0
09
ff
0c
06
08
ff
03
fa
30
f3
fa
04
f6
02
f7
03
fb
07
02
00
05
0a
fa
f3
fe
fe
ce
f9
00
00
fc
f9
02
05
01
c6
f5
05
01
f7
fc
fe
02
01
ea
f5
04
f6
01
f8
00
08
fd
99
fd
ff
0c
ff
07
03
08
fb
3b
06
02
f2
07
00
f4
fd
f2
4e
08
fc
0b
fc
0c
00
fd
00
13
02
04
f4
01
f6
f9
05
fc
03
10
04
03
f8
06
fb
05
fc
cb
f2
05
f8
fe
0a
03
02
f9
d0
f5
ff
f5
f9
0a
02
00
0a
29
f8
07
ee
f0
fd
f1
03
12
28
fc
0a
06
ec
f6
03
fc
ff
d9
05
ff
fc
03
11
0e
fb
0d
55
f4
fc
ff
00
fe
00
ff
04
39
f9
f6
fb
f6
03
fa
05
f7
b8
04
fb
f1
fb
01
02
ff
ff
54
fb
0e
f9
00
ff
05
02
05
5c
00
03
fd
02
0a
f8
fc
06
55
f1
02
f4
f7
f4
fc
f8
ff
ae
fd
fc
f9
11
ff
04
08
fb
00
00
03
f9
03
0c
fc
f6
fb
bc
fc
06
ff
ee
01
04
0c
fa
07
05
07
f6
01
fe
fd
07
05
59
02
01
fd
02
0b
fa
01
0a
fa
fb
08
fc
09
fe
02
0b
fb
07
f9
08
0b
02
06
00
07
08
28
00
00
0a
fb
f7
fe
fc
fb
0f
00
fe
01
0a
f6
09
fd
07
56
02
f6
10
f8
fe
f9
fc
ff
c7
04
05
ff
03
0e
fc
fa
fe
9d
09
09
10
fa
0d
00
fa
00
99
fc
02
f5
0b
06
07
f4
fe
40
ff
f3
ff
06
0f
02
f9
fd
a4
fa
fe
f2
ff
00
01
02
fd
c3
0c
04
fc
0f
ff
f0
f3
fe
71
06
02
0b
04
00
ff
f7
0d
f1
04
02
0c
0b
fe
00
ff
fd
9a
04
fd
ff
ff
00
03
fb
0d
e2
f9
fc
03
03
02
fa
0b
0a
cb
0a
fa
f0
0e
03
07
03
04
3a
0e
01
07
fe
fd
ff
02
07
6d
11
fe
fd
fa
f5
f5
fb
02
d6
0b
10
0a
00
fb
f5
ff
fe
b3
0e
02
07
f1
0a
f0
01
05
6b
04
fb
ff
1c
08
03
06
03
e4
f7
02
ff
fc
03
03
fc
fb
bb
fc
fe
f3
f6
07
01
03
f9
cd
0c
06
fa
04
03
fc
f9
fe
dc
fc
08
f4
08
09
f9
f9
03
25
fe
00
04
05
fb
0d
0b
0b
ab
fd
03
0a
04
f9
f8
06
05
99
0c
fe
09
0e
0e
f6
07
01
4e
05
0f
fb
0a
ff
0b
03
f8
15
ee
00
f2
f8
00
f6
03
00
07
08
0b
fc
ff
fc
02
f5
06
54
f7
02
0f
fa
07
00
f7
0d
4c
f5
f8
06
e6
fb
f5
fb
fc
0f
ff
fe
f6
01
f9
14
fb
00
11
f9
fe
fd
f7
00
00
ff
02
b0
05
03
13
05
fb
01
fb
f7
c1
f4
0b
0c
fb
06
f8
06
01
e9
12
f8
f6
0a
0c
fc
ef
0f
0c
f8
ef
03
fb
0a
06
08
0e
28
10
f5
f8
05
fd
fa
fe
f4
2d
f8
05
03
f5
07
fe
ff
fe
06
fe
08
01
00
ff
f7
02
00
0e
06
09
01
f7
05
fc
00
08
36
f2
fe
fd
05
00
f9
fa
00
a4
f8
04
fd
ff
07
00
04
01
55
f9
04
00
fe
01
fe
01
fc
97
fa
04
00
fb
0b
f9
05
f1
cb
02
f2
0a
ff
04
07
04
06
ee
01
fe
fe
02
fd
ee
fc
f8
af
fc
ff
07
03
f8
04
fb
0c
f7
f8
07
f2
05
04
fe
fc
f6
2d
fa
ff
fd
0a
f4
00
01
f5
dd
fa
04
ff
fe
f1
00
f8
fd
ed
0c
f9
fe
04
f4
f2
02
0c
59
09
04
01
fc
f7
01
f4
08
be
03
ff
f7
f7
fe
09
fb
02
26
01
fb
02
fc
fb
01
00
0c
73
00
0b
01
06
06
05
08
06
ba
06
00
0b
05
f4
0e
03
01
12
f8
fd
ff
ef
fa
00
03
fe
20
08
fd
f7
f4
fb
09
05
03
ac
10
f4
fc
fa
fe
04
08
04
c7
fd
fc
fc
01
f7
f0
06
f3
65
f3
06
f1
f7
fa
0a
02
ff
bc
fc
02
04
02
fb
02
02
00
ae
01
02
04
03
ee
fb
02
03
bc
10
05
fb
03
06
01
08
00
24
f8
fe
fa
fa
fe
fd
fe
0d
43
fc
08
f6
fe
ff
fd
f9
fb
11
fc
05
04
fe
05
fd
0c
f5
66
ff
01
fd
0a
f5
f6
04
f6
38
02
fb
0a
fe
f8
f8
00
0c
31
03
07
02
05
fa
00
f9
01
45
06
05
fe
f6
fe
07
f9
f7
52
00
f6
f5
07
07
06
fa
02
a0
05
fd
04
f8
f5
06
f6
f9
eb
03
00
06
fa
05
fd
09
f6
11
01
01
fc
ff
fe
01
00
00
de
fa
fb
01
fe
fe
09
03
02
d5
0c
0a
f9
f5
01
0d
00
fd
e1
fe
fe
05
01
f5
06
ff
05
33
ff
fc
03
03
13
fd
f9
f9
32
0b
fd
f7
07
06
ff
03
fa
58
08
fb
ef
02
f9
f3
f8
fa
e4
03
0a
f1
07
09
f1
06
f7
c5
fd
07
03
f9
07
ff
fe
f9
f2
0a
0f
f6
01
0a
07
05
f5
e3
03
01
f7
00
03
f6
f7
f1
00
fa
fd
01
01
fa
fe
f7
fe
47
0b
0a
fe
fb
fd
07
fc
fd
1e
f9
02
02
f7
ff
fe
f5
00
40
02
02
00
01
f1
fb
fd
fb
72
02
03
fc
f9
ff
ff
0d
f8
f0
fb
ee
01
fc
0a
07
02
f2
cb
03
05
fd
fd
07
01
f7
0d
cc
04
01
0b
fa
fc
05
fc
0d
2a
ff
fb
06
fa
ff
ff
fb
04
c3
01
fd
03
fc
06
04
fe
f8
c2
02
fc
0a
f8
04
ff
fd
ff
e7
fe
05
07
01
03
03
08
09
64
fd
fa
03
fe
01
0b
ff
fc
35
10
04
fe
07
06
ff
ff
08
9f
0c
fa
02
07
fa
02
ff
03
61
01
f9
0c
fb
06
f6
07
ff
4d
fe
0d
0a
06
fb
ff
ff
02
95
f1
f0
06
ff
02
02
01
fa
89
09
04
03
fe
0c
fb
fa
02
e6
fc
06
00
08
f5
fd
f2
06
36
05
04
fc
fa
07
06
fe
01
74
17
04
f9
f8
f9
07
fc
0a
cb
01
06
02
f7
fc
f6
02
12
1f
fb
ff
00
f6
f6
03
01
fe
28
f6
f0
0e
fa
fb
fe
fd
0c
3a
03
0b
02
0c
ef
fc
f8
f9
66
fc
01
06
0e
06
fc
01
00
a5
00
04
f8
fe
01
02
ff
0b
63
09
01
00
07
07
06
f1
fc
26
00
fd
01
00
fc
01
ff
f9
c4
ff
fd
02
07
fb
0d
04
f3
a4
07
01
05
ee
06
f6
00
fb
49
fd
04
ff
05
03
fd
fc
02
51
01
f9
fe
12
08
f2
04
fe
2b
f8
fa
00
fc
f4
fc
00
01
69
fc
0b
08
fa
fc
01
04
09
b3
01
fb
0c
02
fe
00
fe
0d
b1
f9
fb
ff
f9
f8
fa
00
ff
6c
0c
01
04
fe
f1
f6
03
f1
e0
ff
08
00
05
f7
f5
04
08
2f
f5
f6
fe
f4
fc
f9
f7
ff
05
f2
15
01
0a
f7
07
06
f9
37
f7
ff
08
07
02
ff
01
05
fa
08
f5
fb
03
0c
00
f8
ff
45
fb
fc
fd
fd
0b
f8
06
07
46
08
01
ff
07
fe
06
02
05
50
ff
fd
06
0c
01
f7
f8
0c
a8
00
fe
07
01
ff
07
fd
f4
94
0a
02
fe
08
f7
0b
ff
fa
05
fe
08
0b
f4
08
fd
fc
fd
d4
f2
ee
f8
01
fc
05
08
fd
53
08
07
00
fe
fc
0a
02
f6
cb
fe
0c
03
02
00
05
01
06
23
ef
fe
fb
05
06
ff
01
06
2d
01
03
06
0b
fa
0f
ff
04
a5
fe
15
ea
03
01
0b
fe
fd
21
06
fd
f8
f9
f9
01
09
0b
53
01
fd
01
02
0c
fc
07
f1
b2
10
03
ff
06
03
07
fd
fb
5d
02
06
fa
f2
fb
f3
01
01
e1
0c
01
00
03
02
fe
00
01
5f
00
08
07
03
02
01
05
f6
0e
03
07
fd
fc
09
0b
03
f7
ee
fa
08
fe
ff
ef
f5
f2
f7
4f
fe
fb
fd
f4
f7
00
02
fa
06
09
02
01
fa
f7
0c
f8
fa
ba
fe
ff
fb
05
05
f9
fa
fb
9e
01
04
ff
00
fa
09
ff
fc
04
fc
01
02
fe
06
06
09
01
3e
f5
f9
ff
fd
fe
05
08
fd
4a
fe
fa
01
0e
01
00
00
04
06
17
0a
03
fa
ff
ff
fd
07
f7
0f
fc
0f
00
f4
fc
01
f5
9a
08
fe
03
f3
09
07
fa
f3
ee
f7
10
05
f9
ff
02
00
09
91
04
fa
05
03
0c
04
07
fe
3a
07
f6
07
05
fc
03
fe
fe
d1
03
05
ee
00
05
f8
01
06
db
07
09
fd
00
f8
09
05
06
db
fa
03
f8
f9
05
ff
09
fd
03
ff
05
0a
0c
0a
01
00
06
28
fa
fe
0f
03
01
05
06
0d
a7
01
02
0c
09
fa
f9
fc
fc
1e
fc
01
01
03
fc
00
0a
fa
d0
f9
0a
00
03
02
0b
00
06
fa
04
fe
e8
04
fc
02
06
03
39
13
02
0a
00
06
0a
04
02
9c
fe
fa
05
f8
05
0d
fe
09
6d
f8
02
08
02
05
fa
06
00
a7
fd
04
05
04
01
fe
07
f1
66
04
09
02
05
fd
07
04
03
fa
02
01
f4
0f
08
ff
03
fe
1f
03
06
0d
03
06
fb
00
ff
09
fb
01
fe
f8
00
fd
03
fe
ab
04
05
09
0c
04
09
06
0d
f2
f7
01
fe
04
fc
fb
02
fa
3e
fd
f7
fc
f8
ff
f9
fe
fc
51
02
02
ff
fc
0a
ff
f7
f7
ff
03
ff
00
f5
00
01
08
fa
a3
fe
06
04
03
fd
f8
fe
02
68
01
fc
0a
ec
01
0e
05
fd
ee
f9
f9
0a
01
ff
10
f6
04
54
02
04
0c
08
fe
fa
01
f6
3b
fe
00
ed
08
ff
ff
01
f8
46
03
f9
03
f7
f6
f3
03
00
5b
f4
fe
01
f8
f6
00
00
fb
00
03
fe
03
08
09
09
fa
00
b3
fd
05
fd
00
01
fa
fc
f3
d9
03
01
fb
07
0a
f9
04
0a
f2
09
ff
f9
f8
f0
07
fe
ff
21
0b
fb
05
10
06
0a
ff
fd
f5
f5
01
fe
f7
ff
fb
f8
02
f8
fd
08
fa
00
00
00
05
03
57
01
0b
09
03
02
00
06
03
70
02
fa
ff
0b
fe
0b
ff
fd
f2
00
f8
fe
fe
f4
fc
0d
fe
ec
fe
00
04
f0
ff
ee
07
10
b3
08
02
02
01
fc
01
0a
00
24
f2
f1
05
ff
ff
0c
0b
fe
e9
f8
fb
02
05
fa
00
fa
fa
9a
0a
f3
f7
fc
f6
05
0c
fc
61
06
f9
09
03
f9
fb
03
f7
cb
0d
f5
fe
04
fc
04
f7
04
f4
19
04
02
15
00
fe
04
f8
0a
05
04
00
09
0a
f9
05
f8
be
fc
ff
07
02
fa
f3
f6
ef
a8
0a
00
03
04
fd
f9
05
07
e4
05
04
fc
02
f7
fc
01
06
65
17
03
ea
f4
ff
0f
05
f7
21
02
02
00
0b
f6
fd
f8
04
4d
fc
fa
fd
fa
03
f2
00
04
b6
0f
01
03
fb
fd
fc
06
f5
e8
05
ff
ff
08
f7
03
f8
06
cb
ff
fe
06
fe
f6
fb
07
00
1f
00
f1
fb
fe
00
03
fc
02
32
05
02
0c
fd
f8
07
03
f8
dc
f9
ff
03
f3
ff
08
01
fe
9b
0e
0c
fd
f6
fd
f8
e9
fd
25
03
05
fb
05
06
04
ee
07
48
f2
f6
04
ff
06
fb
f4
ff
9e
fa
02
03
fc
00
0b
16
ff
01
0a
fc
fc
01
fd
0f
00
06
d2
02
f0
01
09
0a
0c
08
01
3e
f5
f5
00
f7
01
ff
f8
f9
d3
f0
fa
fe
fb
fd
f6
08
fb
9d
fb
fd
02
f3
0a
02
f7
fd
6f
f9
ff
09
ec
fc
02
02
01
14
06
07
0e
fb
06
ff
01
f7
de
05
01
00
ff
f4
f4
05
f9
07
fd
04
f8
03
05
f3
fd
05
90
0e
07
00
01
02
f5
07
fa
c6
0f
ff
08
f7
0c
0c
09
08
ad
fe
fa
04
06
0a
fe
08
ff
af
f8
f6
0c
f9
06
05
00
01
92
13
00
fe
02
f7
f8
f7
f9
5d
0d
04
fa
00
0d
08
04
f6
4f
fe
fd
00
f5
04
06
fa
f8
62
00
0c
fe
f4
0d
02
07
fe
27
00
fc
fb
ff
08
04
03
05
c6
02
fb
f9
f9
07
fd
f6
fd
dd
06
ea
f9
f7
09
fd
f2
fe
2e
09
06
08
fd
ff
02
00
05
9c
08
0b
02
f9
06
06
08
04
34
fd
f8
03
05
01
f9
fb
04
1e
f3
f7
01
f3
02
02
0e
04
2c
f6
0d
06
04
fb
f1
0c
f4
09
fd
01
08
09
f3
01
fe
ff
b1
04
ef
fe
06
fe
f9
06
0e
bf
03
09
ff
14
ff
05
06
00
d2
f8
fa
0f
01
f5
05
fe
03
af
18
f0
01
00
f8
01
04
f6
77
00
06
fe
00
f9
08
00
02
8e
fd
11
fa
07
12
06
ff
f8
0c
f4
00
0f
f5
fe
06
07
f9
5f
0d
fe
08
0c
05
0b
f5
06
15
00
fd
12
f5
03
fc
ff
00
30
09
0b
f6
05
08
06
ff
10
e7
00
f9
f4
fb
ef
f8
fe
01
c8
fe
09
f6
fa
f9
07
f8
08
29
02
fe
00
fc
fd
02
04
0a
d7
07
04
02
09
ff
08
00
05
9f
0a
00
0f
02
00
fa
fa
ef
4e
f8
f4
0b
02
00
08
03
fc
b1
fb
f9
fa
00
0a
fc
0b
ed
d8
f8
12
0d
fd
fc
03
f9
03
69
07
01
08
fe
f9
f9
06
09
6d
03
00
f3
f4
ff
f3
07
fc
60
01
03
05
fc
f5
ed
11
05
00
00
00
ff
ff
f6
fb
fe
08
51
04
f5
f8
0d
fb
f8
02
0b
11
f7
0b
ff
f1
fa
f3
fb
fb
b3
fd
fd
ff
f7
f4
01
f6
05
a5
0a
08
f6
0c
f8
04
07
07
0c
fa
fb
f3
f9
02
07
07
ff
36
04
fe
0f
0d
fb
06
05
03
0f
05
f8
08
02
ff
f4
08
fd
f6
01
08
f1
06
13
fe
03
fb
99
f9
f9
fc
f3
fe
01
04
f4
41
06
03
01
ff
fd
04
01
01
e6
fd
0c
03
f6
0a
07
01
f1
36
fa
05
0e
f8
f7
01
fd
00
3c
05
02
fd
08
11
f7
f8
06
ff
fe
fa
07
fe
01
03
0c
01
31
03
0c
f8
fb
f9
06
03
0a
31
05
03
05
00
ec
02
fd
fd
71
fe
fb
fe
01
0b
fd
01
fd
ff
ee
f7
01
f1
fc
06
f6
fe
ac
01
fa
fb
08
fc
fc
f6
03
11
fe
01
08
01
08
f2
f5
f5
6b
ff
03
fd
fd
09
f6
f3
f9
45
f9
fb
f9
00
fd
06
0b
fc
a6
0b
fe
03
fa
fb
08
fc
ff
34
0b
04
f5
fd
fc
01
16
07
62
02
02
01
fb
fb
fc
09
fa
ba
06
f7
f6
fa
f4
08
06
0a
4d
04
f9
0a
fa
fe
ff
fa
02
9c
ff
fb
02
00
03
00
06
f7
ae
fd
04
04
00
03
00
fd
07
a7
07
fe
f8
f7
f4
f2
10
0f
9b
00
f9
05
fa
01
0d
f4
f6
e4
09
f6
ff
fe
06
ff
f7
fb
30
fc
05
00
03
00
fe
f6
00
9d
01
02
16
00
fc
06
08
fd
e4
09
fe
fa
fa
01
fb
fc
09
4c
07
02
f7
f8
fb
03
ee
ff
c3
06
f9
02
01
fa
f4
f8
08
65
00
f5
f4
f6
ff
00
04
f7
fa
04
01
fb
fd
04
fc
02
05
69
fb
f9
06
05
01
0e
fb
03
b9
fc
fc
04
fa
04
03
11
08
96
07
0a
ee
01
f9
01
08
04
b8
03
09
03
fc
00
f2
fd
03
0b
f8
00
05
f9
fc
f9
fd
f8
e0
ff
0e
09
fa
fd
02
08
02
65
01
fd
08
03
09
05
f6
02
b4
fc
fc
04
05
05
ff
fb
07
14
03
02
0c
fc
f5
05
fc
fa
e3
0c
ff
ff
fb
f5
09
02
05
24
0a
05
0e
00
ff
04
f2
06
e4
f4
fe
00
00
03
ff
00
fc
20
01
01
04
04
06
f2
f9
f6
3d
fd
fb
fc
fd
08
0b
06
ff
fd
0c
01
01
0b
07
fb
f9
fc
97
ff
fd
f9
03
ff
03
08
0a
3f
07
02
00
fc
03
fd
05
f5
aa
0b
02
f8
f2
fe
00
f6
02
c5
fa
fd
04
fc
0e
fe
09
04
45
00
f4
02
07
ff
ff
ff
fc
8e
05
f8
09
fd
f3
07
f7
fa
e5
07
fa
ff
03
fa
0a
f9
05
57
05
01
08
06
08
fd
fc
01
e1
0c
04
fe
08
07
f9
05
01
94
f9
07
0b
02
fd
f6
fc
fd
2d
f7
f6
0c
03
f3
07
f4
f2
16
fe
fb
02
02
fe
0a
0b
00
10
07
05
07
f3
09
02
0d
03
9e
0c
0c
fb
0b
fc
ff
0e
0c
a6
fe
01
fa
09
07
fe
02
01
58
ff
f7
fa
02
f8
00
01
06
bc
05
03
fc
06
04
fc
0d
ff
c7
00
04
02
11
f7
05
ed
ef
ef
02
f5
fc
02
03
fd
06
fe
75
06
03
fb
ed
f9
fe
ff
fc
53
f7
01
01
04
f3
f4
f5
f7
52
f7
f7
fe
f1
08
01
03
fe
58
01
08
ff
08
fb
0c
fe
01
f0
fd
0b
fd
09
fb
00
fd
04
ca
03
fe
04
01
ff
fb
ec
fc
32
f9
f8
f3
fd
ff
fd
09
03
67
15
f8
04
01
01
fc
fe
fe
95
f6
f8
f8
f7
03
f3
0b
08
b6
0d
f3
fb
09
f9
fe
fb
00
c3
f8
00
04
fa
fe
04
ff
fc
fa
00
04
08
ff
f5
fe
03
04
c5
0a
0f
08
0a
01
e5
fc
04
4a
fb
01
02
0a
0d
f7
fa
07
37
00
06
fe
0f
07
ff
f3
00
9d
01
04
04
03
09
07
0a
01
36
05
03
fa
fe
0b
ef
02
fa
28
f2
fd
ff
04
fe
04
00
01
ce
04
02
02
01
f8
f1
06
fe
d1
fe
07
f9
f8
f4
02
03
0a
69
03
14
fe
06
06
fe
f4
fc
55
fd
01
06
f2
f8
04
0a
07
d1
fb
00
0f
02
fc
0b
02
10
62
19
ff
fa
04
fe
0c
fa
05
6d
f9
01
fa
0c
03
fb
f8
0c
11
04
04
fd
15
fc
00
fc
0a
5d
05
00
f9
07
05
01
09
08
57
fb
04
ff
fd
0e
02
05
07
ef
fd
00
f8
05
fc
01
fd
05
49
f1
ff
fc
03
0d
10
0a
05
3d
04
10
05
f7
07
03
f7
0b
9e
fa
0a
fb
03
03
03
ff
02
97
fa
08
0e
f6
f8
fd
08
f4
15
f7
fe
01
f8
06
03
0f
03
66
fe
f8
04
f8
fd
f5
ff
01
8c
fc
fe
fc
ff
f9
03
00
03
0c
fc
03
f3
13
fa
03
05
f3
2b
00
fb
0c
ff
01
fe
f8
00
f7
fd
05
07
03
01
f5
fe
f7
5f
fb
05
fb
02
07
f8
01
f0
3c
ef
f8
03
f3
07
fb
07
fd
cf
fc
f5
fa
01
00
07
fc
ff
3f
00
f8
fb
01
ff
01
04
01
40
0b
07
f6
06
fb
ff
fa
f9
b6
f4
fd
0c
00
f6
f4
fb
06
46
07
ff
06
ef
fa
00
fb
02
26
fd
04
0e
f8
06
01
02
02
99
f9
06
01
03
03
06
00
f8
3f
06
08
01
00
0a
08
05
fd
48
04
f6
02
05
04
0c
f5
f3
35
07
f5
f7
00
ed
01
f6
fb
68
fe
03
0b
f6
f9
f2
02
05
20
06
0a
fb
f7
07
fd
fa
00
41
f5
08
fc
0d
f8
fc
fb
fd
2b
fc
03
05
f9
05
fd
04
04
6c
05
00
01
02
fe
03
fc
fc
4e
01
fb
06
05
fe
06
02
05
3f
ff
fe
04
02
f6
f8
ff
fa
ae
0e
f8
fd
fa
fc
fd
f7
0c
3f
01
fc
01
ef
f7
f6
f7
fc
f5
fa
fe
f4
f5
0a
f7
ff
03
ae
fc
00
05
04
fc
06
fd
f5
e5
02
fb
05
ff
04
08
0c
f9
45
ff
f0
03
f5
fe
09
ff
f6
97
fd
01
09
f8
f7
00
fe
fe
96
05
f8
0b
0b
ff
03
0a
02
54
0f
00
f9
01
f9
fb
03
09
3e
08
fd
05
ff
06
0d
fb
01
2a
fe
f8
fa
0c
fb
04
f4
f3
d9
f9
f6
fb
01
04
03
fd
03
0a
00
00
00
fe
f7
05
f7
fc
6c
fb
fa
02
fd
03
01
f7
00
11
fd
fb
08
f3
03
04
fa
fa
33
fa
f6
06
fd
03
ff
10
02
1c
f9
07
f3
03
fa
f7
0d
05
57
f5
07
fd
f8
