00000000000159e6
fffffffffffcaffd
00000000000392f6
000000000002b3cc
fffffffffffe41ae
000000000001386d
fffffffffffe2034
00000000000387cd
0000000000000b28
00000000000100a3
0000000000017b60
fffffffffffeb142
000000000000b287
ffffffffffff4d79
00000000000116f3
fffffffffffc61e2
000000000004e1b3
000000000003a947
fffffffffffe41ae
ffffffffffff7a1a
0000000000004e1b
000000000003b46f
ffffffffffff8543
0000000000019cd9
00000000000387cd
fffffffffffcbb26
00000000000191b1
fffffffffffc089e
ffffffffffff6ef2
fffffffffffcdc9f
000000000001c97b
0000000000058912
