fb
06
07
f4
fb
f2
08
ff
f8
fc
08
06
f8
61
00
03
fd
fc
fb
07
fb
ff
d4
06
fb
fb
06
f9
00
01
0d
c1
fa
07
06
02
fd
fa
fb
02
3d
02
f5
05
fc
fe
f8
04
0c
2c
fe
fc
f4
fb
fe
f8
04
09
17
fc
fb
14
ff
fb
0c
ff
fe
c7
02
fd
07
fd
07
05
0b
f9
a4
08
ff
fd
f7
05
fc
03
fc
5b
fd
f0
fc
f8
ff
f7
fb
07
00
fb
fe
07
fd
04
04
ff
01
d1
fc
f5
f0
0c
ff
07
0b
ee
11
04
08
f0
f8
fe
f0
05
0a
3a
f3
fd
00
f7
fe
05
fa
f8
9c
ff
04
ff
02
06
fe
03
08
28
04
04
fa
fd
ff
03
09
f9
9f
04
00
07
02
fe
01
01
01
ed
02
01
00
fe
fa
13
f7
f9
b0
f1
03
fc
fc
03
fa
fc
08
b5
03
07
fb
04
f8
0f
0f
08
ad
01
fd
02
f3
06
fe
fd
f9
29
01
f7
07
00
fb
fe
07
f7
a7
fe
f8
ff
04
07
f9
0b
03
f8
02
fc
f6
01
06
05
fc
fa
fa
fc
02
fe
ec
01
04
01
fa
cb
01
05
08
07
f7
fc
f9
0a
ad
fc
fe
ff
09
fe
fc
fe
fa
2d
04
08
f2
f8
fc
f4
fb
f8
3a
02
f8
0b
06
fc
fc
f5
03
5f
ff
ff
06
00
fb
05
f4
03
f4
fd
f9
07
fc
01
05
fc
fa
e2
ff
01
05
f7
07
06
fe
0a
e6
fe
f9
f5
04
f7
03
f9
f1
31
00
08
f8
02
0c
f2
06
fd
b1
fc
03
fb
05
01
05
fd
0d
98
03
f7
fb
ff
04
0c
00
07
15
03
fc
f7
f1
0f
00
00
04
62
03
0b
fe
fa
03
0a
02
fb
1a
ff
07
fa
02
01
0c
07
04
ff
f4
ff
01
03
f1
04
07
fe
b4
ff
06
02
01
f9
02
00
ff
f8
01
ff
00
01
fb
08
fb
05
9a
fd
07
05
ff
13
fa
fd
06
9f
06
04
fd
06
ee
03
fc
f6
bc
00
f6
fe
00
01
fd
fe
ea
e0
08
05
00
01
05
f2
fa
01
cc
fe
0d
05
ff
ff
05
04
f4
a5
f2
11
04
0a
fb
fb
01
fb
db
f7
fa
0a
05
f9
01
fd
f1
ed
06
09
10
0f
01
f8
fc
fb
9b
f7
f8
f9
00
04
00
02
fc
d3
09
f2
00
fc
f8
0a
04
f9
ba
fd
ff
ff
04
00
07
fe
13
34
01
fb
0c
02
01
fe
09
05
01
0a
f9
f7
fb
01
ff
01
03
33
0f
0a
0b
11
ff
fc
06
06
3c
05
fa
01
02
ff
f9
00
fd
1c
0f
ff
f8
0a
06
01
fe
0b
35
fb
0d
07
08
05
02
f7
05
bb
fb
fd
f6
04
ff
fd
fd
fe
45
fa
fd
02
fe
fa
f1
fc
fb
fe
08
0e
06
f6
09
fd
04
0f
c4
0a
03
f9
02
03
08
fd
0b
e2
fa
ff
11
f9
fc
fe
12
fc
dc
03
00
09
fe
fe
ff
02
09
20
09
f9
ff
05
0a
02
0a
f8
d6
00
ee
03
09
01
fe
fb
0b
55
fd
fe
05
f6
01
fb
fb
f9
f8
00
05
03
fc
02
f3
04
02
b0
ff
fe
fc
f7
0a
fc
01
02
ed
f8
f8
06
fa
08
01
02
ff
1a
fc
fe
10
fd
01
02
f5
ff
8e
fd
00
f4
07
fd
ff
f7
07
18
05
08
00
fc
02
f4
fa
11
31
01
fe
06
04
00
00
07
fd
44
fc
f9
f9
00
04
f7
02
f9
f2
16
01
04
07
00
04
f4
03
5b
04
04
f7
fd
f8
04
05
fe
6a
08
03
02
05
08
f4
08
00
09
08
f6
05
fe
02
fe
f9
0c
2f
04
07
ff
f8
fe
fe
ff
f9
4e
fc
ff
fe
06
01
10
03
05
18
04
fc
ff
07
02
05
ff
fb
ba
ff
09
fc
fe
01
fb
07
ff
43
fc
01
fe
fa
fd
05
f7
ff
e9
f4
f7
07
08
fa
fd
f7
f4
c3
fe
05
08
05
04
f6
f7
f8
03
04
01
fb
01
ff
0e
fd
03
40
07
08
00
ff
f4
07
f2
00
c6
f9
fc
fa
03
ff
f7
07
01
4a
00
fc
06
07
fa
ff
0a
00
40
03
01
fc
00
ff
00
fc
fc
9c
fc
ff
fd
03
03
00
f9
07
e6
03
fa
fb
f6
fd
09
00
05
23
f3
04
f8
fd
f8
13
01
fe
de
fa
04
02
0c
02
01
fc
0b
3b
fe
02
fe
ee
f8
fd
fc
04
cb
f3
09
fa
f4
f7
18
0a
03
d9
01
03
ff
fb
fd
f6
03
ff
b3
01
05
04
f9
02
f9
fe
02
c0
03
f8
04
fb
0a
fe
fd
fb
db
f9
01
07
0f
fe
04
00
08
17
01
01
06
f7
02
fe
08
06
fc
05
06
fc
fd
fe
fa
02
f9
19
09
01
10
f4
0c
fb
07
08
54
fa
fa
0c
05
f8
f0
fc
02
18
f8
0d
02
fd
01
02
06
fe
a3
fc
f8
00
09
fd
06
ff
fa
ab
fe
ff
fd
f8
f2
0a
fe
03
07
f7
fa
f9
08
07
0a
ff
fe
16
01
fe
06
07
02
09
fe
f8
ea
05
0a
f8
fa
ff
f8
08
08
ef
fc
fa
f4
02
ff
06
fd
06
f0
07
01
0b
fa
fd
fd
06
fc
39
eb
f1
05
fe
01
f5
01
fe
f9
fd
f4
fe
05
0c
fd
ff
fd
22
fb
ff
0e
fc
fe
eb
04
fd
9f
08
ff
02
fb
0d
f7
ff
02
dd
fa
fa
0c
05
04
03
fb
06
ee
01
f9
05
06
0d
00
02
04
43
f3
00
00
fc
ec
0a
fb
00
fb
0d
06
f4
ff
08
02
fd
00
60
f9
05
05
01
04
07
fb
09
dd
ff
0a
f1
f2
05
fd
ff
fb
40
f5
04
fa
ff
fe
ff
ff
fd
22
fc
ff
0b
10
fb
f1
00
00
cf
02
08
00
fd
fe
01
f8
f8
ef
0b
f9
02
f0
09
fd
fb
fc
58
f3
fc
f7
fc
00
06
06
fe
20
09
fb
05
f9
08
ee
05
fb
12
f8
ff
fe
07
00
ff
06
09
1d
e7
08
03
05
02
02
f6
0a
e3
01
f9
f8
fd
fe
f9
03
fe
33
02
09
06
fa
f8
f5
fe
07
52
f1
f8
06
08
fc
fb
02
fa
f4
fc
f5
fe
fd
fe
02
f6
02
bb
f9
00
01
0c
07
ff
fe
04
f2
fa
00
f5
01
f6
05
13
05
ef
fa
fd
0b
01
fe
fe
07
fa
2f
ff
05
fa
fa
fd
f9
ff
fa
34
07
fb
01
fb
ff
fc
fc
fc
19
07
01
f5
f5
00
02
fc
fe
08
0f
05
0f
fe
07
fd
07
fa
5f
f2
09
05
09
f7
02
f8
fe
bb
fe
f4
0b
08
ff
f8
04
fe
0d
00
09
05
09
00
10
00
fa
2f
f8
f9
f8
06
fb
02
f0
01
4c
06
02
f6
f9
f9
03
fd
04
b8
f7
fb
06
ff
fc
04
06
00
58
f5
fe
01
02
fe
02
00
ff
11
03
00
f6
00
fa
f5
03
00
09
08
06
fc
08
fe
06
ff
02
ec
07
f8
01
f9
fb
01
00
fe
71
06
fa
0a
f9
00
04
08
05
e5
08
03
05
12
fd
f9
04
05
29
f8
03
03
00
09
01
0c
00
50
05
0a
08
08
02
05
08
fc
fb
0b
04
03
fe
00
0d
04
0c
b0
12
f5
fb
f8
f7
00
f7
0e
3b
05
f2
00
06
04
00
0d
fb
30
06
fb
02
06
fe
06
06
03
f3
06
05
fa
ff
fa
08
fd
ff
c6
08
00
06
00
fc
fa
05
03
c4
01
fe
07
fa
06
07
fd
04
c5
05
0a
fa
f6
ff
03
f1
03
bd
ff
07
f8
0a
f5
ff
02
f4
c8
01
03
07
02
03
04
0a
06
df
03
fe
03
00
fd
0b
ff
01
11
01
02
05
fa
03
0c
08
01
36
f9
06
fd
fe
08
01
02
06
4a
02
04
03
fb
fc
01
f0
fa
06
04
03
fd
01
fa
06
ff
01
e8
fc
f8
ff
00
fe
fd
fd
f1
f9
09
05
f3
03
09
03
f4
f7
ee
ff
03
fb
02
00
06
ff
04
9c
f7
02
02
01
f2
fc
07
fd
e6
03
fc
03
ff
f6
01
02
fe
50
fe
f9
05
00
00
05
02
f9
2b
04
fb
fd
f5
02
fd
ff
01
67
00
fa
f7
f6
fa
fd
04
05
9e
02
fa
ff
09
03
f6
00
0a
36
f9
fb
fc
ff
0a
01
08
04
b7
01
05
fd
fb
fd
06
fe
fb
df
fc
fb
09
08
09
03
06
00
c8
ff
f8
fe
06
07
f7
fc
fa
3c
0c
fb
fd
08
fe
06
fe
fb
45
ff
06
f9
06
02
fc
04
05
11
06
fe
07
0e
ff
fd
07
00
16
fa
03
00
fc
00
fa
fc
fd
06
ff
08
03
fa
13
00
03
01
f0
07
04
02
09
ff
00
fc
fc
41
fb
f5
ff
f7
fc
03
f9
09
d9
08
03
03
fc
00
06
fe
0a
63
ff
ff
06
07
0a
f8
05
05
03
f7
f9
04
fd
09
08
02
f9
6b
f7
fb
02
f9
f9
f3
03
fc
d0
06
00
00
0a
f1
f8
01
f9
e8
fe
fb
0c
07
fd
07
0a
03
ba
f9
f4
0b
fd
02
fa
f6
04
4b
04
f8
fc
fa
0d
03
f6
0d
2e
fb
01
fc
03
fc
fb
f3
07
a9
07
09
f1
0a
ee
05
0a
00
dc
00
f8
00
05
fb
f3
07
fe
55
fb
07
12
f2
09
fb
fe
03
9f
05
05
fe
06
f3
06
07
02
e6
10
05
f9
0b
fa
02
08
00
0f
ff
06
fe
02
09
ff
01
02
f2
01
fe
fd
fe
04
0b
f9
fe
49
00
01
02
fe
0d
14
02
00
d0
00
f8
ec
f7
07
06
f6
09
12
04
05
fe
f9
00
01
f5
fd
26
03
0a
02
ff
07
ee
f7
0c
e2
fb
03
ff
03
06
fd
0c
eb
db
f6
f2
ec
05
fc
fa
f1
08
4e
08
0a
f9
fd
03
fd
01
f3
a5
01
fe
04
f5
f7
08
f7
06
56
ff
02
06
08
00
fb
07
0a
d9
fd
f8
03
03
f6
0d
03
fc
bd
02
fe
ff
02
06
11
ff
02
03
f8
01
12
fe
03
0c
0b
03
bd
fc
0c
f7
fc
f3
07
12
ea
6f
00
fa
f7
01
f6
fc
01
02
0c
06
fd
12
07
00
fa
00
fc
e2
08
fa
f6
0a
fb
fc
05
0b
5a
02
fe
0b
00
01
06
02
0a
0f
08
fe
ff
0c
f6
f8
fb
f9
de
00
f8
f8
0a
fa
06
fe
f8
1e
01
fe
f9
f9
03
00
09
f7
c2
03
09
04
07
f9
05
f9
01
a5
f9
05
04
08
fa
07
fc
fa
fd
f8
f7
03
00
fd
00
0b
01
60
00
06
02
05
05
09
f9
08
f5
fd
fb
fb
f7
0b
fe
fe
fa
f2
03
01
0e
ff
07
fd
02
00
44
f4
04
08
02
f1
f2
f8
f5
06
01
03
f9
05
05
fd
09
04
37
0a
05
06
03
0d
fd
fb
01
c4
02
03
11
10
00
fc
fa
08
04
ff
01
f4
01
ff
fc
f8
05
13
ff
f0
f7
fa
05
10
06
05
bb
0b
0b
03
f9
fe
04
f1
05
f9
fd
ef
f6
00
05
f8
fe
fe
c6
02
01
fc
01
03
07
ff
fb
e8
04
0a
fe
00
07
fd
fb
06
f2
02
02
00
02
fd
f6
0b
03
a0
f7
02
02
f6
09
fd
f8
00
96
07
02
04
06
01
02
fa
f8
0e
fb
fe
01
fc
07
08
04
03
d4
f6
0b
03
0c
ff
fa
ff
04
3b
fd
fe
02
00
f7
04
f3
f4
ac
ff
f5
f9
09
f0
01
ff
16
66
02
f6
00
02
01
fe
01
fc
52
fc
fc
09
fc
fd
fb
01
fe
48
f6
00
03
00
fe
01
08
f8
4b
f7
10
05
15
04
02
04
fe
25
f7
04
f6
fb
01
01
fd
0d
cf
05
04
0a
04
01
fc
0a
02
60
09
fb
fa
04
fd
ff
0c
f8
df
fb
0a
f5
08
08
01
ff
f9
44
07
f4
fe
09
08
06
fc
06
a0
fd
fe
02
0e
03
07
fb
01
de
ff
06
fe
ff
05
00
f6
f5
bf
06
07
fc
09
06
fc
fb
f8
ca
f9
03
05
00
f7
fd
fc
f3
08
ff
f6
fa
07
fa
fb
f9
f9
13
00
fb
02
fa
0a
f6
01
00
e3
0b
04
09
08
06
08
fb
03
44
fd
01
f1
05
f9
f9
fd
0e
13
01
02
03
fd
ff
03
fd
0c
5b
00
f6
01
fd
fd
09
0a
09
3b
fc
00
0a
f9
fe
02
08
fb
3a
fc
f8
04
00
02
fe
05
fc
b9
0c
03
02
f5
f8
0a
ff
f7
21
fc
06
05
01
06
fa
04
00
55
fc
fe
fc
01
f9
03
03
03
2b
f6
03
01
fc
03
fc
fe
ec
fc
f8
f8
05
00
fc
01
f4
02
cc
04
00
04
0c
f9
fa
f7
ff
54
06
07
08
09
05
02
f4
04
23
00
06
fc
fb
02
f9
02
fe
ae
05
ff
02
fb
03
03
f9
09
26
06
03
05
0a
fc
fe
0a
00
f5
fe
06
fd
fa
ff
01
06
fa
a6
04
fe
ff
06
02
fa
fd
fc
2b
ff
fe
0c
01
11
00
fb
0f
ee
03
f8
01
00
0a
07
04
03
9e
06
fd
fd
00
02
fe
fe
04
34
fb
08
04
05
00
f9
05
fd
eb
f9
ff
ff
07
fd
00
04
f4
5d
f8
04
f9
f6
f6
fb
fe
0b
1f
fd
09
fc
fd
0c
f9
04
02
23
ff
08
fd
02
fe
f8
fe
fe
90
f1
02
04
f7
00
f7
04
fd
38
fd
fd
02
fc
fa
fa
f9
0a
36
fa
fd
07
fc
04
fa
f8
00
c4
01
04
02
f9
fb
fc
06
f8
4f
ff
f4
fd
05
07
02
06
04
fd
f7
00
fe
f6
03
f8
00
fd
6b
03
00
06
f8
00
0d
06
0c
46
f7
01
08
03
f6
01
fd
fa
38
fc
01
05
02
f5
02
fb
00
06
ff
eb
fa
05
ff
02
0d
ff
93
06
f8
04
03
fd
fb
fb
fc
b1
fe
0b
fe
fe
ff
f7
fe
01
f2
f5
05
f0
fc
00
fa
08
06
b0
00
fb
ff
fa
f8
0b
15
02
a6
f7
04
fd
13
fb
02
ff
fc
ee
01
fc
fb
0a
ff
06
fd
f6
2c
f8
fa
00
fe
fe
ff
fd
00
a2
02
fe
0a
fa
f9
05
14
f5
0c
fc
f6
0c
fc
fe
06
06
00
5a
ff
f8
f9
00
06
f9
0b
f8
fb
0d
fb
f0
01
fd
05
fe
01
28
fd
f9
09
f8
04
f6
0d
07
c3
02
06
fe
ff
0a
fa
08
fa
69
02
07
05
f7
01
fd
fe
03
24
ff
fc
05
fb
08
02
07
09
f1
06
04
fe
03
04
f9
fd
0d
0b
01
f5
f3
f9
f7
fc
02
02
fa
05
ff
02
07
fd
02
09
f7
58
0a
05
fe
ff
fb
0a
0d
fa
cd
f5
09
fa
02
fa
0c
f4
fa
bc
fa
fd
fb
03
02
fe
03
0b
46
fc
06
07
fb
01
f8
03
05
f8
07
04
02
fa
f8
03
03
02
dc
02
fb
00
ff
02
01
09
03
f1
04
06
01
f8
fb
08
00
04
01
ff
fb
fa
f5
06
0a
f9
0a
50
06
06
09
00
fd
02
03
fb
b0
03
00
f7
05
01
08
04
fe
41
05
f8
00
fe
f7
02
fe
01
a8
fd
04
01
fd
02
0e
fa
fc
ae
f8
fd
02
03
01
02
10
f3
c2
05
00
ef
0b
fc
09
f8
00
cd
fc
ff
00
00
fd
0b
f8
04
e6
f3
f9
fd
fc
f0
fb
04
fc
18
ff
04
fe
f5
08
0a
fe
03
ee
fb
f7
02
f8
f9
f5
f6
ff
09
fd
0b
f7
02
08
f9
ff
08
48
06
01
fe
01
f7
fa
01
0c
0a
03
f6
00
00
0c
fa
0d
fb
a2
03
00
00
fb
0c
06
0b
08
e5
ff
02
02
02
06
ff
0a
ff
33
fe
00
06
ff
02
02
ff
fb
71
07
fa
f9
0a
07
00
10
02
a2
04
02
07
0c
fd
04
01
03
ac
fb
06
f4
fe
08
03
fe
f9
3b
fd
02
08
fd
02
fc
ff
fe
1d
04
03
f8
02
f6
fe
03
f1
ce
ff
02
00
fc
05
f7
fe
fa
50
0c
08
06
0b
0a
f3
ff
f9
e0
09
fd
08
fc
0c
11
06
fd
0e
f1
fa
fa
01
0d
fd
f7
07
de
fd
fe
13
fb
05
fb
00
09
eb
01
ff
00
09
00
05
07
0a
d0
f1
04
06
fd
00
0b
09
00
1b
00
0a
fd
eb
fd
ee
02
f9
ac
0f
07
0a
ff
02
f7
fd
fb
0d
f6
01
09
03
f6
02
09
f9
c0
f8
fa
09
00
ff
ff
04
0a
59
fd
00
fc
06
fd
ff
05
fe
56
0d
0c
fb
08
f9
01
06
f8
f9
fe
02
11
04
f8
01
07
05
95
0c
00
fa
ff
04
fb
02
f0
11
16
03
ff
fb
13
fb
f6
f9
c5
fc
01
01
03
09
03
f3
fd
54
ff
fc
00
fd
ff
fd
f4
05
02
ff
0b
fc
03
01
ef
01
07
a3
fa
01
00
05
03
f3
00
09
6b
f8
f6
01
fb
00
09
09
03
a6
04
f8
f5
03
fe
ff
00
f6
5b
03
03
ff
f9
fc
ff
03
0a
a5
fd
ff
01
02
f4
0f
0a
04
b9
05
00
04
05
f9
04
f5
fc
f8
fd
04
fb
f5
f5
f4
02
f7
b7
02
02
ff
01
05
f4
fe
00
0f
fe
f2
02
05
04
08
fe
06
01
f9
fb
03
01
02
fa
fb
08
41
04
fd
12
0a
04
fc
00
15
f2
fe
ed
0e
f8
fb
04
fa
01
a4
fd
01
fe
10
00
fa
07
f4
42
fe
09
fd
04
ff
01
09
0e
d4
fd
f3
fd
fc
f4
0a
10
04
0b
fd
f4
f9
f6
00
05
f8
ff
05
00
f1
f7
00
08
01
0c
fa
9b
03
fe
05
f2
05
f7
06
00
54
04
04
ff
03
f7
fd
01
02
11
04
04
06
fd
fa
fa
f7
03
3c
f9
00
f4
00
09
fe
fc
fd
df
fa
07
05
f8
fa
f2
fd
fb
a5
0c
05
fd
03
00
f6
0e
06
5b
0e
f4
f6
03
00
ff
fd
0b
50
fc
07
06
0f
f7
fb
fb
0b
05
f2
00
ff
fe
fe
0a
03
05
d1
03
04
f7
f6
05
ff
06
f4
f0
ff
fc
fa
fe
04
09
06
04
d0
02
f3
02
04
02
07
ff
fa
ee
fe
04
00
f5
ff
08
04
01
9d
f9
fe
01
03
0d
0f
06
ff
32
03
08
ff
11
fa
ff
fd
00
62
ff
f5
12
04
0c
fc
fd
0a
32
08
03
0d
0a
f4
07
03
f1
22
f9
f1
0a
f6
fe
f7
fc
fc
4d
fb
ff
fd
fc
fb
01
ff
fc
37
f7
fe
06
06
06
f4
0a
0d
42
fd
05
fb
ff
00
fb
f2
00
ef
f1
04
f4
04
09
01
fd
03
98
0b
0a
06
0a
f9
fb
07
0a
e4
00
ff
02
f0
fe
0b
f8
0f
15
09
03
f9
00
09
00
06
f9
10
0a
03
ff
fb
05
01
0b
00
ea
09
f8
05
f9
00
00
04
fc
63
fb
0e
f6
04
fe
03
03
fd
f5
06
0a
0e
f4
01
fe
05
03
a2
10
fe
fb
f9
fe
f4
fa
0e
1e
fe
f4
01
01
07
02
01
05
ac
fe
03
0a
fc
f7
00
08
fe
c5
04
04
f5
fd
00
03
f9
06
e7
06
08
01
0a
fd
0d
fd
fc
22
02
05
fd
fe
03
0c
04
fb
c0
f7
f5
02
08
fc
ff
f5
08
28
00
ff
f9
09
01
03
ff
01
0e
06
05
fa
08
01
ff
ff
f9
dc
f9
0c
ff
fe
02
fd
fb
01
ed
fc
fe
f8
fa
fe
fa
fc
f9
f1
ff
f8
05
03
01
f7
f9
07
b5
0b
07
f5
02
fe
04
fa
fe
fe
fa
01
00
06
00
05
07
00
51
f8
02
0c
fe
f5
f4
01
07
ff
ff
ff
ff
04
fd
fc
07
07
f9
fd
fd
00
f1
fc
f0
00
09
34
07
07
fd
09
f7
0b
02
fe
f9
09
fc
01
05
fd
f7
fa
12
fb
08
02
f9
01
04
03
0b
ff
02
f6
0a
05
f4
fd
03
05
f7
f8
f0
fc
fc
fa
07
ff
00
fb
a0
f7
f7
00
04
fd
ff
f2
fd
9a
00
07
01
06
fc
0b
f9
04
59
f8
00
02
f8
fe
01
f6
fd
2a
f8
02
01
02
fc
03
02
fe
d7
f6
02
01
f5
fc
05
fe
06
0c
0f
f8
05
09
f8
00
fa
03
50
03
08
f4
fc
04
01
02
fc
bb
ff
fe
01
03
ff
04
08
fe
f4
fa
05
ff
fb
fc
fd
ff
0b
50
0b
08
fd
fa
00
06
00
f8
d1
08
fc
00
00
0a
fd
fb
02
9f
f5
fc
02
01
06
fb
04
f7
a8
0b
00
04
04
ff
06
0a
02
50
fb
01
ee
f9
eb
03
f4
0a
39
f7
f6
ee
f8
00
ff
fc
f9
2c
ff
fc
f7
04
07
ff
09
01
03
f8
03
04
f9
fc
f8
f9
02
bc
05
f9
01
f2
03
fb
0c
fe
ac
08
01
03
fa
ff
05
04
f1
46
0b
ff
ff
f6
03
03
f6
06
96
04
07
fa
0d
fe
00
01
02
3d
02
00
05
01
06
fc
f9
fc
d4
01
ff
06
06
f4
fb
05
02
32
f5
04
ff
ee
01
03
01
00
e9
f7
f5
fc
02
fe
00
ff
03
c2
01
ff
0d
f7
01
00
f0
12
b7
fe
fd
00
09
fd
fc
f8
09
a3
f8
fe
ff
fe
09
fd
f9
f9
e1
fc
03
fa
07
f8
04
f7
fd
d5
07
fd
fa
0f
02
0a
fb
fe
0e
ff
fe
06
0c
09
05
06
f9
69
08
fa
06
05
ff
ff
fd
fb
e0
fc
ff
f9
04
07
fa
06
03
1b
fe
01
03
f2
03
fd
ff
0a
3d
f8
f2
06
05
fb
ff
fb
fd
3d
07
04
08
00
03
13
f7
00
4f
0b
fc
03
06
f5
fb
05
fd
b5
04
09
05
f6
00
06
f9
04
0d
0a
f7
fb
fa
01
0a
0c
f4
5b
08
fb
00
04
00
00
fb
0c
63
f5
fd
04
fb
fe
fb
f7
fc
23
01
0a
fd
fd
04
05
fe
ff
ef
04
10
08
fe
0d
04
02
fb
14
03
09
fc
0b
fe
00
0f
01
cb
05
01
02
02
f8
06
05
07
0f
03
00
fc
06
04
05
f9
f6
17
f8
fc
fc
05
05
ff
02
02
1b
0e
04
08
fd
09
f8
fd
02
da
fe
03
fc
fb
fd
02
fe
05
5e
f3
00
0b
08
fa
f2
0b
fe
f3
03
00
0e
f9
fe
fd
07
0a
3a
0e
02
fd
ff
05
02
f4
08
42
fe
f7
01
03
00
fd
f9
03
5b
fd
06
f6
03
f9
0e
0a
02
e9
ff
fd
0c
fd
02
03
f1
f3
cc
f2
05
fd
03
f7
08
fc
fe
d5
02
ff
f6
0a
f9
04
09
06
1b
09
fb
07
09
fc
07
fe
fd
f2
f8
01
f4
04
03
03
f9
04
d0
ff
f9
06
fb
ff
fb
02
fd
04
04
09
05
03
00
0a
07
03
e7
03
f3
00
fc
02
fb
f6
fa
99
05
ff
ec
04
05
fe
fa
03
c5
07
08
fe
ff
fc
fe
07
03
f2
04
03
f5
08
07
f5
09
07
31
04
fb
01
00
10
01
f0
ff
36
fc
0a
f7
fc
06
01
f5
f9
53
fa
01
09
fe
04
04
03
02
4c
01
03
fa
05
03
00
06
0a
65
fe
fa
08
ff
fc
02
fe
fa
f8
0d
05
fb
fe
f9
03
0c
08
af
0d
0a
04
01
f7
07
fe
ff
b2
fa
0a
f8
ff
f8
fc
0b
f8
d3
f4
f8
0a
f5
04
fc
fe
06
3b
fd
fe
05
fe
01
f8
0a
fb
4f
08
f4
04
fa
05
f6
06
04
2b
0a
fc
0e
fe
fa
f4
01
04
51
f8
fc
f8
fb
ea
12
f2
00
05
0c
fd
fe
ff
03
fa
00
f8
13
08
fe
f9
f9
0f
03
09
fd
fc
f7
ff
08
04
00
fe
fb
00
ff
fb
ff
f3
03
05
04
ff
00
50
03
00
02
f7
0a
03
01
fa
01
02
fe
0a
fe
fd
03
f4
02
e4
05
fd
06
04
04
fc
01
ff
1d
fc
f9
02
03
05
f0
00
05
03
f8
03
05
00
f7
fd
fa
fe
c5
ff
04
f4
03
03
fc
fb
f5
2e
ff
fa
0a
ff
f4
01
fe
05
ca
f3
05
fd
00
fb
0a
fc
11
af
ff
02
ff
01
fb
03
f7
06
42
04
fa
05
f6
04
fa
04
03
b3
04
ff
f3
f8
ec
06
ef
0c
d4
01
fd
01
fb
05
f9
04
01
17
ff
02
05
0a
01
09
08
fa
95
06
08
fa
02
0a
fd
08
f9
df
f3
fc
04
01
fd
f3
f9
ff
c8
fb
0a
04
03
06
03
fb
fc
3d
f8
fd
02
06
fc
08
f4
fc
b9
ff
01
01
fe
03
04
05
00
16
fa
03
00
05
f1
f9
f9
fe
3a
f8
fc
00
00
fb
03
00
01
98
02
04
f7
fe
fc
f7
0a
01
59
0a
fd
f4
00
fa
fa
00
06
be
f8
05
01
f9
07
f9
fa
07
2e
fd
00
fb
fa
fd
fa
08
04
c8
f9
fb
fb
07
06
0d
05
01
fc
fe
08
0d
08
fb
03
fb
0a
b7
0c
01
05
ff
fc
07
04
00
f1
0b
04
f8
fd
01
f5
fe
0b
5f
e9
00
02
fd
07
08
05
07
3d
06
fc
08
fd
fe
f8
0a
ff
d2
05
02
04
07
05
fb
00
00
e0
f7
fc
04
06
ff
01
05
0b
58
02
fe
09
02
03
04
f2
0b
e5
00
00
fd
01
0d
f7
02
f8
66
f9
06
00
06
fd
f6
fa
fd
45
01
ff
fd
fb
ff
00
ff
09
dc
0e
f9
fd
02
06
fd
02
0b
bf
f3
0b
08
f3
ff
03
06
fd
60
03
01
f8
04
f7
f9
05
03
b7
02
fe
00
02
04
01
0a
f6
6a
fc
fc
fe
fc
05
f9
00
10
a7
02
00
00
07
02
09
fb
ed
00
03
03
04
ff
03
09
03
f9
a7
fe
fc
f8
07
01
06
fc
fc
fb
f6
09
04
ed
f6
04
02
f7
44
f6
06
00
04
02
00
f9
fa
a2
fe
03
fb
06
10
ff
07
02
55
06
f2
fd
ff
fd
f9
03
ff
a4
03
f6
00
fe
00
08
fd
f5
d6
fb
03
fe
f9
fa
06
fc
f4
5e
03
02
00
fb
0a
02
05
0a
b2
16
03
07
fb
fb
06
ff
01
d2
fa
f9
f5
00
06
0e
fe
03
5d
03
08
09
0d
01
0c
03
fe
31
fb
fd
f6
fc
fe
03
09
f5
6a
02
fc
f9
fb
00
00
f1
fb
ac
0b
05
0d
f9
f7
fb
02
f2
b7
fd
04
f8
0f
05
02
04
f1
5e
01
ff
03
fc
fb
fd
fd
fb
f0
f7
0d
03
00
fa
05
fa
06
05
00
ee
01
00
ff
ff
fe
ff
aa
05
0d
fe
f8
fc
03
07
fb
c8
0e
01
00
f9
03
fc
04
03
f7
06
ff
fd
00
08
03
10
01
97
08
fd
fb
f9
07
ff
0e
fe
36
03
f8
03
fd
ff
fe
07
05
59
01
08
08
fe
00
06
02
fc
ce
00
fd
06
fe
03
fd
f9
fc
af
01
06
f9
08
fd
fe
f5
11
2d
05
f4
0a
fe
03
fe
ff
f8
66
09
f8
00
04
05
09
02
f3
2d
f1
ff
02
04
04
f6
ef
fb
bb
f6
07
fb
08
01
00
fb
0a
e6
0d
02
fb
05
06
fb
06
07
df
f2
0c
fd
05
05
f8
fa
fc
b3
01
02
fe
0a
fd
00
ff
f7
1f
f9
fe
0c
f6
fc
fd
01
fb
2b
02
05
05
04
00
fc
0a
fa
e3
fd
0c
f9
f5
07
02
fb
09
1a
ff
fe
ff
00
fd
04
02
05
2b
02
f6
ff
fb
f8
02
06
03
67
01
fd
07
03
00
08
ff
f1
5d
f7
04
05
02
fe
04
fd
05
9f
ff
fd
fb
fd
02
00
fc
ff
6c
fd
01
f9
01
07
06
ff
00
f3
fc
03
f8
ff
00
fc
f0
04
de
fe
fa
f1
08
02
fe
f9
f8
a3
fe
0a
fe
05
f7
04
00
fd
06
fb
0a
04
02
02
06
09
f1
13
fe
00
ff
06
fd
0d
06
0c
f2
05
fb
fe
11
02
fa
04
08
94
0b
fb
f9
fe
06
ed
08
fc
c7
f1
00
02
fd
02
fe
02
06
a6
00
fd
01
ff
00
07
05
01
39
02
0d
fe
02
0c
f4
02
01
38
fb
06
09
fb
fe
00
06
02
13
f9
02
06
04
01
fb
fb
02
51
fe
fd
07
04
fd
fc
f8
fa
2e
fc
03
fb
06
03
fe
f8
03
13
02
0b
01
ff
07
09
03
0c
e7
0d
ff
00
08
00
f2
fb
02
1c
fd
08
08
f0
05
fa
f5
00
6f
0a
f9
fc
04
0b
00
fd
fc
30
07
05
f7
f9
05
01
fd
fd
c4
03
fb
ff
fd
05
fc
00
05
ad
fe
f7
05
01
fe
00
fa
02
9c
04
ff
09
04
00
f6
ff
f2
3e
fc
f6
fe
0a
f8
0a
fa
01
21
03
03
fd
f7
01
04
ff
fa
23
fe
03
fe
f6
fa
fe
00
fe
5d
00
fd
fc
06
02
04
02
05
f2
fd
f7
fe
fd
00
01
fb
f9
d0
03
05
fa
06
00
02
f8
f7
47
f5
02
06
07
fc
09
06
f8
51
06
05
00
04
fd
03
03
01
2a
05
f6
f8
04
08
fe
0e
fc
ca
fa
04
ff
fb
00
05
07
fe
ef
06
02
08
08
04
06
06
02
56
01
04
f7
03
03
01
02
03
d4
02
04
ff
f6
fa
08
11
03
9a
fb
02
fd
00
f1
0f
03
fc
de
01
fb
fe
08
fe
05
ff
06
1b
03
fa
03
0d
02
00
10
fa
26
00
ff
fc
f1
f8
fe
09
fb
6d
f9
03
f6
07
04
fa
00
ff
15
09
00
05
01
f8
fd
fd
02
1b
fe
06
00
05
fe
ff
03
ff
c7
f9
04
00
f9
ff
fe
fb
fb
19
02
08
05
04
02
f8
02
04
2d
0c
f2
00
03
06
05
02
fb
d5
ff
0a
fe
05
04
fd
07
03
e1
fc
00
02
00
08
09
07
fa
ac
09
00
07
fc
f4
fa
f9
fa
51
fd
01
f5
fe
fd
ff
00
06
d9
05
ff
fa
02
07
01
10
fb
1b
f7
fb
fd
fb
fc
0d
ff
02
d3
f7
f7
04
fd
0b
11
03
fd
af
00
f8
f3
ff
03
fd
ff
ff
a3
08
fc
0f
fb
14
04
01
01
ba
00
fd
00
fe
fd
f9
fa
fd
be
f6
01
02
fd
00
f7
f8
06
b6
fb
06
01
01
00
fe
00
fe
66
f9
fe
05
fe
0b
01
05
00
22
08
03
04
04
ff
fd
f6
f7
05
fd
0f
fe
07
06
ff
01
01
b2
f8
08
f9
fe
fe
fc
0b
02
95
fb
fe
00
00
01
0a
07
03
27
02
02
f9
01
08
02
0a
f5
9a
03
fe
fb
f9
ff
02
06
fb
3a
0a
ff
fd
f9
06
05
f4
f7
24
08
09
01
ff
03
02
00
00
de
ff
f9
0c
f5
fb
08
06
00
0d
fe
f7
07
06
03
fa
00
05
f1
05
ff
0b
05
07
05
03
06
94
02
f9
fb
f9
0d
fd
02
03
b0
07
fb
fc
08
0d
01
fe
f9
2a
03
07
ff
03
f1
f3
ff
01
db
fa
05
ff
f6
03
0a
fe
fe
53
07
fa
0f
00
ff
00
09
05
0d
08
05
06
fe
00
07
02
04
12
f7
f9
fc
fd
f2
05
07
ff
aa
02
ff
01
01
fc
04
fd
03
08
01
08
01
f7
05
02
03
00
c6
03
01
07
05
fe
07
03
fb
a7
ef
06
fa
03
01
f7
ff
f9
b6
04
06
00
03
07
01
fe
03
d4
01
05
06
fc
11
08
04
ff
67
03
fd
02
03
03
fd
f3
ff
0a
05
01
05
08
01
02
02
f2
da
fb
07
fd
03
ff
01
ff
09
2f
01
00
00
fc
03
fc
fa
fd
fc
00
05
f9
01
f9
ff
f7
01
60
08
f4
fd
01
fb
fa
02
03
17
03
f8
fd
fd
f1
08
06
09
49
0b
04
08
fe
ff
00
07
fe
c2
f7
07
ff
fe
06
04
fc
06
0d
01
04
fc
01
ff
fc
00
04
07
fe
08
fd
ff
fc
04
02
0c
ef
fd
fc
03
fd
0b
00
fd
f5
b8
01
05
fe
04
fb
fd
04
00
6f
fe
f8
00
06
fb
f9
00
0e
0d
fd
fa
f9
f6
02
00
03
07
23
f8
05
fe
07
fe
fb
fd
04
ab
fd
fc
05
06
ff
05
0b
fc
99
fd
02
03
01
00
0e
fa
fa
c5
05
f7
fe
fc
07
04
f6
13
00
02
fd
04
01
0b
f9
fd
f4
b8
fc
fb
03
ff
fe
02
04
01
3e
01
06
04
fd
ff
f4
00
05
53
02
f7
05
f8
0a
07
fe
ff
de
01
fc
05
fb
04
ef
07
f6
d0
03
04
fd
ff
03
ff
f8
03
24
fa
f5
00
f8
f8
07
fa
ff
e1
f6
f6
02
03
fd
fa
00
fc
ab
0b
0f
01
ff
f9
00
04
05
5b
07
0e
f2
0a
00
03
05
fe
0f
fa
07
fc
01
0a
f5
04
fc
d6
03
07
07
ff
02
02
02
f9
c9
f6
03
fb
00
00
0e
05
00
90
06
fe
f6
fb
09
0e
01
01
c9
03
00
0a
07
00
fc
04
f5
9e
f8
05
06
fc
fd
f4
01
f6
2c
0a
fb
f9
f6
f5
01
01
06
3b
02
fd
03
03
03
07
f9
fe
2d
0b
fb
07
f8
fa
06
fb
08
39
02
f2
02
06
fa
04
04
ff
15
02
f9
00
ff
f7
fc
00
f3
50
08
ff
ff
07
09
fd
ff
0a
6c
03
ff
03
03
fb
f8
03
ff
8f
ff
fe
03
ff
ff
05
04
08
08
fe
fc
00
fb
ff
07
02
00
ac
fc
02
00
06
05
f3
06
07
6e
fc
05
08
01
02
f6
f7
02
1d
fe
07
01
f8
02
fc
0d
07
57
f9
09
02
08
08
01
0c
f3
ce
0b
00
f8
fc
01
00
02
0a
dc
00
fb
04
f7
fa
0d
f9
ff
af
0d
ff
fd
03
fd
ff
0d
0c
0b
06
00
ff
01
00
fc
05
ff
9f
06
03
fe
01
04
03
00
f9
51
f9
fe
f8
0b
00
00
fe
fe
60
0e
ff
04
fa
00
00
0e
01
2d
fc
0d
02
07
f5
ff
f9
02
2c
f1
fe
02
f7
f6
ff
fc
02
fa
04
f9
f9
fc
08
fe
fe
0e
c4
03
05
07
fc
fc
09
f2
0a
f1
f9
fc
ff
fe
03
00
f9
01
a6
fc
ff
02
02
00
03
01
02
a7
00
04
fb
00
ff
fc
fe
ff
40
fc
02
01
03
04
03
ff
0e
50
03
fc
07
06
fb
f8
fe
f7
d5
fb
00
07
07
fa
02
0b
0b
4e
f8
01
fb
04
02
0b
03
fe
f2
f8
f6
02
0b
f8
01
f0
03
21
00
09
fb
f1
09
12
f4
01
e2
f9
03
01
f7
00
f9
09
09
b7
02
fd
f8
08
0a
03
08
fd
64
0a
fc
f5
f2
fd
00
f7
01
05
06
03
01
f6
07
fd
0d
08
5a
fa
0c
08
fa
03
04
08
04
47
fe
fe
ff
07
0c
05
f4
fa
fd
fc
00
01
fc
01
fc
09
01
5a
03
02
f8
01
ff
f9
f2
02
e5
04
06
0e
00
fb
fc
0e
f6
fe
fd
02
f9
fe
f3
f7
0e
0c
a8
02
05
0d
04
ff
05
09
fb
1b
f6
02
ee
fe
fd
ff
fd
f7
1c
ec
02
03
fd
05
f8
11
f3
98
fe
05
05
ff
05
fe
ff
0a
fe
04
0e
fd
06
08
f1
fd
05
46
04
0b
0c
06
05
f2
03
fa
ee
0b
06
02
00
f6
07
12
00
d6
02
01
03
fc
09
fc
04
00
c1
0a
f7
03
05
06
fe
ff
fc
d6
02
03
02
03
00
05
f7
f8
e6
fc
00
fb
0a
ff
00
f6
fb
4c
ff
f9
02
03
03
fd
fd
12
12
fb
f9
06
09
02
01
0b
f5
63
05
01
f7
00
fb
0a
04
04
f4
ff
0d
fb
00
08
f9
fb
03
4a
00
06
07
f7
ff
07
fa
02
ff
ff
fa
fe
ff
fb
f6
0b
04
5c
07
0b
05
fa
f4
05
f3
f7
ab
0a
02
00
05
09
06
ff
ec
b5
fb
02
01
02
03
09
02
fa
49
fe
fb
fa
ff
04
fd
00
fd
4f
0b
ff
fd
f4
01
0e
07
f3
33
fb
ff
fb
00
01
02
fc
00
51
02
fe
ff
fd
f2
0a
04
00
0b
fa
fe
fc
fc
01
ef
fc
fd
f0
02
06
01
05
03
09
01
04
47
fd
fa
01
0a
02
f9
02
f4
c5
0b
0b
09
f7
02
07
fe
01
35
0d
04
f4
f4
02
f6
05
06
b4
04
09
fd
03
14
f4
ee
02
be
08
02
ff
fd
fd
06
fe
f9
ca
fd
f8
fd
07
00
f0
09
10
da
f8
07
08
17
ff
02
fd
ff
4d
f6
00
0b
ed
0c
01
f8
fc
f8
01
f5
fe
02
12
fa
f7
0d
20
00
fd
02
07
fe
05
00
01
c5
f8
04
fa
09
fe
02
06
fe
e1
ff
ff
f9
fa
0a
10
10
01
a6
04
fc
f7
00
07
06
07
f7
ad
05
05
fa
ff
fa
fa
01
f8
c9
03
01
f9
05
f8
fb
00
03
45
ff
07
02
0c
f1
f9
f9
08
a3
03
08
07
00
f1
f6
ff
fb
d6
ff
09
01
04
fd
01
09
fe
1f
ff
fe
fc
06
f9
09
fc
08
ed
f9
f8
02
02
fe
00
fe
0e
e7
02
fa
08
06
fb
fb
08
00
ba
00
05
01
06
ff
05
f8
f3
a5
0d
08
f5
01
05
08
fe
16
c4
ff
03
fe
08
fd
fb
05
05
1d
05
fb
05
01
fe
fb
fc
ff
55
fc
06
02
fc
09
01
02
fa
51
f9
04
0f
04
05
09
04
03
9a
fd
01
04
0e
0a
08
fc
02
65
f7
fc
03
f9
02
01
02
ff
ad
02
04
f4
fe
07
04
fb
07
de
fc
f5
f8
f6
fe
06
08
01
a2
03
00
08
0a
f7
f7
fe
08
31
03
01
ff
f8
00
fb
f6
06
ba
08
0b
00
00
ff
06
f9
0a
e9
00
03
fd
03
01
04
0b
06
1e
fb
00
00
fe
ff
00
08
f6
ce
01
ff
f8
02
00
f4
fe
f5
9a
08
fe
0b
ee
fb
fe
fb
f8
f7
0a
fe
f9
fa
0b
00
fe
ff
cf
00
05
00
02
fd
f7
f6
04
d1
f7
03
07
02
f5
02
11
f5
e9
fa
03
f9
f3
00
01
fe
0a
31
f9
f6
06
fb
05
fd
fc
f9
1f
f7
f9
fd
07
00
00
05
f4
c5
03
06
03
08
fe
f0
03
00
aa
08
01
00
00
06
05
ff
00
c4
02
01
fb
01
fb
02
f5
fd
cd
f9
06
fe
f7
03
fa
fb
01
21
fa
01
f7
fb
f4
ef
fb
08
5e
fc
01
fe
ff
fe
f4
07
01
14
03
fa
01
04
fc
fc
09
0c
c6
f7
f7
fd
08
fe
09
fd
0b
d8
fb
07
fd
04
ff
01
05
0b
b7
00
fc
00
fa
fe
fe
01
f7
5f
06
05
f5
fa
f8
fe
07
fb
35
08
fc
02
03
06
05
e9
f8
33
01
09
fb
06
0e
03
00
f1
08
05
f5
05
fe
fb
fb
09
fe
f4
fd
06
02
07
05
07
05
05
18
ff
fb
04
0d
06
f6
05
02
06
08
f6
03
01
05
0c
07
ff
0c
0f
fd
05
08
02
fe
fd
fe
4a
f9
06
03
fb
06
fd
06
07
af
fb
ff
09
01
00
04
fd
07
1b
02
fc
f7
ff
f6
03
08
fd
47
f5
ff
06
f5
ff
fa
ff
0c
fd
fb
05
00
0c
07
03
fb
0b
56
01
05
06
0a
fe
01
00
fe
9f
fe
fa
f4
ff
06
fc
ff
fe
df
02
fc
07
01
07
f4
f8
02
d1
0b
fe
ff
05
ff
05
08
09
a9
fb
fe
07
f7
07
09
f7
02
b6
13
04
fe
02
06
05
03
0c
ed
fd
02
f4
04
09
fd
fa
0f
ff
ff
f2
04
ff
f5
01
01
fb
23
00
0a
09
0b
f3
0d
f0
0b
01
f6
08
05
fd
fc
05
0a
10
2d
f7
fb
fd
fb
07
0c
fd
fb
5d
ff
fe
ff
08
f7
f4
08
fb
c5
fc
0b
f2
03
f4
f7
f7
f7
c4
00
f8
fe
f5
04
00
0b
ff
2a
06
03
fe
01
09
fe
06
fc
c2
ff
0b
fa
0a
0c
f9
fe
0b
2a
fb
fc
02
fc
07
f2
f9
ff
ad
03
01
fa
08
fb
05
03
f5
b3
00
fd
fd
00
f2
04
06
05
24
fe
fd
07
f3
fb
02
fd
04
5d
f9
fc
f8
01
f6
f0
fa
fc
cd
08
02
03
01
f9
fd
fe
f6
c6
fd
05
03
01
09
fb
fc
05
ac
04
fe
03
fb
0c
fc
fa
04
2b
fe
00
00
06
11
06
00
07
1b
02
fd
00
fd
06
08
ff
04
41
0c
08
07
09
11
07
ff
fe
62
0b
ff
fc
04
09
f8
f1
ff
62
03
0c
07
fe
fa
fc
0d
fc
b5
fe
fd
f7
fc
f8
fe
05
01
31
fd
fc
04
f8
04
fb
fc
02
32
0b
f8
08
f6
00
01
f0
fd
0a
01
fe
fb
05
f5
f9
08
00
ae
f2
04
0f
fb
ff
08
f3
f9
19
05
02
07
f2
f7
15
fc
fc
c5
fe
00
07
04
01
03
00
fc
d0
fe
fd
00
fc
f3
fb
fa
ef
31
ff
fe
f5
08
fb
f9
fe
f8
09
fb
0c
05
01
03
f8
08
08
5a
0a
07
f8
01
f6
ff
f9
05
c8
fc
f1
f8
f9
01
05
00
04
46
f6
f9
ff
03
05
04
01
01
e0
ff
fc
0a
fe
00
06
ff
04
be
01
03
f7
04
f6
fb
03
03
30
f6
06
03
ff
00
fb
0b
f7
bc
0b
f9
0c
02
0b
07
ff
04
39
fd
f8
01
0a
fe
02
fe
ff
dd
01
05
00
fe
08
04
04
05
55
fb
0c
f9
0b
02
fe
fe
03
28
01
03
04
fc
f9
fb
06
f8
b2
03
fe
f3
04
fa
f8
0e
fd
6d
05
00
0a
fe
05
ff
04
f7
c2
02
04
ff
f0
fb
08
03
08
6b
fc
00
01
00
fe
fd
fe
ff
9a
0a
fb
00
06
03
06
ff
06
b0
08
04
f8
05
0f
09
fd
01
13
00
07
fa
ff
0e
04
f0
01
c9
05
fa
f3
0b
fc
fd
02
05
cd
00
0b
01
03
f6
fe
04
fa
cb
fc
07
ff
fc
0b
00
00
04
e6
05
fd
00
fc
02
f9
fd
f9
4f
01
10
f6
f9
f6
fb
01
04
d9
fd
fe
05
02
04
0d
04
06
0d
03
fe
f7
02
f6
02
02
06
98
fc
ff
04
fb
04
fb
00
0d
55
00
06
fb
03
05
ff
f9
fe
4c
06
f7
04
08
09
01
01
ff
06
fe
f1
04
01
fb
ff
fa
fa
5e
05
fb
fb
03
fe
0b
ff
fe
4d
06
02
fa
0b
f7
f5
fa
04
46
f9
03
fb
06
fc
f8
fb
fc
a2
fd
0a
fe
00
f8
08
10
01
ab
f6
03
fe
f9
03
01
00
0a
d9
f9
00
02
09
fe
0d
f1
f8
f9
ff
f4
fe
fa
02
09
02
02
26
fc
04
01
ff
05
fe
0d
08
b1
0e
01
00
08
fa
f4
04
07
a1
05
00
09
f9
fe
fb
0d
fe
e7
ff
fc
02
fe
fe
02
05
fd
c4
fb
07
05
f8
04
05
fc
03
0e
01
fc
08
fe
03
fc
01
f7
41
02
fe
00
06
f9
fb
0e
f7
c4
fd
fd
fb
10
00
fd
f3
0b
38
0f
fb
02
05
0c
f7
fb
00
b9
0a
fe
fe
f8
fa
f8
07
fe
a1
f3
06
03
05
f6
ff
f3
07
a3
ff
08
fe
00
03
06
00
fd
5b
01
09
fd
fb
07
fa
03
00
f5
f7
00
05
fc
01
0a
f2
fc
36
f5
08
03
fb
01
02
fd
05
a2
07
07
ff
ff
05
06
f9
07
52
12
04
02
04
fd
ff
08
06
e9
07
09
fd
f4
ff
ff
13
06
3d
05
03
04
07
05
01
ff
06
38
0c
f9
f8
07
01
f7
01
fa
b8
06
fc
08
ff
f9
02
ff
f5
65
f8
fd
fc
ff
ff
fc
ff
00
54
f5
03
fd
0b
fb
00
06
02
b8
fc
03
06
ff
fb
fd
02
08
a6
ec
00
f2
f1
fa
f5
03
fb
ee
05
f7
f7
0d
f7
fb
02
f6
96
f2
03
00
08
ef
02
0e
f6
94
f8
fd
02
07
03
06
07
04
1f
05
02
05
02
fb
03
0c
05
46
f6
08
04
fc
02
fe
01
05
a9
fd
fb
ff
00
f8
0a
f1
0a
1b
0c
04
ff
01
f9
0a
02
f8
3b
00
0f
ef
f2
04
fe
0c
00
c5
fc
04
0c
05
05
00
ff
08
9f
ff
f8
0a
01
f7
fb
05
fa
5f
fa
fd
fe
f6
02
f8
09
fb
c5
ff
03
02
fa
02
f9
fc
0e
1a
02
f7
fd
fd
08
ff
fc
06
2c
fe
f5
07
01
05
00
fc
ff
59
f3
04
fd
07
f7
f8
02
fc
9c
08
fe
02
08
13
fd
02
fc
0f
0b
fa
0b
06
fc
0a
f7
04
42
f6
01
03
09
fc
fe
03
0e
9a
03
fe
fa
00
05
fe
f3
00
56
0e
00
fd
08
fa
07
03
0f
f9
01
f9
f7
fc
01
ff
f4
06
d4
08
fb
fd
f7
fd
fc
06
0c
5f
fc
04
f6
00
01
fc
fd
f7
b5
03
03
05
02
06
02
0d
02
e5
f9
fe
00
fc
00
f7
01
07
f2
fb
05
06
f8
09
ff
f9
0d
62
f8
07
01
09
02
fa
fd
02
b1
ff
f4
fe
08
ff
02
04
05
ff
ee
07
ff
fc
f1
02
03
02
c2
f7
f1
01
fe
02
05
01
fd
59
05
04
f8
fc
fe
02
09
fc
b4
fb
03
f6
ef
00
01
01
08
27
f7
07
f7
00
f9
09
02
08
34
fd
05
fe
f9
e5
fc
0d
f9
ba
f0
fd
04
06
05
ff
03
03
e4
ff
02
05
fe
fc
fc
fd
04
f3
f9
f3
07
fb
07
05
0c
fd
cd
f9
ff
fa
f3
f0
06
fe
02
47
05
03
01
fe
01
fa
03
fe
ac
f7
09
01
f5
01
02
f2
fe
ee
f7
f4
03
fe
02
01
06
fe
ff
04
08
ff
fa
08
0b
f6
fc
7f
01
fd
04
02
fa
05
0a
f2
26
01
08
fb
fb
10
ff
01
f7
cd
00
06
0a
06
09
f8
11
fc
04
fb
fe
01
fc
05
f2
fe
ff
2f
05
fc
fb
fd
ef
ff
08
07
a2
04
ff
fc
ff
fa
ff
fc
09
3a
f6
00
01
fb
06
02
fe
09
dc
f3
f3
fb
01
f6
08
f6
0c
13
01
f8
07
00
fd
fd
fe
ff
43
09
0d
f6
fc
0b
fe
10
fd
0c
fd
fe
fc
f4
04
f7
f7
09
63
06
0d
0c
0a
f6
f7
0f
f9
60
f4
fe
12
07
fc
00
fd
f7
dd
f8
06
01
14
09
01
00
f8
68
f3
fc
03
fe
fe
f4
04
01
0f
07
06
02
fc
ff
00
f9
fd
a7
ff
f2
03
08
fb
fe
04
fc
5b
00
06
01
00
fa
ff
06
f9
cf
f8
fb
fd
02
fb
0e
00
ff
68
03
00
f3
f8
05
ff
05
00
24
01
fa
ff
fc
fe
fd
09
00
37
fb
fb
f4
ed
00
f2
fd
fb
3f
06
f1
08
05
03
fd
04
11
db
04
fe
07
05
fc
07
ff
f8
b9
07
ff
fc
06
06
fc
fa
ff
04
fc
fc
08
04
