f8
06
fc
07
16
fb
f8
01
02
0b
fd
02
01
d4
ff
fb
f6
fe
e9
f7
12
05
ed
fa
ff
02
f1
06
0d
fb
ff
78
08
fe
fe
02
fb
fa
ff
04
b5
05
fc
00
f7
07
f3
f8
02
ea
06
00
ff
fd
f3
0a
09
f7
15
01
00
fb
fe
fa
00
f7
04
51
f8
0a
fc
01
f7
fb
f9
f4
d6
05
0d
0b
ff
f4
00
10
f8
ba
05
f5
05
09
09
04
ff
f9
32
06
01
fd
04
fd
05
eb
04
9b
02
fd
0e
12
fa
08
fd
fa
2e
f6
05
0e
f8
07
07
03
f8
bc
00
fe
fa
01
fb
01
fc
02
97
01
08
fb
09
e8
f6
07
fb
e4
f4
03
01
f9
f6
06
08
00
16
03
fa
fc
ff
fd
04
f9
f5
f6
01
fe
06
09
ff
00
03
01
d7
00
07
ff
fa
01
03
00
fb
19
fc
04
02
fc
02
fe
0a
02
c7
04
fe
f6
04
fe
fb
ff
fe
b7
04
02
05
03
fb
04
0a
fe
2f
f2
01
08
fe
13
f5
f9
0b
52
13
fb
fa
fd
10
14
fa
0a
22
04
f1
fb
f9
08
f7
08
04
19
08
01
02
f8
f7
fe
0c
f2
5a
f0
0b
f5
fe
ff
0e
06
fa
d3
f5
f8
0b
04
f9
f8
06
01
69
ff
04
fe
fc
04
00
f7
ff
2b
f9
05
00
fc
02
12
07
02
2a
fe
f0
09
09
07
fc
06
01
e8
fd
09
fd
fb
f6
01
02
f6
ad
f6
01
ff
f6
08
08
fe
f9
b1
fe
fc
04
03
02
01
02
00
3a
00
fb
02
07
09
06
03
03
1a
03
03
fc
09
01
05
09
0a
b3
f3
f3
02
fd
f5
06
f5
f9
f1
fe
f6
fd
f0
07
f7
05
f7
9c
01
ff
fe
04
f1
00
ff
ff
3e
0a
06
06
f8
f7
f9
03
09
d7
f6
f1
07
08
04
10
07
0c
a5
00
fe
06
0c
f7
fa
02
f7
43
04
f7
01
0e
f5
04
fd
03
c9
fa
0e
02
f8
0f
fb
05
0c
38
01
fc
01
f5
06
05
02
fd
1a
0a
01
07
ff
f9
01
00
fb
62
09
08
08
fc
0b
0b
f9
02
36
03
fc
fc
ed
0c
fe
03
02
23
fb
07
08
00
f5
06
05
fe
27
f5
08
02
05
0a
05
01
03
c5
f1
fa
02
02
01
f4
fe
f7
30
fe
f6
08
ff
fc
0e
fc
fc
55
06
05
04
fd
fa
0d
04
0a
5b
03
02
0e
02
0a
fe
0b
10
fc
04
05
04
09
00
0a
04
02
67
fe
fc
00
05
fc
fe
04
02
1e
03
05
0b
fb
05
00
02
03
9b
f3
fb
01
08
08
ff
01
09
2d
09
f8
ff
06
09
f5
00
ff
fb
03
07
fd
01
04
03
00
01
63
fd
fa
fa
f7
fb
fd
07
04
f4
00
fa
fc
ff
01
f9
fa
f9
c5
f6
07
f7
f4
07
01
fc
02
38
ff
fe
f8
f6
07
f7
fc
f9
02
fb
05
f9
f3
f8
f9
04
03
e7
02
fe
06
ff
07
02
05
f6
c7
ed
fc
f9
04
04
fd
00
fe
ac
f8
06
01
01
06
09
ff
ff
c0
01
fd
fd
05
f1
fb
fa
07
35
ff
fa
0a
02
02
ff
fc
02
4b
fc
04
08
0a
0a
fe
fc
fc
cb
06
f7
f7
01
06
03
f1
09
9e
04
f8
08
fd
03
02
04
05
ca
06
0b
02
fb
01
00
00
f9
89
03
fb
01
05
0a
00
01
04
37
fa
fe
f0
fe
09
fd
01
0a
5f
02
fb
f6
02
06
ff
07
00
c8
fe
06
09
fb
03
fa
fd
ff
25
09
ff
08
02
04
fa
f7
f3
f2
fa
fd
f5
04
fb
fa
fd
fd
15
ff
0a
02
02
fd
fc
fe
fd
6e
ff
04
fe
01
fd
fa
06
02
23
fd
04
09
fd
02
ef
fb
00
26
03
f9
fe
fc
02
00
f4
04
db
01
f9
fd
ff
02
03
07
0a
4f
07
fe
fa
ff
07
05
09
11
6e
0a
fa
fb
07
fb
fb
03
fd
6c
f2
03
08
04
02
01
05
05
8e
0f
fe
02
fe
01
ff
03
fa
d6
fa
03
03
00
05
09
f5
0e
0a
0d
fd
08
ff
02
f9
fd
09
97
04
fd
fe
00
fa
fe
06
03
9a
fc
fc
fe
03
08
10
fc
fe
9b
08
01
0a
06
ff
fa
02
fa
63
f9
03
fb
f3
fa
ff
01
04
1c
02
fc
fe
02
05
f7
04
03
0b
09
02
f8
06
f5
01
ff
f4
3f
f1
02
f6
fd
0b
07
fd
0a
6b
0b
f2
01
0b
fa
fb
fa
01
59
fd
f6
00
00
08
fc
07
fe
0b
08
04
f4
01
06
08
05
fc
e5
04
0d
fa
01
04
ec
f6
04
42
03
ff
05
fa
0c
08
07
f5
ae
0e
fa
02
f9
11
04
01
08
1f
05
01
06
08
08
07
ef
fb
19
f8
07
06
fb
f9
f0
03
08
de
00
f6
0c
f8
06
07
07
00
52
01
ff
08
ef
f9
02
fa
0b
5c
fd
05
fb
fc
f8
f0
f7
01
9a
00
09
f9
0e
04
f6
fd
fa
53
01
f3
09
0a
02
fa
f0
07
2f
03
fe
03
01
f7
fc
ef
01
20
fe
01
fa
fc
06
f7
f5
01
08
ff
fa
00
02
02
ff
00
fe
29
f7
00
fb
0c
f5
02
0e
02
fa
0c
07
f0
01
fc
f9
f8
f7
24
fc
01
0b
0e
06
03
fe
08
98
f2
0b
04
f7
ff
09
01
02
0c
02
08
fc
f6
01
ff
02
01
00
01
0c
fc
ff
ff
fe
06
f9
96
fe
03
05
f9
02
08
00
11
5e
fc
fe
03
fb
01
01
f5
03
48
f9
03
01
03
f0
f8
fa
f7
24
03
f6
ef
03
fe
03
fc
03
b6
01
fd
07
04
fe
f4
02
0d
b1
f9
fc
fd
fa
fa
f3
fd
f1
c7
fe
fe
fe
07
fc
fa
01
0d
f3
01
f8
fb
04
08
fe
07
03
60
ff
01
f5
f5
fb
fb
fe
ff
e3
09
ff
10
f6
0d
fb
07
f4
03
e1
fd
f6
04
0a
fb
fe
01
54
ff
08
fd
05
fe
02
f8
f2
e0
06
02
0a
07
f9
f8
fa
01
17
08
01
0d
f8
fb
0b
ff
03
0a
01
02
07
00
0c
f8
f9
01
a9
fc
fb
fa
05
07
05
f4
f3
c9
f7
f0
f8
f9
fb
05
02
ff
76
f8
0a
08
03
01
0b
06
f8
ae
fe
00
f8
09
09
01
fd
03
3f
f7
0c
ef
06
0d
05
07
06
0d
07
0f
fa
04
00
00
11
00
c9
01
07
09
fa
06
02
f7
07
97
03
00
fe
fc
fe
ff
04
00
4b
f7
0d
f6
01
01
04
00
00
c1
00
0e
fd
0a
ff
0a
13
fc
cb
fb
f9
fb
f7
01
07
04
01
c9
00
fe
01
ff
fe
f8
ff
03
bd
0c
06
0a
fb
fe
00
02
fa
c3
00
04
04
f8
fc
02
02
01
59
f9
09
f9
06
03
fa
fa
0b
6b
fc
09
02
06
08
fa
03
00
d6
fc
03
09
01
fb
01
f4
fc
ac
0e
04
0f
01
01
04
04
f9
34
fd
01
fd
0e
03
fd
01
02
2a
00
ed
0c
f6
00
fd
03
03
ac
06
08
09
fe
09
f7
fb
0d
14
f9
f9
fe
ff
fb
05
08
fe
25
ff
ff
f3
08
fb
0d
fd
fe
1e
01
0a
00
f9
07
fa
fb
06
22
05
01
00
02
0d
02
10
04
c9
0a
fb
00
0c
f7
f8
00
f5
13
f7
0d
0a
0a
00
04
03
fe
f2
0a
fb
04
f9
f5
fa
f6
07
de
02
00
02
ff
fb
08
07
01
da
08
ff
00
fc
0d
ff
00
09
0c
fc
01
0a
fc
00
05
f1
00
48
f6
f9
f4
fd
fe
fa
03
0c
65
06
fe
00
00
00
0b
06
07
41
0e
f8
f9
fc
00
fe
09
08
42
05
ff
fe
f6
f6
f7
fc
fa
e1
fe
02
0b
fa
0c
09
0b
02
37
06
fd
f8
f9
00
fc
02
f4
62
01
f9
f5
0b
0c
f7
f6
fb
ab
f8
fc
fd
01
fe
02
fb
04
d4
00
f1
fa
00
f9
03
0b
fc
90
00
f4
ff
01
02
03
03
f9
8d
fc
f7
0a
ff
06
0d
03
15
27
08
fb
f6
07
fc
f5
fe
fc
9f
04
f8
fd
07
02
05
fb
02
b3
ff
f7
fe
07
00
e5
ff
03
d7
fe
05
09
06
0a
00
04
fe
34
fc
fb
01
07
fa
fa
fa
f7
8b
06
0c
fa
f5
09
02
f2
02
9f
02
02
06
fc
f1
fc
fe
07
9f
00
0d
ff
fd
f0
12
f8
f4
33
09
03
05
06
ff
f8
fe
04
16
fe
f2
02
01
fd
f8
05
08
b8
08
00
01
f9
fc
03
fd
f7
2e
ff
02
07
0d
f5
03
05
f7
4a
fa
fb
01
f5
01
f7
08
01
4c
01
fe
f6
fd
04
fc
ff
ed
10
fe
05
0c
07
fc
f3
08
05
a1
07
fb
fe
fb
ff
fc
f9
03
08
0a
f7
04
ff
f9
fa
05
fe
e9
05
04
07
00
fa
f5
09
ff
5c
fe
f5
f8
f9
f9
03
f8
f3
1c
00
f4
05
02
06
fc
f9
f3
39
08
f6
07
05
f5
01
00
05
c0
ff
03
0a
f8
05
0a
02
04
69
fc
fd
03
fc
03
06
0c
06
a9
fb
0e
04
f9
f7
0e
0c
f8
24
fd
04
ff
01
f7
07
fa
ff
39
0d
f7
fd
fd
f7
fd
17
0d
ad
f9
0e
fd
01
f5
f7
09
fe
ba
f7
14
05
0d
fc
fb
00
04
31
06
ff
f8
02
fa
04
03
02
b7
f9
0a
04
07
f7
03
03
03
c1
00
f4
0a
0a
f4
01
06
05
c6
fe
08
ff
01
04
08
0e
0c
0f
fd
fd
02
f6
f2
fe
06
fa
31
03
fa
05
04
03
fe
fe
08
50
0a
ff
01
fc
04
08
01
f8
50
f2
05
00
ff
fe
02
03
ff
0d
f6
0b
f4
0c
0a
03
fd
ee
25
f6
00
fa
01
07
05
f7
01
f2
0c
f1
f6
ff
02
07
f0
00
a1
09
f5
f6
f8
fd
01
02
11
0b
0b
ff
f2
04
00
fa
ff
f5
26
fa
0c
14
10
06
01
08
fd
14
04
09
06
06
fe
f5
05
f8
b8
00
f0
fb
0a
f8
fa
fc
f8
b2
fa
06
0d
02
fc
0d
09
06
cd
10
f0
fd
03
05
f7
f9
fb
33
ff
f2
f7
08
01
fc
07
fc
f6
05
f3
fc
f9
06
fa
f8
f5
40
07
0c
fb
06
ef
11
14
fd
03
03
ff
01
fa
06
fb
04
00
6b
08
05
f7
01
fd
06
04
fc
43
f0
f5
03
fd
f2
f9
05
f7
0c
03
02
05
fd
fe
06
fd
06
4c
03
fb
fb
fd
f8
0a
fe
07
17
fd
fa
f4
f2
f7
06
08
ff
58
fe
05
10
01
01
15
05
02
07
ff
fd
06
06
fb
09
fd
fa
f1
02
08
08
fa
fd
04
03
08
22
fe
03
03
03
00
fa
f4
0b
c5
f3
fe
0c
fb
06
08
01
fb
48
07
f7
0b
f9
fd
fc
09
00
2e
02
06
fe
12
f3
06
06
04
db
fe
ed
f9
f2
fc
fe
fe
00
50
07
ff
05
07
04
06
ff
f7
b6
00
f8
06
ff
03
fb
03
fa
ca
01
07
fc
fb
fc
f5
fb
01
5b
02
fe
fa
fd
04
0a
07
05
4a
fd
01
00
13
02
04
fe
03
57
05
fd
09
fd
0c
06
fe
00
d8
fb
f4
07
03
09
01
f1
f6
4c
08
09
f8
f2
08
14
01
09
26
09
f5
f6
fb
fa
f8
f9
03
53
13
0d
f6
fb
01
07
f5
02
01
f1
09
04
08
0d
06
05
08
0c
03
fd
12
09
fe
fb
0a
ef
b1
ff
04
f9
09
f9
06
fe
fd
0e
f7
f9
06
f1
13
09
02
fe
e8
01
fd
02
01
02
f7
01
fc
50
01
07
fa
ff
03
02
08
03
96
fd
04
02
03
04
ff
05
03
b2
00
0a
04
fd
11
08
f9
0a
fd
ea
f5
f8
0a
01
01
f8
fe
1a
fa
0e
03
fe
fb
06
fb
fd
b1
01
fc
01
fc
07
00
04
01
42
05
01
f9
ff
ff
fc
03
ff
05
fb
00
f9
05
0e
fa
fd
0d
26
fe
f9
03
02
02
f1
02
fa
c6
f7
f8
f9
fb
05
01
f3
f6
28
ef
02
05
0b
03
fe
08
0a
53
04
04
01
f9
01
00
03
f9
cc
00
f7
f7
00
f2
09
04
02
0d
0a
02
f5
04
fb
03
0b
02
4f
07
00
fe
fb
08
fe
f3
09
b3
fe
fb
f9
ff
09
07
03
09
16
01
05
ff
13
fe
ff
fc
fe
45
02
fe
fb
0d
f9
f0
09
00
d3
00
0a
0c
fc
01
05
ff
07
62
03
fd
fe
06
fc
04
0f
fd
10
07
09
f9
ff
06
08
f6
f8
47
00
ee
fa
06
fe
01
fd
fb
31
02
09
00
fa
ff
04
f7
fb
1f
fd
fc
02
01
01
f5
f8
f9
ba
ff
06
f7
fd
0b
fe
f6
00
47
ff
f9
0e
fe
fb
fe
fc
fa
c1
f7
06
01
f4
00
01
03
08
df
fe
ff
fe
fa
fe
09
fa
00
f0
00
f7
fe
fe
ff
0c
00
02
e8
f9
04
fe
fb
03
ff
07
0b
23
0c
fa
ff
fe
01
ff
ff
02
dc
fe
0b
0e
0a
fa
07
01
fb
3b
09
fc
fd
f5
fd
02
fb
01
b3
ff
f3
fc
f5
01
fb
fc
04
fe
01
0b
fe
01
f7
01
fc
09
2b
03
04
fc
06
06
01
09
fd
27
0b
02
03
fd
fe
ff
ff
fb
30
f9
02
f6
00
f7
05
03
02
fd
f3
fc
fc
03
0b
01
07
00
6c
fc
01
fc
04
fa
0b
00
0a
75
f9
0d
fa
02
03
f8
08
04
f7
ff
fd
ff
09
f7
05
00
fd
35
08
fe
ff
ff
f3
0c
00
06
24
0b
fe
02
ff
02
10
fd
0c
47
06
f2
07
fd
fe
f0
01
fd
bf
fa
fc
09
f9
00
fc
fd
04
a6
04
f8
10
fd
02
0a
07
fa
ca
fb
04
00
f9
fe
02
fa
fd
91
04
01
f2
fb
fd
fc
fd
fe
fd
01
04
07
03
08
f4
07
03
9d
03
fa
03
f3
00
f8
fc
f3
60
07
08
fb
fd
fc
06
f9
07
ac
f9
f7
04
04
05
04
04
00
c1
00
02
10
fa
fa
00
fc
fb
10
fb
02
03
f6
02
fe
03
fe
ca
fc
02
fe
0a
fc
0c
06
03
ac
fb
fe
fc
fc
02
03
09
fb
6c
f3
ff
ee
0c
f7
f8
00
fd
b7
06
01
fd
00
06
f6
fd
00
94
fd
05
09
02
fe
f8
fd
05
2f
03
fc
0b
03
00
03
03
f4
24
ff
04
ef
00
01
f8
fb
01
d4
03
06
08
fd
08
ff
ff
fd
be
08
fa
f3
04
01
fe
fe
fd
f4
fe
fc
f9
ff
ef
02
f7
08
bd
f6
fc
02
f7
04
fd
00
03
9d
02
f9
f7
fa
f0
09
fa
fa
ae
00
12
f5
04
0f
f6
1a
fc
de
f9
05
02
07
0b
0b
05
01
28
02
0b
05
02
ef
21
05
15
3f
fc
00
fb
f2
00
02
09
06
38
10
08
01
fa
0a
fa
16
ed
56
ff
fc
06
03
f0
08
e9
03
e1
10
06
ec
f6
0a
fa
fb
f2
fe
06
fe
07
01
0e
01
01
09
07
08
07
0d
0c
01
f3
01
fc
f1
fd
fc
03
f6
07
f1
f6
fb
a1
fd
fb
0f
fe
f3
fe
ea
04
a4
f1
f7
01
00
03
fc
09
f2
d9
05
05
08
f4
07
f5
fb
ee
cc
10
05
0a
04
00
fe
09
02
f5
03
f9
0a
ed
01
f7
f7
01
30
01
f9
fb
f1
01
03
f9
f8
f7
fe
07
f8
ea
f5
06
ff
05
dd
06
f7
fd
01
fd
f5
ff
ff
ef
05
00
f9
f8
0c
f1
fa
f5
35
f5
ff
10
05
04
f3
fa
f1
a0
fb
fe
03
0c
f6
08
0e
06
e9
eb
f9
00
fe
0a
fc
0f
08
cd
f6
ff
07
ff
0e
05
07
fc
9c
05
06
09
00
f9
04
ff
fa
9f
15
0f
f0
fe
f7
00
01
fd
77
05
fe
04
fb
0c
fd
01
f8
d7
fe
19
05
fc
fc
0a
f9
0a
2d
04
0c
02
0a
fa
fb
f8
08
dc
07
fa
05
f0
01
01
fc
01
64
f6
02
00
fd
fa
fb
f7
05
2e
00
07
0f
fe
02
03
08
01
a2
0d
f9
07
07
09
f2
00
01
08
05
fd
04
f1
f7
0b
ff
00
92
ff
0b
fc
fb
03
f8
f4
03
25
fd
ff
fd
04
0c
01
fe
fd
a1
f1
f5
00
16
ff
00
fd
ff
ec
f3
09
01
09
f6
0c
fc
ff
c1
f4
03
f8
fd
ff
00
04
f8
c4
f7
fe
0c
fe
03
f8
04
fc
20
04
fe
fd
06
02
09
fe
f7
da
fe
06
fb
fc
f6
ff
fd
03
5d
f9
f8
01
0b
04
01
0b
f6
36
01
f9
01
05
f8
04
fb
fe
c1
04
f1
02
f1
01
02
03
02
6c
f4
01
f3
09
01
f7
0d
01
e1
09
f9
fc
07
01
f9
06
0f
f7
06
01
08
0f
fc
05
04
f7
60
04
03
08
fd
05
fa
08
07
b4
0f
00
05
03
00
09
fe
03
b6
f5
01
04
ff
fb
03
fc
00
9d
fd
fd
f0
02
f8
fc
03
fd
40
07
f5
f7
fd
fd
f8
fa
f8
a4
fc
f6
fd
01
f6
02
fe
06
bf
00
f8
f9
00
fa
ff
f0
01
91
f5
00
f7
fb
04
f7
0f
00
ff
06
01
ff
f2
fb
03
04
f9
7f
04
09
ff
00
02
06
00
03
e5
ff
09
04
0b
fa
f9
02
03
be
06
01
ff
fc
10
fd
f5
02
66
03
09
06
06
01
02
00
0a
c2
ff
02
08
05
f1
01
03
04
1d
07
06
05
fd
0a
f9
fe
0c
3b
f4
fc
f2
fc
06
fd
fa
04
62
08
05
07
0b
08
fd
0e
00
f2
03
0b
fc
02
07
00
fc
f5
30
fd
0a
fe
fe
f9
11
05
05
c3
ff
fd
fa
fb
f9
0e
fd
07
49
f5
fb
f7
00
fe
11
03
f8
5a
08
02
f8
f5
01
f6
04
08
c3
13
f7
13
fc
fd
fe
fd
fa
f5
0c
ff
05
fc
f7
09
08
04
61
ff
ff
00
0e
00
02
06
fd
dc
0a
fb
ef
ff
f0
f9
00
01
b4
fe
01
00
f4
f3
00
fd
02
f2
03
f7
fb
fd
0c
fa
05
02
da
fc
fd
fc
02
fa
06
03
f7
aa
06
0e
fb
f7
f7
11
14
07
db
01
fa
fd
05
f9
10
01
fb
0e
00
0a
00
f6
02
f4
00
00
27
06
fd
06
01
00
07
00
02
22
fd
04
01
fc
07
fb
03
03
03
f5
fb
03
04
fb
03
ff
fc
ac
fe
fc
fa
12
f7
fc
05
03
2c
03
0e
fa
f5
ff
00
f5
06
6c
00
03
07
fc
06
f4
fe
f9
3a
ff
01
05
f9
07
02
fc
06
9e
08
fc
07
fa
09
f9
04
fb
33
09
0d
fb
ff
05
02
01
fe
d1
03
05
fc
0b
0a
0a
f1
fa
f7
fe
f7
fb
03
fd
06
f9
07
d6
01
0a
f4
f3
00
0f
fd
02
14
ff
0c
f6
01
02
00
00
07
96
05
fa
08
03
08
05
f4
fe
eb
fd
0d
f8
f6
fc
fc
06
fb
e4
ff
fc
0a
fc
07
ff
ff
07
1a
ff
fc
fc
02
f8
02
ff
f7
bf
07
0b
fb
f7
06
08
04
01
13
06
fc
fb
01
04
f3
fb
02
ac
05
05
01
00
f8
f2
fa
fe
aa
03
fe
fd
f9
f8
06
05
08
4e
05
fd
03
ff
fe
0a
ec
f6
e5
05
05
fd
fc
f8
07
fd
f8
e4
fd
00
fc
03
01
fa
01
03
96
07
03
f8
11
0a
02
fb
fc
d7
02
08
04
02
fc
0e
f7
00
b1
f4
f9
05
05
0f
fc
04
00
dd
ed
ff
22
03
fc
fa
0e
fe
1a
fd
ff
03
00
00
04
01
04
26
f8
07
0a
05
03
f9
fc
fe
d6
02
05
09
04
05
fd
09
0c
df
02
fd
00
0a
fb
06
01
fa
23
fb
f5
03
07
09
f8
09
09
b2
f8
fe
0c
ff
fd
f9
fb
01
6d
fb
03
04
fa
05
fb
f6
00
49
03
09
fb
f2
04
05
f6
0a
20
fb
fc
05
0d
06
00
f5
02
99
fa
00
f9
fd
ff
fd
01
0a
46
f4
03
ff
fb
ff
fa
ff
02
0a
ff
fd
fa
ff
08
02
0f
02
b8
06
fe
03
07
fc
06
05
fc
ec
07
00
f2
00
fc
f8
02
f7
33
07
07
03
00
07
fe
01
fa
ac
0b
f6
03
fc
01
05
fe
04
5c
03
fc
01
00
04
f4
10
0a
0a
f9
fc
06
02
01
f9
0a
f8
42
03
fd
03
f8
03
08
fd
ff
42
0f
09
fb
f8
04
01
fd
03
e5
0b
fd
10
09
fe
03
0d
fd
10
fa
00
00
00
f9
f0
05
01
2f
f8
0d
fd
01
03
09
fd
fc
09
fb
fc
14
03
00
0a
ff
01
d4
ff
f0
0c
fc
00
01
f8
02
37
fc
f7
01
fa
06
01
fe
00
38
f4
f6
f4
fc
fc
fa
fe
00
57
ff
03
0a
ee
05
04
07
05
16
fa
fd
06
f7
fe
fc
05
f8
3b
02
08
06
01
fa
f2
09
fc
95
04
ff
e9
00
ff
fe
04
00
56
0c
08
fa
0c
fa
03
06
fe
27
00
00
01
ff
03
ff
04
ff
1e
fa
fb
fa
ff
06
10
09
f7
56
fe
fd
01
01
03
06
05
fe
60
02
02
0e
fe
ff
01
f8
ff
2a
09
09
04
f1
fc
00
02
02
e5
07
04
0b
f9
fb
fd
01
09
d8
0b
fd
fa
fb
09
ff
0e
01
f7
ef
fa
f5
fd
07
03
03
fd
d0
07
01
f9
11
0b
f9
00
fb
41
f8
f0
f5
0d
03
0a
ec
fa
e8
ff
00
02
06
ff
01
fa
07
97
09
fa
f2
04
f3
fc
fc
ff
cd
0e
10
ff
03
07
04
ff
05
db
fd
00
0c
01
0d
fd
13
08
01
07
0e
01
ff
fc
fe
07
fa
ac
f5
fc
fe
0d
fe
0d
02
f3
c7
03
0b
06
07
05
02
fd
00
ae
02
09
03
ee
fe
04
ff
f6
b2
fd
03
00
0a
fd
00
01
07
50
fa
05
0c
00
0b
fa
ff
01
be
02
02
fb
0a
02
04
f8
ff
36
0c
05
06
00
fc
09
01
f7
4e
04
f4
f0
05
00
fa
fb
f8
ea
f9
0a
06
ff
02
ed
fe
fa
41
fe
05
ff
f9
fb
01
10
00
96
06
f9
02
f9
0d
04
f3
fe
c9
fd
00
f5
10
07
0a
07
02
43
f6
09
fd
01
01
fd
fe
fc
d5
f9
0b
f7
09
fe
fd
fe
0d
05
01
04
0a
f5
fb
05
07
fc
d8
fa
00
f4
fa
04
00
02
fc
21
f9
07
0f
f9
fa
fc
03
07
be
fe
f6
01
fa
09
ff
03
00
df
02
fd
f2
04
fd
02
fd
09
5c
ff
0c
12
07
0a
07
06
f8
c2
04
fe
f6
03
fc
0d
fb
03
9a
f4
08
04
ff
0a
f6
ff
fc
28
0c
04
03
0b
04
02
01
04
da
f9
09
03
fc
ff
08
fd
04
df
02
00
f7
01
00
f9
f1
fd
ff
02
fa
f9
04
0b
07
fb
f2
48
f8
f8
ff
fc
07
f1
fa
fa
8c
fc
fc
03
fe
ff
f1
04
03
9f
f8
f9
f7
01
fe
fa
fb
ff
55
09
ff
01
05
01
09
08
fc
55
02
05
02
00
09
0c
00
f7
31
00
0a
ff
f1
f8
ff
fc
f3
9e
09
ee
ff
02
f5
03
05
03
52
01
f9
08
f8
03
fe
07
0d
ee
fd
10
07
fb
fb
ff
f8
f9
4f
03
f1
08
f7
f7
f4
f8
05
b3
07
12
fe
05
00
0b
02
fd
ae
fa
fc
f3
06
fd
01
09
09
62
07
08
00
f9
03
06
ff
fd
b8
f5
00
03
01
02
fc
08
fd
c6
03
fe
fb
01
fa
08
03
07
00
09
f6
01
02
ff
fd
00
f9
40
ff
f8
0a
f7
06
06
fe
f4
1c
0e
f9
0e
f9
0e
fd
fd
04
e9
11
05
04
fd
01
02
03
03
d6
03
fb
02
f8
04
f7
0a
02
be
03
f0
00
fb
fa
02
ef
f9
59
07
ff
1a
e7
f7
fc
fd
fb
aa
00
ff
07
01
f8
f0
04
07
34
f9
06
fa
0f
fb
08
05
01
0b
05
f4
0e
04
00
ff
09
01
ca
fa
fc
fa
0e
fa
07
fe
ff
bf
fb
03
01
01
0c
fa
fd
0b
38
05
04
fb
06
f9
0a
03
00
66
f9
fe
0b
0c
00
fd
00
00
44
fd
08
fb
fc
ff
fa
06
f8
ff
f5
09
06
01
fa
04
05
09
1f
fe
01
01
fe
01
ff
f7
fd
0d
f5
fe
ee
f6
fe
0d
04
0d
06
f8
02
0a
02
07
05
f6
f0
07
fd
fa
00
01
04
09
0f
0c
d2
f9
03
fd
0b
06
fc
fb
03
af
02
07
fc
0e
02
f5
fb
fb
d2
ff
03
ee
05
f7
03
fb
0d
d7
fb
f7
fe
09
04
01
fe
01
54
0c
08
fd
02
ff
f3
04
f8
52
fa
f6
04
09
fe
fd
fc
08
6a
f8
0a
f4
13
f1
03
fe
fa
f3
f8
fa
06
00
04
01
07
01
a4
02
f8
f8
00
eb
03
fa
fc
9c
01
09
fe
f5
0a
04
08
ff
50
0f
f7
05
03
fe
fb
02
0e
58
04
0b
f7
fc
00
01
0a
0a
c5
ff
10
f8
02
04
00
0a
03
bc
ff
0d
fc
03
00
02
11
f6
97
01
00
fe
05
f6
06
fa
03
40
f4
02
f2
ff
f7
f7
fe
fe
14
04
ff
01
05
04
fe
fe
ff
aa
0b
09
fc
06
f8
04
00
00
13
01
01
08
fa
0d
ff
fb
f3
d2
02
04
03
fa
09
00
f2
f6
69
ff
02
06
fc
fb
f9
01
08
b8
ff
03
01
fe
f5
f4
fa
f5
cf
0c
03
fb
00
fb
f3
ff
0c
cb
03
fa
fc
02
01
05
05
f8
8f
f4
f5
fb
f6
fa
fd
fc
ff
d8
03
00
f8
fd
02
07
02
f8
47
00
ff
0a
05
02
06
06
06
21
0c
fe
04
fc
fb
f3
f6
fa
23
ff
ff
08
f9
ff
07
fb
fa
c7
04
03
0e
ff
04
02
07
05
fb
f8
00
fb
00
02
03
04
00
53
f6
01
09
09
f9
fd
f8
fb
cf
fa
f4
04
f9
00
01
05
f9
03
01
02
f6
fd
f5
02
01
fa
f2
03
fb
0d
fe
fa
fd
02
f8
b2
0a
09
03
f8
f8
fe
f9
04
2f
02
02
fc
ff
fc
04
f7
02
09
ff
fd
fd
06
fe
fc
fb
fe
ff
05
01
06
fb
02
00
12
03
fb
fd
01
fe
fb
fe
f9
08
09
5d
00
00
09
0a
f9
fa
01
ec
20
ee
f1
03
ff
fd
fa
f4
0f
e4
05
00
f8
fa
fd
fc
f8
08
c1
fe
ee
09
f4
08
f6
ff
04
b3
ff
06
06
00
f3
0d
fc
09
66
fd
fd
fb
fb
fb
04
f1
fb
22
0e
fc
03
06
f7
02
f9
fb
2b
f4
fb
fe
f6
ff
08
08
12
75
ff
01
01
fd
fd
fd
f9
ef
66
06
fc
fb
08
fe
0f
06
07
34
fc
01
ea
fb
01
07
0d
fd
b8
04
ff
fe
01
13
fa
17
f7
ab
01
0e
07
05
ff
fd
f6
0c
e4
01
05
03
fb
f4
0a
fe
f8
e0
fb
01
00
02
f9
04
00
09
00
fe
01
ff
ff
fa
0b
fe
fa
c9
f8
06
01
fa
fb
ff
08
fe
c3
f9
f4
0c
03
08
fa
f6
f9
01
09
fd
05
05
0c
f8
f7
08
e1
f9
f8
02
fc
04
0b
0b
08
26
07
01
06
03
02
03
05
0f
e0
0d
fe
01
fd
11
f2
01
ff
b3
fa
0a
03
02
fc
06
f5
0d
59
0f
fe
09
f9
f4
00
f8
fb
d9
fb
fd
00
06
02
01
03
fb
0f
02
f5
09
fc
00
02
02
07
3c
07
fd
01
f9
f4
fc
08
08
94
09
ee
fa
01
f4
08
0e
f2
2c
fd
f3
02
f9
00
06
06
01
34
ff
0a
fc
fc
0d
f6
08
fa
1e
04
fb
fe
03
01
00
0e
ff
d9
fc
f9
00
f2
07
04
f8
0c
ec
07
0f
09
0a
fc
04
04
03
26
ff
0a
f9
ff
07
f6
03
f4
b7
fb
02
07
ff
fa
12
f8
00
06
05
fd
fa
06
fe
01
05
02
c0
ef
f7
fc
08
00
ff
fd
07
96
04
03
f9
05
05
fa
05
fe
1a
fd
f7
fd
f9
fe
0a
ff
00
11
03
ff
f2
fa
f5
03
f4
03
d2
07
03
f4
14
01
06
01
fa
91
f9
0f
f8
f7
f6
f3
0c
02
07
fc
f5
f7
f5
02
00
fa
0a
23
07
09
fc
03
06
01
07
f9
0e
f7
ff
ff
f9
f8
fb
02
02
b9
f7
02
fe
04
fd
0f
02
01
e3
04
ff
fc
fd
08
03
00
03
b6
06
02
fb
04
ff
fc
f7
01
65
fa
0a
f8
fe
01
fe
f6
0a
d3
01
07
02
ff
0a
fa
03
ff
0d
f5
fe
05
f2
04
11
04
05
c4
01
fb
fd
02
f8
f8
f9
06
22
06
01
f4
02
f9
0d
fa
fb
2e
0d
06
04
05
ff
f0
fe
ef
30
f3
00
0e
05
fc
f9
09
02
5f
00
fb
03
02
01
f0
f6
fd
43
03
03
02
00
07
0c
f7
03
fa
0d
02
f6
07
02
09
00
fc
1d
00
00
fb
fd
00
05
03
ff
24
01
0b
fd
ff
fb
16
03
fb
be
05
fc
f7
fc
f7
fe
fd
02
f0
04
06
0a
fb
05
09
05
f6
1c
04
04
0b
f4
fd
fa
02
0f
07
fc
03
04
01
fd
00
05
fe
9a
fc
f8
05
ff
00
f6
00
02
ae
07
08
00
04
02
f8
0d
f3
03
01
f8
06
fe
f7
00
fe
ff
dc
05
05
f9
09
ff
02
fc
ff
45
f6
f9
ef
ff
07
f4
02
fa
bd
ff
05
fd
03
02
06
02
fa
16
03
03
03
ff
fa
06
fc
fc
68
05
01
ff
08
fa
01
00
fb
0a
08
0b
f8
03
fb
01
00
f6
17
05
f6
fb
0a
08
04
ff
06
e0
f8
07
05
fe
01
fc
fd
03
06
02
ff
02
f6
03
f9
f5
07
cd
ff
fe
04
fd
fc
04
03
f7
0d
00
01
fd
02
fc
fe
f9
04
2c
0d
03
fe
fd
03
00
04
08
d7
08
ff
03
f9
fc
04
04
03
0c
00
04
04
02
fe
f8
f9
fe
cd
fc
04
00
01
07
f8
fb
09
bc
f4
fd
05
fc
f4
0a
fb
00
2c
fc
03
07
06
02
00
ff
fd
e0
fb
00
fe
f9
02
07
04
f6
33
06
08
02
f8
fd
00
0c
ff
98
fa
f7
0a
f4
ed
fd
16
fd
16
f8
fc
fb
fc
00
f9
0d
03
36
04
f9
04
f9
fc
fa
fc
f5
b4
05
08
05
09
f4
fb
02
fc
09
06
02
00
05
fa
06
03
fd
af
01
ff
02
f8
05
f7
01
02
cc
03
04
ff
0b
f3
fe
00
08
2d
01
01
01
fd
fc
08
04
fc
93
03
fc
05
fa
06
f5
f5
01
dc
01
07
08
fb
f8
02
02
fb
d9
06
03
04
0b
04
09
f7
f8
08
0a
01
09
ff
fb
05
ff
fb
a4
05
fc
fd
fe
fe
02
04
fb
52
f9
0a
fa
04
fe
eb
f6
f7
f3
fd
02
08
0a
fb
fb
00
01
c2
03
02
06
f8
07
02
04
00
76
04
01
f8
07
07
01
02
10
ee
fd
05
00
04
f7
fc
09
fe
27
07
06
f6
fb
fc
08
fd
10
97
06
fc
fd
04
ff
f7
ff
01
f5
00
07
f6
01
01
f4
04
03
c3
fa
00
fe
00
00
fe
f8
06
04
fb
fe
00
f4
05
f1
fd
02
a5
07
00
ff
f5
fa
f7
03
01
b2
02
fc
0b
ff
f4
f5
fe
02
cf
fc
03
f6
f7
05
0e
0a
00
a3
00
00
f9
08
01
f7
01
fb
fa
0a
02
02
fb
05
02
f5
0a
07
00
02
f9
0f
f6
06
fb
fe
42
f4
05
00
03
04
f6
01
fe
9f
fa
fc
f8
01
01
fc
05
f4
d1
fe
f8
f4
02
ff
f8
fe
f7
1e
04
fd
02
03
01
f3
02
fe
a7
fa
0a
00
fc
03
02
00
05
32
0b
02
05
ff
fd
0b
02
fd
59
f9
04
0d
fd
fa
04
f7
00
07
fe
fa
f9
02
fa
fa
f9
f3
e6
09
fd
11
fd
02
02
fc
f9
f8
01
04
02
f3
fe
04
01
07
e5
07
fd
f6
f5
fc
fe
f1
01
25
fa
fc
0c
04
0a
fd
0b
fa
ad
fa
04
fc
fa
0e
f7
fd
02
47
11
04
10
0e
f5
02
03
f9
c7
fa
01
f9
f7
09
0b
04
fe
e8
0f
03
fa
04
fa
02
fe
04
2f
fa
f5
0d
fb
f8
f3
ed
04
e5
fb
f5
05
0a
02
09
07
ff
2c
fd
f7
fd
09
f3
ff
f8
0d
ef
01
06
f7
01
f9
08
08
00
c8
f4
00
fe
f7
02
07
11
08
ed
ff
08
04
f9
f4
09
00
05
13
ff
fc
00
fd
fa
05
04
fb
cb
f4
0b
f4
fc
0a
fc
02
fe
2c
f8
ff
07
f8
0d
0a
09
fe
b1
09
f6
0c
f8
fa
02
03
00
86
f6
0e
f7
05
f7
04
02
08
9c
fa
03
00
f4
0e
ff
08
f7
cf
fe
00
01
03
05
0a
06
fc
45
f8
04
09
fc
0a
fc
02
fe
00
03
00
ff
07
08
ff
f7
07
64
03
fd
04
fe
fd
0c
01
08
d2
05
02
fd
fe
fe
00
04
f8
d6
ff
fe
02
fd
00
05
05
fd
48
01
fa
0d
02
00
fb
f3
fb
b6
0f
01
0a
03
f7
05
06
0e
25
0a
f9
07
08
ff
f7
00
fa
de
09
04
00
02
05
00
fd
00
12
fe
f4
04
ff
09
07
fa
09
22
fb
fe
11
f9
ff
fa
fd
f6
fb
04
fd
f4
08
ff
05
05
f8
0d
fe
f2
06
fe
03
08
0c
05
18
fe
05
02
f9
00
f8
f6
fa
61
0a
fb
05
03
fd
03
ff
01
b0
04
00
fa
0c
00
ff
00
f9
68
03
f8
00
f5
06
07
0c
11
4f
03
f8
fe
f8
f7
f8
fb
07
48
fa
02
02
01
03
07
f7
ff
14
fc
02
05
f8
08
f4
00
f4
da
fe
03
05
ed
fe
02
f3
05
a7
ff
fa
fd
02
06
fc
fd
04
3e
f2
02
f9
05
05
f8
03
f7
93
01
fc
fa
0b
fc
0d
ff
02
ab
fa
03
08
fe
f5
fd
00
07
e9
f8
04
04
f6
fb
00
f4
0c
d9
fb
0b
f9
0f
02
07
f5
09
5d
05
03
f3
08
07
fc
0d
02
28
06
08
f5
fc
00
06
f3
08
25
fd
00
f4
02
05
03
fe
0a
c2
fa
08
fa
fb
fe
03
fa
0c
3d
fe
ff
f8
0b
f9
fb
08
f3
ce
fc
06
fd
0c
01
06
04
05
15
05
fa
f9
03
03
f8
04
ff
1a
07
fb
04
fa
09
0a
06
f3
e0
08
03
eb
fd
fa
03
fc
02
d7
fe
03
fe
09
08
06
f9
0a
df
ff
ff
0c
06
07
f5
03
ff
a1
01
04
03
06
0c
01
ed
f3
b1
ff
fd
02
06
00
01
01
fe
eb
01
f9
09
ff
06
01
0a
04
6b
fb
f6
fe
fa
04
01
fc
06
2c
07
04
fb
f7
fe
ff
f9
04
f6
fd
01
06
01
f8
ff
f6
0c
2a
f9
f7
01
f5
fb
03
01
fd
0b
01
08
f8
05
0c
fa
05
06
cb
03
05
02
0a
f4
f9
fc
0b
51
06
ff
04
0a
04
ff
05
00
da
05
fe
fc
f9
01
02
fd
ed
fd
01
fa
fc
f3
00
ff
05
03
c8
05
0d
fb
ff
11
f3
fd
09
9d
f8
00
0d
01
13
0d
04
06
25
0e
01
ff
ff
01
fc
f6
04
b4
fa
fb
0a
f7
ea
11
03
f2
d2
02
fa
01
fe
07
06
ff
fc
00
e9
00
00
ff
11
fc
06
06
ad
fd
ff
08
f6
fb
05
f7
fd
26
00
01
01
f6
fe
0b
fe
ff
29
00
07
fe
ff
01
fc
00
ff
28
fb
ff
08
02
f5
f7
03
fa
50
02
05
05
fb
00
f9
09
07
db
fd
00
01
06
f9
fe
02
0e
f6
ff
f5
fe
08
04
f4
f9
0e
91
02
03
fa
07
04
00
ff
fd
82
f7
04
08
fe
07
01
06
00
70
fc
f8
01
0a
fe
0e
fd
ff
26
06
fb
fa
02
0a
f8
05
02
27
07
00
0b
ff
fe
00
08
02
8f
fa
fe
04
04
03
f9
00
fa
08
fe
f8
07
02
02
0f
05
01
9c
f5
0b
ff
01
fa
f9
03
fd
30
fc
06
12
08
fa
00
08
fd
95
fa
ff
f3
03
fc
00
04
f9
12
00
00
ff
f6
fd
f8
01
fb
3b
0d
05
08
fc
f8
f8
fd
00
44
15
f6
f6
07
f5
f2
fa
0a
07
f1
fb
07
fb
06
f9
02
06
5f
fc
05
07
06
f5
fe
fd
04
23
0f
f9
f3
0d
ff
05
00
0c
27
0a
0e
0d
01
f1
ff
08
ff
35
fb
fa
fe
f4
05
fe
ff
00
ed
fd
09
08
f3
05
f9
fe
fa
94
ef
fc
fb
fd
08
05
00
03
da
06
0f
02
04
03
02
10
0a
bf
08
f6
fe
fb
01
fc
f4
fe
37
fe
f2
04
fe
05
fe
01
f4
16
f5
03
03
02
03
07
f3
04
2b
08
09
04
09
0a
ff
02
ff
5f
ff
ff
f4
f7
fc
fc
f7
fe
17
f7
09
fb
09
11
f7
fe
fe
27
03
fe
f9
0d
fd
05
fd
fe
b7
0c
01
04
0c
ff
fc
f2
fb
4b
f5
0e
00
00
0f
00
fc
f9
28
00
e2
fe
08
04
f8
06
04
25
03
06
05
fb
06
01
02
07
20
06
ef
fa
00
f9
09
f1
07
dc
01
0a
02
0f
03
f8
fd
06
d1
ff
f9
03
03
00
fb
00
f9
c5
ff
07
04
f6
01
ff
fc
f2
4e
00
06
02
ef
07
02
01
fa
b0
05
ef
ec
16
02
04
fe
fa
09
04
01
fe
fb
f9
fa
07
f8
5c
f5
f8
02
07
fb
f4
f9
ff
fa
03
fe
03
01
fa
01
02
04
94
07
fa
05
02
02
fe
ff
fa
62
03
0b
0b
f8
01
00
05
f9
e5
09
0e
fe
f7
fb
08
02
0b
3e
04
fd
0f
fa
01
f7
ff
05
ca
00
0b
01
0b
fe
ff
fe
06
b5
fa
04
02
fb
f0
08
0e
fd
f4
0e
05
09
07
f0
f8
fa
0a
70
0e
fc
05
f5
00
02
04
f8
e9
07
09
05
fc
f9
f2
0d
f0
54
07
fb
02
f7
02
f4
12
03
b6
fb
ff
ff
02
fe
01
f9
03
0c
fa
fd
01
04
f5
08
01
08
65
f0
fd
fd
ff
01
ff
fc
01
c9
f5
fb
08
08
ff
05
06
f8
e8
f4
02
ff
f4
01
01
f3
02
b3
00
04
fa
01
f9
0d
05
fc
22
08
07
05
02
fb
06
fc
fb
c3
04
02
fb
0a
fe
ff
01
07
ce
f9
f8
03
0b
08
06
f7
fb
b8
fe
06
03
fd
04
01
f9
06
98
00
02
ff
fa
00
08
05
f8
47
f7
fe
fb
fd
fe
03
fd
fb
14
07
03
04
f6
05
0b
00
02
93
fd
03
09
0b
fe
0b
fe
ff
4d
09
0a
f8
ff
03
ff
03
f7
f1
03
0a
03
01
05
f4
f1
09
63
00
fb
fd
f0
f6
0f
06
fb
99
f9
08
00
ef
f9
0c
fe
fd
d9
ff
fb
fb
0c
0b
0b
05
00
90
f9
f8
01
fd
fa
01
08
04
d2
04
00
ff
09
fe
03
f5
03
3b
f7
fc
fb
00
07
f7
05
04
29
09
01
05
09
02
f8
f9
f8
28
02
13
01
02
03
f8
00
fb
ae
03
04
06
fc
fb
f8
14
f3
a2
f7
fc
06
04
03
fc
fd
0b
36
fe
0a
01
0c
fe
0b
f5
ff
93
0a
00
01
00
02
fa
fe
03
a2
f7
02
ff
06
01
04
04
08
ec
fd
05
fe
f5
02
fd
07
00
ce
0c
03
0c
03
04
06
01
04
27
ea
02
fd
05
0a
f5
05
fc
30
fd
04
fd
02
f8
10
fb
02
aa
f5
fc
00
f4
fb
0a
01
01
46
f9
06
f9
05
f9
fd
f2
00
c2
09
03
f5
f7
05
01
03
06
b0
03
ff
ff
07
f8
f8
f3
01
39
f5
fa
ff
fe
01
0c
02
ff
3e
fd
08
04
00
fc
08
08
01
f4
02
fb
fd
03
f0
01
fd
10
62
f8
ff
f5
ff
ef
ff
03
07
51
0a
fd
f8
fa
0e
ff
02
fc
ae
fe
01
08
fb
04
fa
f9
08
6c
ff
f5
f7
f9
f8
0b
0a
0d
b5
02
ff
eb
f9
f6
07
f5
07
26
00
fc
fe
fb
fd
f6
fd
fa
68
00
0a
08
fb
04
03
fd
02
d7
ff
00
05
fb
00
ff
fe
fc
c0
01
05
05
06
0b
0f
f7
fa
54
f8
f9
f6
05
f7
05
0d
01
e4
03
ff
07
f9
02
01
fc
fd
29
05
fb
03
06
01
f2
0e
f6
d5
f6
01
01
01
ff
04
ef
08
ec
09
03
0c
f7
f8
fa
02
02
5c
00
04
03
f6
10
03
f4
f5
fe
09
02
08
f8
05
05
f5
04
31
ff
00
fb
01
fb
04
06
05
4a
03
ff
f1
f8
05
0b
01
fd
c5
01
00
02
f4
ff
04
f8
00
29
03
07
00
f8
01
06
04
04
db
05
04
fe
05
f8
ff
03
04
e8
fe
f1
0d
f8
0b
f7
f9
00
e7
fe
08
f4
01
02
04
02
0e
57
05
f2
02
08
05
0f
f4
f0
4a
f5
08
f8
03
01
07
0f
fc
e9
fa
02
02
fe
fb
00
f9
12
5a
05
02
04
fc
01
f8
04
ec
97
f6
fe
ee
fc
04
fa
07
ff
1f
07
06
fc
fa
06
f7
07
0f
8f
03
02
09
0d
03
0c
05
f4
37
fe
fb
fe
06
fd
04
f8
0b
8e
fc
00
04
f9
05
05
fa
01
d5
08
ff
03
f7
07
fa
05
01
d0
03
03
03
f4
f6
05
f1
05
57
05
f6
0b
fd
0f
07
fc
ff
db
08
f7
f5
01
06
fc
0e
02
eb
f9
f9
00
f8
01
06
01
ef
41
fc
00
fc
fd
02
00
00
01
ef
ff
06
0a
03
08
fd
01
fd
e4
fc
03
fb
08
f6
05
05
fa
18
06
01
03
f2
f2
fc
08
02
cc
09
ff
fc
00
07
02
fb
fb
ab
05
06
fb
07
0c
03
04
f8
06
f4
05
ff
09
10
0c
ea
07
26
03
fa
fc
09
0a
02
f7
f9
01
fc
fc
03
fb
fe
07
f5
fb
23
ff
02
02
03
06
00
06
04
d8
04
0f
f8
02
0a
03
04
f9
16
fe
02
04
fb
06
01
ff
fe
fe
f1
03
fd
00
f0
fb
fe
04
29
00
08
04
fc
03
f9
fd
f9
99
ef
fc
06
fe
fb
07
f8
02
f2
00
01
03
fc
fe
03
e5
fa
33
f9
07
f4
f7
03
06
fb
04
51
01
f3
01
f0
eb
f9
fd
ff
b4
fd
0b
03
06
07
07
00
01
32
01
02
0a
f9
05
fb
0e
0c
48
00
01
03
07
fa
09
fb
fd
34
07
f8
00
01
04
06
06
f8
b1
05
05
02
fc
ec
f6
03
fc
48
fd
07
0b
06
fa
ee
f8
04
1b
03
00
09
06
03
f5
09
02
b8
09
f8
07
f5
05
06
0a
05
ff
08
f2
f4
11
fa
f2
fc
ff
f9
01
02
09
12
f7
fd
0e
fa
f7
fa
fc
02
0c
fe
02
fd
fa
34
02
07
fb
0d
f9
06
06
00
77
06
04
15
ef
03
ff
ff
f7
95
ff
fe
03
fc
07
03
03
03
c6
ff
07
fc
ef
ff
f8
f5
04
ec
07
02
08
06
f9
10
fe
04
ba
fb
fd
09
f2
00
fb
00
f8
9f
01
00
03
06
07
00
fe
fc
e5
f6
0a
01
f3
02
02
08
fc
ec
02
05
fc
03
f0
f8
11
04
00
fd
00
fb
03
f6
0a
02
08
06
0e
fc
04
ff
06
f9
02
01
c6
00
fe
f8
01
08
00
04
09
ae
fe
f8
00
f8
00
f1
09
ef
cc
fd
02
04
02
fc
f5
05
f6
3e
f8
0a
fa
04
fc
0a
fa
01
10
f9
06
fa
eb
04
fa
03
f8
17
0b
04
f5
10
08
05
f8
06
35
04
ea
fa
f7
ff
0a
fc
00
fd
f1
07
f3
00
0e
0a
01
fc
ac
07
ff
fe
f7
f6
fd
f9
0a
d0
fb
f8
fd
00
00
02
06
0c
f5
f9
fa
fb
02
01
02
05
fa
52
02
fc
06
04
ff
02
05
fd
c8
02
04
f5
fb
f4
03
01
0d
2f
02
02
f8
0a
fb
f7
fb
00
30
ff
00
04
00
02
00
fc
fc
92
0d
fe
fd
f9
f8
01
fb
fb
dc
02
06
04
f1
01
ff
fb
f9
29
f5
f8
f7
07
0c
f1
01
f6
2f
02
0a
fc
07
fd
09
01
fa
0e
00
ef
ff
fa
fb
fe
f8
04
3d
fc
09
fd
f3
0c
fb
fd
03
b4
f5
00
05
0e
fb
fb
01
ff
63
f9
fa
0e
02
09
01
ff
00
ff
06
ff
fc
04
f3
03
fd
fc
a7
fb
ff
07
f7
07
f1
eb
f8
dc
0a
f5
04
fe
fa
02
01
08
aa
fc
fa
05
f4
f3
ff
fe
ff
44
0c
04
f6
03
00
f4
03
fb
a0
fa
f4
02
02
01
02
03
0b
d2
fd
ff
05
ff
fa
03
06
0a
5a
fb
fc
f5
fd
04
07
00
0c
ae
fe
07
ff
09
03
0d
ff
07
fc
fb
05
fd
fd
fc
05
07
01
ba
fa
09
03
fb
ff
01
eb
08
ff
03
fe
f6
f6
fc
f7
fc
fc
de
f3
02
f3
ff
00
f7
0c
11
ec
fa
ff
02
fa
12
11
02
f8
97
08
02
01
01
0d
fc
fa
f1
1f
f6
05
09
01
03
fc
09
0e
29
02
04
04
fe
fc
f6
07
ff
77
05
09
fd
fe
01
f4
fe
08
e8
fe
01
09
08
f6
07
0b
f6
65
f4
0d
ff
f0
10
f9
09
fc
ae
02
f5
00
04
fe
f7
00
ff
3c
04
09
02
00
09
00
fd
fc
3b
06
09
06
05
f7
fe
f4
ff
ce
03
f3
03
fc
03
07
fe
0a
50
fe
fc
fc
04
f5
03
00
0e
fd
03
0f
f0
f6
02
04
09
07
1d
02
04
02
07
04
fb
ff
0b
1f
03
fb
02
04
fb
0a
0c
03
d3
00
07
fc
04
f1
fc
f9
fd
63
fc
01
05
ff
01
fd
fd
07
ae
f5
03
09
fb
fa
07
fc
f9
f3
0a
fb
ff
f9
00
08
f8
02
f2
fd
fa
02
ff
08
04
06
fa
4f
f5
fe
02
02
03
01
05
1b
97
ff
07
f2
05
fb
f3
02
f8
29
fd
fe
10
f8
04
06
fd
06
b2
04
04
04
0d
05
0a
f3
ee
34
ff
07
0b
f1
f4
08
07
0b
d1
ff
fe
09
04
03
02
f8
f4
54
f9
f7
00
ff
fc
f1
06
06
3b
02
00
fb
ff
fa
f7
f8
0a
f7
fc
08
02
fe
fe
07
11
0a
db
ff
09
03
0a
03
07
f8
f9
98
00
04
fd
f7
05
f8
fe
01
26
f5
08
fb
04
03
f7
fa
ea
d0
04
f6
fe
fa
00
0b
05
02
1e
f5
03
0d
08
ff
ef
fc
01
04
02
fe
fc
fb
07
f5
fa
f9
3a
fd
fa
01
04
