00000000000587e2
fffffffffff86a38
ffffffffffec9030
fffffffffff0abfc
fffffffffffc8604
00000000001254a3
000000000002afb7
0000000000131ee8
0000000000111102
ffffffffffed3201
00000000001411a1
fffffffffff1c729
000000000003009f
ffffffffffec9030
ffffffffffef1773
fffffffffffd78bd
fffffffffff0abfc
0000000000020de6
000000000010c019
fffffffffffa2736
000000000004bd9d
fffffffffff90c09
fffffffffff49f54
000000000001bcfe
0000000000065227
0000000000050e85
000000000009f496
fffffffffff7f0dc
00000000000bda08
00000000000143a1
00000000000a9667
ffffffffffec16d3
