c7
24
69
46
eb
58
f9
2f
41
60
01
b7
da
e2
0d
99
e1
12
3a
e7
a3
e6
b3
37
0d
5f
ab
ca
20
de
ce
fa
3d
2d
8c
db
09
fc
ee
1b
9e
95
4a
5b
3b
c2
36
37
a6
c3
5c
bf
71
70
df
f8
2b
18
b5
a2
ac
6a
6b
5f
1a
4c
e7
4c
97
79
20
d0
f7
b7
2e
67
06
95
24
7e
12
27
35
04
6e
e4
47
bc
c0
6f
bd
79
16
96
f2
5b
1c
77
5a
8f
56
6e
99
42
4a
6f
2c
39
5f
41
e8
d4
0d
f9
25
e4
08
b0
4b
26
78
aa
02
cf
cf
8d
65
ca
4b
f6
84
b2
d0
88
09
c3
c5
06
a0
ca
9e
24
c7
4d
85
98
61
1b
f0
36
03
b1
27
df
9b
5b
7d
3b
cf
d4
9d
83
c5
52
b1
fb
1d
50
03
50
21
78
95
65
69
6e
f2
37
0a
99
08
cb
0e
48
53
ee
19
fc
32
a7
e2
08
28
5c
0f
d8
21
16
a3
ac
16
55
8a
da
0f
88
c0
59
42
19
f3
95
77
c2
07
d9
4c
41
b6
98
41
e4
8b
9c
56
60
39
2e
52
85
33
7e
7b
d9
47
8b
17
11
8b
7a
90
93
32
67
7c
a4
30
a6
15
d9
e4
c3
a9
5f
1c
d6
66
70
bf
f8
b8
10
5d
e5
55
90
68
3d
bc
67
cb
e2
fa
fb
89
25
ae
02
f8
1a
c7
cd
8b
d1
7a
b4
2f
dc
af
e2
84
2a
04
cd
b8
bd
e1
74
79
e4
a0
56
7a
eb
25
e4
4e
73
91
91
1a
c9
6d
66
21
30
cf
9e
6b
06
54
91
bb
41
8e
1f
6e
98
12
18
ae
4c
d9
e0
07
f5
5f
4a
98
11
61
0d
92
96
99
2e
28
6a
d5
f8
b5
66
1e
36
93
f7
c7
66
00
50
c9
6c
8b
e9
a4
2f
bc
7b
75
00
ec
38
4a
94
30
e2
b6
1e
45
04
7d
63
a1
36
4d
b5
10
1e
2e
c6
33
b6
b3
f8
3e
64
53
07
2a
b0
88
0c
45
fa
c5
61
fb
36
56
71
36
2a
53
66
a2
d2
b6
cc
ad
71
94
9d
1f
6a
85
22
aa
45
a3
1e
8d
12
01
3d
f8
8a
34
ab
12
4f
10
55
6a
64
09
ae
36
4b
64
3c
dc
62
72
a4
66
e6
92
4c
11
a1
6e
73
e9
d8
19
f8
cf
38
31
47
e6
b3
4b
e4
7e
8b
d7
be
a7
e8
b9
bd
af
3f
64
ee
52
1c
95
97
95
25
da
cd
8e
04
c9
b1
b7
9e
4e
a6
99
f6
16
e0
5e
79
5d
2c
5a
35
68
75
9c
b0
fd
3e
8d
5a
a6
9c
d5
ed
ac
cf
40
41
0e
89
79
bd
07
e2
e7
fa
0c
60
c4
b1
4e
41
51
6e
1e
c6
aa
28
1e
2a
de
e9
50
c2
3c
38
5f
84
7d
b6
51
51
0d
1d
6b
6c
d5
bb
db
b5
d7
c3
5a
b8
b3
2e
a4
c3
c8
89
b2
60
62
4d
fd
6b
74
bb
7e
54
fb
41
79
df
e0
f8
6a
54
35
58
18
79
07
92
44
fa
d5
21
a7
67
d5
aa
39
40
8d
01
56
15
6a
e2
cd
d1
73
70
49
3f
c5
f3
c0
f3
09
fc
db
86
b9
74
e5
f3
39
30
56
e4
78
03
3a
f3
d4
98
b0
2c
02
cf
ae
9a
e2
48
c7
86
c2
ee
c0
67
61
6e
45
d3
51
56
67
d6
c7
0c
35
4b
51
3f
7a
b1
fc
8c
2b
ec
5c
90
cf
44
86
71
2d
e5
57
a7
39
94
dc
54
a6
dc
19
4d
1c
22
f3
38
c9
a6
2c
4e
67
35
f5
07
7d
66
5e
74
10
46
fb
af
2a
75
db
8f
2e
f0
f7
57
43
d6
6d
67
9f
c0
9a
67
08
37
16
6d
38
0d
c8
91
6c
8d
f2
03
e8
60
a8
2d
cf
a9
ec
7a
e3
bb
e8
49
05
12
d0
86
ea
f1
ea
1a
ef
16
14
96
24
9c
33
3b
05
81
f8
f3
d2
b8
4b
2d
92
96
9c
e9
ad
46
09
8c
37
1f
89
dd
e2
81
12
ce
48
d9
18
e4
07
bd
c7
a7
be
ec
7e
fb
28
69
61
ce
0d
bc
1f
ef
e6
ab
90
f4
85
c1
f4
98
49
13
87
a8
a7
71
8b
8b
53
1d
4b
ef
e1
ae
18
db
97
bb
1f
5e
2d
cd
b0
3a
c8
c0
8b
2a
cf
fc
91
8c
e1
da
82
68
41
33
e0
f1
bb
ea
11
64
c5
d9
2f
9b
1f
67
f0
94
9f
08
ba
d7
33
7d
68
28
cd
11
0f
1a
2d
a5
15
ae
07
eb
ec
73
96
a4
e8
d2
e4
84
a0
b3
92
54
ad
b6
d7
fd
96
2f
2c
fa
ed
9d
38
fb
da
89
fc
00
da
f5
25
a9
41
88
96
01
49
ba
e2
a4
7c
10
b3
56
33
b1
21
08
a2
ba
93
5a
f2
50
bf
7b
3c
99
e4
4d
91
95
44
b1
6d
7a
59
cd
7a
c7
f5
b6
b3
3a
b8
63
fc
6c
b5
82
24
a4
b1
31
6f
71
b7
43
fb
9f
5d
9d
a8
ff
ba
a6
3a
2d
a6
ae
99
5f
1b
d6
9e
a0
f1
f1
10
ea
0a
0a
0f
14
b5
2c
1a
d8
39
4d
9d
62
89
53
ec
98
13
89
d7
d3
e2
b9
99
3d
af
8c
00
10
d5
f6
58
bb
57
0e
63
87
94
e1
17
b9
42
b1
19
83
3d
e2
1c
95
b6
b6
c4
99
c2
bc
9e
1d
e0
ca
10
33
fd
6b
93
1d
5d
4c
cd
b0
d5
4b
41
58
76
9f
f4
c0
aa
7a
3b
9c
77
a6
d5
1e
de
f1
91
71
68
52
c4
c8
2a
30
0c
8b
73
d3
2e
b2
2f
5b
0b
c3
f8
4b
46
32
03
68
e6
77
fe
2b
8d
70
af
38
61
c6
3a
78
37
e6
8c
00
6f
41
34
2e
a0
87
5a
cc
06
66
ca
c6
03
10
c4
2e
c9
a9
54
72
b3
0e
fe
f3
98
37
88
42
16
0b
fb
64
88
73
a3
20
20
9c
a8
58
cc
d3
2d
e2
41
06
95
a8
0d
3a
2d
27
00
11
cf
23
70
b6
75
8b
92
47
53
bb
8f
11
a8
4e
95
1d
ab
d3
26
a4
16
42
ec
af
b8
6a
9d
72
a3
5c
b3
6a
3f
31
55
ef
c8
2b
27
64
af
81
88
9e
db
56
8c
16
74
c3
76
4f
34
46
20
07
27
43
04
85
72
4c
1d
9f
79
eb
35
10
a1
22
79
65
0a
6e
4e
c5
e7
e9
7a
4c
11
d5
e0
d3
93
f8
49
57
d9
b5
77
cb
5c
ad
09
2c
b9
1f
76
92
5e
0e
e6
21
26
9d
e4
cb
e1
87
4c
eb
72
4d
f8
00
70
ed
7d
3d
a3
59
41
90
d1
9f
a0
67
a5
b0
c1
29
98
fd
bf
34
d5
a3
02
86
1d
5a
b7
df
b5
4e
35
ed
a3
42
75
ff
8b
4a
a9
72
43
99
b3
74
eb
21
7d
aa
c7
c1
bf
08
88
d2
85
d6
a9
cf
73
e7
c0
90
90
39
f6
eb
05
0a
96
3f
82
44
61
39
9d
1e
4d
3e
95
0e
cf
8c
30
b5
5b
d9
fb
da
29
c6
46
2d
81
a1
27
6f
68
f1
97
16
26
f8
1c
10
06
c4
df
f9
16
0a
ee
e5
f2
62
02
cd
3b
e5
59
0b
4c
aa
17
6e
75
5a
1a
4d
18
f9
d5
d1
d9
3a
25
ae
0e
94
0b
1e
a7
4f
f0
f5
e4
f0
6b
58
ec
c9
47
e4
a9
97
c4
21
c9
94
a0
01
50
44
15
4c
7e
ff
27
cc
33
fa
51
5e
85
06
26
71
0c
01
da
5b
43
95
fe
14
90
a6
43
2f
69
e4
c4
34
ed
c5
72
b9
fb
48
a1
5d
c6
01
58
e6
e2
72
e5
34
f4
63
aa
ce
8e
ef
8e
7b
b9
2e
df
8c
d7
c8
5e
b5
cf
98
70
ec
03
65
47
25
57
34
ff
31
87
cd
4c
df
74
fd
a2
2a
3e
21
7c
b1
df
0f
8c
28
b8
55
2b
d8
f1
0b
50
82
99
48
bb
15
b4
d3
17
bb
18
6a
56
f8
d2
84
6b
8e
42
af
69
a6
c8
84
c0
b1
c2
17
06
fa
2b
d1
56
0c
fb
b2
c7
25
2f
de
48
35
64
75
ea
11
8c
0d
79
dd
61
96
ad
98
ca
12
4f
40
04
d0
51
0c
e9
9c
d4
20
74
29
d7
ef
67
cb
45
b4
6f
67
f4
e6
a2
df
d0
7f
d6
fb
f4
8f
3a
13
8c
e2
8a
6b
cb
21
05
83
c6
6b
e0
47
0c
d8
6e
cf
b2
3c
20
d9
aa
d6
0f
03
e3
40
d2
30
f8
88
f3
da
23
3f
d8
5b
8a
cd
53
b4
36
de
25
1d
38
59
53
9f
4b
b7
db
63
46
1d
61
a8
61
30
91
c8
36
f9
0d
1b
88
6b
d4
5f
c8
ee
a9
d9
95
99
fa
3c
1c
1a
54
ae
2f
a9
2e
a4
97
a0
c0
8c
bd
d3
1f
bb
9c
e8
54
82
2b
d3
cb
15
5e
d9
d3
65
9d
68
97
2f
d1
e9
26
df
bd
40
d4
51
2e
8c
ed
60
23
b8
1b
b5
47
d1
88
ed
16
f0
67
98
7a
03
56
19
4e
73
f1
10
ac
d9
c6
13
5e
b6
b9
6a
32
60
07
95
2e
5c
20
41
18
4e
fb
ba
0d
cb
12
44
04
97
c0
c4
4b
ef
5b
30
be
3a
48
b0
d8
97
1f
61
48
44
10
ae
c6
28
03
b2
5a
66
4e
52
26
34
29
0d
35
95
73
c6
a0
f4
60
bf
9e
d8
7b
be
a1
1a
2d
6a
b8
29
2b
f1
cd
8e
56
2b
31
27
7c
e6
11
8e
10
00
9a
d0
d5
ce
25
fc
6e
54
ef
92
20
65
93
f6
c8
9d
91
39
96
52
72
4c
91
99
06
aa
2f
aa
ab
99
1b
cc
91
56
88
5d
c0
30
b0
30
2d
5a
21
4f
96
17
6b
24
89
00
68
6a
17
a3
77
c7
6f
f0
4f
a7
30
ae
d0
04
47
30
2e
cd
06
a1
00
73
7d
68
b5
d8
82
5c
de
53
db
64
db
ad
8e
bb
69
16
9c
c5
67
2a
fd
ac
81
d0
a8
bc
6f
ca
cc
67
ba
33
2a
99
f1
c7
08
da
44
8b
0c
0b
30
8d
0f
c0
15
ab
14
64
49
85
7a
c1
23
86
eb
c2
87
70
c7
dc
44
78
96
bb
34
2f
3f
3f
55
8d
62
d0
4a
31
2a
9b
93
94
c4
a9
b2
14
12
19
56
e1
07
74
47
5e
04
03
81
26
dd
b7
c8
6a
9f
e6
4d
05
14
c7
ef
71
f3
c2
76
20
4b
de
4c
2d
96
4a
60
8b
3f
98
de
e3
9b
52
a6
2d
04
88
43
9b
2e
a1
f1
c8
3f
36
b1
3c
14
7d
82
13
53
5c
af
71
00
99
5c
30
7e
11
4a
ca
8e
0c
7a
15
16
6a
d1
4a
66
e3
9a
9b
ee
d7
8c
2a
4a
43
84
59
58
40
52
40
1c
aa
62
91
23
3d
90
fe
b3
6d
47
f0
4c
17
a2
d1
87
48
4f
51
6e
b4
72
6c
a2
03
55
97
f3
3e
26
0d
3d
bd
87
cb
7e
d3
c3
ed
d0
d7
67
03
16
b4
0b
b4
48
88
91
b5
c0
47
de
4a
2f
cd
d2
db
5b
24
d4
f7
02
db
b8
4e
ad
07
aa
25
6a
ec
ab
11
ee
26
18
17
77
cc
db
8a
3d
3c
84
9c
85
45
dd
a8
9b
db
1e
22
c9
c7
b8
d9
f2
d6
0d
ac
81
8e
5f
61
1a
4d
b2
dc
52
9d
95
a4
a8
8a
1f
d9
73
87
7b
06
f6
ba
7c
90
8a
56
f9
8e
e2
bd
fc
b5
5d
6c
23
96
c5
48
cc
55
68
39
0e
5d
49
be
8a
98
28
b5
94
23
c6
38
c4
e8
ba
f3
2a
86
e1
db
cd
d4
c3
4e
44
28
6e
dc
b6
e6
61
e3
b2
ae
dc
d2
64
1a
86
9a
c1
0f
2a
4e
dd
57
cc
e8
fd
4f
ac
c6
10
35
a2
3e
98
d2
72
22
aa
7f
1e
8c
f0
cb
fd
89
02
af
31
ad
cc
95
bb
93
6a
a8
40
42
6d
ca
c1
71
94
c4
d1
1f
23
f3
1e
61
b1
22
47
ab
12
f0
ce
22
6d
42
19
1d
f0
98
03
32
fb
86
37
3b
4b
30
70
16
c4
49
9c
95
8d
4f
bf
1a
2c
8c
f5
bc
86
64
78
06
8f
a7
84
df
52
5e
77
73
34
8e
d8
a9
69
ce
df
d2
8a
4d
98
58
fa
fe
30
8a
56
b5
73
c8
4c
84
a5
b5
92
a5
d2
8e
c5
ae
ab
f2
ee
e8
6b
1d
bd
ab
f0
57
88
ec
91
ff
c8
c8
20
df
1d
42
c6
fc
a5
c6
1f
68
3d
56
d4
89
b9
c8
a2
e0
01
95
b0
34
03
87
46
e6
dc
f2
ac
32
af
90
57
0a
a5
7e
ef
15
ef
01
ae
bc
d8
d6
cc
19
ef
fe
fa
20
eb
51
18
6c
23
c9
a4
b0
e6
ad
22
89
53
39
ce
4e
fc
72
6d
ac
f9
2c
55
5f
cb
fc
0e
3e
7b
d3
cf
6c
4f
c4
f3
b2
2b
ec
3b
89
df
d6
1d
fd
f1
01
6b
0e
4d
f5
b3
8b
32
77
b2
ba
58
af
23
93
cb
d7
e6
0f
62
0a
a0
f9
3e
41
61
d4
72
37
52
27
cd
e1
b0
3b
aa
23
f4
39
75
6b
d5
bd
dc
e8
a4
52
06
f3
b0
3c
6c
a6
b4
67
00
41
b8
7b
2a
31
67
21
67
99
a3
03
c7
2a
d4
cc
33
17
4a
ba
46
aa
b2
94
1a
da
7b
ff
14
9b
7f
06
df
22
b0
09
ab
39
f7
7c
5d
b8
1a
b2
cb
ea
fd
6f
54
86
a3
e4
f9
39
2e
5e
d2
51
36
27
55
08
dd
ef
a7
05
96
33
d9
6a
b0
5c
96
6d
4a
6a
04
c0
fa
ab
69
ca
43
3d
a1
76
6c
f0
6b
57
03
19
b3
2f
a0
de
78
5d
6b
97
f8
39
b5
47
4e
40
0a
02
68
cf
b4
04
f1
db
2f
d6
aa
54
ad
3f
5d
fb
86
fc
d0
97
4f
f7
53
3a
be
b3
67
9d
45
9e
3c
3b
96
f4
ff
7d
ca
c2
86
3f
95
d9
3c
03
1c
1c
3e
b8
4e
48
94
61
95
c0
5f
f6
da
22
a7
f3
49
7a
0a
4e
fa
ed
3e
38
0d
08
2b
46
71
a9
09
09
95
99
f3
56
91
b3
f8
37
f6
56
fa
44
71
8b
c8
37
24
61
4b
86
62
cb
4d
3e
86
5b
91
e1
f1
73
78
57
3f
a3
62
41
73
aa
1d
fc
20
d1
41
76
52
ef
76
ad
9f
fa
4b
d4
0e
11
d7
f6
93
d1
45
92
c6
61
86
d0
9a
13
c2
23
32
2c
5f
cf
cb
7e
25
71
4c
9f
50
ed
73
a0
16
74
7b
77
0a
92
1c
9d
8c
0a
4e
3e
04
3d
46
01
71
19
bf
14
5f
90
8b
f1
29
2c
1a
56
16
44
b6
36
17
c0
7d
89
23
cb
57
4d
13
66
44
2e
fd
d9
8d
8d
dd
4f
3e
8d
d5
fb
05
b2
92
1f
4a
91
69
6f
9f
36
92
0b
98
71
42
ee
0f
36
99
e2
2d
d7
39
35
6c
1e
1e
17
11
07
fa
b8
57
5f
79
58
bb
27
31
a2
03
0a
1f
87
83
1c
cd
b9
3e
93
0e
13
c0
0f
f9
52
85
7c
18
60
08
44
4e
25
50
1b
a1
49
61
b7
0c
e1
8e
d6
ae
6a
14
41
55
d5
34
ef
ec
0f
2b
5b
75
bb
88
b9
7c
51
31
05
e9
02
6d
db
98
f3
4f
78
40
3c
e3
c6
91
c5
e2
13
c5
2b
02
a1
34
e6
3e
cd
98
dc
18
54
3b
1f
8a
62
b0
08
bd
7b
c0
0e
22
17
3b
77
56
a2
1f
18
c0
b9
28
bd
c2
78
4f
38
b8
fc
bf
be
fd
b7
fe
46
7e
41
b6
62
31
6d
7e
de
8d
55
af
26
18
c4
fc
d5
a7
1b
e0
0f
c8
ea
54
7c
7b
4a
ec
64
df
82
e1
ff
63
12
5b
72
69
4d
b8
2f
30
a5
75
cb
77
2f
03
43
ee
f5
6b
ed
23
b8
a6
39
d4
c1
2a
49
2e
2e
f7
27
fb
ee
bf
7b
3c
4a
5f
bf
04
e1
df
1f
2a
e7
91
45
fd
ac
b4
36
db
08
03
d9
66
d9
c0
43
62
90
a3
8d
d4
be
6c
c7
88
3a
dd
d3
df
84
64
ca
01
04
8f
b4
f3
c0
18
3f
2a
e7
d3
04
71
ad
51
ca
9f
72
dc
06
62
72
34
a8
d1
38
e8
bd
d9
e2
30
d9
63
d5
64
f0
f5
67
3e
e7
02
97
e1
92
cf
47
76
72
20
a1
2d
ab
5d
a9
52
c7
91
23
3f
2e
65
71
47
30
84
6e
c9
ca
d8
bf
6b
63
02
32
a2
1e
a7
9e
31
da
33
ff
d9
a8
9b
d5
8a
4c
2b
2a
d8
33
d3
4d
a5
d9
f8
ed
42
cd
b7
41
a3
e9
94
60
93
eb
de
73
bb
c5
b5
7b
f3
2d
8a
2b
bc
88
b7
b9
b9
02
f2
d6
1b
93
0d
ab
0e
0a
32
44
de
ed
f9
44
a7
f4
b3
83
1c
eb
77
59
5c
c6
72
9b
4d
3f
f3
de
90
b4
9a
fb
5a
5e
cb
27
f5
c7
38
06
7a
90
ea
49
51
27
c9
47
7f
70
13
69
c3
d1
67
29
2e
c9
2b
98
0f
21
e6
b2
b5
5f
bf
89
3a
54
28
16
df
b2
fe
65
63
88
de
9f
18
d6
91
e7
29
4e
a6
9d
19
74
67
0b
fd
99
23
bc
91
5f
c9
bf
a9
1f
64
7a
29
15
0e
0c
3b
87
8a
34
54
4e
47
1b
75
a8
ae
ae
77
b3
3f
87
c6
c5
88
30
8b
8a
34
eb
b8
b4
a8
55
1d
2f
3e
45
c1
ba
4d
c2
35
6f
07
7c
57
ce
40
4e
94
60
ae
50
97
59
57
53
13
ae
28
9f
05
52
ea
5a
6c
56
de
51
2f
b1
1a
98
aa
55
b0
51
3b
64
e2
02
b6
10
74
d8
5a
ae
cc
27
34
e7
e3
c3
2c
ca
8b
31
ca
4d
16
89
f0
eb
e3
3d
1f
50
3c
98
05
ad
77
a3
19
1a
70
00
d4
8d
ad
b8
9b
6d
e7
94
1a
38
1a
d9
37
e9
bf
b8
a9
4b
ca
9b
d9
30
ef
67
b5
0d
27
98
3c
ef
5b
2e
4a
3a
65
ad
c4
59
c5
eb
f8
fc
f0
0b
db
76
57
60
88
e4
37
4a
4d
b7
fa
8d
0e
d4
d4
b6
d5
7d
ce
6e
7b
2d
e4
d4
d9
8c
24
d1
38
70
1c
f0
96
fc
3e
26
c9
e4
19
89
f9
44
83
af
fd
ee
de
e2
04
76
cf
69
60
26
2f
98
b2
59
cf
70
41
e8
8a
d6
61
53
0d
c5
fe
f7
dd
f1
3b
5f
62
39
e8
43
b8
b7
af
87
f2
a6
82
46
1c
7b
a1
08
12
f3
4f
31
c2
85
6e
50
2f
98
0e
19
9c
9e
2e
52
b6
a7
40
de
62
2a
e1
b9
bf
be
0c
f2
3a
46
5a
70
a9
09
c6
f5
09
b6
5d
87
51
a7
e3
c4
a0
1f
64
cd
b5
1d
e4
d4
8b
f8
44
f5
40
0d
4e
7e
c1
42
8c
47
29
aa
94
f5
f5
30
eb
ab
6b
87
a3
4d
06
2d
a1
6f
f7
f1
96
05
60
ac
54
4d
04
26
42
a7
63
bd
49
8f
6f
e4
1a
4a
c4
aa
1c
56
4d
51
97
84
ee
e3
36
d5
a0
cd
50
19
93
f6
5e
bb
4d
da
27
06
16
ae
a5
2a
14
5e
2a
4b
c8
e2
8c
a6
87
3c
af
ce
93
a3
36
36
03
a0
4f
a3
2e
94
db
6b
c0
79
8c
6d
22
a2
6c
3d
3d
cf
15
bc
24
bf
16
10
18
48
9e
87
f0
0d
5d
e5
71
01
08
ff
fc
43
a5
58
59
59
7d
25
10
19
30
4b
3d
8c
5e
ef
62
8e
57
04
dd
62
03
ac
33
dd
26
37
ec
a3
de
d8
d6
39
cc
9c
4e
0f
56
bd
86
f6
79
9b
07
83
52
fc
59
2c
c6
92
e8
8d
46
ea
9b
3c
01
b7
0a
07
26
c7
65
7b
d2
e6
98
fa
70
51
9c
55
d7
ad
77
1d
28
14
fc
72
37
84
a8
4e
29
fb
e0
1b
2e
4a
e9
0a
f2
08
82
17
d2
dd
03
52
12
3a
90
24
c6
d1
68
71
91
23
6b
36
bb
ee
cd
8d
53
65
e2
21
58
42
08
0f
02
7c
68
a4
70
e9
26
0f
ed
0d
a5
c6
83
91
b6
f2
ee
49
89
f2
30
e8
84
29
99
cb
3c
d2
34
c8
90
ce
7d
2e
23
2d
39
18
eb
06
86
5d
82
04
8b
2b
f2
85
86
83
0c
f5
03
0f
88
c2
8d
36
ea
47
f3
ce
23
87
39
a3
66
ff
59
8d
b1
e4
77
8e
4e
e2
68
e9
8e
16
a9
28
9e
49
95
1c
5a
90
0e
47
29
04
03
a1
86
de
f6
de
fe
7d
d7
a1
c9
5d
b7
28
9f
3c
00
53
d8
5c
98
89
49
fc
61
2e
c6
42
ca
e5
1e
bb
5c
20
b6
a7
eb
cc
48
28
89
23
ff
b9
2c
c9
8c
81
2b
61
9e
9a
c7
93
52
00
eb
a4
a7
e5
00
7f
5e
9a
40
35
b5
77
41
c6
54
08
de
ed
53
a3
39
09
e6
e6
e3
6c
cf
c4
22
e4
41
51
9d
88
ea
51
d3
25
de
ef
99
4f
3f
f0
0b
a5
e5
71
9c
15
8f
2c
d3
c6
c2
fe
d1
d8
fc
1a
09
1e
52
9f
a1
dc
81
32
dd
1f
85
c8
ab
19
78
67
11
1d
27
69
2b
27
74
87
27
7e
d9
2e
91
1a
f2
3e
35
28
a5
45
8f
92
63
d2
5e
b5
02
46
1d
85
04
a9
53
04
9b
e1
73
1a
c8
c7
ea
70
56
67
e3
e0
8d
46
a8
35
85
10
4d
bf
c2
94
d8
49
62
d7
8a
9c
8e
4f
bc
20
26
ab
6f
77
fa
34
e8
2a
78
ff
ab
ac
94
53
d9
4c
f7
4e
1d
fe
23
4a
5f
44
70
0c
f6
74
70
cb
2a
9b
d8
e2
20
57
c7
cc
df
98
33
14
e1
21
74
92
ab
0b
bb
bf
2c
77
dc
31
14
c5
fb
1b
fa
13
fc
d1
f0
70
5c
f8
27
ee
28
f3
f8
3d
ea
4a
91
15
05
9f
2a
ae
b7
d6
03
60
7e
1f
4a
04
0e
65
d7
8a
bf
31
ad
e9
70
be
0e
dd
54
9b
cf
17
86
eb
d2
02
d2
22
a4
52
c0
33
87
a0
57
9a
4d
88
1e
e5
16
9b
6c
6e
12
16
83
dc
81
43
d7
17
ea
5d
3e
72
9b
b6
63
06
d7
94
95
b7
d5
a0
22
73
db
50
fd
77
e8
3c
5c
6b
e1
30
6b
4b
33
56
3a
44
0b
fe
04
79
9c
a6
03
ab
a2
39
e0
8f
50
45
d6
65
ce
8f
10
23
4c
a5
6f
dd
dd
74
cd
14
14
16
4b
59
4a
10
3e
a7
aa
a1
28
f1
72
26
f9
4c
37
09
ff
b8
86
44
f9
44
d6
23
d4
5f
96
d4
55
1d
db
55
e8
7f
90
b4
02
38
aa
77
43
b6
c0
55
88
5a
69
ce
58
f9
82
5f
db
da
c2
57
2d
1b
3e
5b
2b
08
d7
ef
53
e3
55
5f
a8
9c
b1
5e
f2
0f
ac
1c
be
bb
d3
f3
ae
38
fa
f8
67
e0
1a
cc
e2
5b
1c
95
75
b9
88
92
1c
8d
6a
e7
b5
28
f1
a7
bd
8f
71
a3
cd
71
f3
29
40
ea
04
4c
18
93
ab
d0
f6
e2
28
f5
0b
83
52
db
90
ec
ec
0f
f1
10
0c
ce
1c
f3
97
5b
bf
3d
f7
08
cb
2e
35
01
63
ae
3e
1d
04
87
70
af
af
19
6a
d5
3b
85
07
87
98
8b
07
b7
7c
c4
0a
1f
ca
b0
fb
d8
e1
e2
6a
8a
67
53
fa
3b
93
1f
40
17
ae
60
e0
02
3f
e1
d2
fa
68
6d
73
23
f8
0a
fa
b5
b3
25
6d
33
ce
df
c6
bf
df
a7
62
97
c8
87
b7
f1
76
23
a9
e5
4c
3f
e5
94
b2
67
e3
42
04
14
5f
c0
cc
f5
48
c8
d6
0d
7a
72
5f
9a
c3
2f
88
07
f3
94
ed
6b
8c
43
1f
b7
d3
51
d9
9b
07
72
53
fa
d5
d9
8f
eb
e4
b2
e9
e5
9e
96
db
13
14
f4
e8
aa
71
42
74
82
d3
e0
13
01
ce
1d
56
e0
92
a5
bb
12
0d
98
11
5a
e6
a4
87
d0
2d
db
b8
6e
4f
7e
c7
ad
c5
4e
1e
27
98
be
1e
27
3f
bc
af
ee
82
45
d1
d0
9d
1b
73
0d
c4
b8
09
ca
13
5e
cc
ba
d8
58
0b
16
72
c0
0c
87
49
03
3b
b8
a3
aa
d9
a8
a6
bf
79
ff
d0
a3
28
2f
89
4f
34
6c
52
69
75
4c
ee
42
a5
05
9e
8d
1b
b1
89
61
c3
b8
ca
10
76
b7
33
d6
ec
5d
93
5a
d3
96
8e
aa
56
6f
10
6c
1c
6b
2f
77
86
3b
e0
3a
c5
eb
8f
d3
48
c4
f2
77
61
11
b2
71
15
2b
d1
00
66
c7
e8
46
9a
a0
6c
99
ea
0b
49
11
a7
cc
ac
f1
28
b2
e3
d1
5a
e9
1c
a3
b1
d3
18
fb
91
44
58
b1
31
59
31
61
42
3b
1d
5f
db
f2
8a
f3
fa
74
ad
01
54
07
b2
aa
d5
03
d9
ec
21
89
b3
f1
39
72
6a
78
40
29
6b
56
b1
9a
a2
c6
17
a7
f5
92
07
be
fa
c0
fa
61
b3
f9
0b
82
1c
fc
99
04
be
c4
90
9c
ff
68
a4
41
ec
a6
bc
ac
df
fd
04
ba
93
d2
7d
8f
69
7a
76
5e
cf
c5
98
28
19
db
37
87
fc
59
c0
88
99
e0
dd
04
41
96
af
95
f3
2f
e9
f9
fa
12
ec
ce
1a
21
4c
b3
79
fd
a6
e7
26
0c
ee
f3
76
ae
02
ce
52
df
0b
5b
56
72
fb
d8
c1
3a
29
07
a2
e7
75
29
22
d3
48
51
88
e4
aa
51
ac
98
4f
83
bf
6e
9a
c6
45
6f
90
bc
12
6b
79
55
d8
df
c0
cb
df
7a
b5
a2
fc
23
c3
64
dd
7f
e4
05
22
0b
75
fa
de
86
69
77
85
4b
cf
00
ce
0c
57
32
98
72
08
d1
3b
c7
ec
39
ab
da
8c
df
d2
ce
54
29
64
d5
1a
3b
cf
0f
8d
21
9b
a1
45
1e
40
3a
a1
21
e1
66
fe
4e
1a
99
f0
d6
a3
f0
f3
e2
5b
59
0f
b6
8b
38
14
b9
d4
bf
88
13
f2
41
3c
f3
02
50
19
50
19
7e
04
40
d8
6a
e1
40
a3
00
b1
89
06
59
87
50
2e
f1
3c
32
ef
df
fa
59
8a
c9
38
54
c9
46
4d
d4
44
6f
f7
cb
5e
83
ee
7e
2c
ff
dc
fc
e1
71
e6
92
e5
19
95
be
9a
67
32
74
95
41
95
1f
1d
e3
35
0c
f9
19
46
79
77
d3
4f
1e
19
7d
27
c3
c2
1c
b4
2f
5d
23
7b
6c
41
7c
57
5d
cf
9c
ea
c7
6d
12
85
a0
8e
60
57
43
53
49
3c
79
47
d3
27
1d
49
15
00
a8
22
84
2d
fb
d9
cc
4b
cd
17
83
f3
38
0e
bf
b4
75
63
d1
29
11
9a
76
54
88
86
10
7c
75
24
3a
30
bb
c4
bf
b5
ec
25
82
7a
42
a8
e6
1d
fd
72
df
30
b8
d3
d6
4f
7c
82
c3
23
16
3e
ee
40
c8
e2
ba
c6
36
b8
08
15
1e
1a
db
77
02
72
f3
cd
f6
d7
73
e1
47
2b
c9
40
a2
5a
99
94
24
fb
f0
19
a1
63
7f
ef
c4
97
52
e8
cd
5d
99
c5
e6
d5
6e
f4
bb
c7
59
86
64
e8
e5
65
57
bb
a9
cd
a4
50
a2
b9
97
4d
7b
0d
d7
e6
f3
03
6b
0f
7a
0b
43
3c
81
c6
9a
02
3f
87
92
84
a0
51
c9
6f
ba
2b
54
f5
03
d0
b1
81
f1
d6
94
65
4a
7e
1a
54
15
a9
94
e2
7c
2d
bf
35
4f
fd
f6
97
67
c8
eb
3c
0a
57
ee
01
04
72
14
71
7b
b7
66
50
37
e8
a9
b7
cc
64
9e
f3
57
26
b2
79
5e
64
55
94
61
e9
dc
43
3f
95
c2
cf
35
c9
06
2d
1c
1e
04
42
0a
7c
52
23
0e
cb
8c
77
35
cf
a8
3f
bc
5b
bd
3e
74
fc
6b
fc
f6
8a
53
79
43
3c
d4
d4
f5
79
00
d9
da
4c
fe
ae
79
55
34
a3
ea
41
26
6a
12
43
e8
12
53
77
fa
ae
95
91
e1
26
40
dd
1f
c3
a9
be
12
68
25
07
13
df
4c
47
38
63
eb
81
3d
79
cb
f2
79
72
e8
64
46
53
83
c3
97
1c
2f
9f
47
a8
7c
cd
ea
16
ce
a3
ef
8b
1c
d9
3d
ad
18
8d
b9
83
c8
66
db
50
3e
13
f6
7c
54
ef
43
ed
24
87
1e
d6
ef
5f
8d
67
5a
7d
c9
04
64
df
35
aa
a6
35
8d
62
93
62
19
39
c2
b6
ad
28
00
44
a6
4f
0f
01
fd
0d
75
07
d6
5d
fd
a0
15
a7
a4
6b
b9
e5
c4
9b
6f
f5
88
a5
4e
d0
49
17
12
b5
e3
1e
53
73
15
ba
58
72
d8
f0
a3
f5
9f
2a
64
c7
3f
eb
10
6d
e9
da
b3
fa
0f
ef
9d
f7
31
2d
2c
c0
dc
df
a1
ec
5e
01
b5
79
d0
9e
df
69
39
89
aa
a9
73
a5
2a
28
9d
d0
6d
58
83
bd
da
ea
7b
37
e4
21
37
cc
7b
a7
da
92
a9
59
1a
ae
2a
e5
fd
cf
73
48
8f
9a
14
4a
ec
56
db
23
f8
73
35
dc
02
6f
e2
6c
d0
28
9d
f9
28
f9
92
b5
b1
20
30
6f
c5
77
03
75
76
81
fe
ba
3a
57
42
8d
89
c1
10
01
c0
7f
18
c2
c3
f5
fa
5a
7d
b7
40
08
cc
88
a6
f3
b0
c8
eb
00
18
4d
a8
00
45
e6
d0
81
b9
ca
88
41
40
0e
cd
20
d0
8b
a3
08
90
94
ba
67
3b
2b
07
67
5d
97
6a
1f
e7
87
2a
8e
c1
ef
c5
61
fc
de
d9
01
21
c3
10
44
af
72
ff
13
42
89
43
7b
9f
06
2a
b0
68
58
cd
7e
fe
58
fa
7c
9e
39
eb
6d
5d
0a
fc
9b
f3
d0
f4
98
4a
c7
3a
6a
34
db
56
54
d4
a3
46
ad
60
8f
d2
ba
8a
e2
fc
16
bb
50
ad
df
75
42
b8
ae
8b
6a
50
eb
77
3e
c1
6c
21
f9
c3
8d
c3
08
b9
63
fe
b9
ec
24
4d
85
52
bd
23
64
ad
33
c8
06
1d
0b
8a
78
1a
74
4b
d3
d2
e1
57
57
4f
5d
ba
0b
71
b6
b9
aa
62
d4
b1
88
b2
50
86
39
af
88
42
8a
b1
2d
ac
43
ac
74
95
be
98
eb
63
c1
47
dc
bf
51
50
bc
9a
b1
af
65
48
b2
ab
e8
81
df
ee
76
20
f8
99
fd
fd
a8
23
61
38
b7
82
d8
f1
a1
d6
96
71
a3
a9
b2
45
da
74
4c
54
37
42
a8
63
11
58
24
e3
4b
e6
18
d1
92
f2
ca
ec
c7
64
74
50
99
4a
b8
34
98
f3
27
2c
4d
09
1a
2c
71
e6
26
a5
19
4c
b0
ae
13
75
35
2f
9a
89
bf
d1
c1
e3
70
4b
68
d0
0c
6f
aa
f9
0f
f6
ad
1c
d0
86
7b
ae
73
3c
b6
0b
00
86
1b
2d
27
02
92
f2
e2
bc
24
0f
3a
fd
f0
41
cf
d2
58
7f
4b
6b
f4
85
59
19
e8
b8
aa
f9
e9
8f
f1
5c
0a
ec
25
4c
d2
42
8b
ff
b0
3d
87
d9
4f
c5
81
28
eb
ed
4b
d1
22
12
c0
99
eb
22
48
e4
ad
a5
53
c2
8c
e1
44
7e
a1
71
24
d2
78
f8
7c
5c
d8
c8
45
b2
fa
b2
54
27
c7
b6
58
5a
d0
98
7e
9a
b8
92
2c
48
59
03
86
61
84
60
6c
87
23
5b
04
69
03
4f
07
03
a2
7f
14
21
01
5b
40
03
47
d9
14
56
d6
e2
1a
23
6d
16
2f
1e
36
54
c6
0e
31
b5
c0
96
a7
6e
81
1c
5e
d8
fd
f7
5e
8b
9d
3c
ab
94
b3
58
96
2e
21
de
b0
44
f1
27
b0
46
c1
ff
95
c0
dd
f8
82
b7
01
a8
ab
c6
2b
e3
d2
20
76
41
3c
73
cd
3c
0e
4f
ac
2b
57
15
78
2f
5d
48
90
fc
e2
4d
62
43
3d
e1
77
86
21
f4
6b
4b
38
7a
bf
52
3a
d8
69
3e
1f
bf
2d
ce
fa
92
f3
16
9d
e0
de
f8
4b
05
4c
51
48
a7
41
4f
f8
ce
22
fc
cf
29
04
8f
31
ff
f4
6f
28
65
7a
b5
04
e4
ce
b7
c9
89
5e
13
ea
75
dc
43
34
1f
07
42
a0
f3
a5
5f
c5
14
0f
43
68
d5
5c
36
54
12
d7
ed
01
b7
f8
bb
45
82
0b
2c
22
d7
94
4c
69
42
c4
39
04
30
6a
98
69
8d
8f
29
3e
82
25
22
9a
82
34
cf
e2
e0
38
20
a4
e8
03
7e
92
4e
57
f9
6d
c3
59
a5
a9
74
9f
86
c8
be
21
51
89
2e
c9
77
b8
88
3e
c0
03
2a
6a
bb
6a
69
10
19
b2
e4
09
e9
8b
c3
b2
9d
12
b0
b7
5e
95
91
6e
75
e0
f5
f3
76
67
ea
26
d3
b0
9f
93
6f
0b
08
db
5e
37
6b
b1
a3
97
25
22
21
59
e8
17
91
6c
bf
57
00
6e
43
2e
a1
aa
d9
e8
52
9b
6a
b5
7e
9c
2c
54
58
5e
30
cd
b8
ea
f0
37
a0
3f
94
3c
eb
3e
6b
61
19
01
5b
ea
b5
76
dc
ca
b5
83
24
0d
8a
1c
8a
74
7f
7a
d0
86
81
e3
4a
f8
fd
84
cf
19
03
16
41
1f
06
cb
40
b4
f8
4b
ef
8a
2b
24
6b
7c
d9
7c
2d
a3
59
10
d1
13
4a
28
90
d4
8b
ee
d0
7c
16
ab
51
a2
7b
8b
4a
9d
4a
77
8e
c3
e4
53
f0
3b
02
72
f1
4d
bc
9f
8a
bb
f0
d5
07
58
cb
ab
e5
cf
18
8b
53
00
a4
1d
14
8b
49
2a
ef
cd
a8
84
19
db
49
c9
40
c3
56
13
e2
6f
4c
1d
86
6f
bd
f6
43
55
02
da
5f
86
32
c9
be
01
39
f6
56
fe
8f
ec
8b
34
81
a0
b1
b7
e6
30
e7
70
86
35
4b
9a
d3
e3
0d
8b
04
7d
89
68
ed
4a
f2
6a
1e
b7
50
20
72
15
0d
20
1a
83
60
b4
40
a3
34
13
2a
b7
20
88
fe
91
f9
6e
33
03
22
ee
36
54
77
97
d3
d6
da
38
f0
7d
3d
2c
a2
dc
70
35
6c
d5
18
28
73
77
55
8f
14
d5
d3
4a
f3
5a
4c
b8
93
fa
49
79
f1
f0
cf
8d
ab
6e
4c
21
2f
89
86
2c
a6
4d
6a
7c
1a
5a
bf
94
03
a3
c8
cd
aa
cb
f4
5c
c1
1a
bb
48
ea
55
e4
e6
53
c7
30
e6
29
11
17
7b
23
22
56
9b
16
a1
a3
e1
83
58
7e
5e
18
8f
99
70
e4
70
d6
a9
64
76
15
9b
52
1c
bb
6b
c8
ef
73
e1
f2
28
68
cc
6c
2e
2a
43
3d
c4
2a
f2
e5
13
ff
85
31
32
ae
50
ad
1f
2d
97
c1
c9
77
9c
d7
2a
b6
c0
ef
6d
d6
20
34
ce
ad
77
4c
f2
e4
57
4c
16
72
a1
c9
f8
3f
f4
46
77
69
a6
8c
3f
c8
12
95
bd
0b
aa
c4
e8
0e
ed
68
d3
38
ac
a1
27
16
08
ef
4e
eb
c4
bd
5c
30
e1
d2
b6
ac
22
ab
79
34
34
14
3e
63
b5
13
96
54
bd
d9
e3
99
2e
dd
92
de
c1
3d
06
4d
19
39
19
ac
26
bc
c3
f6
84
9b
70
67
9e
02
4f
1c
7e
be
de
a5
8e
0d
27
d0
2a
82
49
4e
e6
98
81
1f
13
05
9e
b0
68
07
72
c0
a3
b0
2f
07
db
ef
62
7e
d2
5a
1e
df
30
ba
8e
db
19
da
ca
b5
a3
0d
4a
33
33
38
74
db
13
56
54
b3
49
fd
cb
bb
a0
e6
90
49
5a
1b
a5
d1
f9
be
eb
63
21
5c
d9
03
55
5e
10
45
45
3c
48
94
05
c3
78
02
3e
38
69
60
e9
e7
a9
88
e8
f1
61
ad
37
00
ea
be
3f
a7
f9
08
c9
5c
2f
3d
f6
da
9b
00
56
44
b3
49
c5
e2
6d
28
cd
18
1e
95
a1
bd
1a
0c
37
72
59
5f
18
49
0e
60
3d
14
78
92
a5
34
9d
9d
7b
7c
bb
a0
67
fb
53
6c
df
2c
9e
03
fc
cc
5d
20
e4
00
5b
8e
a9
31
cd
6d
19
12
a2
21
ce
e0
03
82
cb
d4
a4
aa
76
ba
f1
58
2c
c4
1e
45
9c
b9
89
e7
07
38
62
c1
fc
01
ff
1e
c7
d0
0f
1c
72
fc
c9
ec
1a
d9
7c
5e
10
de
c2
95
82
81
04
42
63
e9
2f
ee
8f
bb
a9
08
cb
50
ca
f9
08
75
b3
6b
1e
4b
b4
d1
30
93
25
49
a4
61
6a
df
d0
04
2a
c0
4c
f0
17
48
98
35
1b
ba
29
32
01
52
af
51
b4
6a
52
6c
a8
b5
d3
aa
79
e8
16
01
34
04
cc
7b
7c
86
26
bc
8e
8d
8e
ab
a2
54
52
cb
b5
9b
36
98
fd
14
ac
2e
8d
7b
3c
2a
87
88
40
91
ec
ab
0c
53
ea
04
a8
ff
11
95
e4
39
7d
19
71
c9
78
af
cd
4e
1d
02
dc
06
e3
75
7d
57
46
30
51
36
30
b4
45
ca
75
a8
35
09
fb
27
5c
29
56
97
f1
bb
3b
82
f2
dd
a5
fa
fe
bb
23
dd
fa
3e
42
a3
47
e4
b1
3e
2e
38
b7
a6
97
e9
86
1d
c2
ac
a5
c0
3e
3c
65
01
ab
69
19
f6
dc
38
48
1e
5c
56
c4
8e
2c
13
52
65
e8
22
24
7e
03
03
27
19
eb
23
8e
df
7e
71
de
cf
7b
9c
e6
1f
e0
5f
2e
1d
2e
f6
92
d0
99
8f
cf
0d
fd
b7
7f
41
3f
d6
d4
2a
bc
ab
91
6b
64
ab
70
16
9f
93
27
58
d0
05
b5
01
7e
cc
96
6d
31
59
b2
c7
63
4c
06
de
ad
e5
d2
17
3d
03
ea
66
02
f9
76
06
cc
8c
31
73
c9
1c
0d
61
18
c1
f6
39
a0
61
95
ce
98
a1
10
ce
8f
9f
79
30
bd
8c
59
5c
e2
58
da
cc
6a
8a
91
0c
d8
c3
24
dc
e5
fc
a3
ee
b1
49
c2
56
37
b7
0a
af
40
67
30
21
22
26
27
1a
f1
f2
f8
ab
99
f5
b2
9a
67
09
a4
8f
7e
3b
36
e5
eb
fe
d4
11
c8
d2
6b
cb
83
b8
d0
93
78
40
6f
ce
a0
c9
c7
d4
f8
14
b0
16
66
d6
53
78
c5
91
3c
fe
86
5d
a6
d1
66
1a
d6
4b
07
5d
32
c0
70
bd
1d
fa
f0
63
76
13
ad
90
eb
1b
5c
23
48
17
60
af
4a
7d
3f
a2
ba
26
c3
ff
69
1b
b0
fd
e1
58
27
13
bb
dd
69
36
94
c9
a3
09
bb
9d
60
9f
9f
a9
95
f4
95
79
47
64
f4
48
87
ca
f8
b6
0f
92
2a
0e
55
c2
e2
e5
d7
32
b2
b4
fe
5d
25
52
fc
11
f7
df
76
f5
f2
91
e5
e4
e1
89
a1
c0
1f
f9
d8
8c
ef
fc
82
9c
b7
13
59
cb
85
a9
83
11
82
97
8f
b6
54
c2
65
7d
b2
e9
9f
0d
3b
65
70
21
21
5f
dc
43
1d
00
8b
61
e6
60
b1
d7
8a
bb
58
45
0a
ad
42
39
24
0c
ca
6d
c5
ea
c1
44
3b
45
56
10
9b
12
e3
3b
f9
68
04
c7
c5
7a
ba
1f
95
ce
9c
9f
ad
7b
51
39
28
1b
9a
df
3d
f5
ba
c0
e4
8f
30
1b
01
57
55
4d
4f
2c
dd
04
b3
36
97
31
b8
69
4c
6e
9f
c6
1e
03
30
5e
95
7f
c9
43
fe
0e
7c
08
dd
db
66
a6
06
c5
ed
ed
1b
bc
b8
6e
da
02
a1
8b
c3
f2
ac
d4
da
28
5b
45
7a
e6
36
1c
61
69
40
2d
ac
d1
b5
3d
16
18
3f
68
dd
3f
8a
11
8f
35
c5
07
95
18
78
a2
c0
0c
09
27
0d
ba
e2
d8
67
75
95
e6
90
c2
0a
ce
d9
21
20
10
38
ec
87
30
f9
ad
b1
d7
cf
dc
e3
bd
a8
70
14
5c
7b
ae
f3
b2
c9
e2
f8
09
c9
58
2b
78
a9
87
b9
43
c2
3d
a9
07
48
7e
bf
4c
24
fe
8d
21
ee
77
37
9d
bd
a3
a7
6f
9d
1e
25
94
c7
62
7b
04
8a
24
bd
10
8d
db
98
5c
ab
ce
3d
ee
7d
60
5a
30
6a
68
3e
7a
28
01
73
78
8f
4d
a1
93
36
d1
fc
9d
d7
0a
4a
bf
61
2d
0c
a4
24
f0
0a
2b
c7
39
fb
54
a1
48
cd
b2
23
96
94
2e
e4
a5
86
c8
8e
56
37
d3
67
24
a0
7d
45
a8
94
df
53
00
66
b4
3b
43
52
12
72
af
7a
07
83
8b
c0
8a
66
cc
05
34
1c
dd
69
71
b7
85
4e
83
9f
c3
a5
24
d3
c7
d9
3f
86
62
bf
64
f8
f1
0a
1d
4e
51
e4
e9
c0
be
c3
11
06
bb
55
91
49
4e
2f
dd
c6
3c
b8
f1
fb
f8
c7
9a
6e
4e
18
32
88
61
90
a0
aa
6a
c9
c6
0b
e6
54
0a
aa
e6
fc
2f
56
47
41
87
50
00
ff
2d
8f
56
bb
3c
c2
2a
a3
92
4a
df
90
68
8b
95
5b
5b
6b
87
4a
79
3a
ec
a1
a7
7a
cd
49
15
5e
8d
85
03
10
24
c1
94
74
98
60
8b
48
a1
f8
d6
60
dd
1b
f8
1e
fe
6f
2b
69
f8
fd
95
08
ae
86
ad
3a
da
db
6f
01
a4
41
d6
3c
b9
e0
7e
4c
d2
e6
97
fa
d7
bc
b5
6a
a3
9e
8e
15
6d
1d
c8
e9
d2
7a
ee
ea
bf
bb
58
6a
bd
46
28
ad
de
32
da
4e
41
41
c6
db
24
e9
0d
a7
65
1d
d6
9b
24
f3
63
e1
7c
9a
64
24
76
cc
2e
23
9c
b9
ed
68
06
7a
c7
90
69
cd
d8
79
a2
15
5e
57
53
04
14
05
36
2a
47
a6
42
75
5f
66
7d
fa
1e
22
de
8f
22
cd
a9
7a
2e
1c
66
f0
4d
f2
41
f0
da
6a
d7
4e
0c
47
dc
c1
4b
47
51
05
9e
87
9b
64
0d
0e
a0
5d
0e
a1
0b
e5
2f
21
02
a8
60
aa
d9
26
af
2e
f3
09
1d
c8
ac
3a
36
d6
33
4d
72
87
b3
63
d6
19
3a
27
23
39
34
74
5c
bb
9d
e6
7d
1d
38
55
ff
f8
96
a0
50
ab
ce
6f
20
47
88
d4
74
dd
0d
e9
49
b0
3b
00
73
62
44
46
31
b4
62
86
cb
c6
3f
29
9d
22
40
0d
8b
bc
64
0d
76
1e
55
15
18
8b
6a
c0
9e
64
27
09
a7
f5
43
31
41
5a
8b
a2
75
15
87
66
d9
b0
18
1d
37
14
1a
14
68
c6
3d
41
07
10
1c
26
03
5c
c2
5f
0c
0d
c2
a1
50
57
9c
46
60
5a
d8
2e
ee
7a
6b
4c
5b
c0
90
2b
63
56
ee
2b
48
9b
27
7f
53
27
cb
f2
fe
82
dd
ff
8c
12
4b
87
07
c4
f8
62
01
0e
a4
67
a5
ec
4e
78
7b
16
ae
8e
b3
0c
57
c5
26
4d
93
5a
bf
a7
db
8b
00
ca
a4
1c
2d
0c
a3
16
50
22
aa
a9
f1
0d
9f
ca
a5
72
f8
61
b7
88
1f
f4
33
18
07
ed
4c
05
48
fa
c8
de
6c
91
e2
1b
c0
4f
d6
b6
9f
b4
f4
ce
64
58
4c
bd
6a
d3
b1
99
a5
1e
a8
ab
b0
3e
59
62
88
c4
42
27
f5
4e
c0
ab
67
a7
13
02
45
49
2d
49
bb
83
ad
da
e7
1d
d1
2c
7e
0c
4f
06
aa
93
1c
2b
13
36
63
3c
f7
6a
7b
b8
2a
4e
cd
c9
89
e7
91
f0
26
50
f0
7d
57
dc
10
f3
fb
db
93
c1
f2
7d
e8
d8
b5
75
f4
20
a9
31
37
a5
d9
e2
d4
2c
f5
01
b3
b1
e6
76
fc
4f
e2
2f
18
a3
67
a0
3b
9c
5b
f8
02
4f
e5
e6
21
14
f7
be
5c
18
28
28
12
1a
6f
d2
66
8a
cb
b5
b6
b3
c9
39
da
d6
4a
2c
d1
2e
84
a5
f4
eb
d9
f7
0a
a4
81
f8
44
10
fe
e3
28
2d
e9
08
83
eb
69
39
71
31
e5
ee
ac
86
b6
a4
fd
e7
22
67
e1
c3
3d
d2
68
04
0a
11
58
fa
d6
96
da
d6
8c
06
fb
07
4a
19
7f
e4
65
f0
cb
3e
7d
36
6a
17
de
56
7d
4b
45
9c
e6
28
b4
b3
35
93
a8
30
7b
c4
b4
40
1d
4f
61
e5
a7
a3
a4
a6
3f
1d
47
57
ab
4f
30
0a
fa
7a
11
ce
f3
68
4a
38
cb
b4
df
13
df
1a
79
e1
6f
53
83
7c
8d
a8
33
35
4e
e5
84
22
c0
e7
13
88
93
e7
b6
4f
ed
3d
d2
0c
b2
09
4b
6b
42
72
e3
53
f5
e9
b2
d2
cb
c4
ae
21
a6
07
87
05
37
b7
df
46
23
53
e0
c5
5e
b7
73
06
8f
b5
e7
5e
11
7e
44
29
47
c7
66
e9
14
1d
0e
29
65
a9
ed
85
73
29
ed
fb
ce
2a
c8
d8
ef
f5
20
29
fb
89
b3
d4
42
7c
8f
0b
3a
aa
23
33
c7
0d
cd
29
8b
5f
a8
be
f4
ab
29
dd
1a
d9
6b
fe
22
a1
f6
74
97
00
b2
e6
58
b9
62
b0
e4
ba
3e
90
c3
a6
c0
e6
42
a1
4b
09
84
f7
e5
e7
9f
78
e5
9d
65
0e
f7
52
61
42
7d
5d
67
7d
31
0b
ae
02
2c
df
b2
05
3b
60
e2
67
88
15
c9
97
cb
71
63
7b
8c
34
dd
56
3b
30
31
0d
fd
94
fa
c1
1c
fe
8b
f7
23
6c
fd
03
39
65
9b
35
62
77
c9
ab
9f
42
dc
4c
36
2e
46
fd
7b
93
ab
f2
04
9e
7d
9a
b7
2e
4c
c4
ba
c9
06
c4
50
19
8a
61
68
7e
0e
17
b7
d5
b3
f7
b1
f0
13
c0
b7
78
8d
f2
6c
e0
f7
a5
e1
8e
85
08
83
95
12
c0
6a
e6
ed
2f
2c
e9
6b
f7
c9
d3
a3
34
71
ae
a7
17
46
da
ca
23
24
8d
b8
d6
48
6a
17
f6
b1
d3
6c
fa
d1
ef
9f
dc
ef
e5
92
f4
05
97
ab
9a
3c
c4
20
25
53
a1
43
21
78
d6
be
9b
90
f0
12
8c
00
f9
28
2d
3b
d3
9d
e0
b5
c3
e9
ee
79
5a
96
87
1a
33
37
c5
6c
65
0f
89
8b
00
23
ed
60
51
bb
1e
0a
63
96
45
87
e0
39
60
54
b7
9b
05
af
94
69
9e
18
23
1e
aa
46
58
45
31
b4
73
e4
