0000000000002a3d
0000000000002f84
0000000000000d70
00000000000035c1
ffffffffffffe2b9
00000000000000f6
0000000000002e13
0000000000000cf5
000000000000168f
0000000000000733
ffffffffffffd63e
0000000000002e8e
fffffffffffff852
0000000000002fff
0000000000003a8e
ffffffffffffd35d
0000000000001ccc
ffffffffffffff85
00000000000032e0
0000000000000733
ffffffffffffcab9
0000000000001e3d
00000000000024f5
fffffffffffff4f6
0000000000000c00
ffffffffffffc30c
0000000000002309
00000000000012b8
00000000000037ad
00000000000025eb
00000000000007ae
000000000000063d
