0169b1ea
0169b1ea
0169b1ea
0169b1ea
0169b1ea
0169b1ea
0169b1ea
0169b1ea
0169b1ea
0169b1ea
0169b1ea
0169b1ea
0169b1ea
0169b1ea
0169b1ea
0169b1ea
0169b1ea
0169b1ea
0169b1ea
0169b1ea
0169b1ea
0169b1ea
0169b1ea
0169b1ea
0169b1ea
0169b1ea
0169b1ea
0169b1ea
0169b1ea
0169b1ea
0169b1ea
0169b1ea
0169b1ea
0169b1ea
0169b1ea
0169b1ea
0169b1ea
0169b1ea
0169b1ea
0169b1ea
0169b1ea
0169b1ea
0169b1ea
0169b1ea
0169b1ea
0169b1ea
0169b1ea
0169b1ea
